#version: 0.2 - Trained by `huggingface/tokenizers`
Ë Ī
É Ļ
É ª
Ë Ĳ
ÉĻ ÉĻ
ËĪ É
ËĪ a
É ¹
ËĪa Éª
Ê Ĭ
i ËĲ
ËĪÉ Ľ
Ġ Ã
Ê Į
u ËĲ
Ġ ËĪ
e Éª
ËĪ iËĲ
Ë Į
Ġ ÉĻÉĻ
Ġ w
ĠÃ °
Ġ m
o ÊĬ
Ġ j
ËĪ Éª
Ã ¦
Ġ s
Ġ b
ĳ ËĲ
Ġ t
Ġ É
Ġ ËĪaÉª
ËĪ Ã¦
ËĪ ÊĮ
ËĪÉ ĳËĲ
ËĪ eÉª
Ġ d
ËĪ oÊĬ
ËĪÉ Ķ
Ġ l
Ġ h
Ġ n
n d
Ġ ÉĻ
Ġ k
ĠÃ° ÉĻ
Å ĭ
ĠÉ ¡
Ġ f
Ġj uËĲ
Ê ĥ
Ġ Éª
ĠÉĻÉĻ ÉĻÉĻ
É ļ
ÉĻ n
Éª n
ËĪ uËĲ
ĠÃ ¦
ËĪa ÊĬ
ĠËĪ eÉª
ËĪÉĶ ËĲ
Éª Åĭ
ËĮ ÉĻ
Ġ p
ĠÉĻÉĻ ÉĻ
s t
ĠÉª t
É ¾
Ġ É¹
ĠÃ¦ nd
Ġt uËĲ
' t
Ġm ËĪaÉª
ËĪ ÉĻ
Ġm ËĪiËĲ
Ġ (
ÉĻ l
ËĪÉĶ n
ľ ËĲ
Î ¸
ËĪÉĽ s
Ê Ĵ
ĠÉĻ ËĮÉĻ
ËĮ ÊĮ
ËĮ É
ËĪÉĽ m
É ¡
ËĲ É¹
ÉĻÉĻ ÉĻ
Ġ Êĥ
ËĪÃ¦ t
ĠËĪ ÉĻ
Ġn ËĪoÊĬ
ËĪ ÊĬ
ËĮÉ Ľ
ĠËĪ Éªn
ËĪÉ ľËĲ
Ã °
Ġl ËĪaÉª
ËĪÉĶËĲ l
ĠÃ° ËĪÃ¦t
ËĪÉĽ l
µ »
á µ»
ËĪÃ¦ n
ËĪÊĮ n
Ġs t
ËĮÊĮ t
ËĪÉĳËĲ t
ËĪÉĽ t
Ġ ËĪÉĶn
Ġd ÊĴ
ËĪÉĳËĲ É¹
ĠËĪ oÊĬ
ËĪÉĳËĲ n
ËĪÉĽ v
Ġ ÊĮ
t Êĥ
ĠËĪ ÊĮ
ÊĬ É¹
Ġw iËĲ
Ġ Î¸
Ġj ÊĬÉ¹
ĠÉ Ĳ
Ġ ËĪÉĶËĲl
ËĪeÉª k
ËĪÉĽ É¹
ĠÊĮ v
Ķ ËĲÉ¹
Ġb ËĪiËĲ
ËĪÊĮ m
ĠÉĻÉĻÉĻÉĻ ÉĻ
ËĪÉª l
ÉĻ m
ËĪ o
ËĪÉª s
ĠlËĪaÉª k
ËĪÉĽ n
ËĪÊĮ v
Ġd ËĪÉĳËĲn
ËĪaÊĬ t
Éª Ã°
ËĪaÉª t
Ġw ÉªÃ°
ËĪÉĽ h
ĠËĪÊĮ p
Ġk ËĪÃ¦n
ËĪÉª Åĭ
Ġl ËĪÊĮv
ÉĻ s
É ĶËĲÉ¹
ËĪÊĮ st
Ġj ÉĻ
Ġf ÉĶËĲÉ¹
ÉĻ t
Ġs ËĪoÊĬ
ĠÉª z
Ġ '
ËĪo ËĲÉ¹
ËĪÊĬ d
Ġw ËĪÉĶn
ËĮ iËĲ
ËĪÃ¦ k
Ġb ËĮÊĮt
l d
ĠÉ¡ ËĪÉĳËĲt
ÉĻ d
Ġj ËĪÉĽh
ĠÉĻÉĻÉĻÉĻ ÉĻÉĻ
ĠdÊĴ ËĪÊĮst
ËĪÉª É¡
ËĮÉĽ n
ĠÉ¡ ËĪoÊĬ
Ġt É¹
ÉĻ k
ĠÃ° ËĪÉªs
ĠËĪ ÉĻÉĻÉĻ
Ġd ËĪuËĲ
Ġh ËĪÃ¦
ËĪÉĽ d
ËĪÉª É¹
ÉĻ z
ĠÉ¡ ËĪÉĽt
Ġw ËĪÊĮn
Ġw ËĮÊĮt
Ġf É¹
ËĪÉĽv Éļ
Ġs ËĪiËĲ
ËĪaÊĬ n
ĠÉĻ ËĪ
Ġw ËĮÉĽn
É¹ ËĮiËĲ
ËĪeÉª b
Ġt Êĥ
Ġs ËĪeÉª
ĠÃ° eÉª
Ġh ËĪoÊĬ
ËĪÉª t
l i
Ġn ËĪaÊĬ
ĠÊĥ iËĲ
Ġb É¹
Ġw ËĪeÉª
Ġ ËĪaÊĬt
Ġn ËĪÉªÉ¡
ËĪiËĲ l
ĠÉĻËĪ ÉĻÉĻÉĻ
Ġt ËĪaÉª
ËĮÉĽ l
ËĪiËĲ p
ĠÉª f
ËĮÉĽl ËĪÉĽl
k s
Ġb ËĪeÉªb
ËĮ Ã¦
ËĪÊĮ k
É Ĳ
Ġp l
É¾ ÉĻ
ËĪÉĳËĲ p
Ġd É¹
É ľËĲ
ËĪaÉª d
ËĪiËĲ d
Ġb l
ĠÎ¸ ËĪÉªÅĭ
Ġl ËĪÉĽt
Ġd ËĪaÊĬn
ĠbËĪeÉªb i
Ġk ËĪÊĮm
Ġn ÉĻ
ĠËĪ Ã¦
ĠwËĪÉĶn t
É¾ i
Ġw ÊĮ
ĠtËĪaÉª m
Ġ a
Ġk É¹
Ì ĥ
ĠËĪeÉª n
Ġf ËĪiËĲl
ËĪÉĽv É¹
ËĮ Éªn
ĠÉĻÉĻ ËĪÉĻ
d i
ĳËĲ É¹
Ġt ÉĻ
Ġ ËĪÉĽvÉ¹
ÉĻn t
É¾ Éļ
ËĪiËĲ z
ĠÉĻ ËĪÉĻ
ËĪÉĶËĲ É¹
Ġm ËĪeÉªk
Ġm ÉĻ
ËĪÉĶËĲ z
a Éª
ĠwÊĮ z
ĠÉĻ t
Ã° Éļ
ËĪÉª tÊĥ
ĠÉĻÉĻ ËĮÉĻ
Ġw ËĪaÉª
Ġp É¹
ËĪaÊĬ nd
Ġw ÉĻ
ÉĻÉĻ ÉĻÉĻ
ËĪÉª v
Ġb ËĪÃ¦k
ËĪÉª k
Ġn ËĪÉĽvÉļ
ËĪÉĶ Åĭ
ËĪÊĬ k
ËĪÉĳËĲÉ¹ t
Ġw ËĪÉľËĲ
d ÊĴ
Ê °
ËĮÉĽ m
Ġt ËĪeÉªk
ÉĻ Åĭ
v ËĪiËĲ
Ġt ËĪuËĲ
ËĪeÉª n
Éļ É¹
Êĥ ÉĻn
ĠËĪ ÉĻn
ËĮ ÉĻn
ËĪeÉª m
Ġs ËĪÊĮm
Ġk l
Ġn ËĪÉĳËĲt
ÊĮ m
Ġh ËĪÉªÉ¹
ËĪÉĽ nd
ĠÃ° ËĪÉĽÉ¹
ĠwËĪÉĶn ÉĻ
t s
Ġh ËĪaÊĬ
Ġf ËĪÊĮk
Ġs p
Ġf l
ĠÃ¦ t
Ġh ÉľËĲ
Ġp ËĪÊĬ
Éª k
ËĪÉª n
Ġm ËĪÉĻ
Ġh iËĲ
ĠÉĻt Ê°
ĠfÉ¹ ÊĮm
Ġs k
ĠÎ¸ É¹
ËĪÉľËĲ l
ËĪeÉª s
Ġn ËĪiËĲd
ËĪÉĽ k
ĠÉ ¾
Ġb áµ»
ĠÉ ĳËĲÉ¹
ËĪÉª p
áµ» d
ĠhËĪÃ¦ v
ËĪÉĻ t
ĠÉ¡ ËĪÉľËĲl
Ġf ËĪaÉª
ĠÉ¡ É¹
ĠËĪ iËĲ
ËĪÉª d
ĠnËĪÉªÉ¡ ÉĻ
ËĪoÊĬ n
ĠÉ¹ ËĪaÉªt
Ġb ËĪÉªtÊĥ
Ġa nd
Ġ v
Ġt ËĪÉĽl
Ġb ËĪÃ¦
Ġd ËĪeÉª
ËĪÉĶËĲ k
ËĪÉĳËĲ k
b ËĪaÊĬt
ĠÉĻÉĻÉĻÉĻ ÉĻÉĻÉĻ
k ËĪÉĶËĲz
ËĪ i
ËĪÉĶ Éª
Ġl ËĪÊĬk
ËĪiËĲ v
É Ľ
ËĪuËĲ z
ĠÉ¡ ËĪÉĳËĲ
ËĮ Éª
ËĪeÉª d
ÉĻ v
Éļ z
Éª t
Ġw ËĪÉªl
f t
Ġst É¹
áµ» z
Ġb ËĮÉªn
Ġk ËĪÊĬd
ĠÉª n
ÉĻ nd
Ġs l
ËĪÉľËĲ n
ËĪiËĲ n
ËĪÉĳËĲ m
ĠÎ¸ËĪÉªÅĭ k
ĠÊĥ ËĪÉªt
ĠËĪÉĽvÉ¹ Éª
ĠlËĪaÉª f
Ġ ËĮÊĮ
Ġm ËĪÃ¦n
Ġh ËĪeÉª
É¾ ÉĻl
ĠÉ¹ áµ»
ĠËĪoÊĬ n
Ġk ËĪiËĲp
Ġw ËĪÉĽÉ¹
ĠÉ¡ ËĪÉªv
ËĪÃ¦ nd
ËĮÉĻn ÉĻ
Ġ "
É¾ ÉªÅĭ
ĠÉ¡ ËĮÉĻnÉĻ
ÉĻ p
Ġn ËĪaÉªt
ËĪa t
Î¸ ÉªÅĭ
ĠnËĪÉªÉ¡ ÉĻz
ËĪÃ¦ st
ËĮ eÉª
Ġs w
É ĳËĲ
ËĪÉĽ st
ĠÃ¦ z
Ġh ËĪÉĳËĲÉ¹t
Ġb ËĪaÉª
v Éļ
ĠÉĻ v
Ġh ËĪuËĲ
ËĮ oÊĬ
ĠËĪ uËĲ
ËĮÊĮ m
ĠÉĲ w
nd ÊĴ
ËĪiËĲ m
Ġs ËĮÊĮm
ËĪÊĮn i
Ġm ËĪÊĮ
ËĪÉĽn t
ËĮ a
ĠÃ° ËĮÉĽm
Ġm ËĪoËĲÉ¹
ËĪÉĶ f
ĠÉ¹ ËĪoÊĬ
ĠÃ° ËĪÉĽn
Ġl ËĪÉª
s k
ĠÉĲ bËĪaÊĬt
ÉĻ st
ËĪÉª z
ĠÃ° ËĪat
É¹ ËĪaÊĬnd
ËĪoÊĬ k
ËĪiËĲ t
Ġ ËĪÉĶf
ĠÉĲw ËĪeÉª
ĠÉ¡ ËĪÊĬd
ËĪÃ¦ m
ÉĻl i
ĠÉ¹ ËĪÊĮn
Ġb ÉĻ
Ġk ËĪÉĶËĲl
Ġs m
ËĪÃ¦ p
Î ²
ËĪeÉª t
ĠÎ¸É¹ ËĪuËĲ
ËĪÊĮ Åĭ
Ġn ËĪuËĲ
Ġh ËĮÃ¦
ĠÉ¡ ËĪÉĻt
ĠÉ¹ ËĪiËĲ
j ËĪuËĲ
Ġw ËĪÊĬd
ĠÃ° ËĪiËĲz
ËĪoÊĬ ld
ĠÉĻ l
Ġst ËĪÉªl
Ġs ËĪÉĽd
Ġl ÉĻk
ĠÉ ļ
Ġn ËĪÊĮ
ĠËĪoÊĬn li
ËĪa n
Ġh ÉĻ
ĠÉĲ É¡
ĠÉ ĶËĲÉ¹
Ġb ËĪÉĳËĲ
ËĮÉĻ t
ĠhËĮÃ¦ d
ËĪaÉª n
ĠÉĲ l
ĠtÉ¹ ËĪaÉª
Ġd ËĪÉªd
' d
ĠhËĪoÊĬ m
nd Éļ
Ġm ËĪuËĲ
ËĪÃ¦n s
ËĪÃ¦ Åĭ
j ËĪÉĽh
ĠwËĪÉľËĲ ld
ËĮÉ ĳËĲ
ĠÉļ É¹ËĪaÊĬnd
Éª s
ĠËĪÉĽvÉ¹ i
ĠËĪoÊĬ vÉļ
Ġd ËĪaÉª
ĠËĮÊĮ s
Ġb ËĪÉĽ
w eÉª
ËĪÉĳËĲÉ¹ d
ĠpËĪÊĬ t
Ġm ËĪÊĮni
ĠÉĲÉ¡ ËĪÉĽn
ĠlËĪÉª É¾ÉĻl
' ,
É¹ i
ËĮ ÉªÅĭ
ËĪÉĳËĲ l
Ġt ËĪÉĶËĲk
Î¸ ËĮÉªÅĭ
ĠÉ¡ËĪÉĳËĲ É¾ÉĻ
ÉĻv ÉĻ
ËĪaÉª nd
Ġb ËĪÉĶÉª
Ġd ÉĻ
ËĪÉª st
ËĪeÉª z
É £
ĠÉĻ n
Ġd ÉĻn
ĠÃ° ËĪÉĻ
ÊĬ Éļ
v ÉĻn
ĠmËĪaÉª nd
b ÉĻl
ĠhËĪoÊĬ ld
ĠhËĪÃ¦ nd
Ġt ÉĻn
Ġl ËĪÉĶÅĭ
ËĪÉĶËĲ t
Ġm ËĪÃ¦
ĠÉ¹ËĪiËĲ ÉĻl
ËĮ aÉª
Ġ ËĮa
Ġw ËĪÉª
Ġh ËĪaÉª
ĠËĮa ÊĬÉļ
ËĪoÊĬ z
ËĪÉĽl f
ËĪi ÉĻli
ĠbËĪÉĽ É¾Éļ
ËĪeÉª ndÊĴ
Ġw ËĪÉĽl
Ġl ËĪiËĲv
Ġpl ËĪeÉª
ĠÉĻÉĻÉĻÉĻÉĻÉĻ ÉĻÉĻ
ĠÉ¹ ËĪiÉĻli
Ġ ËĪÉĽvÉļ
Éª st
Ġf ÉĻ
Ġj ÉĲ
Ġst ËĪeÉª
ËĪiËĲ k
f ËĪoËĲÉ¹
ËĪuËĲ l
m z
weÉª z
Ġk ËĪÊĮ
ÉĻn s
ËĪaÉª v
Ġf ËĪÉĶËĲl
Ġh ËĪÉªz
Ġh ËĪÉĽd
Éª d
b ÉĳËĲ
ĠÃ¦ m
ÉĲ n
Ķ ËĲ
Ġst ËĪÉĳËĲp
ĠËĪÉĶËĲl weÉªz
Ġt ËĪÉľËĲn
Ġ ËĪÉĽn
Ġl ËĮÃ¦
Ġl ËĪÉĽ
Ġw ÉĻn
Ġh ËĪÉĽl
bÉĳËĲ di
Ġbáµ» l
ĠÉ Ľ
ĠÉ¡ ËĪÉĳËĲn
ĠËĪiËĲ vÉĻn
ĠÊĮ n
ËĪÊĮ Ã°Éļ
Ġk w
Ġh ËĪÉĳËĲÉ¹d
ĠmËĪuËĲ v
ËĪÃ¦ s
ĠnËĪÊĮ Î¸ÉªÅĭ
s ËĪÉĽlf
Ġs ÉĻ
d z
Ġb ËĪÉĻ
Ġh ËĪÉľËĲ
Ġ ËĪÉĳËĲ
Ġ ËĮÉªn
ĠdÉ¹ ËĪiËĲm
ĠfËĪaÉª nd
ËĮÉª m
áµ» n
Ġn ËĪÉĳËĲ
ĠËĪaÉª z
ĠÃ¦ n
b Éļ
ĠÊĥ ËĪoÊĬ
Ġs ËĪÉª
ĠÉ¡ ËĪÉĽ
ËĪÊĮ f
Ġs ËĪÉĻ
Ġw ËĪÉĶËĲk
Ġk ËĪÉĶËĲz
Ġh ËĮÉªm
j uËĲ
ĠËĪÉĽvÉ¹Éª Î¸ËĮÉªÅĭ
ĠËĪÉĻ p
ĠbËĪÃ¦ d
k t
' m
ĠÃ° ÉĲn
ÉĽ É¹
Ġk ÉĻm
ĠlËĪaÉª v
ËĪÉĶËĲÉ¹ n
t ËĪÉªl
ĠwÉĻ Ã°
) ,
ÉĻn z
ĶËĲ l
Ġh ËĪÉªt
ĠÉĻ z
Ġm ËĪeÉªd
ĠËĮÉªn t
ËĪÉĳËĲt Êĥ
Ġw ÉľËĲ
ĠÊĥ ËĪÊĬd
ËĪeÉª ÊĥÉĻn
ËĪ ÉĻn
Ġs ËĪÊĮn
ĠÉ¡ËĪoÊĬ ÉªÅĭ
Ġb ËĪÉªÉ¡
ĠbÉ¹ ËĪeÉªk
ËĪÃ¦ Êĥ
Ġf ËĪeÉªs
ĠÉªn s
Ġh ËĪÊĮ
Ġd ËĪÃ¦ns
ĠÎ¸ËĪÉªÅĭ z
Ġk ËĪan
ĠfÉ¹ ËĪÉĽnd
ĠmËĪÊĮ tÊĥ
Ġl ÉĻt
ĠtÉĻn ËĪaÉªt
Éļ d
Ġst ËĪÉĳËĲÉ¹
Ġs ËĪÉªÅĭ
ĠsËĪÊĮm Î¸ÉªÅĭ
ÉĻl z
É¾ áµ»d
ĠÉ¡ËĪÉĳËĲ d
ĠÉ¡ l
ËĪÊĮ tÊĥ
Ġd áµ»
ĠtÊĥ ËĪeÉªndÊĴ
ËĪÊĮ z
Ġl ÉĻvÉĻ
ËĪeÉª v
ĠÉ¡ ËĪÉĶn
ĠÉĻ f
f É¹
ËĪoÊĬ s
Ġw ËĪÉĳËĲtÊĥ
ĠÉ¹ ËĪÉĽd
Ê Ķ
p ÉĻn
ËĪÉĽ ks
Ġ ËĪa
Ġt w
ĠÉ¹ËĪoÊĬ l
Ġbáµ»l ËĪiËĲv
ĠËĮÉªnt ÊĬ
ĠÊĥ ÉĻ
ËĪ y
ÊĶ n
l ÉĻ
ĠlËĪaÉª t
É¾ ÉĻm
ĠtÉ¹ ËĪuËĲ
Ġbáµ» fËĪoËĲÉ¹
Ġw ËĪoÊĬ
ĠjÉĻ h
Ġn ËĪeÉªm
p t
Ġp ËĪiËĲp
b ËĮÉĳËĲ
Ġw ËĪÉĻ
ËĪÉĳËĲÉ¹ k
ĠÉ¹áµ» m
ĠkÉ¹ ËĪaÉª
! )
bËĮÉĳËĲ di
ËĪaÉª l
Ġl ËĪeÉª
ÉĻl d
É¡ z
p l
ĶËĲl É¹
ĠfËĪiËĲl ÉªÅĭ
Ġ ËĪÉĽnd
ËĪÉĶ st
Ġb ËĮÉĻt
ÉĻ f
ĠdÊĴ ÉĻst
ËĪÉĳËĲ b
ĠsËĪeÉª m
ĠÉ¹ ËĪaÉªd
Ġd ËĪÉĳËĲ
ËĪÊĬ É¹
ĠwËĪÉľËĲ k
ËĪÃ¦ d
Ġw ËĪÊĮ
ËĪÉª m
ĠÉĲ n
ĠpËĪiËĲp ÉĻl
ĠËĪÉĽn Éª
ĠËĪoÊĬ ld
ĠÉ¹ ËĪÉĳËĲk
ËĪiËĲn ÉĻ
Ġk ËĪÉªl
ĠÉ ĶËĲlÉ¹
ĠÉĲl ËĪoÊĬn
Ġj ËĪÊĮÅĭ
Ġd ËĪÊĮn
Ġf ÉĻl
Ġt ËĪoÊĬld
m ÉĻn
ĠÉĲn ËĪÊĮÃ°Éļ
ĠÃ°ËĪÉĻ s
ĠlËĪÉĽ ft
ËĪuËĲ m
â Ģ
ĠbËĪÉĳËĲ di
ËĪa k
Î² ÉĻ
ĠwËĪeÉª t
Ġst ËĪÃ¦nd
Ġl ËĪÃ¦st
ËĪaÉª z
n ÉĻs
s i
Éª m
Ġm ËĪoÊĬ
ĠmËĪiËĲ n
Ġj ËĪoÊĬ
ËĪÃ¦t Êĥ
f ÉĻl
? )
Ġt ÉĻk
Ġm ËĪÉĳËĲm
ËĪiËĲ s
Ġk ËĪÉĽÉ¹
Ġb Éªk
Ġpl ËĪeÉªs
Ġl ËĪÉªv
Ġm ËĪÉĽn
ĠtÉ¹ ËĪiËĲnÉĻ
ËĪÉªÉ¹ z
Ġs ËĪuËĲ
Ġ [
ÉĻÉĻ ÉĻÉĻÉĻ
k ËĪeÉª
Ġs ËĪaÉªd
ĠmËĪaÉª t
Ġ ËĪÉĽl
ĠfÉ¹ ËĪiËĲ
ĠËĪÃ¦ s
ĠÉªns ËĪaÉªd
ËĪeÉªz i
ËĮÉ ĳËĲÉ¹
ËĪuËĲz d
ËĪoÊĬ l
Ġp ËĪeÉª
Éļ É¡
Ġs ËĪÉĶÅĭ
nd É¹
Ġw ËĮÉĻt
ĠhËĪoÊĬ l
Ġm aÉª
ĠbÉ¹ ËĪÉªÅĭ
ĠsËĪÊĮm w
ĠwËĪÉª Êĥ
ĠËĪÉĽvÉ¹Éª bËĮÉĳËĲdi
É£ ËĪa
ĠÉ¹ ËĪÉĶÅĭ
ËĪÉĽk st
ĠmËĪaÉª n
i z
o ËĲÉ¹
ËĪÉľËĲ st
ËĪÉªÅĭ k
Ġh ËĪÉĻ
Éª z
ËĪÉĽÉ¹ i
ĠmËĪÊĮ Ã°Éļ
Ġpl ËĪiËĲz
ĠÉ¡ ËĪeÉªm
ĠËĪÊĮ Ã°Éļ
ĠnÉĻ É£ËĪa
ĠwÉªÃ° ËĪaÊĬt
ËĮÉĻ m
ĠhËĪoÊĬ p
j ÉĻ
Ġk ËĪeÉªm
h ËĪÊĮ
ËĪÉĽv ÉĻn
Ġf ÉļÉ¡
ËĪÊĬ l
ËĪÉĽm bÉļ
Ġh ËĪa
Ġ ËĪÉĽm
Ġm ËĪÉªs
ĠbËĪÉªtÊĥ áµ»z
ËĪÉĽ Ã°Éļ
Ġp ËĪÉĳËĲp
ĠsËĪoÊĬ l
ĠmaÉª sËĪÉĽlf
Ġ ËĮÉĽn
É¡ Éļ
Ġfl ËĪaÉª
Ġl ËĪoÊĬ
Ġs n
ĠpËĪÊĬ l
ËĪÊĮm p
ĠkÉ¹ ËĪeÉªzi
Ġbl ËĪÃ¦k
ĠwËĪaÉª l
Ġp ËĪÉľËĲ
ĠfËĪaÉª Éļ
Ġl ËĪÉĶst
ĠÎ¸ ËĪÉĶËĲt
ËĪÊĮn t
Ġp ËĪeÉªn
ËĪÉĳËĲ s
Ġw ËĮÉĻn
ËĮ uËĲ
Ġst ËĪÉĳËĲÉ¹t
Ġf ËĪoËĲÉ¹
Ġp ËĪÉªk
É¾ ËĮÉĻ
Ġ ËĪÉĳËĲÉ¹
Ġl ËĪuËĲz
Î¸ Éªn
Ġk ËĪÉĳËĲÉ¹
Ġh ÉĻt
Ġm ÉĻn
ĠÉªn ËĪÊĮf
Ġj ËĪuËĲzd
ÊĮ n
ËĪÉª ks
ĠkËĪÊĮm ÉªÅĭ
p Éļ
ĠnËĪoÊĬ bÉĳËĲdi
Ġb ËĪÉľËĲn
ĠhËĪÃ¦nd z
ĠÉ¡ ËĪÉĻ
m ÉĻnt
ĠËĪÃ¦ sk
Ġkl ËĪoÊĬs
ËĪÉĶËĲÉ¹ d
Ġsl ËĪiËĲp
p É¹
ĠËĪaÉª i
ËĪaÊĬ d
ËĪÉĽk t
ĠsËĪiËĲ n
Éª dÊĴ
ĠbÉ¹ ËĪoÊĬk
ĠËĮÊĮ ndÉļ
ĠfËĪaÉª n
Ġj ËĪuËĲ
Ġt ËĪÊĮtÊĥ
Ġf ÉĻk
ËĪÊĮ b
Ġb ËĪÉĽst
ËĪaÉª s
ĠÉĻËĪ ÉĻÉĻÉĻÉĻ
Ġm ËĪeÉªb
Ġf ÉļÉ¹
w ÉĻ
ĠhËĪÃ¦ p
l ËĮÃ¦
v ÉĻ
Ġf ËĪÉľËĲst
ĠÉ¹ ËĪeÉªn
Ġd ËĪÃ¦m
k É¹
ĠlËĪÊĬk ÉªÅĭ
ĠdËĪÉªd ÉĻn
ĠÉ¹ ËĪÃ¦p
ĠÉ¹áµ»m ËĪÉĽmbÉļ
tÊĥ Éļ
ĠÉ¡ËĪÉĽ É¾ÉªÅĭ
ËĪaÊĬn t
ËĪeÉª l
ĠÉª m
ĠdÉ¹ ËĪÉĳËĲp
ĠfÉļÉ¹ ËĪÉĽvÉļ
ËĪÊĮ É¡
ĠÎ¸É¹ ËĪoÊĬ
Ġs ËĪÉľËĲ
Ġs ËĪÉªn
ĠbÉªk ËĪÊĮz
Ġk ËĪÉªs
ĠÊĥ ÉĻt
Ġp ËĪÉĳËĲÉ¹
ËĮÊĮ k
ËĪÃ¦Åĭ k
ĠdËĪeÉª z
Ġk ËĪÉĳËĲm
Ġt ËĪÉĳËĲp
Ġ -
f ËĮÊĮk
Ġk ÉĻl
ĠmËĪeÉªb iËĲ
ËĪÊĮ bÉĻl
ËĪÃ¦ l
ft Éļ
Ġsk É¹
ËĪÊĮ d
Ġd ËĪoËĲÉ¹
Ġf ËĪÉĳËĲÉ¹
n ËĪÉĳËĲ
ÉĻd ÉĻ
a ÊĬ
ĠÉĶËĲlÉ¹ ËĪaÉªt
ËĪÉĽ p
ĠsËĪÊĮmw ÊĮn
É¾ ÉĻt
ĠfÉ¹ËĪÉĽnd z
Ġj ËĪÉĽs
ĠbÉĻ Î²ÉĻ
Ġk ËĪoÊĬld
ĠÉĽ ks
ĠhËĪeÉª t
Ġl ËĪÉĳËĲt
Ġd ËĪÉĳËĲÉ¹k
l ÉĻs
Ġb ÉĻt
ĠÉĻÉĻÉĻÉĻÉĻÉĻ ÉĻÉĻÉĻ
ËĪÉĽ Êĥ
ĠÊĥ ËĪaÉªn
Ġ z
ĠbËĪiËĲ t
b É¹
Ġh ËĪÉĳËĲ
ĠhËĪÃ¦ z
j ËĪuËĲz
p ÉĻl
ĠÃ° ÉĽÉ¹
É¡ ËĪÉĽÃ°Éļ
ËĮÉĽm ËĮÉĽm
ĠÉ¹ËĪÉĽd i
ĠhËĪÉĽl p
ĠÃ° ËĮoÊĬ
ËĪÉĶËĲ É¾Éļ
ËĪÉªl i
ĠsËĪÊĮm bÉĳËĲdi
ĠtÉĻ É¡ËĪÉĽÃ°Éļ
ĠpËĪÉĳËĲÉ¹ É¾i
ĠmËĪÉĻ k
Ġw ÉĻnt
ÉļÉ¹ i
Ġb ËĪoÊĬ
Ġbl ËĪuËĲ
ÉĻl ÉĻl
Ġd ËĪiËĲp
ĠÉ¡ËĪÉľËĲl z
Ġw ÉĻz
ĠlËĪaÉª n
ËĪÉĶ s
ĠsËĪÉª É¾i
ĠmËĪÉĽn i
ÉĻÉĻ Åĭ
t aÉª
Ġf ËĪÉĽl
Ġsk ËĪaÉª
Ġsw ËĪiËĲt
É¹ oÊĬ
ÊĬ d
Ġd ËĪÉª
Ġsm ËĪoÊĬk
ĠwËĪÉª nd
ĠfËĪÊĮk Éªn
Ġbl ËĪoÊĬ
oÊĬ kËĪeÉª
ËĪuËĲ p
ĠÎ¸É¹ ËĪiËĲ
Ġd ËĪÉĽd
É¡ É¹
Ġk ËĪaÉªnd
Ġl ËĪÉªl
Ġt ËĪÊĬk
ĠsËĪeÉª v
Ġsl ËĪoÊĬ
Ġt ËĪiËĲ
Ġd ËĪÉĻn
Ġw ËĪÉĶËĲÉ¹
ËĪÉªs ÉĻn
? ]
Ġp ËĪiËĲs
ËĪÃ¦k s
n ËĪoÊĬ
ĠbÉĻ tÊĥ
ĠËĪÃ¦ ftÉļ
Ġl ËĪoÊĬn
ĠÉĻÉĻÉĻÉĻÉĻÉĻ ÉĻÉĻÉĻÉĻ
Ġs ËĪaÊĬnd
Ġf ËĪÉĶËĲÉ¹
ĠwËĪeÉª É¾ÉªÅĭ
ĠÊĥ ËĪuËĲ
Ġk ËĪÉªd
ĠËĪiËĲ z
Ġm ËĪÊĮst
Ġf ËĪaÊĬnd
ËĪÉĽnt i
Ġl ËĪeÉªt
Ġst ËĪoËĲÉ¹
É¾ ËĪy
Éª É¾i
Éª Êĥ
Ġh ÉĻl
ĠÉ¡ ËĪÃ¦Åĭ
Ġh ËĪÉĳËĲt
Ġk ÉĻnt
ĠÉ¡ ËĪÊĮn
ĠmËĪÊĮÃ°Éļ fËĮÊĮk
Ġf ËĪaÉªt
É¾ÉĻ nd
ËĪÉª É¾i
Éª É¡
Ġm ËĪÉĶËĲÉ¹n
ËĪaÊĬ Éļ
ËĪÉª ft
ĠtËĪaÉªm z
Ã° ÉĻ
ËĪÉªl d
ËĮoÊĬ Éªn
ËĪÉĽ ËĲ
Åĭ k
ĠnËĪoÊĬ z
ÉĻm ÉĻnd
ĠÃ° ËĪoÊĬz
ËĪÃ¦ É¡
ĠËĪoÊĬ pÉĻn
ĠpÉ¹ ËĪÉĳËĲb
ĠÊĥ ËĪÉĳËĲt
ĠhËĪaÊĬ s
ĠÉ¡ ËĮoÊĬÉªn
Ġ[ ?]
ĠmËĪÉĳËĲm ÉĲ
ĠËĪÃ¦ kt
Ġb ËĪak
ËĪÃ¦n t
Ġl ËĪÉĶËĲÉ¹d
ĠkËĪÊĮm z
Ġl ËĪÉªsÉĻn
ĠhËĪÉľËĲ d
âĢ Ķ
ËĪÉĽ z
Ġk ËĪÃ¦
ĠmËĪÃ¦ É¾Éļ
Éª ts
j ËĪÉĽËĲ
ĠÉ¡ËĪÉĽ ÊĶn
ËĪÉĽ Î¸
ĠËĪÉĽl s
Ġn ËĪÉĽkst
ĠËĮÊĮndÉļ st
ĠlËĪÉªv ÉªÅĭ
t É¹
ĠÊĮn tËĪÉªl
ĠnÉĻ v
Ġa ÊĬ
ĠÊĥ ËĪÊĬÉ¹
ËĪÉªp s
l ÉªÅĭ
d ÉĻ
d ËĪuËĲ
Ġw ËĪaÉªt
Ġb jËĪuËĲ
ĠtÊĥ ËĪÉĽk
ËĪÊĮÅĭ k
ĠÊĥ ËĪeÉªk
Ġb ËĪÉľËĲ
Ġsm ËĪaÉªl
ĠÉĻv É¾ËĪy
t ËĪiËĲ
ÉĻn k
ĠtÉ¹ËĪaÉª ÉªÅĭ
ĠdÉ¹ ËĪÉªÅĭk
Î¸ ÉĻÅĭ
d ËĪÉĳËĲ
h ËĪeÉª
ÉĻl ÉĻ
ĠnÉĻv ËĪo
ĠdÉ¹ ËĪaÉªv
ÉļÉ¹ ËĮÉª
ĠÉ¹ËĪoÊĬ d
ĠwËĪÊĮ ndÉļ
ĠÉ¡ËĪoÊĬ z
ĠfÉļÉ¡ ËĪÉĽt
Éª v
Ġk ÉĻn
ĠwÉĻn ËĪa
Ġt ÉĻd
ĠÉ¡ ËĪÉĽs
Ġw ËĪÉªn
Ġ oÊĬkËĪeÉª
Ġk ÉĻp
ĠlËĪoÊĬn li
ĠfËĪÊĮk ÉªÅĭ
ĠsËĪÊĮm taÉª
ËĪÃ¦k t
ĠËĮÊĮndÉļst ËĪÃ¦nd
ËĪi ÉĻ
ËĪÃ¦k Éªn
ËĪiËĲ ts
ĠhËĪoÊĬ z
ĠËĪÉĽvÉ¹Éª w
É¾ ÉĻk
jËĪuËĲz Éªk
ËĪÉľËĲ É¾i
ËĪÉĽd i
Ġf ËĪÃ¦st
ĠbjËĪuËĲ É¾i
ËĪÉªp Éªn
Ġt ÉĻl
ĠÉ¹ËĪÊĮn ÉªÅĭ
Ġt ËĪaÊĬn
Ġj oËĲÉ¹
Ġs ÉĻm
p s
ĠËĪÃ¦ n
h ËĪÉĳËĲ
ĠÉ¹ ËĪuËĲm
s p
ĠjoËĲÉ¹ sËĪÉĽlf
Ġm jËĪuËĲzÉªk
Ġm ËĪeÉª
Ġw ËĪÉĽnt
ĠËĪiËĲz i
ĠhËĪÉľËĲ t
ĠwËĪÊĮn s
ĠwËĪÉľËĲ dz
Ġn ËĪÉĻt
Ġl ÉĻ
ĠÉ¡ ÉĻd
Ġm ËĪÉĳËĲ
Ġs ËĪÉĽl
ĠdÉ¹ËĪiËĲm z
Ġb ËĪÉĽd
Ġh ÉĻd
Ġw ËĪÉĶËĲÉ¾Éļ
Ġk ËĪoÊĬ
ĠÉ¹ ËĪÉªtÊĥ
Ġ ËĪÉĽÉ¹
ĠÉ¾ ÉĻt
ĠdËĪuËĲ ÉªÅĭ
Ġs ËĪÉĽt
ĠpËĪÊĬ si
ĠÉĲ p
Ġd ËĪoÊĬ
Ġw ËĪeÉªk
ËĪÉĻ d
Ġs ËĪÉªk
ÉļÉ¹ËĮÉª sk
ĠsËĪÊĮmtaÉª mz
t Ê°
ĠËĮÉĽn i
Ġfl ËĪoËĲÉ¹
Ġk ËĪÃ¦tÊĥ
ÉĻ b
ËĪaÊĬ Î¸
É¾ ÉĻd
nd z
Ġa tÊ°
ËĮÊĮ n
ĠmËĪÃ¦ d
ĠlËĪaÉª ts
Ġb ËĪÊĮ
w ËĮÊĮt
ĠsËĪÉªn s
iËĲ n
m ÉĻs
Ġbáµ» h
oÊĬ z
ĠÉ¡ËĪoÊĬ ld
t Éļ
ĠdËĪaÉª ÉĻmÉĻnd
ĠfËĪiËĲl z
ĠdËĪÉª fÉ¹
Ġs ËĪÉĶËĲ
Ġfl ËĪoÊĬ
ĠÉ¡ ËĪeÉªv
Ġt ËĪÉªl
ĠmËĪÉĶËĲÉ¹n ÉªÅĭ
s l
Ġw ËĪuËĲ
ËĪÃ¦ b
Ġf ËĪoÊĬn
Ì ©
ĠÉĲ d
ĠstÉ¹ ËĪeÉªt
ËĮaÉª z
ĠstÉ¹ ËĪÉĶÅĭ
ĠnËĪÊĮ Î¸Éªn
ËĪaÉª m
b ËĪaÉª
Ġl ÉĻv
ÊĥÉĻn z
ËĪaÊĬ z
ĠËĪÉĽnÉª Î¸ËĮÉªÅĭ
Ġk ËĪuËĲl
ËĮeÉª t
Ġf É¾ÉĻm
ÉĻm z
Ġf jËĪuËĲ
Ġw ÉĻk
Ġh ËĪÉĽvÉĻn
Ġbl ËĪÊĮd
Ġp ËĪÃ¦
ĠËĪÊĮ ndÉļ
k ÉĻz
t w
Ġf ËĪuËĲl
ĠÉ¹ ËĪuËĲ
ĠtÉĻd ËĪeÉª
Ġh ËĪaÉªd
ĠkËĪÊĬd ÉĻn
Ġ ËĪÉľËĲ
Ġn ÉĻd
Ġs ËĪÉªt
ĠÉĻÉĻÉĻ ËĮÉĻ
ËĪÉľËĲ t
ĠÃ°ÉĻ n
ĠkÉ¹ ËĪÉªs
ËĪÊĬ mÉĻn
ËĪÃ¦ f
Ġs ËĪÉĳËĲÉ¹
ĠhËĪÃ¦p i
Ġk ËĪÉªÅĭ
Ġp ËĪÃ¦s
ĠtËĪÉĶËĲk ÉªÅĭ
Ġp ËĪÉĳËĲÉ¹t
Ġk ËĪaÊĬnt
hËĪÊĮ ndÉ¹
ĠÎ¸ËĪÉªÅĭk ÉªÅĭ
ĠkÉĻm ÉĻ
ĠÉĲl ËĪaÉªv
Ġw ËĪÊĬmÉĻn
Ġw ËĪiËĲk
ĠÉ¹ ËĪaÊĬnd
aÉª t
Éª l
ĠtËĪÉĶËĲk Éªn
Ġl ËĪuËĲ
É¡ ÉĻl
Ã¦ n
Ġt ÉĻm
ĠpÉ¹ ËĪÉªÉ¾i
ĠtÉ¹ËĪuËĲ Î¸
hËĪÊĮndÉ¹ ÉĻd
Ġf ËĪÊĬl
Ġw ÉĻt
ĠÉ¹ ËĪiËĲz
ĠpÉ¹ ËĪÉĳËĲm
Ġd ËĪÉªk
ĠwËĪeÉª st
Ġb ËĪuËĲ
ËĪÉĳËĲl oÊĬ
ĠdÊĴ ËĪÊĮmp
ĠmËĪeÉªk s
ËĪÉľËĲ nd
ĠhËĪÃ¦ Åĭ
ĠÉ¹ ËĪÉªÅĭ
st É¹
Ġp ËĪÃ¦st
Ġt É¾ÉĻ
w ËĪoÊĬ
ĠËĪÉĽnÉª w
ËĪaÊĬz ÉĻnd
ÉĻd ÊĴ
ËĪÉĶÉª s
ĠÉĲ m
ĠstÉ¹ ËĪiËĲt
ĠkËĪÊĮ t
Ġm ËĪÉªst
ĠlËĪÊĬk Éªn
Ġtw ËĪÉĽnti
áµ» t
Ġst ËĪÉĽp
ËĪÉĶ l
ĠwËĪÉĶnt áµ»d
Ġt ËĪÉĽn
Ġd Éªz
ĠdÊĴ ËĪuËĲ
ĠbËĪÃ¦ Åĭ
Ġm ËĪÉªn
ĠbjËĪuËĲÉ¾i fÉĻl
Ġbáµ»h ËĪaÉªnd
Ġkl ËĪÊĮb
Ġt É¾
Ġn ÉĻt
ĠtÉ¹ ËĪaÉªd
a Éªn
ĠbËĪÉĶÉª z
É ĳËĲÉ¹
ĠwËĪaÉª ld
Ġn ËĪaÉªn
ĠlËĪeÉª di
ĠbÉ¹ ËĪiËĲ
ĠtÊĥ ËĪÃ¦ns
É¹ ËĪoÊĬl
Ġ ËĮÉĽ
Ġl ÉĻf
ĠÉĻv ËĪo
ĠpÉ¹ ËĪeÉª
ËĪÉĶ Éªn
ĠhËĪÊĮ ndÉ¹
ÉĽ kt
ĠhËĪÊĮndÉ¹ Éªd
Ġn ËĪÊĮm
ĠÉ¡ ÊĬd
h ÉĻ
ĠskÉ¹ ËĪiËĲm
ĠtÉ¹ ËĪÊĮst
É¡ Éªn
É¾ ËĪÉĻ
Éª ËĮoÊĬ
Ġf ËĪiËĲt
ĠfËĪÉĶËĲl ÉªÅĭ
É¾ ÉĻs
Ġ ËĮoÊĬ
ËĪeÉª tÊĥ
Ġj ËĪÉªÉ¹z
Ġw ËĪÉĶËĲl
ĠdËĪÉªfÉ¹ ÉĻnt
Ġb ËĪÉĶËĲl
Ġsp ËĪÉĽnd
ËĪeÉªn z
É¾Éļ z
ĠmËĪuËĲ n
Ġm ËĪÉªli
ÉĻz ÉĻ
Ġsw ËĪÉĽÉ¹
ËĪeÉª st
w ËĪÊĮn
ÊĴ ÉĻn
Ġb ËĪa
? "
ĠdÊĴ ËĪiËĲ
É¹ ÉĻn
Ġm ËĪÉľËĲ
ËĮÉĳËĲÉ¹ É¹
Ġp ËĪoËĲÉ¹
ĠfËĪaÉª v
ĠwËĪÉĻ l
Ġ ËĪaÊĬ
ËĪÉĽÉ¹ d
ĠÉ¡É¹ ËĪaÊĬnd
ĠfÉ¹ ËĪÊĮnt
f l
ĠsËĪuËĲ n
ĠhËĪa v
Ġs ÉĻp
ĠbÉ¹ËĪoÊĬk ÉĻn
ĠbÉ¹ËĪiËĲ Ã°
ËĪÉľËĲ v
ĠkÉ¹ËĪÉªs mÉĻs
Ġsp ËĪiËĲk
w ËĪuËĲ
ĠstËĪÉĳËĲÉ¹ z
Ġb ËĪÉªt
ĠwËĪÊĮ É¹i
ĠstÉ¹ ËĪiËĲts
Ġs ÉĻk
Ġs ËĪÉĽks
ĠÉ¡ ÉĻl
Ġb ËĮÉĻn
ËĪÉĽ pt
áµ» l
Ġt ËĪÉªÉ¹z
Ġp ÉĻl
ĠbÉ¹ ËĪÊĮÃ°Éļ
ĠÉĻËĪ ÉĻÉĻÉĻÉĻÉĻ
ĠmËĪiËĲ t
l z
Ġd ËĪÉĳËĲl
ĠmËĪeÉªk ÉªÅĭ
Ġs ÉĻd
ĠÉªt s
ĠtÉ¹ ËĪÃ¦p
ËĪÉª ÊĥÉĻn
Ġh ËĪÉĽÉ¹
ĠÃ° ËĮÉĻm
ĠÉĻ m
Ġk ËĪÉªk
s ÉĻn
ĠsËĪÊĮm Éļ
ĠËĪiËĲ t
Ġh ÉĻm
ÉĻt ÉĻ
ĠÉĻ Î²
ĠÉ¹ËĪiËĲz ÉĻn
ËĪÉĳËĲÉ¹ É¹
ËĪÉĽn s
ĠÊĥËĪuËĲ t
Ġm ËĪÉĽs
Ã¦ nd
ĠwËĪÉľËĲ d
Ġf ËĪÉĳËĲloÊĬ
ĠsËĪÉĳËĲÉ¹ i
w ËĪaÉª
ĠbËĪÃ¦ É¡
Ġb ÉªÉ¡
ĠÉ¹ ËĪÉĽst
ËĮÉĽ É¹
ĠbËĪiËĲ ÉªÅĭ
Ġd ËĪÊĮz
ÉĽ n
ĠnÉĻÉ£ËĪa z
s ËĪiËĲ
t ËĪuËĲ
Ġk ËĪÃ¦Êĥ
Ġb ËĪÉĽt
Ġh ËĪÊĬd
Ġb ËĪÉĳËĲÉ¹
Ġpl ËĪÃ¦n
ĠpÉ¹ËĪÉĳËĲm Éªs
ĠÉ¹áµ» l
ĠfËĪiËĲl Éªn
ĠkÉĻnt É¹ËĪoÊĬl
ËĪÉĶËĲ É¾i
ĠÉĻ b
Ġw ËĪÉªt
ĠwËĪÊĬd ÉĻn
ĠÉ¾ ÉĻn
Ġf ËĪÊĮn
ĠÉ¡ÊĬd bËĪaÉª
ĠpËĪÊĬ Êĥ
d eÉª
ËĮÉª s
ËĪoËĲÉ¹ z
Ġd ÉĻd
ĠËĪÉĳËĲÉ¹ mz
ËĪaÉª k
ĠÉĻ p
Ġf ËĪeÉªd
Ġm ËĪÉªd
ËĪÃ¦ v
Ġb ÉĻl
ĠÎ¸ ÉĻnk
Ġk ËĪÉĳËĲn
ËĪÉĳËĲ ks
Éª f
ĠlËĪÊĮv ÉªÅĭ
ĠÉĶËĲlÉ¹ ËĪÉĽdi
Ġbl ËĪÉĳËĲk
ËĪÉĽ f
Ġk ËĪÉĳËĲp
ĠmËĪoÊĬ mÉĻnt
ĠkËĪÉĳËĲm Éªn
ĠÃ°ËĪÉĻ z
Ġp ÉĻp
ĠÉ¡É¹ ËĪoÊĬ
ĠpËĪÉľËĲ f
ËĮÉĳËĲ n
Ġm ËĪan
ËĪÉªl z
Ġs ËĪÉĽnd
ĠsËĪeÉª ÉªÅĭ
ĠÉ¹ ËĪÉĽk
Ġf ËĪÉªÉ¹
ËĪÉª Êĥ
ĠËĪaÉª s
ĠdËĪaÉªÉĻmÉĻnd z
Ġb ËĪÊĬl
ĠbËĪoÊĬ Î¸
Ġb ËĪÊĮst
Ġ ËĮÉĽm
ĠstËĪÉĳËĲÉ¹ É¾áµ»d
Ġw ËĪÉĳËĲs
ËĪeÉª p
ĠÉ¡ ÉĻvÉĻ
ĠÉĲl ËĪÉĶÅĭ
ĠËĪiËĲ tÊĥ
Ġs ËĪÃ¦d
ËĪÉªm i
ĠtËĪeÉªk ÉªÅĭ
ËĪÉĶËĲ n
Éª É¹
É¾ oÊĬ
ÉĳËĲ n
Ġs ËĪÉĽk
ĠÉ¾ ÉĻd
Ġm ËĪÉĽm
ĠwËĪÉĳËĲs ÉĻn
ĠhËĪÃ¦ f
ËĪoËĲÉ¹ d
Ġsp É¹
Ġl ËĪÃ¦f
st ÉĻ
ÉĻÉĻÉĻÉĻ ÉĻÉĻÉĻÉĻ
s ÉĻ
ĠÉĲ t
Ġs ËĮÉĻm
ĠaÊĬ ts
ËĮÉĳËĲÉ¹ tËĪiËĲ
Ġk ËĪÉĳËĲ
ĠdËĪÉĳËĲ É¡
Ġb ËĪÉĶËĲÉ¹n
sk ËĮeÉª
Ġl ËĪaÊĬd
Ġk ËĪÉĶËĲt
w iËĲ
ĠÎ¸ ËĪÃ¦Åĭk
ËĪa nd
Ġd ËĪÃ¦
ËĪuËĲ v
Ã¦ m
f ËĮaÉª
Ġw ËĪÉĳËĲ
Ġf ËĪeÉª
É¹ ÉĻ
ËĪaÉª ld
Ġs ÉĻn
t ËĪÉĽvÉļ
Ġ ËĪÉĳËĲn
ĠÉ¹ËĪiËĲ tÊĥ
b l
ĠpÉ¹ËĪÉĳËĲb l
ÉĻÉĻ n
ĠÉ¹ ËĪÃ¦
ËĪoÊĬz d
ËĪÊĮ Êĥ
ĠlËĪaÉª z
Ġm ÉĻs
Ġd ËĪÉĳËĲÉ¹
Ġd ËĪiËĲl
i ÉĻ
áµ» k
ĠÉ¡ ÉĻt
Ġh ËĪÊĮni
Ġd ËĪiËĲ
Ġv ËĪaÉª
Ġj ËĪeÉª
ËĪÉĳËĲÉ¹ oÊĬ
ËĪa m
Ġm ËĪÉĽt
ĠÉĻÎ² ËĪÉĻt
Ġb ËĪÉªz
ĠÉ¡ËĪÉĽt s
ĠsËĪÉª ks
ËĪaÉª i
ĠpËĪÉľËĲf ÉĽkt
Ġs ËĪÊĮk
ĠsËĪiËĲ mz
Ġm ËĪaÊĬÎ¸
Ġk ËĪÉĻd
Ġv ËĪÉĽÉ¹i
ËĪiÉĻ É¹oÊĬ
ĠwÊĮ tËĪÉĽvÉļ
É¡ n
ĠtÉĻm ËĪÉĳËĲÉ¹oÊĬ
ÉĻ tÊĥ
ĠsËĪiËĲ m
ĠËĪÉĽvÉ¹Éªw ËĮÊĮn
ĠËĪeÉª ndÊĴ
ĠdËĪuËĲ Éªn
ËĮÉĽmËĮÉĽm ËĪÉĽm
Ġl ËĪiËĲ
Ġj ËĪÉªÉ¹
ĠÊĥ ËĪÉĶËĲÉ¾i
ĠmËĪoÊĬ st
Ġf ËĪÉªl
Ġ ËĪÉĶËĲ
ĠjËĪuËĲ s
ĠsËĪÊĮm Î¸Éªn
ÉĻ ËĮÉĻ
Ġl ËĪÉľËĲn
ËĪÉĽv ÉĻl
ĠkËĪÉªd z
Ġa z
ĠtËĪaÉª Éļd
d ËĪÉĳËĲn
s ËĪaÉªd
Ġl ËĪÉĳËĲk
Ġd ËĪoÊĬs
Ġj ËĪoËĲÉ¹z
Ã° z
ĠfËĪÊĮk t
ĠÉ¡ ÉĻn
ĠfÉ¹ ËĪiËĲk
ËĪÊĮ t
ĠmËĪÉªli ÉĻn
ĠÉĲp ËĪÉĳËĲÉ¹t
ËĪÉĳËĲ d
ĠÉ¹ ËĪeÉªz
É¾ ÉĻn
Ġf ËĪÃ¦m
Ġs ÉĻl
ĠwËĪeÉª v
ĠstÉ¹ ËĪeÉªndÊĴ
ĠlËĪÊĮv d
ĠËĪeÉª t
Ġs Éļ
Ġst ÉĻl
Ġn ËĪÉĳËĲk
n ÉĻ
ËĪÉľËĲ s
ĠfËĪÉĽl t
l Éļ
Éªm ËĪoËĲÉ¹
Ġs ËĪÊĮtÊĥ
Ġf ËĪiËĲ
ĠdËĪÃ¦ di
ËĪaÊĬn s
Ġst ËĪÉªk
ĠaÊĬts ËĪaÉªd
Ġkl ËĪoÊĬ
Ġt ËĪaÉªt
Ġh ËĪÉĳËĲp
ĠmÉĻn ÉĻ
Ġt ËĪeÉªst
Ġl ËĪÃ¦nd
ĠlËĪÉªv Éªn
ĠËĮÉĽn ÉªmËĪoËĲÉ¹
Ġf ËĪÉĳËĲ
ĠsËĪÉª m
ĠÉ¡É¹ ËĪeÉªt
Ġl ËĪiËĲd
ĠtÉ¹ ËĪÊĮbÉĻl
ĠtÊĥ ËĪaÉªld
Éª ks
Ġn ËĪaÉªs
Ġf ËĪeÉªk
ĠÉ¹ËĪÊĮn Éªn
Ġsk ËĪÉĽÉ¹d
ËĪÊĮ p
ËĪÉĶÉªn t
dÊĴ Éªk
ĠwËĪÉĶËĲk ÉªÅĭ
ĠkËĪÉĶËĲl ÉªÅĭ
jÉĻ h
Ġsk ËĪÉªn
ĠÎ¸ ÉĻÅĭ
ĠdËĪoÊĬs ÉĻn
Ġv ËĪÉĶÉªs
ĠdËĪoÊĬ p
Ġl ËĪÉĽs
st ÉļÉ¹ËĮÉªsk
ËĪÉĽd ÊĴ
ÉļÉ¹ ÉªÅĭ
ĠwËĪÉľËĲ Î¸
Ġkl ËĪÉªÉ¹
Ġd ËĪÉĽÎ¸
Ġl ËĪÊĮk
aÉª z
m ËĪaÉª
Ġw ËĪÉªp
ĠbËĪÉĳËĲ É¾ÉĻl
ËĮeÉª tÊĥ
Ġd ËĮÉªs
Ġsk ËĪuËĲl
ËĪuËĲ ËĪuËĲ
Ġh ËĮa
ĠÉĻ wÉĻ
Ġw ÉĻld
Éª li
É¹ ËĪiËĲ
ËĪ ÉĻÉĻÉĻ
Ġd ËĪÊĮbÉĻl
fÉ¹ ËĪeÉªd
ĠÉ¹ ËĪaÉªz
t i
ÉĻd i
Ġp ËĪaÊĬÉļ
É¾ Éªk
l f
Ġm ËĪÉĽnt
ĠnËĪaÉªt s
Ġl ËĪÉªk
Ġh ËĪÉĳËĲl
ĠtÉ¹ ËĪÉªp
ĠÉ¡ ËĪuËĲ
s ÉĻl
Ġs ËĪaÉªn
É£ ÉĻn
l ËĪÉĽt
ĠdËĪÃ¦ns ÉªÅĭ
ÉĽ nd
ĠkËĪÊĮ pÉĻl
tw ËĪiËĲn
ÉĻÉĻ l
Ġd É¾ÉĻ
ÉĻs ÉĻ
Ġst ÉĻ
Ġt ËĪÉľËĲnd
ĠtËĪeÉªk s
ÉĻs ÉĻn
ĠÊĥ ËĪÉĶËĲÉ¹
Ġsk w
ÉĻnt s
ĠÉ¹ ËĪÉª
k l
ËĪÊĮ É¡z
É¾ Éªst
ĠsËĪÉĽk ÉĻnd
Ġb É¾ÉĻk
Ġf ËĪÉªft
ĠÉĲ fÉ¹ËĪeÉªd
Ġbl ËĪaÉªnd
ĠhËĮa d
ĠwËĪÉĶnt s
ĠplËĪeÉª ÉªÅĭ
Ġf ËĪeÉªm
ËĪÉªv Éļ
Ġs ÉĻt
ĠÉ¡É¹ ËĪiËĲn
ĠstËĪÃ¦nd ÉªÅĭ
k ËĪÊĮm
ĠÉĻn l
j ËĪÊĬÉ¹
Ġd ËĪÉľËĲÉ¾i
ĠnËĪÊĮm bÉļ
d ËĪiËĲ
ËĪ ÉĻÉĻÅĭ
ËĪa p
' )
Ġf ËĪÉªÅĭ
Ġp É¾ÉĻ
ĠÉ¹ ËĪiËĲd
ËĪÉĽl v
ĠÉĻ É¾ÉĻnd
ÉĻk t
ĠÉ¹ ËĪaÉª
É¡ oÊĬ
Ġm ËĪÉªÉ¹
ĠÎ¸ É¾ËĪÉĻ
ËĪuËĲ d
Ġm ËĪÉĳËĲÉ¹
Ìĥ ,
Ġd ËĪÊĮm
ĠÉĻb ËĪÊĮv
ĠtÊĥ ËĪeÉªn
ĠmËĪÉªn Éªt
Ġs ËĪa
ĠtÉ¹ËĪaÉª Éªn
Ġbáµ» twËĪiËĲn
ÉĻb li
f ËĪaÉªv
Ġl ÉĻst
Ġb ËĪÉĶËĲt
ĠsËĪuËĲ pÉļ
Ġst ËĪÉĽÉ¹
Ġj ËĪÉĽt
ËĪiËĲz ÉĻs
ĠwËĪÊĮn z
ĠsËĪeÉª Éªn
ĠklËĪoÊĬ Ã°z
ĠÎ¸ ËĪaÊĬzÉĻnd
Ġ ËĮÉĻ
ĠkÉĻn f
Ġb É¾ÉĻ
ĠÉ¹ ËĪeÉª
Ġs ËĪÉĽnt
ĠstËĪoËĲÉ¹ i
Ġp ËĪoÊĬ
ĠhËĪoÊĬld ÉªÅĭ
Ġf ÉĻn
Ġsp ËĪeÉªs
ĠtÊĥ ËĪÉĳËĲp
Ġbl ËĪeÉªm
ÉĻÉĻÉĻÉĻ ÉĻÉĻ
Ġp ËĪÉĳËĲk
ĠÉĻnl ËĪi
ĠËĪÃ¦ l
Ġl ËĪÉªps
b ËĪiËĲ
j ÊĬ
j ËĮuËĲ
ĠsËĪoÊĬ ld
ĠbÉªÉ¡ ËĪÉªn
ĠbÉ¹ ËĪeÉªn
ËĪÊĮ s
ËĪÉª dÊĴ
ĠkËĪÃ¦ É¹i
Ġb ËĪÉĽl
Ġd ËĮiËĲ
Ġn ËĪÉĽk
Ġf ËĪÉªn
ĠhËĪÃ¦ pÉĻn
ËĪÊĮ nd
ËĮÉĽmËĮÉĽm ËĪeÉª
Ġw ÉĻl
ËĪÉªk t
Ġst ËĪÊĮk
ĠÉ¡ÉĻt ËĪa
l aÉªt
ĠÉ¹ ËĪÉªd
Ġl ÉĻn
Ġs ËĪÉĽz
ĠtÊĥ ËĪeÉªs
Ġsp ËĪÉªn
ĠËĪ Éªs
Ġk ÉĻ
ĠfËĪÃ¦m Éªli
ĠÉ¾ ÉĻk
Ġb ËĪÉªld
ĠpÉ¹ËĪÉĳËĲb ÉĻbli
ĠhËĪaÉª Éļ
d ËĮeÉª
m ÉĻ
ĠÉ¾ ÉĻlÉĻ
ĠfËĪeÉª Î¸
Ġ ËĪÉĽks
ĠpËĪeÉª pÉļ
ĠsËĪÉĻ m
ĠbÉ¹ ËĪÉĽÎ¸
Ġk ËĪoËĲÉ¹
ĠkËĪÉĶËĲl d
ËĪa l
ĠÉ¡ ËĪÉªmi
ÉĻ bÉĻl
Ġb ËĪeÉªs
ÉĻm ÉĻ
Ġp ÉĻ
ĠËĮÉĻ s
ĠdÊĴ ËĪiËĲzÉĻs
Ġh ËĪÉĳËĲÉ¹
h ËĪÉĽd
ĠËĪiËĲ v
m Éªn
Ġs ÉĻÅĭ
ĠpËĪÉªk tÊĥÉļ
Ġsw ËĪÉªtÊĥ
Ġk ÉĻz
Ġt ËĪoÊĬ
ĠÉªn v
ĠÉªm ËĪÃ¦
pt i
st Éļ
É¾ Éªs
ĠdËĪÉĳËĲÉ¹ lÉªÅĭ
ËĪoÊĬn z
Ġm ËĪÉĽÉ¹i
ĠÉ¡É¹ ËĪeÉª
É¾ ÉĻz
ĠlËĪÊĮv Éļ
d Éļ
Ġf ËĪoÊĬ
Ã° ËĪÃ¦t
Ġkw ËĪÉªk
Ġw ËĪÉªs
ËĪÉªÅĭ z
ĠÉ¡ËĪÉªv ÉªÅĭ
ĠmËĪÉªst Éļ
Ġb ËĪaÊĬt
ĠÉ¾ ÉĻÉĻl
Ġp ÉĻs
Ġl ËĪiËĲn
ĠbÉ¹ ËĪaÉªt
w ÉĽÉ¹
ĠpÉ¹ Éªt
ËĪÉĽk ÊĥÉĻn
ĠÎ¸ËĪÉªÅĭk Éªn
h ËĪuËĲ
d É¹
Ġd ËĪÉªÉ¡
Ġb ËĪÉĽÉ¹
ĠËĪÃ¦n s
Ġk Ã¦n
ËĪÊĬ ks
ĠÉ¹ ËĪuËĲl
Ġf ÉĻnd
ĠÊĥ ËĪaÊĬt
ĠtËĪaÉª p
ĠmÉĻ nd
ĠÉ¹ËĪÃ¦ Ã°Éļ
ËĮeÉª É¾áµ»d
ĠËĪÉľËĲ Î¸
ĠpÉ¹Éªt ËĪÉĽnd
Ġp ËĪÉĻt
ĠfËĪaÉªn ÉĻli
ÉĻt s
ËĪÉĻn a
É Ķ
Ġk ËĪÉĶËĲÉ¹n
Åĭ É¡
ĠwËĪÉĳËĲtÊĥ ÉªÅĭ
ÊĴ Éļ
ËĪÉª f
m oÊĬ
Ġb ÉĻn
dÊĴ ËĪeÉª
ĠËĮÊĮ nd
ĠkÃ¦n ËĪÉĳËĲt
ĠbËĪÉľËĲn ÉªÅĭ
ĠËĪ Éªm
ĠtÊĥ ËĪÉªl
ĠkÉ¹ ËĪÃ¦k
Ġw ËĪÉĽst
ËĪiËĲn z
Ġm Éªst
ĠmËĪuËĲv ÉªÅĭ
ĠËĪÉĽm pti
Ġw ËĪiËĲd
ËĪÊĮv Éļ
ĠbÉĻt ËĪo
ĠÉ¹ ËĪÉªst
Ġs ËĪÉªst
aÊĬ n
áµ» fËĮaÉª
ĠlËĪÊĮv Éªn
Ġp ËĪÃ¦k
ĠmËĪÃ¦ dÊĴÉªk
ĠsËĪÊĮmw ÉĽÉ¹
l Éªn
Ġ ËĮÉĽmËĮÉĽmËĪÉĽm
! "
ĠÉ¡É¹ ËĪÃ¦b
ĠtÊĥ ËĪÉªk
Ġs ËĪÃ¦
Ġst ËĪiËĲl
ĠsËĪÉªÅĭ ÉªÅĭ
eÉª k
Ġt ËĮiËĲ
ĠtÉ¹ ËĪiËĲt
ĠÉ¹ ËĪeÉªd
ĠÉ¾ ÉĻl
ËĪaÉª Éļ
Ġn ËĪiËĲz
ËĪÉĶÉª z
Ġkl ËĪiËĲn
ĠhËĪÉĳËĲÉ¹t s
Ġb ËĪuËĲm
ĠmËĪÉªd ÉĻl
Ġk ËĪeÉª
Ġt ËĪÉªÉ¹
Ġk ËĪÃ¦p
n ËĪiËĲ
Ġb ËĪaÊĬns
ĠmËĪaÉª k
ĠtÉ¹ ËĪeÉªn
ĠtÊĥËĪeÉªndÊĴ d
ĠÉĽ É¡z
Ġw ÉĻd
ĠÊĥ ËĪuËĲz
Ġp ËĪeÉªd
ĠÉĽks p
Ġh ÉĻld
Ġsp ËĪÉĳËĲt
ĠwËĪeÉª z
ĠsËĪiËĲ kÉ¹
ĠÉ¹ ËĪÉªvÉļ
ËĪÉĽv i
ĠkÉ¹ ËĪÉĶs
ĠËĮoÊĬ vÉļ
ĠËĪÃ¦ k
ĠÉ¾ ÉĻ
ËĪÉª b
Ġp ËĪiËĲ
É¡ ËĪoÊĬ
tÊĥ i
Ġbáµ»l ËĪÉĶÅĭ
Ġkw ËĪÉĽst
ĠfËĪiËĲlÉªÅĭ z
ĠhËĪoÊĬm i
ĠnËĪoÊĬ n
ĠfËĪÉĳËĲ Ã°Éļ
ĠmËĪÊĮÃ°ÉļfËĮÊĮk Éļ
Ġb ËĪÉªl
ÉĻns ÉĻ
ËĪÃ¦st ÉļÉ¹ËĮÉªsk
ĠËĪÉªs ÉĻn
t ËĪÉĽl
Ġ ËĮÃ¦
ĠsËĪeÉª f
Ġb ËĪÉĳËĲm
ËĮaÉª m
Ġs ËĪaÉªl
ĠkËĪÊĮ z
b ËĪÉĳËĲ
ĠkÉ¹ ËĪuËĲ
l ÉĻnd
ĠsËĪiËĲ z
ĠÉĻ ËĮ
ĠlËĪiËĲv ÉªÅĭ
ĠËĪÉĽvÉ¹Éªw ËĮÉĽÉ¹
skËĮeÉª ËĪÉĳËĲÉ¹É¹
Ġn ËĪÉªÉ¹
Ġd Éªs
Ġs ËĪÉĽvÉĻn
ÉļÉ¹ iz
ĠËĪaÊĬ É¾ÉĻ
Ġst ËĪaÉªl
ĠÉ¡ ËĪaÉª
aÉª d
Ġd ËĪÉĽm
ĠÉ¾ ÉĻm
Ġl ÉĻÅĭ
Ġh ÉĻp
Ġp ËĪÉĶÉªnt
ĠlÉĻt ÉĻ
ĠhÉĻl ËĪoÊĬ
Ġn ËĪÊĮn
ĠÊĥ ËĪÊĮt
ĠnËĪoÊĬ wÉĽÉ¹
ÉĻs i
Ġh jËĪuËĲ
Ã¦ k
Ġd ËĪÉĽvÉĻl
ĠÊĥ ËĪÉĽÉ¹
ËĪeÉªÊĥÉĻn z
p ËĪiËĲ
Éª p
ËĪÉĽÉ¹ Éªk
ÊĴ ÉĻ
b ÉĻ
j Éļ
áµ» É¹
ĠÉĲÉ¡ËĪÉĽn st
tÊĥ ÉªÅĭ
Ġk jËĪuËĲ
ÉĻk s
f ËĪÉĻ
f ËĪÊĮk
t ÉĻl
Ġk ËĪa
ËĪaÊĬnt Éªn
Ġw ËĪÉªtÊĥ
ĠkËĪiËĲp s
ĠfÉ¹ ËĪÉĽÊĥ
ĠÉĻp ËĮÉĳËĲn
ĠÉ¡ËĪoÊĬ st
Ġk ËĪeÉªs
skËĮeÉªËĪÉĳËĲÉ¹É¹ ËĮÉĳËĲÉ¹tËĪiËĲ
ĠÉ¹ËĪoÊĬ z
h aÊĬ
áµ» bÉĻl
Ġd ËĪÉªÉ¹
ĠÎ¸ ËĪÉľËĲÉ¾i
Ġkl ËĪaÊĬ
ĠÉĻ É£ÉĻn
ĠmÉªst ËĪeÉªk
ĠtÉ¹ ËĪiËĲ
ĠfjËĪuËĲ tÊĥÉļ
ËĪÉĳËĲk Éªn
ĠdÊĴ ËĪÃ¦k
Ġb ËĪÉĶs
ĠwËĪÉĻ d
ĠÉ¡É¹ ËĪaÉªnd
s ËĪoÊĬ
ĠwËĪÉªnd oÊĬ
tÊĥ Éļz
ĠpËĪÃ¦ É¹
n ËĪaÉªn
ËĪÉªp ÉªÅĭ
Ġp Éļ
Ġf ÉĻs
ĠbËĪÃ¦ l
ËĮiËĲ ËĮÉĳËĲÉ¹É¹
ĠÉ¹ËĪoÊĬl áµ»n
b i
Ġb ËĪÉĽn
ĠbËĪÃ¦ ndz
Ġp ËĪÉĳËĲ
ĠbËĪÉªz nÉĻs
w ÉĻz
ĠdËĪÉĳËĲl Éļ
' ?
Ġsn ËĪoÊĬ
n i
ĠÉĽks pl
Ġm ËĪÉĽl
ĠbÉ¹ ËĪÃ¦nd
Ġm ËĪeÉªn
ĠplËĪeÉª Éªn
ĠbËĪÉĳËĲ É¾ÉĻm
ĠÉ¹áµ» sp
ĠÉ¹ ËĮÉĽ
Ġ ËĪÉĳËĲp
Ġfl ÉĻ
ĠtËĪÉĽl ÉªÅĭ
Êĥ iËĲ
n z
k ÉĻ
b oÊĬ
ĠkËĪaÉªnd ÉĻ
Ġn ÉĻm
Ġ ËĮÉĻn
Ġpl ÉĻ
t Éªn
ĠlËĪÊĮv z
Ġh ËĪiËĲt
Ġj ËĪÉĽl
ĠwËĪÉĶËĲÉ¹ m
ĠÊĥ ËĪÃ¦d
b ËĪeÉªb
ĠËĪuËĲ oÊĬ
Ġf ËĪÉªÉ¡
ĠtÊĥ ËĪÉªld
Ġst ËĪuËĲp
Ġf o
l ËĪÊĮv
Ġk É¾ÉĻ
Ġh ËĪiËĲl
ĠÉ¡l ËĪÃ¦s
Ġm ËĪÃ¦kÉªn
ĠklËĪoÊĬs Éļ
l Éªk
É¡ ËĪÉĽt
ĠËĪÉĳËĲÉ¹ m
Ġk ËĪÊĮnt
ĠfËĪÉªft i
ËĮÉ ľËĲ
Ġk É¾
nËĪiËĲ Î¸
Ġbl ËĪiËĲd
y n
ĠfÉļÉ¡ ËĪÉªv
ĠlËĪaÉªv z
ĠtÉ¹ ËĪÃ¦k
ĠÉĻv ÉĻn
tÊĥ uËĲ
h ËĪÉĻ
k i
ĠdÉ¹ ËĪÊĮÉ¡z
ĠÎ¸ ËĪÃ¦Åĭ
Ġf ËĪÊĮni
Ġt ËĪÉªk
ĠsËĪÉĶÅĭ z
ĠtÊĥ ËĪÉĳËĲÉ¹
Ġ ËĪÉĽs
ĠËĪeÉªndÊĴ ÉĻl
Ġfl ËĪeÉªm
Éªk ÉĻl
Ġsp l
ĠÉĻ nd
Ġn ÉĻk
ËĪÉĶËĲÉ¹ k
ĠtÊĥËĪÉªld É¹ÉĻn
ËĪÊĮn tÊĥ
Ġs ËĪÉĽns
ĠkÉĻm p
ĠlËĪÉª ft
i ÉĻs
ĠdÊĴ ËĪÉĶÉª
Ġa m
Êĥ ÉĻ
Ġm ËĪÉªl
ĠbÉ¹ËĪeÉªk ÉªÅĭ
Ġt ËĪiËĲm
w ËĪÉĽl
ĠbËĪÃ¦ nd
ĠpÉ¹ ËĪÉĽÊĥ
ËĪÉĽn ÊĥÉĻn
Ġs ËĪaÉªt
Ġf ËĪeÉªv
Ġs ËĪÉĽlf
bËĪeÉªb i
ÉĲ p
ĠpÉ¹ ËĪÉĳËĲ
Ġsp ËĪÉªt
ĠÊĥ ËĪeÉªm
ĠkÉĻm pl
ĠsËĪÉªÅĭ É¡ÉĻl
ĠÉ¹ ËĪÃ¦n
ĠÉĻl wÉĻz
ĠmËĪÉĳËĲm ÉĻ
ĠsÉļ v
ĠpÉ¹ËĪÉĳËĲbl ÉĻm
ĠdÊĴ ËĪÉĳËĲn
Ġh ËĪÉªp
ĠbËĪa d
ĠÊĥËĪÉĳËĲt s
ĠstËĪuËĲp Éªd
ĠdÉ¹ ËĪÉĽs
Ġm ËĪaÊĬntÉªn
ËĪeÉªb ÉĻl
ĠÉ¹ËĪÉªd Éªn
Ġd É¾ÉĻm
dÊĴ Éªn
ĠÉĻ kÉ¹
ĠÉĻkÉ¹ ËĪÉĳËĲs
ĠwËĪÉª mÉªn
Ġk ËĪÃ¦m
Ġh ËĪÃ¦t
moÊĬ st
Ġs ËĪÉĽ
t ÉĻ
Ġw ËĪaÉªd
ĠwËĪÉľËĲk ÉªÅĭ
ĠdÉ¹ ËĪÊĮÅĭk
ĠÉªm p
ĠkÉ¹ËĪaÉª ÉªÅĭ
ĠlËĪuËĲz ÉªÅĭ
ĠkËĪÊĮnt É¹i
ĠÉĻÉĻÉĻÉĻÉĻÉĻÉĻÉĻ ÉĻÉĻÉĻ
ËĪÉĻ lf
Î¸ ËĪaÊĬzÉĻnd
Ġd ËĪaÊĬt
ĠÉ¡l ËĪoËĲÉ¹
ĠfÉĻl ÉĻÅĭ
ĠjÉĻ z
Ġst ËĪoÊĬn
Ġl ËĪÊĬks
w ËĮÉĽn
ËĪÉªp t
Ġf ÉĻt
ĠÉĲm ËĪÉĽÉ¹Éªk
ËĮÉĽ É¹i
ĠÎ¸ ËĪÊĮÉ¡
ĠdÊĴ ËĪeÉª
ĠkËĪÊĮ p
Ġw ËĪÉĽt
Ġk ËĪÃ¦nd
ĠÉĻËĮ o
ĠnËĪiËĲd z
Ġj ËĪÉĶËĲÉ¹k
Ġk ÉĻns
ĠËĪÉĶËĲl moÊĬst
w ÉĻn
Ġs ËĮÉª
ĠpËĪeÉªn t
ÉĲ m
Ġd ËĪÉĳËĲk
Ġp ËĪÃ¦n
ËĮ i
b ÉĻt
Ġh ËĪÉĽvi
ĠlËĪeÉªdi z
ĠwËĪaÉª n
ÉĲ l
ĠmÉĻ tÊĥ
Ã° ËĪÉªs
ËĪÉĽnt ÉĻl
ĠbÉªk ËĪÊĮm
ËĪÃ¦nt ÉĻ
ËĪÉĳËĲn ÉĻ
ËĮÃ¦ l
ĠsËĪÉľËĲ v
ĠËĪÃ¦ d
ĠÉ¹ËĪeÉªd ÉªËĮoÊĬ
Ġ âĢ
ËĪÉĻ z
Ġp ÉĻt
ËĮiËĲ n
ĠmËĪÊĮÃ°ÉļfËĮÊĮk Éªn
Î¸ É¹ËĪiËĲ
ĠÎ¸ ËĪÉĶËĲ
iËĲ t
Ġk ÉĻd
ËĪÉĽÊĥ ÉĻl
ĠËĪÉĽvÉ¹Éª dËĮeÉª
ËĪÉĽnd Éļ
ĠÉļ É¹
Ġh ËĮÉĻm
ĠÉĻ k
Ġs ÉļÉ¹
Ġkw ËĪiËĲn
ĠmËĪÉªs ÉªÅĭ
ĠÉ¡É¹ ËĪÃ¦nd
ËĪÉªv Éªn
Ġf ËĪÉªt
ĠËĪÉĳËĲn Éªst
Ġfl ËĪÉĽks
ĠÉĲ hËĪÉĽd
f ËĪÉĶËĲÉ¹
Ġst ÉĻt
Ġdáµ» s
ĠsÉĻp ËĪoÊĬzd
Ġj ËĪÊĮ
Ġsm ËĪÉĽl
Ġsm ËĪÉĶËĲl
ĠhËĪÉĻ z
Ġd ÉĻk
Ġh ËĪÊĮÅĭ
ÉĲ stÉļÉ¹ËĮÉªsk
ĠvËĪaÉª b
ĠdÉ¹ ËĪaÉª
ËĪÊĮ dÊĴ
ĠÉ¹ËĪoÊĬl ÉªÅĭ
ËĪÉª ÊĴÉĻn
Ġs ËĪaÊĬÎ¸
ĠÉ¡ ËĪÃ¦s
ËĪÉĳËĲ É¾ÉĻ
ĠÎ¸ËĪÉĶËĲ ts
Ġd ÉĻz
Ġf ËĪÉĽÉ¹
ĠÉ¹ËĪiËĲÉĻl aÉªz
p ÉĻ
jËĪuËĲ s
ĠkËĪÊĮ l
ĠpËĪÉĳËĲp Éªn
, "
Ġd ÉĻm
w ËĪÉĽÉ¹
ËĪÊĬ t
Ġl ÉĻd
ĠkËĪÉĳËĲÉ¹ z
ËĪÉľËĲ k
n ÉªÅĭ
ĠwËĪÉĳËĲ Êĥ
Ġm ÉĻl
ĠËĪÃ¦ns Éļ
Ġl ËĮa
Ġk ËĪÊĬk
Ġk ËĪiËĲ
ĠkÉ¹ ËĪaÊĬd
Ġsl ËĪaÉªd
ĠÉ¡É¹ ËĪeÉªv
nd ÉĻ
ĠdÉ¹ ËĪaÊĬn
t ËĪÉľËĲn
ĠwËĪaÉª f
ĠwËĪÉĶËĲk t
Ġkl ËĪÃ¦s
ĠtÊĥ ËĪuËĲz
ĠÉ¹ ËĪeÉªs
ĠkËĪÉĶËĲÉ¹n Éļ
Ġb ÉĻk
k ÊĮm
Ġb ÉĻst
Ġsp ËĪÉĽÊĥÉĻl
n t
ĠdÊĴ ËĪÉĳËĲb
ĠÉ¡l ËĪÃ¦d
ĠfËĪoËĲÉ¹ É¾i
Ġf ËĪÃ¦kt
ËĪÉĶl t
fÉ¹ ÉĽnd
ĠËĪoÊĬ ÊĥÉĻn
Ġj ÉĻs
ËĪÉĶ ft
ĠkÉ¹ ËĪÃ¦Êĥ
ĠËĪ ÉªÉ¹
Ġp ËĪaÉª
ĠÉĻvÉ¾ËĪy Î¸ÉĻÅĭ
ĠmËĪÉĽm ÉļÉ¹iz
Ġsp ËĪÉĽnt
ĠsËĪÉª É¾ÉªÅĭ
Ġpl ËĪeÉªn
ĠhËĪÉľËĲ ts
ĠmËĪaÉª lz
ĠËĪÉĽnÉªw ËĮÊĮn
ĠkÉ¹ ËĪÉªb
ĠtÉĻn ÉĻt
ĠÉ¹ ËĪÉĳËĲ
ĠÉ¡l ËĪoÊĬ
dÊĴ ËĪÊĮst
ĠmËĪuËĲv Éªn
ĠÉ¹ËĪaÉªd ÉªÅĭ
ĠlËĪÊĬk t
Ġkl ËĪaÉªm
ĠdËĪeÉª ndÊĴ
ĠÉ¾ ÉĻÅĭ
ĠËĪÉĽn ÉĻm
ËĪÉªk st
É¹ uËĲ
Ġm ËĪÃ¦k
ĠbÉ¹ ËĪÉĶËĲt
ĠÉ¡ËĪÊĮn z
Ġm ÉĻt
ĠÉ¹ ËĪÉĳËĲb
Ġm ËĪa
ĠÉ¹ ËĪÊĮÊĥ
ĠbËĪÃ¦ Åĭk
Ġn ËĪiËĲ
ÉĻv ËĪo
ËĪÉªm p
Ġsp ËĪÉªÉ¹
É¡ Éļz
Ġf ÉĻst
k w
ĠmËĪÉĻ d
ĠwËĪÉĶËĲl z
ĠÉ¹áµ»sp ËĪÉĽkt
ÉĻÉĻÉĻÉĻ ÉĻÉĻÉĻ
ĠÉ¡ ËĪÉĻÉĻÅĭ
ĠsÉļv ËĪaÉªv
dÊĴ ËĪiËĲ
ĠËĪÉĽnÉª bËĮÉĳËĲdi
Ġw ËĪÉĽÃ°Éļ
ËĪÉª É¾Éļ
Ġtw ËĪÉªst
Ġbl ËĪÉĽs
ĠnÉĻ Î¸ÉĻÅĭ
ĠÉ¹ ËĪÃ¦ks
Ġdáµ» l
ĠÉĲ b
ÉĳËĲ hËĪÉĳËĲ
ĠdÊĴ ËĪÉĽl
ËĪÉªs k
Ġt ËĪÃ¦kÉªn
ĠsËĪÊĮm deÉª
ĠpÉ¹ ËĪÉĽz
ĠnËĪiËĲd áµ»d
ĠmËĪiËĲn z
Ġst É¾ÉĻt
Ġw ËĪiËĲl
ĠsËĪÉĻm Î¸ÉĻÅĭ
ĠâĢ ľ
Ġk ÉĻt
ĠÊĥËĪaÉªn ÉªÅĭ
ĠmËĪÉľËĲ dÉļ
ĠdÉ¹ËĪiËĲm ÉªÅĭ
t uËĲ
s aÉªd
Ġf ËĪÃ¦nt
ĠtËĪÉľËĲn ÉªÅĭ
ĠmÉĻ st
ĠbËĪÉĽ É¡
ĠËĪÉĽnÉªw ËĮeÉª
Ġk ÉĻs
ĠÉĻn ÉĻ
Ġp ËĪÉĳËĲÉ¹k
ËĪÉĽ É¡
Ġp ÉĻk
ĠmËĪÉªÉ¹ Éļ
ĠËĪ Éª
áµ» v
Ġp ÉĻn
Ġn ËĪaÉª
dÊĴ i
ĠhËĪÃ¦v ÉªÅĭ
âĢ Ŀ
Ġp ËĪÉªl
ĠÉ¹áµ»m ËĪaÉªnd
t ÉĻn
Ã° ËĪo
ĠlËĪÉĶÅĭ É¡Éļ
ĠwÉĻ Êĥ
ĠÊĮn l
Ġk ËĪÉĽpt
ĠhËĪoÊĬ li
ĠsËĪÉľËĲ k
ĠÉ¡ ËĪÉĻn
Ġ áµ»l
ĠdËĪaÉª ÉªÅĭ
Ġs ËĪÃ¦nd
Ġl ËĪÉªt
ËĪÉĳËĲm ÉĻ
ĠÉ¡ËĪuËĲ tÊĥi
ĠÉ¡ËĪeÉªm z
ĠjÉĻ Åĭ
Ġst É¾ÉĻ
ËĪÃ¦m p
Ġs ËĪÉĶft
ĠpÉ¹ ËĪaÉªs
t iËĲn
Ġf ËĪÃ¦t
ĠlËĪoÊĬ d
ĠfËĪÉªÅĭ É¡Éļ
ĠÊĥ ËĪoÊĬld
Î¸ ÉĻn
ĠtÊĥ ËĪÉĽst
ĠbÉĻ É¡
ĠdÉªz ËĪÉľËĲv
Ġk ËĪÃ¦t
Ġst ËĪeÉªt
ĠbËĪÉľËĲ d
ĠpÉ¹ ËĪoÊĬ
ĠÉ¹ ËĮiËĲ
ĠwÉĻ tÊĥ
ĠbÉĻtÊĥ ÉĻz
ĠÉ¡ ÉĻ
ĠÉ¹áµ» p
ĠdËĮÉªs ÉĲp
ĠÊĥËĪÉĶËĲÉ¹ É¾i
ËĪÉľËĲ d
Ġdáµ» f
Ġd ËĪÉĶËĲ
ĠhËĪeÉª É¾Éļz
Ġpl ËĪÊĮs
Ġb ËĪÉĽnd
Ġpl ËĪeÉªd
ĠkËĪÉªl ÉªÅĭ
ĠdËĮiËĲ dÊĴËĪeÉª
ĠbËĪÉĳËĲ ks
ËĮ ÊĬd
Ġt ËĪÊĮÅĭ
Ġ ËĪÉĶËĲÉ¹d
Ġ ËĪÉĽdÊĴ
Ġd ËĪaÉªd
Ġk ËĪuËĲp
Ġn ËĪuËĲz
ĠdÊĴ ËĪÊĮdÊĴ
Ġk ÉĻk
ĠpÉ¹ËĪÉĳËĲbl ÉĻmz
Ġs ËĪaÉª
ËĪÉĽn tÊĥ
Ġkl ËĪÃ¦p
Ġd áµ»n
ĠstËĪoËĲÉ¹ m
Ġt ËĪÉĽst
ĠlËĪeÉª É¾Éļ
Éª sk
Ġb ËĪoËĲÉ¹d
ĠlËĪÊĮk i
ÉĻnd ÊĴÉĻ
ĠlËĪÉª m
ÉĻv ÉĻn
ĠtÉ¾ ËĪÉĻna
É¡ ÉĻ
Ġsm ËĪÉĳËĲkÉªn
Ġf ËĪiËĲd
Î² lÉĻ
Ġb ÉĻdÉĻ
Ġd ËĪÉľËĲt
ĠËĪÃ¦ nd
s áµ»É¹
ËĪÊĮm bÉĻl
Ġd ËĪiËĲm
ĠlËĪuËĲ s
ĠfËĪeÉªv ÉļÉ¹
ĠsËĪiËĲkÉ¹ áµ»t
ĠbËĪÃ¦l áµ»n
ĠÉªn ÉĻÉĻÉĻ
Éļd ËĮeÉª
Ġ ËĪÉĽf
Ġh ËĪÊĮn
É¾ ÉĻnt
ËĪÊĬ É¡Éļ
Ġt ÉĻld
ĠËĮÉĻn a
ËĮÉĽm ËĪÉĽm
Ġfl ËĪÉªp
m Éļ
Ġd i
Ġs ËĪÉªl
ĠÉ¹áµ» v
Î² ÉĻdi
ĠdËĪÉĳËĲÉ¹k nÉĻs
ÉĻm ÉĻn
Ġsw ËĪÉªm
ĠfËĪeÉªvÉļÉ¹ áµ»t
Ġf ËĪÉĽd
ËĮÉĽ s
ĠpËĪÉĳËĲk Éªt
ËĪÉªn s
ËĪÉĽst ÉļdËĮeÉª
Ġf ËĪÃ¦n
Ġp ËĪÉĽn
ĠbÉĻ fËĪÉĻ
d ÉĻl
ĠhjËĪuËĲ mÉĻn
ĠhËĪÃ¦Åĭ ÉªÅĭ
Ġp ËĪÉªst
Ġ ËĮÉĽl
ĠlËĪaÉª ÉªÅĭ
Ġsw ËĪÉªÅĭ
Ġfl ËĪÃ¦Êĥ
Êĥ aÉªn
ĠpÉ¹ ËĪaÉªd
Éļ t
Î² ÉĻd
ĠÉªn st
k ËĪÃ¦n
Ġk ËĪaÊĬ
É¹ Éª
Ġf É¾ÉĻnd
Ġbl ÉĻ
ĠtÊĥ ËĪeÉªnz
i ÉĻn
ĠÎ¸ÉĻÅĭ z
Ġsp ËĪiËĲd
Ġw ËĪÉªÅĭz
Ġd ÉĻp
ĠklËĪaÊĬ dz
ĠtÉ¹ ËĪÊĮk
ĠÉ¹áµ» É¡É¹
ĠhËĪÉĳËĲÉ¹d Éļ
Ġsl ÉĻp
ËĪÃ¦st Éļ
âĢ ¦
ĠpÉĻl ËĪiËĲs
Ġkw ËĪÉªt
ÉļÉ¹ ÉĻl
Ġp ËĪaÊĬnd
ĠËĪÉĽnd z
ĠwËĪÊĮn hËĪÊĮndÉ¹ÉĻd
ĠÉ¹ËĪuËĲl z
Ġf ËĪÉªks
ĠdÉ¹ ËĪÊĮm
ĠÉ¡ ËĪaÉªz
Ġd ËĪÊĮst
Ġf ËĪoÊĬk
Ġw ËĪoÊĬk
ËĪÉĽt s
ĠÉĻ sk
ĠÊĥ ËĪÊĬÉ¡Éļ
Ġs ÉĻnd
ĠpÉĻp lÉĻ
ĠkwËĪÉĽst ÊĥÉĻn
Ġd ËĪÉªst
Ġj ËĪÉĽstÉļdËĮeÉª
! !
Ġl ËĪÉľËĲnd
ĠpÉ¹ ËĪaÊĬd
ËĮaÉª d
ĠfËĪÉĶËĲÉ¹ ÉĻn
ÉļÉ¹ ÉĻs
ÉªÅĭ z
Ġ ËĪÉĽkst
ĠwËĪeÉªt Éªn
ĠbÉ¹ ËĪoÊĬ
ÉĽn ËĪÉĽvÉļ
Ã° ÉĻm
ĠÊĥ ËĪÉĻd
ÉĽ k
ĠwËĪÉĽl kÊĮm
ĠlÉĻ ft
Ġb ÉĻd
ĠsmËĪoÊĬk ÉªÅĭ
Ġbl ËĪuËĲz
ĠbËĪÉªÉ¡ Éļ
ĠÊĥ ËĪÉĳËĲp
l oÊĬ
Ġk ËĪÉĳËĲÉ¹d
ĠslËĪiËĲp ÉªÅĭ
Ġs ËĪÉªpÉªn
ËĪÉľËĲ tÊĥ
Ġp ÉĻz
ËĪiËĲz i
ĠhËĪÊĮ sÉĻl
Ġm ËĮÃ¦
Ġtw ËĪaÉªs
ĠlËĪÉĳËĲk t
l ËĪaÉª
ĠtÉ¹ ËĪÃ¦v
ĠfÉ¹ ËĪiËĲd
ĠÉ¡lËĪoËĲÉ¹ i
Ġf ËĪÊĮÅĭk
ĠskÉ¹ËĪiËĲm ÉªÅĭ
ĠhËĪeÉª vÉĻn
ĠÉ¹ËĪuËĲ f
ĠdÊĴ ËĪiËĲnz
Ġt ËĪÉªp
ËĪÊĮ l
ĠÉĲw ËĪeÉªk
ĠkËĪÉĶËĲl áµ»n
ĠbËĪÉľËĲ Î¸
ĠlËĪiËĲ st
ËĪÉĻt y
ĠbÉ¹ ËĪÉĽd
ĠsËĪÉªm pÉĻl
ËĪÉĽÉ¹ z
Ġb ËĪÉĽÉ¹i
b ËĪo
Ġk ËĪoÊĬk
ĠbËĪÊĮ s
Ġb ËĪÊĮk
Ġm ÉĻm
ĠlËĪeÉªt li
ĠÉ¹ Éª
ĠÉĲm ËĪeÉªz
ĠÉªns ËĪeÉªn
ĠÉªn t
ĠsËĪÉĽks i
ĠÉĻ ks
Ġj ËĪÉĳËĲ
Ġw ÉĽnËĪÉĽvÉļ
Ġt ËĪÉĽÉ¹
Ġd ÉĻl
Ġkw ËĪaÉª
ĠwËĪÊĮ nd
Ġp ËĪÉªmp
ĠÉªm ËĪoÊĬ
Ġk ÉĻnd
ËĪÉĽ Åĭ
ĠkËĪoÊĬ d
s w
ĠÉĽ sk
ĠÉª l
ĠsËĪÉªÅĭ k
Ġn ËĪÉĻ
ĠpËĪÉľËĲ sÉĻn
Ġst ËĪÊĮf
Ġs ËĪÉªÉ¹
ĠkËĪÊĮ lÉļ
ĠËĪeÉªndÊĴ ÉĻlz
Ġst ËĪÃ¦k
ĠbÉ¹ ËĪaÊĬn
ËĪoÊĬ d
ĠstÉ¹ ËĪÉĽs
É¹ ÉĻl
Ġv jËĪuËĲ
ĠÉªnst ËĪÉĽd
Éªt ËĮaÉªm
Ġk ËĪeÉªk
Ġf É¾ÉĻ
Ġ( '
Ġsk ËĪÉĳËĲÉ¹
ĠsËĪÉªt Éªn
Ã¦ t
Ġk ËĪÉĶst
ËĮÉª lÉªk
ĠwËĪÉĶËĲk Éªn
sáµ»É¹ ËĮÉªlÉªk
sáµ»É¹ËĮÉªlÉªk jËĪÉĽËĲ
ĠËĪÃ¦sk t
ĠhËĪÃ¦p ÉĻnd
ĠfËĪÉªn ÉªÊĥ
ĠÉ¡É¹ ËĪoÊĬn
ĠmËĪÃ¦ É¹i
ĠsËĪÉªk st
ĠtËĪaÉª d
ĠÉĻl ÉĻn
ĠdÊĴ ÉĻ
ÉļÉ¹ ËĪeÉªÊĥÉĻn
z ËĪiÉĻÉ¹oÊĬ
ĠËĪeÉª dÊĴ
ĠtÉ¹ ËĪiËĲz
Ġpl ÉĻs
ĠtËĪÉĽl áµ»n
ËĪuËĲ jÉĻ
Ġb ËĪÊĮmp
Ġt ËĪeÉªl
ĠÉĻnÉĻ Ã°ËĪo
ĠmËĪuËĲv i
ĠbËĪoÊĬ t
ËĪÉĶËĲ d
ĠsËĪaÉªl ÉĻns
ÉĻn ÉĻ
ĠdËĪÉĳËĲk tÉļ
ĠtÉ¹ ËĪÉªpÉªn
ËĪÃ¦l ÉªÉ¾i
ĠÉĲt ËĪÉĽnÊĥÉĻn
É ĶËĲ
ĠÉ¡ ËĪeÉª
Êĥ ÉĻl
ÉĲ fËĮÊĮk
ĠbËĪÃ¦ É¾ÉĻl
Ġsl ËĪÉªp
ĠÉĲ k
ĠsËĪÊĮn ÊĥaÉªn
ĠmËĪÉĽm ÉļÉ¹i
Ġ ËĪaÊĬÉļ
ĠdÉ¹ ËĪÉªp
Ġh ËĪÉªl
ĠkÉ¹ ËĪiËĲp
ĠplËĪeÉªs áµ»z
Ġb ËĪeÉª
Ġf ËĪÊĬt
ĠÎ¸ ËĪÊĮ
Î¸ ÉĲfËĮÊĮk
ĠlÉĻv ÉĻÅĭ
ĠsÉĻk s
ĠÉ¹áµ» s
f ÉĻ
áµ»l ËĪuËĲjÉĻ
ÉĻd ËĮaÉª
Ġkl ÉĻs
ĠÉ¡ËĪÃ¦Åĭ stÉĻ
Ġn ËĪÉĶËĲÉ¹
ĠÉĻn ËĪy
ĠkwËĪaÉª ÉĻt
ËĪuËĲ s
ËĪa Åĭ
Ġk ËĪÊĮvÉļ
ËĪÃ¦ É¾Éªk
ĠfÉ¹ËĪiËĲd ÉĻm
Ġb ËĪÊĬk
ĠËĪa s
ĠÎ¸ É¾ÉĻ
Ġm ÉĻk
ĠËĪÃ¦sk ÉªÅĭ
ĠdÉ¹ËĪaÉªv ÉªÅĭ
Ġb ËĪoÊĬn
ĠbËĪiËĲ f
ĠfËĪiËĲ ld
ĠfËĪÉĶËĲl áµ»n
ĠfËĪaÉª É¾ÉªÅĭ
ĠdËĪoËĲÉ¹ z
t ËĪeÉªk
oÊĬ m
Ġ ,
ËĪ ÉĻnt
ËĪÉĶËĲÉ¹ s
Ġd É¾
Ġsm ÉĻk
pÉ¹ ËĪaÉªz
ĠËĮÉĽm ËĪÉĽm
ĠhËĪÃ¦nd ÉĻl
ĠkËĪoÊĬ st
Ġn ËĪÉªk
ĠsËĪÊĮm haÊĬ
Ġf ËĪÃ¦
ĠhËĪÉĽl d
ĠdÉ¹ ËĪÊĮÉ¡
Ġdáµ»n ËĪaÉª
h ËĪoÊĬ
ĠÉ¡l ËĪÉĳËĲk
Ġt ËĪÊĮf
ĠpÉ¹ ËĪuËĲv
ĠËĪÉĽnÉªw ËĮÉĽÉ¹
ËĪÉĽ ÊĥÉĻn
ĠËĪaÊĬ Éļz
Ġbáµ» sËĪaÉªd
ËĪuËĲ n
ËĪÉĳËĲl v
l ÉĻt
Ġs ËĪÊĮnd
ĠflËĪaÉª ÉªÅĭ
ÊĮ p
Ġm ËĪÉĽd
ĠËĪÃ¦ stÉļÉ¹ËĮÉªsk
ÉĻdÊĴ ÉĻ
É ĶËĲl
ĠtËĪÉľËĲn z
Ġw ÉĽÉ¹
ĠdÉ¹ ËĪÃ¦É¡
Ġd ËĪÉĽÉ¹
Ġp ËĪoÊĬl
ĠdÊĴ ËĪeÉªl
ĠwÉĽÉ¹ ËĪÉĽvÉļ
ĠstÉ¹ËĪÉĶÅĭ É¡Éļ
p ËĪeÉªn
h ËĪaÊĬ
ĠÉĲd v
ĠspËĪÉªÉ¹ Éªt
ËĪÉĶ nd
l aÉªn
t aÊĬn
oÊĬ k
ĠpËĪÊĬ ld
d ÉĻn
l ËĪaÉªk
É¹uËĲ m
Ġk ËĪÉĳËĲl
ĠÉª É¡n
Ġv ËĪÉľËĲs
Ġk ËĪÉªtÊĥ
ĠsËĪiËĲ t
ĠbÉ¹ËĪÊĮÃ°Éļ z
ĠpËĪÊĬ É¹
ĠÉ¡ËĪÉĽ É¾oÊĬ
ĠbËĪÊĬl Éªt
ĠËĪÊĮ É¡
ĠtÉĻ tÊĥ
n ËĪaÉªt
ĠdËĮÉªsÉĲp ËĪÉªÉ¹
Ġpl ËĪÊĮÉ¡
Ġsw ËĪÉĽt
ĠmËĪuËĲv z
ĠjËĪÉĽl oÊĬ
ËĮÉĽ skËĮeÉªËĪÉĳËĲÉ¹É¹ËĮÉĳËĲÉ¹tËĪiËĲ
ËĪÉĽv ÉĻnt
ĠÉªns ÉĻd
ĠÉ¾ ÉĻz
ĠÉĲÉ¡ ËĪoÊĬ
ĠdËĪiËĲp Éļ
ËĪÃ¦n ÉĻ
Ġb ËĪÉĽnt
d ÉĻm
Ġk ËĪÉľËĲ
ËĪaÊĬ Éļz
Ġt ËĪÉĽm
Ġt ËĪÉĶËĲl
ËĪÉĻ v
ĠÉ¡ ËĪÉĳËĲÉ¹d
ĠslËĪoÊĬ li
Ġh ËĪÊĬk
ĠstÉ¹ ËĪÉªp
Ġ {
Ġp ËĪÊĮmp
ËĮÃ¦ n
ËĪy Åĭ
ĠpËĪiËĲs áµ»z
ĠtËĪiËĲ Î¸
ĠÊĥËĪÊĬd ÉĻn
ĠbËĪÉĳËĲÉ¾ÉĻl z
Ã° ËĪÉĽÉ¹
ĠwËĪÉľËĲ st
ĠsÉļ pÉ¹ËĪaÉªz
ĠkËĪÉªtÊĥ ÉĻn
Ġj ËĪiËĲ
ĠÉ¹ËĪoÊĬ t
ĠdÉĻn sÉĻ
ĠlËĪaÉªn z
Ġl ËĪÉĶËĲ
ĠÎ¸ ÉĻt
ĠÉĽsk ËĪeÉªp
ÉĻm p
ĠÉ¹ËĪÉĽk Éļd
Ġ ËĮÉª
ĠwÉªÃ° ËĪÉªn
ËĪÉĽkt áµ»d
ĠwËĪÉªn tÉļ
ĠdËĪÉĶËĲ É¡
ĠkËĪÉªl d
n iÉĻ
s ËĪÉªks
ĠmÉĻs ËĪÉĻlf
ĠkËĪÉĳËĲp s
n aÉªt
ĠfËĪÉªÉ¡ jÉļ
h iËĲ
Ġp ËĪÉĽÉ¹
ËĪÉĻty ÉĻn
ËĪuËĲ t
ĠstÉ¹ ËĪÃ¦p
ĠbËĪÉľËĲ dz
ĠbËĪÉĽn ts
É¹ ÉĻs
Ġb ËĪoÊĬnz
ÉĻdËĮaÉª s
ĠtÊĥ ËĪÉľËĲtÊĥ
Î²ÉĻd ËĮi
ĠpÉ¹ ËĪiËĲ
ĠmËĪÉĽs ÉªdÊĴ
Ġf ËĪÉľËĲ
ĠËĮÉĽ s
Ġ ËĪÉĶËĲÉ¹
ĠbÉĻl ÉĻvÉĻ
Ġl ËĪÉĶÉª
ĠfËĪÉªÅĭ É¡Éļz
v ÉĻl
- -
b ËĪÉªtÊĥ
ĠÉ¹ËĪÉĳËĲk Éªn
Ġm ËĪÊĮn
ËĪoËĲÉ¹ t
ËĮÃ¦l Éª
ĠËĪÃ¦kt Éªn
Ġm ËĪÃ¦tÊĥ
Ġs ËĪÉªp
Ġs ËĪÃ¦ntÉĻ
ĠdÊĴ ËĪÃ¦m
ËĪan k
ËĪÉĽ ÊĴÉļ
Ġk ÉļÉ¹
ĠkÉ¹ ËĪÉĶËĲl
ĠÉ¹ËĪÉª Ã°ÉĻm
Ġs ËĪÃ¦k
Ġh ËĪiÉĻÉ¹oÊĬ
ĠÉĻvÉ¾ËĪy Î²ÉĻdi
Ġz ËĪoÊĬn
Éļ dz
Ġkw ËĪaÉªt
Ġtw ËĪÉĽlv
ĠsËĪÉľËĲ tÊĥÉªÅĭ
ĠpËĪoÊĬ st
ÉĶ Éª
ËĪa Êĥ
ĠtÊĥ ÉĻk
Ġb ËĪaÉªt
ĠÉĻ ld
ĠdËĪÉĳËĲl Éļz
ĠÉ¡É¹ ËĪeÉªs
ĠtÊĥ ËĪiËĲ
ĠËĪiËĲv ÉĻl
ĠpÉ¹ËĪÉĽÊĥ Éļ
ĠÊĥ ËĪÃ¦l
Ġs ËĮiËĲ
ĠÉĽkspl ËĪeÉªn
Ġd ËĪÉĶËĲn
ĠÉ¡ËĪoÊĬld ÉĻn
Ġf ËĪÉªÊĥ
ËĪÉĽt Êĥ
ĠÉ¡É¹ ËĪuËĲv
s ËĪeÉª
Ġn ËĪeÉªb
Ġfl ËĪaÉªt
ĠbËĪiËĲ ts
ËĮaÉªz d
Ġ vËĪiËĲ
Ġh ÉĻs
ĠmËĪÉĻ t
Ġd ËĪoÊĬn
ĠhËĪoÊĬp ÉªÅĭ
Éªn z
ĠÊĥ ËĪeÉªd
Êĥ Éªt
ĠËĪÉľËĲ li
f ÉĶËĲÉ¹
Ġd ËĪÉĶËĲÉ¾Éļ
Ġl ÉĻl
ĠÉªmËĪÃ¦ dÊĴÉªn
ĠsËĪÊĮnd eÉª
sl ËĪiËĲp
Ġl ËĪeÉªn
Ġt ËĪÉĽkst
ĠfËĪÉªn ÉĻ
Ã° eÉª
ĠmÉĻ Êĥ
É¹ ËĪaÉª
ĠbËĪÉªl t
ÉĻ bÉ¹
Ġsk ËĪaÉªz
ĠËĪeÉª m
ĠhËĪoÊĬm iz
ĠdÊĴ ËĪoÊĬ
Ġk ËĪÉĳËĲk
ĠtÉĻk ÉĻÅĭ
ĠspÉ¹ ËĪÉĽd
ËĪÉĳËĲ z
ĠkËĪÊĮl Éļz
Ġst ÉĻp
Ġb ÉĻz
ĠnËĪÉĻ Î²ÉĻdËĮi
Î¸ s
ĠÉ¹ ËĪÊĮf
É£ ÉĻ
ĠdÉ¾ÉĻ p
ĠmÉĻ vÉĻ
ĠmËĪÉªd naÉªt
l áµ»lËĪuËĲjÉĻ
ĠdÊĴ ËĪoÊĬk
ĠpËĪÃ¦É¹ ÉĻdËĮaÉªs
ĠtËĪuËĲ Î¸ËĪaÊĬzÉĻnd
Ġh ÉĻz
ĠbËĪuËĲ É¾i
ĠËĪiËĲ st
É¹ Éªk
ĠwËĪÉľËĲk Éªn
ĠÉ¡ ÉĻlz
ËĪÉªÉ¹ Éªks
ĠstËĪeÉª dÊĴ
n ËĪaÊĬ
Ġv ËĪÉªÊĴÉĻn
ĠmËĪÉľËĲ si
ĠÉĽ m
ËĮÃ¦lÉª fËĪoËĲÉ¹
j ËĪÉĽs
ĠtÊĥ ÉĻndÊĴÉĻ
Ġbl ÉĻd
li ÉĻn
ÉĽ ks
ĠlËĪÊĮv Éļz
jÊĬ l
ĠstËĪÉĳËĲÉ¹t s
ĠbËĪÊĬl ÊĥÉªt
Ġk ËĪiËĲz
ĠÉ¡ ÉĻm
ĠÉĽ k
ĠbËĪiËĲ tÊĥ
j ÊĬÉ¹
Ġl ËĪeÉªd
Ġa Éªd
ĠÊĥËĪÉĶËĲÉ¹ t
Ġk ËĪÉĶf
ĠdÊĴ ËĪaÉª
ĠdÉ¹ËĪÉªÅĭk ÉªÅĭ
k ËĪoËĲÉ¹
ÊĴ uËĲ
ĠÉ¹ ËĪaÉªm
ËĮÃ¦lÉªfËĪoËĲÉ¹ niÉĻ
Ġn ËĪÉľËĲv
ĠlËĪÉĽ É¡z
Ġd ËĪy
Ġf ËĪeÉªl
ĠdÊĴ ËĪÉĽt
ĠfËĪeÉªs áµ»z
ĠfËĪeÉªm ÉĻs
ĠlËĪÉª st
ËĪÉªn t
b ÉĻm
ĠpËĪÉªk tÊĥÉļz
ĠsËĪÉªst Éļ
ĠdËĪiËĲm ÉĻnz
ĠËĪÃ¦kt ÉªÅĭ
Ġd Éªsk
Ġl ËĪÃ¦
ĠlËĪuËĲ i
ĠsËĪeÉª l
ĠÉ¾ ÉĻdÉĻ
ĠpËĪÉĳËĲk Éªts
ËĪy ÉĻn
ĠkËĪiËĲp ÉªÅĭ
Ġst ËĪand
l ËĮa
ĠËĮÊĮnd ÉļÉ¹
Ġst ËĪÉĽdi
b z
Ġdáµ» sËĪaÉªd
ĠtÉ¹ ËĪÉªk
Ġh ËĪÉĽn
áµ» p
ĠÎ¸ ËĪÉªk
ÉĻs ÉĻd
Ġp ËĪÉªÅĭk
ĠtËĪiËĲ tÊĥ
Éªt ËĮuËĲ
Ġst ËĪoÊĬl
ËĪÊĮ ks
ĠtËĮiËĲ vËĪiËĲ
ÉĻk ÉĻ
ĠpÉ¹ ËĪeÉªz
ĠplËĪÃ¦n z
ÊĴ ÉĻnz
Ã° o
aÊĬ t
ĠhËĪÊĮn Éªd
ĠÉ¡ËĪÉªv ÉĻn
s ËĪÊĮm
d ËĪÃ¦m
Ġb ËĪÉĳËĲp
ËĪeÉªk áµ»d
" ,
Ġm ËĪÉªks
ĠhËĮÃ¦ láµ»lËĪuËĲjÉĻ
Ġd ËĪÃ¦d
ËĮaÉª t
ĠdËĪuËĲ d
É£ ÉĻt
ĠËĪoÊĬld Éļ
ĠÉĻÉĻÉĻÉĻÉĻÉĻÉĻÉĻÉĻÉĻ ÉĻÉĻ
Ġk ËĮÃ¦lÉªfËĪoËĲÉ¹niÉĻ
l ËĪoÊĬ
ËĪÃ¦Åĭ É¡
Éªt ËĪÉĳËĲÉ¹
Ġh ËĪÉĶËĲÉ¹s
ĠÊĥ ËĪÉĽl
Ġl ËĪÉĳËĲÉ¾ÉĻ
ËĮÉª v
ĠtÊĥËĪeÉªs ÉªÅĭ
ĠËĪiËĲ Ã°Éļ
ĠdÊĴ ËĪÉªvÉªn
dÊĴ ÉĻ
ĠpËĪeÉª dÊĴ
ĠhËĪÉĳËĲ li
Ġb ËĪÊĬ
Ġbl ËĪÉĳËĲ
Ġh ËĪiËĲ
ĠtËĪeÉªk ÉĻn
ËĮoÊĬ n
Ġn ÉĻz
ĠËĮÉª nd
ĠkÉ¹ iËĲ
p ÉļÉ¹
ĠÉ¹ËĪÃ¦p Éļz
ĠlËĪÉĽ É¾ÉªÅĭ
Ġ ËĮeÉª
ĠlËĪiËĲv z
sl ËĪÃ¦Êĥ
Ã¦m pËĪeÉªn
Ġw ËĪiËĲ
s ËĪÉĽvÉĻn
ĠËĪ yn
ËĪuËĲ ÊĥÉĻn
b ÉĻn
ĠÉ¡ É¾ÉĻ
Ġn ËĪÉĶÉªz
Ġpl ÉĻzÉĻ
ĠËĮÊĮndÉļ nËĪiËĲÎ¸
ĠmÉªstËĪeÉªk s
ĠwËĪeÉªst áµ»d
Ġd ËĪÃ¦t
Ġl ËĪeÉªm
ĠÉĲ s
ĠwËĪÉĳËĲtÊĥ Éªn
j ÉĻz
ĠÉĲd m
Ġm ËĪÃ¦stÉļ
aÉª l
ĠsËĪaÊĬnd z
ĠÉ¾ ÉĻtÊĥ
ĠÉ¹ ËĪÉĳËĲks
Ġdáµ» v
b oËĲÉ¹
Ġk ËĪÊĮv
ĠÉĲ f
ÉĻm bËĪo
Êĥ ÉĻs
ËĪÉĶl oÊĬ
ĠÊĥ ËĪoÊĬz
Ġn ËĪeÉªkáµ»d
ĠËĪyn ÉĻf
ĠnËĪoÊĬ ÉªÅĭ
ĠdËĪÃ¦ns Éªn
Ġh ËĪÉªst
Ġf ÉĻm
ËĪoÊĬ v
w ËĪeÉª
ĠstÉ¹ ËĪÉĽÅĭ
hËĪÉĻ nd
w Éļd
Ġsm ÉĻl
ĠÉ¹ËĪeÉªz d
ËĪÃ¦ z
j ËĪuËĲzd
É¡ i
Ġs ËĪÊĮf
ft ÉĻ
ĠkÉ¾ ÉĻzÉĻ
ĠÊĥËĪoÊĬld Éļ
oÊĬ tËĪÉĽl
Ġv ËĪÉªkt
kËĪoËĲÉ¹ ÉĻs
ĠsËĪÉªl vÉļ
É¾ ËĪa
ĠÉ¹ oÊĬm
Ġv ËĪÉľËĲ
ËĪÃ¦ É¾Éļ
ĠwËĪiËĲk ÉĽnd
ËĪaÉª ÉĻ
b Éļz
Ġm ËĪÉĶn
ËĮÉĳËĲÉ¹É¹ ËĪÉĳËĲÉ¹
ĠsËĪiËĲ lÉªÅĭ
ĠÉ¾ ËĪap
Ġkl ËĪÉĳËĲk
s ÉĽ
ĠbËĪiËĲ É¾ÉªÅĭ
ËĪÃ¦st i
ĠmËĪÉĳËĲ li
Ġt ËĪÉĶËĲt
ĠÉĻ Ã°ÉĻ
ĠÉĲ slËĪiËĲp
Ġm ÉĻd
Ġl ËĪÃ¦m
Ġkl ËĪoÊĬzd
ĠbËĪÉªz i
ĠjÉĻz ÉĻd
ËĮeÉª É¾ÉªÅĭ
Ġh ËĪÉª
É¹ ËĪaÉªt
ĠwÉĻÃ° ËĪÉĻt
Ġf ËĪÉĶlt
ĠkÉ¹ ËĪaÉªd
ĠfÉ¹ ËĪaÉªd
ËĪÉĽlv z
Ġl ËĪÉĽvÉĻl
Ġh ËĪÉĶËĲl
ĠÉ¹áµ» pl
ĠbÉ¹ ËĪÉªdÊĴ
ĠÉ¡ËĪÉľËĲl fÉ¹ÉĽnd
ĠlÉĻk ÉĻÅĭ
Ġl ËĪoÊĬk
ĠpËĪÉľËĲ pÉĻl
ĠkÉĻm ËĪyÅĭ
ĠÉ¡ ÉªtËĪÉĳËĲÉ¹
Éļ n
ĠtËĪuËĲ n
b ËĮiËĲ
Ġkw ËĪÉĶËĲÉ¹
ĠËĪeÉª tÊĥ
Ġk ÉĳËĲn
Î¸ i
s ÊĮm
l ËĪÊĬk
ĠstÉ¹ËĪeÉªndÊĴ Éļ
ĠdËĪeÉªndÊĴ ÉļÉ¹ÉĻs
ĠsËĪÉľËĲ tÊĥ
ĠÊĥËĪÃ¦d oÊĬz
ĠhËĪÉªst ÉļÉ¹i
ĠÉ¾ ËĪa
ËĪ e
ÉĻ É¾ÉĻ
ĠmËĪÊĮÃ°ÉļfËĮÊĮk Éļz
Ġp É¾ÉĻt
ĠsËĪiËĲ ÉªÅĭ
ĠbËĪÊĮ É¾Éļ
ËĮ oËĲÉ¹
ĠbËĪÃ¦ É¡z
ĠÉ¡ ËĪÃ¦l
j ËĪoÊĬ
Ġb ËĪaÊĬnd
Ġsw ËĪÃ¦É¡
ĠÉ¡É¹ ËĪuËĲ
ĠvËĪaÉª ÉĻl
Ġst ËĪÊĮnt
Ġw ËĪÉĽ
ĠÉ¾ ÉĻs
ĠÉĲmËĪÉĽÉ¹Éªk ÉĻn
Ġf ÉĻd
tw ËĪÉĽnti
É¹ ÉªdÊĴ
Ġkl ËĪeÉªm
Ġf ËĪÉªld
ĠfÉļÉ¡ ËĪÉĳËĲt
ĠfÉĻk ÉĻn
ĠfÉĻk ÉĻÅĭ
ĠstÉ¹ËĪÉĽÅĭ Î¸
Ġb ËĪÊĮm
Ġf ËĪuËĲd
ËĪÉªÅĭ ks
f ËĪÉªft
s ËĪÉĽlvz
ĠtÊĥ ËĪÉĶÉªs
ĠÊĥËĪÃ¦d oÊĬ
ĠbÉ¹ËĪeÉªk s
ĠfËĪeÉªd áµ»d
Ġsw ËĪÉĶloÊĬ
ĠlËĪÃ¦f ÉªÅĭ
ĠËĪuËĲ uËĲ
ĠÉ¹áµ»É¡É¹ ËĪÉĽt
ĠdËĪoÊĬn t
ĠwËĪeÉªv z
Ġm ËĪÉĳËĲÉ¹k
Ġs ÉĻnt
ĠÉ¡ w
ËĪÃ¦m i
ĠkÉ¹ËĪaÉª m
ĠmËĪÉĶËĲÉ¹n Éªn
ËĮÉ ĶËĲ
ĠhËĪa nd
w ËĮeÉª
Ġt ËĪeÉªbÉĻl
eÉª s
ĠÉ¹áµ» tËĪÉľËĲn
Ġn ËĪÃ¦sti
ĠhËĪoÊĬld Éªn
ËĪÉĽl ÉĻ
ËĪÉĳËĲÉ¹ É¹i
ĠÎ¸ËĪÊĮ ndÉļ
ĠhËĪÊĮ sl
Ġsw ÉĻt
ĠkËĪÉĶËĲl z
Ġdáµ» É¹
É¾Éªs fËĮaÉª
Éªs ËĮaÉªd
Ġdáµ» p
ËĮeÉªtÊĥ ËĪÉĽm
ĠlËĪÉªsÉĻn ÉªÅĭ
w ËĮÊĬd
ËĪeÉª É¾áµ»d
ËĪÃ¦s Éªn
áµ» m
ĠËĮÊĮnd o
ËĮÉ Ķ
ĠtÉ¹ËĪÃ¦v ÉĻl
Ġbl ËĪÊĮnt
ĠdÉĻ f
ËĪat o
f Éªs
ĠbÉ¾ÉĻ Åĭ
ÉĻnt li
ĠstÉ¹ ËĪÊĮÉ¡
ĠÉ¹ ËĪÉªp
ĠhËĪÃ¦t Éªn
ĠÎ¸ ËĪÉĳËĲ
ĠbÉ¹ ËĪaÉª
ĠÉĻ s
ĠkÉ¹ ËĪaÊĬn
ËĮÉĳËĲ l
ĠÉĲmËĪeÉªz ÉªÅĭ
ĠÊĥ Ã¦mpËĪeÉªn
ËĪÉĳËĲl ÉĻdÊĴ
ĠlËĪÉªk Éļ
ĠwËĪÊĮndÉļ fÉĻl
d ËĪaÊĬn
Ġ ?
ĠdÉ¹ËĪÉĳËĲp t
ĠËĪÃ¦n Éªm
Ġh ÉĳËĲhËĪÉĳËĲ
ËĪÉĶËĲ ks
ËĪÉªz ÉĻn
ĠbÉ¹ ËĪÉªk
ËĪÊĮnd ÉĻn
ĠÉ¹ËĪÉĳËĲk ÉªÅĭ
ĠhËĪaÉª weÉª
ĠÉ¡ËĪÉĳËĲd Ã¦m
pl ÉĻs
ĠmÉĻÊĥ ËĪiËĲn
b ÉĻdÉĻ
ĠfËĪÉĶËĲl z
ĠblËĪoÊĬ ÉªÅĭ
Ġkl ËĪÉªp
n ËĪÉĽvÉļ
ĠÎ¸É¹ ËĪÉªl
ĠÉ¡ËĪÉĻt ÉĻÅĭ
ĠwÉĻ st
ĠÉ¹ËĪÉªÅĭ z
áµ»fËĮaÉª d
ĠÊĮn ÉĻÉĻÉĻ
Ġd ËĪam
Ġb ÉĻm
Ġt ËĪoÊĬn
ĠbËĪÉľËĲÎ¸ deÉª
ĠwËĪÊĮÉ¹i d
Ġm Éªs
ËĪÃ¦ É¹
Ġbl ËĪÃ¦st
ĠhËĪa ndz
ĠËĪiËĲv nÉªÅĭ
Ġp ËĪÉªlz
ĠkËĪÉªl Éļ
ĠÉĲdm ËĪÉªt
Éļ s
ĠbËĪÉĳËĲÉ¹ z
ËĪÉªkt áµ»d
ĠÊĮnl ËĪÉĽs
ĠtÊĥ ËĪoÊĬz
ĠwËĪÉľËĲ s
ĠpÉ¹ ÉĻt
É¡ É¹i
ĠdÉ¾ ÉĻnk
ËĪÃ¦st Éªk
ĠÉĻl É¾ÉĻt
ĠdÊĴËĪuËĲ s
ĠdÊĴ ËĪÉĶÉªn
É¾ ËĪi
ĠÉ¡É¹ ËĪÃ¦s
Ġsm ËĪÃ¦Êĥ
ĠÉĻ d
ËĮiËĲ ËĪÉĽs
ËĪaÉª É¾áµ»d
ĠmÉĻ Ã°
ĠkËĪÉªl áµ»n
ĠdÉªz ËĪaÉªÉļ
Ġb ÉĻs
ĠbËĪÉĳËĲdi z
f Éªn
ĠÉ ĳËĲ
Ġt ËĪÊĬÉ¹
ËĪÊĮ di
bÉ¹ eÉªk
Ġst ËĪeÉªd
ĠËĮÉĽ skËĮeÉªËĪÉĳËĲÉ¹É¹ËĮÉĳËĲÉ¹tËĪiËĲ
b ËĮiËĲËĮÉĳËĲÉ¹É¹
ĠsËĪeÉªv d
ĠlËĪÊĮv li
ĠkÉ¹ ËĪÉªst
ĠÊĥËĪoÊĬ d
ĠhËĪÉľËĲ É¹i
ĠpÉĻs ËĪi
Ġsw ËĪiËĲ
Ġd ËĪÉªp
Ġsp ËĪÉĳËĲÉ¹k
ÉļÉ¹ ËĮÉªn
ĠÉĻÉĻÉĻ ËĪÉĻ
Ġd ËĪÊĮk
ĠsËĪÃ¦ É¾ÉªsfËĮaÉª
ĠhËĪÉĳËĲli wËĮÊĬd
j ËĪÉĶnd
Ġt ËĪoÊĬz
Ġbl ËĪak
Ġw ËĪaÊĬ
Ġsk ÉĻ
ĠÊĮn f
ËĪiËĲ f
Ġd ËĪÊĮ
ĠÉ¹ ËĪÃ¦t
Ġd ËĪÉªs
ĠblËĪoÊĬ Éªn
ĠbËĪÉĽnt li
dÊĴ Éļ
É¡ ËĪÉľËĲl
ĠtÊĥËĪeÉªndÊĴ ÉªÅĭ
ĠÃ° ËĮÉĻ
Ġl ËĪÊĮndÉĻn
ĠnËĪoÊĬ É¾Éªs
ÉĽ s
vÉļ s
ĠmËĪÊĮÃ°ÉļfËĮÊĮk ÉªÅĭ
ĠbËĪÉĽl z
ĠfËĪoÊĬ ks
ĠpËĪÃ¦ ÊĥÉĻn
Ġs ÉĻv
ËĪÉĽvÉ¹ Éª
Ġk ÉĻld
ĠÊĥ ÉĻn
Ġbáµ» jËĪÉĶnd
ĠhËĪÉĳËĲl ÉĻ
Ġl ËĪÉĽdÊĴ
ĠdÉĻd ÉĻn
k jËĪuËĲs
ĠhËĪÃ¦v Éªn
ËĪuËĲËĪuËĲ ËĪuËĲËĪuËĲ
ËĪÊĮd ÉĻn
É¡ l
ĠdÉ¹ ËĪÉĽst
ĠsÉĻm bÉĻdÉĻ
ËĪeÉª di
ĠdËĪÉĳËĲ É¡z
ĠËĮoÊĬ v
ĠhËĪÊĮÅĭ É¡É¹i
ĠËĪ ÉªÅĭ
ĠdÉªz ËĪaÉªn
Ġsl ËĪeÉªv
Éªd ÉĻnt
h ÉĻm
ĠwËĪÊĮnd ÉļÉ¹ÉªÅĭ
ĠmÉĻ Î²ÉĻ
Ġp ËĪÉĳËĲt
ĠËĮoÊĬ kËĪeÉª
z deÉª
ĠlËĪaÉª Éªn
ĠbÉ¹ ËĪÉªks
ĠËĪÉªn ÉĻs
ĠsËĪÉĽl ÉĻbÉ¹
ĠmÉĻÃ° ÉĻf
Ġd ËĪÃ¦n
ËĪÉĳËĲn Éªk
ĠfÉĻl ÉĻn
ĠjËĪuËĲ n
ĠÉ¹ ËĪÉĶËĲ
ĠkÉ¹ ËĪuËĲz
ËĪÉªÉ¡ ÉĻ
iËĲ z
ĠpËĪÉªst ÉĻl
Ġk ËĪaÉª
ĠËĪÉª nd
ĠËĪaÉª lÉĻnd
ÉĻk ÉĻl
ËĪÉĶÉª d
ËĪiËĲn i
ĠfÉ¹ ËĪoÊĬz
ĠtÊĥ ËĪÉĽÉ¹
ĠpÉ¹ ËĪÉĽs
Ġb ËĪÉªli
eÉª t
ĠwËĪÉªÊĥ ÉªÅĭ
ĠhËĪÃ¦p ÉĻnz
ĠpËĪÃ¦n ts
Ġs ËĪÊĮdÉĻn
Êĥ áµ»z
ĠÉ¹ ËĪÉĽs
ĠbÉĻk ËĪÉĻz
ĠdÊĴËĪÉĽl ÉĻs
Ġh oÊĬtËĪÉĽl
ĠÉ¡ ËĪaÅĭ
Ġs ËĪÉĽvÉĻnt
ËĪÉĶËĲn t
b lÉªÅĭ
ĠkËĪÃ¦nd i
Ġn ÉĻn
Ã¦ l
jÊĬ lÉļ
ĠlËĪÉĽt s
ĠtÊĥ ËĪiËĲp
h oÊĬ
ĠlÉĻv ÉĻn
áµ»k jËĪÊĬÉ¹
ĠÉ¡É¹ËĪeÉª É¾Éªst
ĠbËĪÉĽÉ¹ li
ËĮeÉª É¾Éļ
ËĪÉĳËĲs áµ»bÉĻl
ĠhËĪÉªt s
ĠsËĪuËĲ t
ĠËĪÉĽnÉĻm iz
ĠËĪa kt
ĠlËĪÉªv d
ĠËĪÃ¦l bÉĻm
Ġs ËĪÃ¦v
Ġn ËĪeÉª
ĠdÉ¹ ËĪÉĳËĲmÉĻ
ĠÉ¾ÉĻm ÉĻmbËĪo
ĠÊĥ ËĪÉľËĲt
ĠwÉĻ ndÉĻ
ĠsËĪaÉªn z
Ġb ËĪeÉªn
ĠbËĪiËĲ st
Ġk ÉĻÅĭ
ËĪÃ¦k ÊĥÉĻn
Ġsn ËĪeÉªk
ĠbÉ¹ËĪiËĲÃ° ÉªÅĭ
Ġb ËĮiËĲ
ËĪÉªl ÉĻ
ĠÉ¾ ÉĻp
Ġ ËĪÉĳËĲl
ĠdÉ¹ËĪÉªÅĭk Éªn
aÉª m
ĠÉĽÉ¡z ËĪÃ¦kt
ĠÎ¸É¹ ËĪoÊĬn
ĠÉĽks kjËĪuËĲs
Ġv ÉĻ
ĠfËĪoËĲÉ¹ s
Ġw ËĪÉĶËĲÉ¹n
Éªn ÉĻs
ĠbËĪÉªld ÉªÅĭ
Ġd ËĪÉªn
ĠÉ¡É¹ËĪoÊĬ ÉªÅĭ
ĠÉĽ ndÊĴ
ĠdËĪeÉª t
ĠËĪ Éªl
Éª ndÊĴ
b ÉĶÉª
ĠsËĪÉĽ É¾ÉĻl
ĠlËĪÉĽ É¾Éļ
Ġl ÉĻzÉĻ
ĠËĪÉĶËĲÉ¹d Éļ
ĠdËĪÉªfÉ¹ ÉĻns
ĠfÉ¹ËĪaÉªd eÉª
Ġsw ÉĻ
ĠsÉĻm wÉĻn
hËĪÉĳËĲ hÉĻ
ËĪÉĽkst ËĪuËĲ
Ġb ËĪÊĮz
ĠpÉ¹ ËĪaÉªv
ËĪÉªt s
Ġbl ËĪÉĽst
m ËĪÃ¦n
eÉª n
Ġt ËĪÉĳËĲm
ĠdÊĴËĪuËĲ ÉĻl
Ġbáµ» nËĪiËĲÎ¸
Ġp ÉĻtÉĻ
ĠdÊĴ ËĪÉĽntÉĻl
ËĮÉĳËĲ m
ĠËĪÉĽnÉĻm i
Ġm ËĪÉĶËĲÉ¹
ĠdÉ¹ ËĪÉªft
ÉĻ ËĪÉĻÉĻÉĻ
ÉĻn i
ĠÊĥ ÉĻk
ËĮÃ¦ É¹
ËĪeÉªl z
áµ»k ËĮeÉªÉ¾áµ»d
ĠÉ¡ ËĪÉªl
ĠbËĪÊĬl Éªts
Ġh ËĪÉªd
ĠÉĽk st
ĠkÉĳËĲn vÉļs
Ġs ËĪÊĮb
ĠÉ¹ áµ»z
ĠmËĪÃ¦ sk
ĠËĪÉĽn Éļ
ÉªtËĮuËĲ d
j ÉĻt
ËĪÉĳËĲl ÉĻ
ĠsËĪoÊĬld ÊĴÉļ
Ġj ËĪuËĲz
Ġf ÉĻlz
ĠmËĪuËĲ d
ĠÉ¹ËĪÃ¦p t
ĠdËĪÉªst ÉĻns
Ġkl ËĪaÊĬd
ĠÎ¸É¹ËĪoÊĬ Éªn
ĠÉĲmËĪÉĽÉ¹Éªk ÉĻ
tÊĥ áµ»z
ĠÉĲt ËĪÃ¦k
ĠÊĥ ËĪÉªp
Éª b
mÉĻnt s
ĠsÉļÉ¹ ËĪaÊĬnd
ËĪÉĶÉª l
ÉĽ m
ĠÉ¡ ËĪaÉªd
ÉĲ d
ĠstËĪÉĽÉ¹ ÉªÅĭ
Ġs ÉĻns
ËĪÉĳËĲ É¾i
ĠÉ¡ ÉĻs
Ġl ËĪÉªp
ĠpÉ¹ ËĪÉªzÉĻn
Éªd ËĮeÉª
ĠwËĪÉªnd oÊĬz
ĠËĪÊĮ m
Ġz ËĪÃ¦n
ĠpÉ¹ ËĪÉĽÉ¹
ĠkÉĻn v
ĠÎ¸ ËĪÉªn
ĠÉ¹ËĪÃ¦p Éļ
ÉĻ É¡n
ĠhËĪÉĳËĲÉ¹t bÉ¹eÉªk
ĠmËĪÉĳËĲm i
Ġb ËĪÉªlz
Ġd ËĮÉĽ
ÉĳËĲÉ¹ d
w ËĪÉĳËĲ
ĠÉ¹ËĪoÊĬl z
ĠÊĮ Åĭk
ĠbÉªÉ¡ËĪÉªn ÉªÅĭ
s ËĪÉĻ
Ġsp ËĪoÊĬk
Ġfl ËĪaÊĬÉļz
ĠwËĪÉĽÉ¹ ÉªÅĭ
ĠÉĽ n
ĠdÊĴ ËĪÉĽn
m ËĪÉĻ
t ÊĬ
Ġp ËĪuËĲl
Ġt ËĪÉľËĲ
ĠÉĲ pÉ¹
ĠlËĪiËĲv Éªn
ĠlÉĻt s
Ġsn ËĪiËĲk
Ġf ËĪeÉªt
Ġm ÉĻmÉĻ
Ġd ËĪÉĽst
Ġh ËĪoËĲÉ¹
ĠdËĪaÉª m
Ġf ËĪoÊĬld
ĠspËĪÉªn ÉªÅĭ
Ġst ÉĻk
ĠdÉ¹ ËĪÃ¦Åĭk
Ġbáµ»l ËĪoÊĬ
ĠÉ¹oÊĬm ËĪÃ¦ns
ĠËĪÃ¦ m
ĠnËĪaÉªn tiËĲn
v z
ĠÉ¹ ËĪÉĽp
b ËĪÃ¦k
h ÉĻl
Ġh ËĪÉªlz
É¡É¹ ËĮÃ¦
ĠkÉ¹ ËĪiËĲm
Ġd Éªst
ÉĲ t
ĠsËĪaÉªl ÉĻnt
h ËĪÃ¦Êĥ
Ġt ËĪÉĽk
ĠmËĪuËĲv d
Éªk t
d aÊĬn
ĠfËĪÃ¦st Éļ
ĠtÊĥ ËĪiËĲz
ĠÉ¹ ËĪÊĮ
eÉª l
ĠkÉ¹ËĪaÉª Éªn
ĠhËĪaÉªd ÉªÅĭ
É¡ ÉļÉ¹
ĠhËĪÉĽd z
ĠnËĪÉĶËĲÉ¹ Î¸
ĠflËĪoÊĬ t
ĠskËĪÉĳËĲÉ¹ z
ĠvËĪÉĶÉªs áµ»z
ĠsËĮÉª tÊĥuËĲ
Ġ oÊĬ
Ġs ËĪaÉªk
ĠÉĽÉ¡zËĪÃ¦kt li
Ġsp ËĪÉĽl
Ġs ËĪÉĳËĲl
m ËĪÉĳËĲ
Ġm ËĪÉĽ
Ġp ÉĻst
Ġb ËĪÉªÉ¹
ĠÉ¡ÉĻ ÊĶn
ĠÉ¾ ÉĻst
ĠÉ¹áµ»p ËĪiËĲt
Ġk ËĪÉªst
Ġt ÉĻt
ĠÉ¹ËĪoÊĬ m
ĠplËĪeÉª Éļ
ĠËĪÉĽl ËĪeÉª
ĠÉ¹Éª ËĪÃ¦lÉªÉ¾i
b ÉľËĲ
b iËĲt
ĠnËĪaÉª f
ĠsËĪiËĲkÉ¹ áµ»
Ġm ËĪÉªz
ĠtÉĻk ÉĻn
ĠmËĪuËĲn laÉªt
Ġskw ËĪÉĳËĲd
ĠkwËĪÉĶËĲÉ¹ É¾Éļ
Ġst ËĪÊĬd
ĠbËĪuËĲ ts
ĠÉĽndÊĴ ËĪÉĶÉª
ĠtÊĥ ËĪoÊĬk
ĠfÉ¾ÉĻnd z
Ġsn ËĪÃ¦p
áµ»n ËĪeÉªÊĥÉĻn
ĠËĪeÉª k
ËĪiËĲv Éļ
ĠsÉĻt ËĪi
Ġb ËĪÉªÉ¾Éļ
ĠbÉ¹ ËĪiËĲz
ĠsËĪÉªst ÉĻm
j ÉĲ
f ÉĻk
ĠËĪÉĽnÉļ dÊĴi
p Éļz
Ġs ÉĻs
ĠhËĪÃ¦p ÉªnÉĻs
ĠÃ°ËĪÃ¦t s
ĠtÉĻ É£
Ġm ËĪÉªÊĥÉĻn
ĠpÉ¹ ËĪÉªns
jÉĻ ËĲ
ĠlËĪaÉªk s
ÉĲ z
ĠÉ¹áµ» f
ĠmËĪÉªs Éªn
ĠkËĪÉªs áµ»z
ĠÉĽksp ËĪÉĽkt
ĠÉ¹ ËĪÊĮb
Ġv ËĪÃ¦n
ĠpËĪÉľËĲ p
n ÉĻt
ĠkËĪoËĲÉ¹ s
ĠpÉ¹ËĪaÉªv ÉĻt
Åĭ kÉ¹
ËĪÉªÉ¹ i
ĠtÊĥËĪÉĳËĲÉ¹ dÊĴ
ĠÉ¹ ËĪÉªk
ĠÎ¸ËĪÃ¦Åĭ ks
Ġw ËĪÉªz
ĠÉ¡ ËĪÊĮ
ĠÉĲd ËĪÉªktáµ»d
ĠsËĪÉªÉ¹ iÉĻs
Ġ ËĪÉĳËĲÉ¹t
ĠsËĪoÊĬl oÊĬ
st ËĪÉĳËĲp
ĠlËĪaÉª d
ĠÉ¹ËĪoÊĬ li
ĠdÊĴ ËĪÉĳËĲ
Ġpl ËĪÉĽnti
oÊĬk ËĪeÉªn
ĠkËĪÉĽÉ¹ z
ÉĻt ÉĻd
ÉĳËĲ t
Ġdáµ» stÉ¹
ĠaÊĬ t
ĠsËĪÃ¦ É¾Éļ
ĠkÉ¹ ËĪoÊĬ
ĠsËĪÉĶËĲ s
l ÉĻn
ĠwÉĻ nd
f Éļ
ĠkÉ¹ ËĪÊĮÊĥ
l t
ËĪuËĲ f
ĠËĪeÉª É¾i
Ġp ËĪÉĳËĲm
ËĪÃ¦t Éªn
ĠstËĪÉĳËĲÉ¹ É¾ÉªÅĭ
ĠbÉ¹ ËĪÉĶËĲd
ĠkËĪaÊĬnt ÉªÅĭ
ÉĲstÉļÉ¹ËĮÉªsk ÉĲstÉļÉ¹ËĮÉªsk
ĠsËĪiËĲkÉ¹áµ» ts
m ËĪiËĲ
ËĪÃ¦p i
ĠhÉĻl p
w ÉªÃ°
ĠtÉ¹ ËĪÉªÉ¡
ĠkÉĻmpl ËĪiËĲt
Ġb ËĪÊĮntÊĥ
ËĪak ÉĻn
ËĪÉĶËĲÉ¹ tÊĥ
ĠnËĪaÉªn ti
ĠÉ¹áµ» k
ĠsËĪÃ¦É¾Éļ dËĮeÉª
l ÉĻm
ËĪÉĽ É¾i
ĠsËĪÉĳËĲÉ¹ oÊĬ
ĠlËĪÉĽdÊĴ ÉĻnd
ĠËĪÊĮÃ°Éļ z
t ËĮaÉªm
ËĪÉĽ bÉĻl
ĠÎ¸É¹ËĪoÊĬ t
h ËĪÉªÉ¹
ËĮÉĻ yn
m ËĪÉĽn
ĠkËĪoËĲÉ¹ ÉĻs
b ËĮÊĮt
ËĪÉª É¾
ĠpËĪÃ¦ Î¸
Ġk oÊĬkËĪeÉªn
ËĪÉĻ Ã°o
ĠÎ¸É¹ËĪoÊĬ ÉªÅĭ
ĠsÉļÉ¹ ËĪÉĽndÉļ
áµ» f
Ġsk É¾ÉĻm
Ġl ÉĻsÉĻn
Ġl ËĪÉĽm
ĠfËĪÃ¦nt ÉĻsi
Î¸ É¹
ËĪÃ¦k ts
ĠfÉ¹ ËĪiËĲz
ĠtÉĻÉ£ ËĪÉĻÃ°o
ĠfËĪoÊĬk ÉĻs
ĠÉĻ pÉĻn
ĠÊĥ ËĪiËĲts
ÉĳËĲ x
ĠdËĪaÉª v
ĠÉ¹ËĪiËĲz ÉĻnz
ĠhËĪeÉª É¾ÉªÅĭ
Ġk É¾ÉĻs
b ËĪÉĶÉª
ĠÉĲp ËĪÉĳËĲlÉĻdÊĴ
ĠÉ¡ ËĮÉĻyn
ĠstËĪÉĳËĲp t
Ġsp ÉĻk
Ġfl ËĪÊĮd
ĠhËĪÉĳËĲp Éªn
ĠsËĪÉªkst iËĲn
Ġd ËĪÃ¦Êĥ
Ġf ËĮaÉª
ËĪÊĮm pt
ĠnËĪeÉªb Éļ
Ġm ËĪÉªkst
ĠstËĪÃ¦nd Éªn
ĠmËĪÉªn Éªts
ĠkËĪÉĳËĲm pl
Ġn ËĪÃ¦tÊĥ
ËĮeÉª n
ĠpËĪÊĬl ÉªÅĭ
ĠËĪÉĳËĲn tÊĬ
w ËĪÉĻn
ĠÉ¡ËĪÉªv z
ĠÉªm pÉ¹
Ġt ËĪÃ¦p
Ġsn ËĪÉªtÊĥ
ĠpÉ¹ËĪeÉª ÉªÅĭ
h ËĪaÉª
ËĪoÊĬ t
ĠsËĪiËĲz ÉĻn
ĠfËĪÉĽd z
ËĪuËĲ oÊĬ
ĠËĪoÊĬ p
ĠtÉ¹ ËĪeÉªd
ĠËĪÃ¦k ÊĥÉĻn
ĠspÉ¹ ËĪÉªÅĭ
ĠtÊĥËĪÉĳËĲp Éļ
sÉĽ t
Éªn ÉĻl
Ġsm ËĪuËĲ
Ġk jËĪÊĬÉ¹
Ġt ËĪÉĽndÉļ
Ġk ËĪÃ¦s
ĠÉªmËĪoÊĬ ÊĥÉĻn
ĠtÊĥ ËĪÃ¦mp
ĠwÉĻt ÉĻÅĭ
ĠËĪ ÉªÊĥ
Ġs ËĪoËĲÉ¹
ĠÉ¹ ËĪeÉªndÊĴ
ËĮÉĽm áµ»n
Ġkl ËĪÉªk
É¹ Éªs
Ġv ËĪÃ¦l
ĠtÊĥËĪeÉªndÊĴ áµ»z
ĠÉ¡É¹ ËĪÉªp
ĠbÉĻ Î¸
ĠlËĪÉªm Éªt
h ËĪoÊĬld
ËĮÉª st
ĠÊĮ nd
ĠÊĮn tÉĻl
ĠhËĪÉĽl ÉĻ
ĠhËĪÃ¦Åĭ É¡Éªn
ÊĴ Éļz
Ġskw ËĪiËĲz
ËĮÉĽmáµ»n ËĪÉªs
st ÉĻn
ĠmËĪÊĮ d
w ËĪaÉªnd
ËĮÉ ĶËĲl
ËĪÉĻv o
Ã¦ Ã¦
ËĪeÉªm d
ĠmËĪaÉª l
Ġspl ËĪÉªt
ĠÉªÉ¡n ËĪoËĲÉ¹
l ÉĻz
ĠjËĪuËĲ Î¸
ĠÉĻ ftÉĻ
ĠpÉ¹ËĪÉĳËĲm Éªst
Ġb ËĪoËĲÉ¹
ĠfËĪÃ¦n z
Ġl ÉĻz
Ġp jËĪÊĬÉ¹
ĠpËĪÊĬ É¾ÉªÅĭ
Ġsk ËĪoËĲÉ¹
ĠtÉ¹ Ã¦n
ft aÉªm
ĠÉ¡ËĪÉĻ z
ĠmËĪÉĳËĲ Î¸ÉĲfËĮÊĮk
ĠÉ¹ ËĪÉĽnt
haÊĬ s
Ġ ËĪÉĽ
ĠËĪ ÉªÉ¡
ĠwËĪÉªs pÉļ
ËĪiËĲ Êĥ
pt ÉĻn
ĠÊĥ ËĪÉĳËĲÉ¹
Ġv ËĪeÉªnz
Ġm ËĪÉĳËĲb
ĠbËĪÉľËĲn Éªn
É¡ ËĪÉĳËĲt
Ġst ËĪuËĲd
ĠstÉ¹ ËĪÉĽtÊĥ
ĠÉ¹ËĪuËĲ d
Ġp ËĪÉĶÉªz
ndÊĴ ÉĻ
Ġd ËĪaÉªn
ĠmËĪÊĮ Åĭk
Ġd ÉĻt
ĠwËĪeÉª É¾áµ»d
ĠflËĪeÉªm z
ĠËĪÉĽkst É¹ÉĻ
t ËĪaÉªm
ĠÉ¡ ËĪÉªft
ĠlËĪÉĽs ÉĻn
ĠËĪÊĮÉ¡ li
k ËĪiËĲp
Ġm ÉĻnt
Ġd ËĪa
ĠwËĪeÉªst ÉªÅĭ
É¹ ËĪÊĮn
Ġm ÉĻdÉĻ
ĠmËĪÃ¦É¹i d
ËĪÃ¦ dÊĴ
ĠÊĥËĪuËĲ É¾ÉªÅĭ
ÉĻmÉĻnd z
ĠwËĪaÉª z
ĠnÉĻk st
Ġk ËĪÃ¦l
ĠbËĪÉľËĲ nd
Ġh ËĪÉĶËĲnt
ÉĲ s
Ġz ËĪiÉĻÉ¹oÊĬ
ĠkËĪÃ¦ b
ĠhËĪiËĲl z
p Éªt
Ġt ËĪÃ¦
Ġt ËĪÉªÅĭ
ĠbÉ¹ ËĪeÉªv
b ËĪuËĲm
ËĪÉĽl i
ĠbËĪÉĳËĲ Ã°Éļ
ĠÉªn f
ĠfËĪÉĶËĲÉ¹ m
ĠlËĪaÊĬd Éļ
ËĮÃ¦ k
ĠwËĪÉĽÉ¹ ÉĽn
ÉĻp s
Ġt ÉĻz
ĠkËĪa tÊĥ
Ġp ËĪÉªs
ĠsËĪÉĽlÉĻbÉ¹ ËĮeÉªt
Ġm ËĪato
ĠÉ¹áµ» t
ĠbÉªÉ¡ ËĪÊĮn
ĠÉ¡ É¾ÉĻnd
ĠwËĪÉªt nÉĻs
ĠÉ¹ËĪoÊĬz áµ»z
ĠÉ¹ ËĮÉĽmáµ»nËĪÉªs
Ġsl ÉĻ
ĠpÉ¹ËĪÉĳËĲ dÊĴ
É¹ ÉªÅĭ
Ġf ËĪÉªÉ¹z
Êĥ Éªp
Ġfl ËĪuËĲ
ĠÉ¡É¹ ËĪuËĲp
ĠbÉ¹ËĪÉªÅĭ z
ĠdÉ¹ ËĪÉªÅĭks
Ġkl ÉĻ
Ġt ËĪÉªm
ĠtÊĥËĪÉªl áµ»n
v i
Ġd ÉĻs
ËĪÉĻt i
ĠËĪÉĳËĲ b
ĠwËĪÉªs ki
Ġbl ËĪeÉªz
ËĪÃ¦p s
ĠmËĪaÉªnd z
Ġdáµ» m
ĠkwËĪÉĽst ÊĥÉĻnz
ĠÉ¹áµ» fl
ĠmËĪiËĲn ÉªÅĭ
ĠsËĪÉĽl ÉªÅĭ
s ËĮiËĲ
Ġw ËĪÉªk
Ġ[?] ,
ĠÉĻk ËĪÉĻ
ĠdÊĴËĪaÉª ÉĻl
ĠtÊĥ ËĪÉĳËĲ
ĠhËĪÉĽd áµ»d
ĠÉªt ËĪÉľËĲn
ĠÊĥ ËĪÉĽd
ĠÉ¾ÉĻn ÉĻÅĭ
ËĪeÉª É¾i
ĠÉĽÉ¡z ËĪÉªst
ĠÉ¡ ÉĻv
hËĪÃ¦Êĥ j
s m
Ġb ËĮiËĲËĮÉĳËĲÉ¹É¹
ĠËĪÉĽn ÉªtËĮaÉªm
ĠfËĪÉĶËĲÉ¹ É¾i
p i
Ġp ËĪeÉªs
ÉĻÅĭ É¡
Ġfl ËĪÃ¦t
ËĮa Éªn
É ĶËĲlÉ¹
ËĪÉĽ É¾Éļ
ĠwËĪÉĳËĲtÊĥ t
ĠÉ¹ËĪÉĽk ÉĻÉ¡n
Ġst ËĪÊĮm
ËĪeÉªm z
p ÉĻt
ËĪeÉª É¡
É¾ ÉªtËĮuËĲd
ĠËĪÉĶf ÉĻn
ĠfËĪÃ¦ ÊĥÉĻn
Ġs ËĪÊĮni
ĠdÉĻ É¡
ĠbËĪÃ¦k w
ĠkÉ¹ËĪaÉª st
ĠdÊĴËĪÉĳËĲn i
f Éªt
ĠnÉĻ Î¸ÉĻn
ĠÉĻz ÉĻ
ÉĻf ÉĻl
ĠmÉĻn ËĪi
ÉĻÉĻ ËĪÉĻ
Ġl ËĪÉĳËĲ
ĠlËĪÉĽ É¡
ĠlËĪÉĶÉª ÉĻl
nËĪaÉªn ti
ĠfËĪÉªft iËĲn
Ġt ËĪÉĻ
skËĮeÉª ËĮÉĳËĲÉ¹tËĪiËĲ
ĠdÉªs É¡
pÉ¹ áµ»z
ÉĻm ÉĻm
ĠsËĮÉª É¡ÉļÉ¹
ËĮÉ ĶËĲÉ¹
ĠtËĪoÊĬ st
Ġs ËĪÃ¦Åĭ
Ġb ËĪÊĮbÉĻl
ĠfËĪuËĲl z
Ġs ËĪeÉªk
Ġsp ÉĻt
juËĲ m
ĠÉ¹áµ»l ËĪÃ¦ks
ĠhËĪÃ¦ b
ĠnËĪeÉªm z
Ġk ËĮÉĳËĲm
Ġkl ËĪaÊĬn
ĠdËĪeÉªndÊĴ Éļ
ĠkËĪoÊĬ t
ĠhËĪÉĳËĲl ÉªdËĮeÉª
Ġh ÉĻvÉĻn
Ġp ËĪa
Ġ ËĪÉĽk
ËĪÉª ÊĴÉĻnz
ËĪeÉª nd
Ġw ÉĻmÉĻn
ĠlÉĻk ÉĻn
ĠdÉ¾ÉĻm z
ÉĻns i
Ġd Éªv
Ġk ËĪuËĲ
Êĥ ËĮÉª
ĠsÉĻ f
ĠsËĪÃ¦v ÉªdÊĴ
ĠtËĪÉĽl z
Ġp ËĪÊĮf
ĠskÉ¹ ËĪÃ¦tÊĥ
ĠmËĪÉªz ÉļÉ¹i
É¡ ËĪÉªv
ĠlÉĻn lÉĻ
ĠdÉ¹ ËĪÉĶËĲ
ĠskÉ¹ËĪiËĲm Éªn
ĠÉ¡ ËĪÃ¦
É¾ÉĻs k
ĠlËĪaÉª ftaÉªm
ĠmËĪÉĽl ÉĻdi
ĠÉ¹ËĪÉª ÊĶn
ĠkÉĻmpl ËĪeÉªn
Î¸ ÉĻ
ĠsËĪÉľËĲ ÊĶn
ĠkËĪeÉª dÊĴ
ĠtËĪÉªk Éªt
ĠmÉĻ Î¸
ĠsËĪÉªÅĭ É¡Éªn
j j
Ġw ËĪoËĲÉ¹
Ġt ËĪÉĳËĲ
Ġp É¾ÉĻm
ĠsËĪiËĲ k
ĠdÊĴ ËĪÉĶËĲÉ¹
ĠÉĻl s
ĠnËĪÊĮm bÉļz
ĠpÉļ s
Ġsw ËĪÉľËĲv
ĠÉ¹ËĪeÉª dÊĴ
ĠtËĪÊĮtÊĥ t
m ËĪoËĲÉ¹
Ġpl ËĪeÉªt
ĠËĪÃ¦ Åĭ
ĠpÉ¹ ËĪÉĳËĲp
ËĪiÉĻ É¹Éª
ĠdËĪÉĳËĲÉ¹ lÉªn
ĠbËĪÉĽÉ¡ ÉªÅĭ
É£ ËĪo
ĠËĪiËĲ É¾ÉªÅĭ
ĠbËĪÉĶÉª fÉ¹ÉĽnd
ËĪÉĳËĲtÊĥ i
ĠÉ¹áµ»m ËĪeÉªn
ĠfËĪÉĶËĲÉ¹ Î¸
Ġf ËĪÉªst
Éªn i
ĠwËĪaÉª p
ËĪÉªÊĥ ÉĻs
ĠfÉ¹ËĪiËĲk i
ËĮeÉªtÊĥ sáµ»É¹ËĮÉªlÉªkjËĪÉĽËĲ
Ġd ËĪÉĽf
ĠÊĥËĪeÉªk ÉªÅĭ
ĠmËĪÉĶn stÉļ
Ġk ËĪÉľËĲs
m ËĪeÉªk
Ġw ËĪÊĬl
ĠËĪÃ¦ É¹ÉĻn
ĠhËĪÉĳËĲÉ¹t biËĲt
jËĪÉĽËĲ ËĪÉĳËĲÉ¹
Ġa ÊĬÉļ
ĠÉ¹ËĮÉĽ pÉ¹áµ»z
ĠfËĪÊĮÅĭk i
ĠsËĮÉªtÊĥuËĲ ËĪeÉªÊĥÉĻn
ĠsËĪÉĽl áµ»n
ĠsmËĪuËĲ Ã°
ĠkÉĻm ÉĻz
ĠbÉ¹ËĪÉªÅĭ ÉªÅĭ
ĠkËĪÉĳËĲÉ¹d z
d ËĪÊĮm
Ġf ËĪÉĻ
ĠdÉ¹ ËĪÉªpÉªn
ĠmËĪaÊĬntÉªn z
vÉĻl ËĪuËĲÊĥÉĻn
Ġh ÉĻnd
ËĪÉªsk oÊĬ
ĠmËĪÊĮ nd
ĠbËĪÉĽd É¹uËĲm
Éª É¾ÉĻl
ĠlËĪoÊĬd áµ»d
ËĪÉĽnd ÊĴ
ĠhËĪÉľËĲ É¾ÉªÅĭ
ĠbÉ¾ÉĻ Ã°ÉĻ
ĠdÊĴ ËĪÊĮÅĭ
ĠÊĥËĪÊĬd ÉĻ
aÊĬ nd
ĠÉ¹ËĪaÉªz ÉªÅĭ
ĠwËĪÉĶnt ÉªÅĭ
ĠspÉ¹ ËĪeÉª
ĠÉĻ tÊĥ
st aÉªl
ĠmËĪÉĽl t
ĠsmËĪaÉªl ÉªÅĭ
ĠplËĪÃ¦n Éªt
Ġj ËĮuËĲ
ĠdËĪÊĮbÉĻl jËĮuËĲ
ĠfËĪÉĶËĲl ÉĻn
ÉĽ d
Ġm ËĪÉĶËĲl
ËĮÉĳËĲ s
ĠdÊĴ ËĮÉĽn
ĠsËĪÉĽvÉĻnt ËĮiËĲn
Ġl ËĪeÉªk
Ġp ËĪÊĮb
Éª nd
Ġs ËĪÉªli
ĠlËĪaÉªt nÉªÅĭ
tÊĥuËĲ ÉĻli
ĠtÉ¹ ËĪÃ¦Êĥ
pÉĻn i
ĠkËĪÉªl Éļz
ĠsËĪeÉª nt
ĠkËĪÉĳËĲn t
ĠwËĪiËĲl z
s ËĪÉªkst
ĠÊĥ ËĪaÉª
Ġd ËĪÉĽk
Ġd ÉĻv
ĠpËĪeÉª Êĥ
ĠpÉ¹ËĪÉĽÊĥ ÉĻs
ĠmËĪa d
fËĪÉªft i
Ġh ËĪÉĳËĲm
ĠstÉ¹ ËĪaÉª
Ġh ÉĻÉĻ
w ËĮÉĻt
ĠlËĪaÉª Éļ
ËĪÉªz i
Ġkl ËĪiËĲk
ĠdËĪÉªn Éļ
ĠkÉĻnf jËĪuËĲzd
Ġb É¾
Ġw ËĪÉĻnt
ĠwÉĻ p
Ġfl ËĪÃ¦É¡
d ËĪÊĮbÉĻl
Ġk ËĪÃ¦st
aÉª Éļ
ĠpËĪÉľËĲ k
ĠsËĪoÊĬl z
ĠËĪÃ¦nÉªm ÉĻl
É¹ áµ»fËĮaÉª
oÊĬ n
ĠÎ¸ËĪÉªÅĭ ks
ĠbËĪeÉªbi z
ĠsÉĻ tÊĥ
ĠkÉĳËĲnvÉļs ËĪeÉªÊĥÉĻn
ËĪÉĳËĲt s
ËĪÉĳËĲs Éªn
ĠÉ¹ËĮÉĽpÉ¹áµ»z ËĪÉĽnt
Ġd ËĪÉĽs
ĠaÊĬÉļ sËĪÉĽlvz
Ġ ËĮÉĽmËĮÉĽm
ĠtÉĻ st
ÉĶËĲlÉ¹ ËĪaÉªt
ĠÉ ĶËĲl
Ġst ËĪÉªks
Ġv Éļs
ĠvÉļs ËĪÉĳËĲtÊĥi
w ËĪÉĶn
Ġd ËĪÉĽn
Ġf ËĪiËĲvÉļ
st ÉĳËĲÉ¹
ĠhËĪa z
ĠpËĪÊĬÊĥ ÉªÅĭ
Ġd ËĪÉĽz
ÉĻd z
ĠhËĪÉªt Éªn
f ÉĻli
Ġáµ»l ËĪÉĽkt
ËĮ e
ĠËĮÉĽl ËĪeÉª
ĠtÉ¾ ÉĻÉĻÅĭ
ĠdËĪÉĽst Éªni
ĠËĪÉªÊĥ uËĲ
ĠËĪÃ¦sk Éªn
ĠtÊĥËĪÉªk Éªn
ĠËĪÉªÉ¹ z
f i
dÊĴ ÉĻs
ĠnËĪÉľËĲv ÉĻs
ĠpÉ¹ÉĻt ËĪÉĽkt
f ËĪiËĲl
ĠmËĪoÊĬ ÊĥÉĻn
ËĪÉªd Éª
taÉª m
ĠÉ¡ËĪÉĳËĲÉ¹d ÉĻn
ËĪÃ¦ li
ĠdÊĴËĪÊĮÅĭ É¡ÉĻl
Ġp ËĮiËĲ
ĠdÉ¹ ËĪiËĲ
ĠdÊĴËĪÊĮmp Éªn
stÉĻ É¾ÉĻsk
ĠpËĪÉĶÉªz ÉĻn
m ÉĽÉ¹
s áµ»z
ĠtÉ¹ ËĪÊĮÅĭk
ĠÉ¡É¹ ËĪÃ¦m
ĠÉĲdv ËĪaÉªs
ĠÉ¹ ËĪiËĲp
ÉĽ l
Ġsl ËĪeÉª
ĠËĮÉªn s
ĠsËĪÃ¦É¾ÉªsfËĮaÉª d
ĠÉ¹ËĪÉĽkÉĻÉ¡n ËĮaÉªz
p ËĪÃ¦k
Ġl ËĪÃ¦p
Ġv ËĪeÉªn
ĠÉ¹ËĪaÉª mz
ĠsÉĻm ËĪa
ËĪiËĲn oÊĬ
ĠmËĪeÉªb ÉĳËĲx
ÉĻ ËĪÉĻ
ĠÉ¹ ËĪÉªsk
ĠfÉ¹ ËĪÃ¦Åĭk
ËĪÉĶËĲÉ¹ dz
ĠsËĪÊĮdÉĻn li
É¡ ËĪÃ¦Åĭ
ĠtÊĥ ÉĻnsÉĻ
ĠstÉ¹ËĪÊĮÉ¡ ÉĻl
j ËĪeÉª
Ġst ËĪoÊĬnz
ĠtÊĥ ËĪÉªks
ĠnËĪeÉª tÊĥÉļ
Ġl ËĪÊĮÅĭ
ËĪeÉªÊĥÉĻn s
Ġs ËĪaÉªz
ĠËĪÃ¦ pÉĻl
ĠkËĪÊĮm pÉĻni
ĠpÉ¹ËĪÉĳËĲmÉªs áµ»z
ĠmËĪÊĮnd eÉª
Ġh ËĪÊĮm
ĠkËĪÃ¦ É¹
ĠÉ¹ ËĪÉĽbÉĻl
Ġfl ËĪÉĽÊĥ
ĠÉ¹ËĪÊĮn z
Ġk ËĪÉľËĲt
ËĪÉªÉ¹ d
ĠnËĪaÉªt mÉĽÉ¹
ĠpËĪÉĳËĲp ÉĻ
ĠmËĪÃ¦É¾Éļ z
Ġp ÉĻnt
ĠpËĪÊĬ ÊĶn
ĠpËĪÃ¦s ÉªÅĭ
ĠpËĪÉĳËĲÉ¹t n
ĠmËĪaÉª É¾i
ĠkËĪÊĮ Êĥ
ĠÊĥ ËĪeÉªp
ĠdÊĴ ÉĻn
ĠÉĻnd ËĪo
Ġs ËĪÃ¦m
ĠÉĲ pl
ËĪÉªÅĭ É¡ÉĻl
ĠmËĪÉªÉ¹ ÉĻkÉĻl
ĠhËĪÃ¦pÉĻn ÉªÅĭ
ĠÉ¡É¹ËĪÃ¦nd m
Ġs ËĮÉľËĲ
ĠbËĪÊĮ t
Ġ áµ»É¹
Ġv ËĮiËĲ
Ġpl ËĪeÉªz
Ġb É¾ÉĻt
ĠwÉĻd z
ĠÊĮn n
ĠËĮoÊĬv ÉļÉ¹
Ġp ËĪÊĮm
ĠÎ¸ ËĪÉľËĲd
ĠspËĪiËĲk ÉªÅĭ
Ġt É¾ÉĻd
Ġp ËĪÉªn
Ġbl ËĪoÊĬz
ĠkËĪÉªs ÉªÅĭ
ĠtÊĥ ËĪuËĲ
ËĪÃ¦ns i
ĠËĪ ÉĻÉĻ
Ġb ËĪeÉªl
ĠÉ¹ ËĪÉĽÉ¡
ĠÉĻÉĻÉĻÉĻÉĻÉĻÉĻÉĻÉĻÉĻ ÉĻÉĻÉĻ
ÉĳËĲ k
ĠdÊĴËĪÊĮmp ÉªÅĭ
ÉĻÉĻ z
Ġs ÉĻz
ĠtÉ¹ËĪuËĲ li
ĠjÉĻs ËĪÉĻlf
ĠdÉªzËĪaÉªn Éļ
Ã¦ z
ĠÉ¹ËĪaÉª É¾ÉªÅĭ
ĠsÉĻÅĭ É¡
ĠpËĪÊĬl áµ»n
ĠwÉĻk ÉĻÅĭ
Éª ÉĻs
Ġt ËĪoËĲÉ¹
ÉĲn ËĪÉĽl
ĠËĪÉĽnd ÉªÅĭ
ĠlËĪÉĳËĲt s
ĠwÉĻnt ÉĻd
d ËĪÃ¦ns
ĠjËĪuËĲ ÊĴuËĲ
ĠhÉĻnd É¾ÉĻd
Ġt ËĪÉĶËĲÉ¹n
ĠÉ¹áµ»l ËĪÉªdÊĴ
- ,
ĠËĪÉªn st
ĠhËĪeÉª z
ĠtÉ¹ËĪÉªp ÉªÅĭ
ĠkËĪoËĲÉ¹ t
Ġw ËĪÉĶl
ĠhËĪÊĮndÉ¹Éªd z
ÉĻ wËĮeÉª
ĠÉĻb s
ĠbËĪÃ¦ Î¸
ĠÉ¹ËĪiËĲ k
ĠtwËĪÉªst áµ»d
ĠstÉ¹ ËĪaÉªk
ĠÉĻnËĪy Î¸ÉĻÅĭ
ĠtÉ¹ËĪÉªÉ¡ Éļ
ĠmËĪÊĮÅĭk i
Ġf ÉĻv
Ġp ËĪÊĮÅĭk
ĠflËĪoÊĬ É¾ÉªÅĭ
ĠtÉ¹ËĪÃ¦p t
ĠkËĪÃ¦t s
ĠpËĪÉĳËĲp ÉªÅĭ
ĠkËĪÃ¦m É¹ÉĻ
p ËĪÉĽkt
Ġb ËĪoÊĬl
ĠÉ¹ËĪeÉªn boÊĬ
ĠmËĪaÉªk ÉĻl
ĠbËĪa É¡
Ġd Éªt
ĠdËĪaÉª s
ĠmÉĻn ÉĻÅĭ
ËĪa É¡
Ġd ÉĻÉĻn
Ġp ËĪeÉªÊĥÉĻns
ĠpÉĻ Êĥ
Ġm jÉĻz
ÉĻÉĻÉĻÉĻ ÉĻÉĻÉĻÉĻÉĻ
ĠkËĪaÊĬnt Éªn
ĠmËĪÉľËĲ d
Ġw ËĪÃ¦n
ĠÉ¹ËĪoÊĬ ld
Ġd ËĪÉĻÉĻÅĭ
Ġk ËĪÉªks
ĠfËĪÉĶËĲÉ¹ wÉļd
Ġl ËĪÉĶs
ĠÉª Åĭk
É¡ ËĪÉĳËĲd
ĠdÊĴ ËĪeÉªn
ĠhËĪa pÉĻn
ĠmaÉª ËĪÃ¦mi
Ġw ËĪÉĶËĲks
Ġn ËĪÃ¦s
ĠËĪÉĽnd lÉĻs
Ġh ËĪÊĮnt
Ġn ËĪeÉªÊĥÉĻn
ĠdÊĴ ËĪÉľËĲ
Ġt ÉĻdÉĻ
ĠËĮÉĻn i
ËĮa ÊĬ
É¹ Éªd
ĠfËĪeÉªd ÉªÅĭ
ĠmËĪÊĮ Î¸ÉĲfËĮÊĮk
ĠsËĪoÊĬ bÉļ
ĠÊĥËĪuËĲt Éªn
ĠdÉĻf É¾ÉĻnt
h ËĪÉĳËĲp
ĠÉ¾ ÉĻnd
ĠÉ¾ ÉĻf
ĠkÉĻm ÉĻn
l ËĪÉªÉ¹Éªks
Ġd ÉĻtÉĻ
ĠÎ¸ ËĪÉľËĲst
s oÊĬ
ĠmÉĻÃ°ÉĻf ÉĻk
ĠwËĪÉªk áµ»d
k juËĲ
st ËĪand
ĠdÉ¹ ËĪoÊĬv
ĠpËĪÉªk t
ĠËĮÊĮndÉļÉ¹ ÉĻÉĻÉĻÉĻÉĻ
Ġd ËĪÊĮb
ĠÉ¡É¹ ËĪiËĲd
Ġsl ËĪiËĲv
Ã° ËĪoÊĬ
h ËĮÊĬd
ĠÉĲ ks
ĠmÉĻ v
ĠstËĪoËĲÉ¹ iz
ĠpËĪaÉª p
Ġw ÉĻns
Ġpl ËĪÉĽÊĴÉļ
ĠÉĻt s
ËĪÉªk ÊĥÉĻn
ËĮÃ¦É¹ ÉĻnt
st Éļz
ĠÊĥ ÉĲnËĪÉĽl
ĠbÉĻ b
ĠlËĪÉĽ Ã°Éļ
Éª bÉĻl
Ġt ËĪÊĮk
Ġn ËĪÉĶËĲ
Ġp ÉĻf
ĠkÉĻd ÉĻn
Ġm ËĪÃ¦t
ĠÊĥ ËĪoËĲÉ¹
ĠbÉ¹ËĪeÉªk Éªn
ĠstËĪeÉª ÉªÅĭ
ĠsÉĻ É¾ÉĻ
ËĮuËĲ z
ĠbÉ¾ÉĻk ÉĻn
ËĪÉĳËĲz Éªt
pl ËĪiËĲz
ĠÉ¡ ËĮÃ¦É¹ÉĻnt
ĠËĪÃ¦ É¾ÉªtËĮuËĲd
k Éªn
áµ»t ËĮeÉªt
ËĪÉª ÊĥÉĻnz
Ġs ËĪÉªpÉªÅĭ
ĠÉª É¹
ĠtËĪÉľËĲn Éªn
ĠmËĪÉĽn ÊĥÉĻn
ĠtÉ¾ÉĻ Î¸
b Ã¦
ĠdÊĴ ËĪiËĲn
ĠwÉĽÉ¹ËĪÉĽvÉļ É¹
Ġw ËĪÃ¦k
ĠkÉ¹ ËĪÉĶst
ĠÉªmËĪoÊĬ ÊĥÉĻnz
ĠsËĪÉªkst i
Ġs ËĪÃ¦t
ĠstÉ¾ÉĻ Åĭ
ÉĻt li
Éªd ÉĻns
ĠsËĪÉĻm Î¸ÉĻn
h ËĪiËĲ
ĠtÉ¹ ËĪÃ¦ks
ËĮÉľËĲ s
ĠËĪÃ¦ ÅĭÉ¡
ĠpÉ¹ Éªp
Ġt ËĪÊĮn
ËĮeÉªtÊĥ ËĪeÉªtÊĥ
ĠÊĥËĪeÉªd z
Ġb ËĪeÉªk
Ġsn ËĪÉªp
ĠaÊĬ É¾
ĠÉ¡ É¾ÉĻn
ĠkÉĻnt É¾ÉĻl
ĠtÊĥËĪÉĳËĲp ÉĻ
ĠÊĥ É¹
Ġ ËĮÉĶËĲ
Ġsl ËĪÃ¦p
ËĪÊĮtÊĥ ÉĻ
ĠÉ¹ËĪÃ¦p Éªn
Åĭk ÉĻl
ĠdÉ¹ËĪaÊĬn ÉªÅĭ
ĠÉ¡ËĪÉªl ti
w ÉľËĲ
Ã¦ hËĪÉĳËĲhÉĻ
Ġd ËĪÉĳËĲm
ĠÉ¹ ËĪÉĽÉ¹
h ËĪÉĽl
ĠnËĪoÊĬ t
Ġv ËĪÉªdÉª
ĠbËĪÉľËĲn z
Ġt ËĪeÉªp
ĠÉĲ fËĪoËĲÉ¹
ÉĲ v
t ËĪeÉªn
ĠmjÉĻz ÉĻk
ËĪÉª É¾ÉªÅĭ
ĠdÊĴËĮÉĽn ÉļÉ¹ËĪeÉªÊĥÉĻn
Ġf ËĪuËĲ
ĠwËĪÉĶËĲÉ¹n ÉªÅĭ
Ġl ËĪÉªÉ¹Éªks
Ġ( "
ĠdÊĴ ÉĻmp
ËĪoÊĬn ÉĻ
ĠtÉ¾ÉĻ st
ĠspËĪÉĽnd ÉªÅĭ
ĠËĪÉĳËĲÉ¹m i
Ġw ËĪÉªÉ¡
ĠdËĪaÊĬn taÊĬn
ĠsËĪuËĲ ÉªsËĮaÉªd
ĠmËĪÉĻk ÉĻÅĭ
ĠmËĪÉªli ÉĻnz
Ġst ËĪÃ¦ks
ÉľËĲ s
Ġkl ÉĻb
ĠpËĪÉĳËĲp t
ĠÉĲd ËĪoËĲÉ¹
Éª lËĮÃ¦
Ġw ËĪÉªpÉªn
Ġpl ËĪÃ¦stÉªk
lÉĻ b
É¾ Éªv
ĠdÉ¹ËĪiËĲm d
b ÉĶËĲl
ĠÉ¡ É¾
Ġf ËĪÃ¦kts
ĠmËĪÊĮn Î¸s
ĠÉĶËĲl Ã°ËĪoÊĬ
h ÉĳËĲhËĪÉĳËĲ
ĠhËĪoÊĬ plÉĻs
ËĮÃ¦ dÊĴ
Ġp ËĪÊĮntÊĥ
ËĪÃ¦f Éªk
ĠdÉ¹ ËĪÉªvÉªn
ĠdËĪÃ¦m ÉªdÊĴ
ĠkËĪÊĮv Éļd
Ġsm ËĪÉĳËĲÉ¹t
ĠÊĥÉĻt ÉĻ
ĠtÉ¹ËĪÊĮbÉĻl z
ĠblËĪiËĲd ÉªÅĭ
ĠÉĲfËĪoËĲÉ¹ d
Ġp ÉļÉ¹
Ġst ÉĻz
ĠÉĻl ÉĻvÉĻ
Ġdáµ»p ËĪÉĽnd
ĠtÊĥ ËĪiËĲt
ĠskÉ¹ ËĪiËĲn
ĠslËĪiËĲp Éªn
ĠfËĪÉªnÉªÊĥ t
Ġk ËĪoÊĬl
Ġp ËĪaÉªn
ĠÉĽm bÉ¹
ĠÉ¹ËĪÊĮ bÉļ
ĠdÉªsÉ¡ ËĪaÉªz
ÉĳËĲ p
ĠpËĪoËĲÉ¹ ÉªÅĭ
ĠfËĪiËĲ nd
ĠÊĥËĪoÊĬld Éļz
ĠbËĪÊĮÉ¾Éļ fl
Ġb É¾ÉĻn
Ġsp ËĪÉªl
ĠkÉ¹ËĪoÊĬ m
ĠhËĪÃ¦ m
Ġsk ËĪiËĲm
Ġsl ËĪÃ¦m
ĠbÉªÉ¡ ËĪÃ¦n
ĠÉ¹ËĪÉĽk Éļdz
ĠÉĲt l
ĠdËĪy z
Ġv ËĪÉªl
ĠÊĥËĪaÉªn z
hÉĻl ËĪoÊĬ
Ġm ËĪÃ¦p
ĠtËĮiËĲ ËĮeÉªtÊĥsáµ»É¹ËĮÉªlÉªkjËĪÉĽËĲ
Ġm Ã¦
ĠÉĲ Êĥ
ĠÉ¹ËĪeÉªn z
Ġl ËĪeÉªbÉĻl
ËĪeÉªd z
ĠhÉĻt s
ĠfËĪaÉªn ÉĻl
ÉĳËĲÉ¹ t
ĠsËĪÃ¦k É¹áµ»fËĮaÉª
Ġ ËĪÉĽv
ĠtÊĥËĪÃ¦ns áµ»z
Ġk ËĮÃ¦
ĠdÊĴ ËĪÊĮmpt
ĠdËĪaÉª Éªn
ĠpÉ¾ÉĻt ËĪi
Ġt ËĪÉĳËĲÉ¹
ĠdÊĴ ÉĻl
Ġkw ËĪÉĽ
ĠhËĪÉĳËĲÉ¹d li
ĠmËĪÊĮn Î¸
bÉĳËĲ ks
ËĪa ks
eÉª d
ĠdËĪÉª dÊĴ
ĠbÉ¹ ËĪÉĳËĲ
ĠfËĪÉĶËĲÉ¹ tÊĥ
ĠhËĪÉĳËĲÉ¹ É¾
ËĪÉĻ s
Ġv ËĪeÉªÉ¡
ĠlËĪeÉª ÉªÅĭ
ĠËĪÉĳËĲÉ¹ É¡
ĠkËĪÉªÅĭ dÉĻm
ĠÉªmp ËĪÉĳËĲsáµ»bÉĻl
ĠpËĪÉªl oÊĬ
boËĲÉ¹ d
Ġb ËĪÊĮÉ¡
ĠsËĪaÉªd z
ĠmËĪÉĳËĲ dÉĻl
ĠwËĪeÉªk ÉªÅĭ
ĠÉªmp ËĪoËĲÉ¹t
ĠÉ¹áµ»f jËĪuËĲz
Ġt Ã¦
ĠÉ¹áµ» wËĪaÉªnd
f Éļt
ĠtÊĥ ËĪÃ¦sÉªn
ĠsËĪÉľËĲk ÉĻl
Ġl ËĪÉªÅĭk
ĠwËĪÉªn ÉªÅĭ
É¹ Éªn
ĠÉ¡ ËĪÃ¦t
Ġ ËĪÉĽnt
ËĪÊĮn ts
ĠhËĪÊĮ É¡
ĠÊĥËĪuËĲ É¾Éļz
ĠlËĪÊĮÅĭ z
k ÉĻn
ĠnËĪÊĮ ts
ĠdËĮÉªs É¹Éªs
ÉĽk ts
Ġdáµ» sp
ĠstÉ¹ËĪeÉªndÊĴ Éļz
ËĮÉĳËĲ p
l aÉª
ÉĻn ËĮÉªn
ĠtÉ¹ ËĪÉĽntÊĥ
ĠËĪÃ¦ns Éļz
ĠmËĪÉĽ É¾ÉĻl
l ÉĻk
ĠdÊĴËĪuËĲ n
Ġs ÉĻÉĻÅĭ
ËĪiËĲ tÊĥ
ĠkÉĻl ÉĻÅĭ
ĠstÉ¹ËĪÃ¦p t
ĠhËĪÃ¦ mÉļ
ÉĻnd ÊĴ
ĠkÉ¹ËĪaÉª z
ĠnËĪaÉªntiËĲn hËĪÊĮndÉ¹ÉĻd
k ËĪÉĳËĲ
ĠËĪÉªn tÉļ
ĠflËĪaÉª Éªn
ĠdÊĴËĪuËĲÉĻl É¹i
Éªn ËĮÉĽÉ¹i
ĠÎ¸ ÉĻ
ÉĽ É¹i
ĠstÉ¹ ËĪÉªÅĭz
ĠÉ¡ ËĪiËĲk
Ġf ËĪa
Ġp É¾ÉĻd
ĠsËĪeÉªv jÉļ
ĠmËĪÉĻk i
ĠstËĪuËĲd ÉªËĮoÊĬ
ĠdËĪÉĽz Éļt
Ġw ËĪÉĽd
ĠdÊĴ ËĪÃ¦ks
Ġbl ÉĻk
ĠdÉ¹ËĪiËĲm Éªn
ĠkËĪÉĽÉ¹ fÉĻl
b ËĪÉªÉ¡
Ġf ËĪÃ¦nsi
ĠdÊĴ ËĮiËĲ
ĠbËĪÉĳËĲ bi
b ËĪuËĲ
m ËĪoÊĬ
Ġp ËĪÃ¦nt
ĠÊĥ ËĪeÉªdi
ËĪeÉªb ÉĻlz
ÉĻÉĻ d
ĠÎ¸ ËĪÊĮÉ¡z
ËĪÉĽks Éªk
ĠfËĪÃ¦nt ÉĻm
ĠËĪÉªnÉĻs ÉĻnt
ĠpËĪÊĮb lÉªk
ĠËĪaÉª oÊĬ
ĠkËĪÉĶf i
ËĮÃ¦ d
ĠhËĪÉĳËĲ É¾Éļ
ĠmÉĻl ÉĻn
ĠÉ¡ ËĪÉĳËĲÉ¹
ĠÉ¹áµ»l ËĪiËĲs
ĠmËĪÃ¦n ÊĥÉĻn
jËĪuËĲ n
Ġm ËĪÊĮm
ĠdÊĴ ËĪÉªmi
ĠtÊĥ ÉĻp
ĠkËĪÊĮm fÉļt
Ġdáµ» É¡É¹
ÉªÉ¾i z
ĠÉ¡ÊĬd nËĪaÉªt
ÉĻ Êĥ
eÉª dÊĴ
ĠstËĪeÉª ÊĥÉĻn
ĠËĮÉĽm sËĪiËĲ
Ġd ÉĻmÉĻndz
Ġh ËĪÉªps
ËĪÉªf Î¸
ĠÉ¡É¹ËĪÃ¦ndm ÉĳËĲ
Ġm ËĪeÉªl
ĠsËĪÊĮmÉļ tËĮaÉªm
k ËĪÉĶËĲl
É¹ aÉªz
ËĪÉĳËĲb i
ĠaÊĬ Éļz
ĠkËĪoÊĬd aÉªn
Ġp jËĪuËĲ
ĠsËĪiËĲ Éªn
ĠËĪÉĳËĲ É¡
ĠbÉĻ hËĪÉĻnd
ĠaÊĬ tÉ¹
Ġf Éªn
ËĪÉĳËĲm p
ĠvËĪÉªkt Éªm
ĠËĪoÊĬp ÉĻnd
b áµ»l
tÊĥ ÉĻ
ĠtÊĥ ËĪiËĲk
Ġn ÉĻs
Ġp ËĪiËĲk
ĠtÊĥ ÉĻld
ĠpËĪÉľËĲp ÉĻs
ĠnËĪÃ¦tÊĥ ÉļÉ¹ÉĻl
ĠstËĪÊĮm ÉĻk
Ġk ËĮÉĳËĲn
ĠËĪiËĲt Éªn
ĠÉ¡ËĪÃ¦ Ã°Éļ
ĠbËĪiËĲ m
ËĪÉĶËĲÉ¹ t
ËĪÉª É¾áµ»d
ĠkÉ¹ ËĪÉĽd
ĠbÉªÉ¡ËĪÉªn z
ĠkËĪÉªÅĭ z
ĠËĪ y
sk Éªt
ĠÉ¡ ÉĻld
ĠÊĥËĪaÉªn Éªn
fËĪÉĶËĲÉ¹ m
Ġb ËĪÉĻÉĻÅĭ
ĠËĮÊĮ n
ĠsËĪÊĮn sÉĽt
ĠpËĪÃ¦É¹ Éªs
Ġj ËĪÊĮp
ÉĻnt ÉĻ
ËĪÉĳËĲÉ¹ m
ĠÉ¹ËĪÉĽk lÉĻs
ĠkËĪa Êĥ
É¡ ÉĻn
Ġsk ÉĻl
ĠbÉ¹ ËĪeÉªnz
ĠfÉĻl t
ĠmËĪÉĽd ÉĻsÉĻn
Ġ( ?)
s ËĪiËĲz
ĠpÉ¹ ËĪuËĲf
ĠfËĪiËĲld z
ĠlËĪÉĽm i
? ?
ĠËĪÃ¦ ks
ĠhËĪÉªÉ¹ ÉªÅĭ
ĠkËĪÉĳËĲn f
Ġd ËĪaÊĬ
ĠdÊĴ ËĪoËĲÉ¹d
Ġv ËĪÉªz
ĠkËĪÉªk t
ĠËĪÃ¦stÉļÉ¹ËĮÉªsk ÉĲstÉļÉ¹ËĮÉªskÉĲstÉļÉ¹ËĮÉªsk
Ġdáµ»É¹ ËĪÉĽkÊĥÉĻn
ËĪÃ¦nt áµ»d
" )
Éªk ËĪeÉªÊĥÉĻn
Éª Éļ
dÊĴ ËĮiËĲ
ĠwËĪÉªl ÉªÅĭ
ĠstËĪÉĳËĲp s
ĠfÉĻk ÉĻd
ĠfËĪuËĲl ÉªÊĥ
ĠbÉ¹ËĪaÉª É¾Éļ
ĠËĮÉĽn tÉļ
ĠfËĪoÊĬk ÉĻst
Ġt ËĪÉĽks
ĠpÉ¾ÉĻ Î²
ĠdËĮÉªsÉ¹Éªs pËĪÉĽkt
b ËĪoÊĬ
m ËĪÊĮni
ĠdÊĴ ËĪÊĮÅĭk
ĠÉ¹ËĪiËĲÉĻl Éªst
ĠsËĪÉªm p
ÊĥËĮÉª p
n ËĪÊĮ
ËĮÊĮ bÉĻl
ÉĻt Ê°
ËĪÊĮk ÊĥÉĻn
Ġl ËĪuËĲp
Ġk ËĪÉĳËĲs
ĠÉĲks ËĪÉĽpt
Ġbl ËĪÊĮdi
ĠtÉ¹ËĪÃ¦p Éªn
ĠÉļÉ¹ ËĪaÉªv
Ġt ËĪiËĲz
ĠÊĥ ËĪÉĳËĲk
ĠsËĪiËĲm d
f ÉĻst
Ġp ËĪÉĳËĲl
ĠwËĪeÉª n
Ġsk ÉĻd
ĠÉĽks ËĪÉĽpt
w ËĪÉĻ
Ġt ËĪÊĮm
ĠtËĪoÊĬn i
ËĪa s
ĠnËĪeÉªm d
zËĪiÉĻÉ¹oÊĬ zËĪiÉĻÉ¹oÊĬ
ËĮÊĮbÉĻl jËĮuËĲ
Ġn ËĪÃ¦
Ġsp ÉĻnd
ĠkËĪÃ¦nd ÉĻl
Ġl ËĪÃ¦k
ĠËĪÃ¦ fÉ¹
ĠËĪÉĽvÉ¹ ÉªtËĮaÉªm
ËĮÉª liÉĻn
ĠkÉ¹ËĪuËĲ ÉĻl
ĠdÉ¹ ËĪeÉªk
Éªk ÉĻ
ĠÉ¡É¹ ËĪoÊĬz
ĠÉĽmbÉ¹ ËĪeÉªs
Ġl ËĪÉĳËĲÉ¹
Ġl ËĪÉªÅĭ
Ġf ËĪÉªz
ËĪÉĽnd áµ»d
z ËĪiËĲ
Ġw ËĪiËĲp
Ġj ËĪÉĳËĲÉ¹d
ĠËĪÃ¦ v
d ÉĻlz
É¡ É¹ËĪaÊĬnd
ËĪoÊĬz ÉªÅĭ
ĠÎ¸ÉĻnk ÉĻÅĭ
ĠkËĪÉĳËĲ nd
ĠÉ¡ËĪeÉª ts
É¡ ÊĮn
É¡ ÉĲz
ĠstËĪÉĽp s
ĠtÉ¹ ËĪÉªks
ËĮeÉª d
ĠÉĲd É¹
ĠÉĲÊĥ ËĪeÉªmd
ĠfËĪÉľËĲ Ã°Éļ
p ËĮiËĲ
Éª ËĮeÉªt
Ġh ËĪÉĳËĲloÊĬ
Ġfl ËĪaÊĬÉļ
Ġsl ËĪÃ¦Åĭ
ĠkËĪiËĲp Éªn
ĠhÉĻl ÉĻ
ĠbËĪÊĮ ÊĶn
hËĪÉĻnd É¾ÉĻd
Ġd ÉĻst
ĠkËĪÉĳËĲm ptÉĻn
ËĪÉĳËĲn s
ĠhËĪÉĳËĲÉ¹d Éªst
bÉ¹ ËĪeÉªk
Ġp ËĪÃ¦t
ÉĳËĲ w
ĠkËĪÉĳËĲl ÉªdÊĴ
uËĲ t
ĠÉ¾ÉĻn ÉĻn
Ġd ËĪÉªÅĭ
jËĪÉĽËĲ ÉĲ
ĠvËĪeÉªÉ¡ ÉĻs
p ËĪÉĳËĲ
ÉĻt ËĮÉªv
ĠhËĪoÊĬl z
ĠÊĥËĪoÊĬ ÉªÅĭ
ĠpËĪÉªmp Éªn
Ġm ËĪÉĽksÉªk
ÉĻd ËĪuËĲs
ĠkËĪÉĳËĲm ÉĻn
k ÉĻm
ĠËĪÉĳËĲp s
Ġfl ËĪÉªk
ĠsËĪÉĽlf ÉªÊĥ
ĠnËĪeÉªbÉļ hËĮÊĬd
ËĪoÊĬ p
ĠsËĪÉªn z
ĠbËĪÉĽÉ¹i d
ËĪÃ¦ÅĭÉ¡ w
b Ã¦k
Ġm jËĪuËĲ
ĠtÉ¹ ËĪeÉªs
Ġsl ËĪaÉªm
ĠswËĪÉªm ÉªÅĭ
ĠÉªmpËĪoËĲÉ¹t ÉĻnt
ĠwËĪaÉª Éļ
ĠdËĪeÉª v
ĠÉ¹ËĪaÉªd Éļ
ĠfÉ¹ËĪoÊĬz ÉĻn
Éª tÊĥ
Ġl ËĪÉĶËĲÉ¹
Ġf É¾ÉĻnt
áµ»t ËĮÉªv
Ġp ËĪÉĽd
ĠpÉ¹ËĪÉĳËĲp Éļ
Ġd ËĮÉĻ
Ġl ËĪÊĮst
Ġfl ËĪoÊĬz
Ġw ËĪÊĮtÊĥÉĻ
ĠkËĪaÊĬ tÊĥ
Ġp ËĪÃ¦kt
ĠbËĪÉªÉ¡ Éªst
ĠflËĪÉĽks Éªn
ËĪÃ¦ÅĭÉ¡w ÉªdÊĴ
ĠËĪÊĮ ÅĭkÉĻl
ĠhËĪa pi
ĠËĪeÉª bÉĻl
Ġv ËĪÃ¦li
kÉ¹ oÊĬ
ËĪÃ¦É¾Éļ d
Ġw ËĪÉĶ
ĠfÉ¹ ËĪeÉªm
Ġbl ËĪÃ¦Åĭk
ĠÉ¾ÉĻz ÉĻn
ĠvËĪaÉªÉĻl ÉĻns
ĠÉ¹ËĪÉĽs kjuËĲ
Ġp ËĪaÊĬ
ĠwËĪÉľËĲ kt
ĠmËĪÃ¦d nÉĻs
ĠtwËĪÉĽnti fËĪoËĲÉ¹
ËĪÉĻn ÉĻ
É¹ ÉĻz
Ġw ËĪiËĲzi
ĠpÉĻz ËĪÉªÊĥÉĻn
Ġáµ»lËĪÉĽkt É¹Éªk
ĠkÉĻd z
Ġl ËĪÉĳËĲsÉªn
ĠlÉĻv ÉĻz
Ġ âĢĶ
ĠmËĪeÉª dÊĴÉļ
ĠtÉ¹ ËĪÃ¦fÉªk
ĠsËĪoÊĬld ÊĴÉļz
b ËĪÃ¦d
iËĲ m
ĠbËĪÃ¦k s
ĠsËĪÊĮn É¹aÉªz
ĠbÉªk ËĪeÉªm
h ÉĻd
Ġs ËĪÊĮ
ĠÉ¡ ËĪÃ¦m
ËĪÉĳËĲn i
ĠwËĪÉªÊĥ Éªn
Ġz ËĪuËĲ
ĠdÊĴËĪÉĽntÉĻl mÉĻn
ĠbËĪÊĮst Éªn
ĠsËĪÉľËĲk ÉĻlz
É¹ áµ»k
Ġd ËĪÉĳËĲt
ĠmËĮÃ¦ É¡ÉĲz
Ġf ËĪÉĶl
Ġt ËĪiËĲn
ĠËĪaÉª Éļn
Ġl ËĪÃ¦ÅĭÉ¡wÉªdÊĴ
ĠÉ¹ ËĪÊĮm
É¡ ËĪÊĬd
ĠÊĥ ËĪaÊĬ
ĠhËĪoÊĬp s
Ġsn ËĪÃ¦tÊĥ
ĠdËĪÉĳËĲÉ¹k Éªst
stÉ¹ ÉĻm
ĠsÉĻks ËĪÉĽs
d ËĪeÉª
t ËĮiËĲ
ËĪÉĽn ÊĥÉĻl
Ġáµ»É¹ ËĪeÉªs
Ġkl ËĪÉĳËĲzÉªt
ĠmËĪÉªst ÉļÉ¹i
ÉĽn t
ËĪÉª di
Ġkw ÉĻt
ÊĮ st
ĠÉ¹ËĪiËĲtÊĥ ÉªÅĭ
ËĪÉĳËĲlv d
ĠsËĪÉĳËĲl Éªd
ĠËĮÉĽntÉļ tËĪeÉªn
Ġl ÉĻm
ĠsËĪÉªmp li
Ġs ËĮuËĲ
t ËĪÉĶËĲk
ĠtÊĥ ËĪÉĽks
ĠnËĪÊĮ t
ĠstËĪÃ¦nd z
ĠËĪÉĽl Éªv
ĠËĮÊĮndÉļ É¡É¹ËĪaÊĬnd
ĠpÉ¹ËĪÉĽz ÉªdÉĻnt
ÉĳËĲ s
ĠhËĪÉĳËĲÉ¹ m
ËĪÉĽvÉ¹ i
ĠpÉ¹ËĪoÊĬ li
Ġl ËĪÉĽv
Ġtw ËĪÉĻna
ĠÉ¹ ËĪÃ¦m
Éªk li
ÉĳËĲn t
ĠsËĪuËĲpÉļ st
ĠwÉĻd ÉĻn
ËĮÉª t
ĠÉ¹áµ»lËĪÉªdÊĴ ÉĻn
ĠÉĻÉĻÉĻÉĻÉĻÉĻÉĻÉĻÉĻÉĻ ÉĻÉĻÉĻÉĻÉĻÉĻÉĻÉĻ
n ËĪÉĳËĲt
ĠÉ¾ÉĻ Î²
ĠtËĪÉĽl áµ»f
ĠkËĪÉĳËĲ li
ĠtÊĥËĪÃ¦mp iÉĻn
ĠÉ¹ËĮÉĽ vÉĻlËĪuËĲÊĥÉĻn
a n
Ġp ËĪÉĽ
ĠkÉ¹ ËĪÊĬk
ĠkËĪÉªk Éªn
ĠsËĪÊĮk Éļ
ĠjËĪuËĲn Éªv
n ËĪÉªÉ¡ÉĻ
ĠËĪÃ¦ p
ĠbËĪÉĶËĲl z
ĠËĪÉĳËĲÉ¹É¡ juËĲ
uËĲ ËĮuËĲ
Ġs ËĪÉĽm
ĠdÊĴ ËĪÉªm
ĠwÉĻt ÉĻ
ĠwËĪÉĽ pÉĻn
ĠËĪÃ¦ Êĥáµ»z
ĠbËĪÃ¦ b
ĠbËĪuËĲ Î¸
Ġm ËĪÉĳËĲn
ĠtÉĻ w
Ġs ËĪaÉªnd
ÉļÉ¹ ÉĻ
ĠËĪÉĽ É¡z
ËĪiËĲ É¾ÉĻ
Ġt ËĪÃ¦É¡
Ġp ËĪÉªÉ¡
Ġm ËĪÉĽst
ĠtÉ¹ËĪÉªp ÉĻl
ĠÉĲtl ËĪÃ¦ntÉĻ
d ËĮiËĲ
Ġd ÉĻsÉĻn
Ġh ËĮuËĲz
ĠsÉĻm ËĪo
ËĪÉĳËĲ ÊĶn
Ġbl ËĪoÊĬn
Ġp É¾ÉĻs
j ÉĳËĲÉ¹d
sËĪÉªkst i
ĠfËĪÉĶËĲÉ¹tÊĥ ÊĬ
ĠËĪaÉª si
ĠstÉ¹ ËĪiËĲm
ĠbËĪÉĳËĲ b
ĠkËĪÉĳËĲn st
ĠkjËĪuËĲ t
ĠmËĪoÊĬmÉĻnt s
ĠkËĪÊĮz ÉĻn
ĠËĮeÉª mËĪÉĽn
ËĪÉĽ É¾ÉªÅĭ
Éªt ËĪeÉªÊĥÉĻn
ĠÉ¹ËĪÉĳËĲk Éªt
ĠsËĪÉĽnt Éļ
ĠËĮÉªns áµ»kjËĪÊĬÉ¹
ĠjËĪuËĲnÉªv ËĮÉľËĲs
ĠÉĻÉĻ ËĪÉĻÉĻÉĻ
ĠÊĥ ËĪÉªft
ĠstËĪÉĽÉ¹ z
ĠaÉªd ËĪiÉĻ
p ËĪÉĳËĲp
Ġw ÉĻsÉĻn
Ġs o
É¹ÉĻn ËĮÉĶ
ĠnËĪÉĳËĲk t
Ġl ËĪeÉªzi
pÉ¹ ÉĻt
ĠÉ¹ËĪuËĲ Éªn
ĠdËĪuËĲ dz
ËĪÃ¦tÉªn ÉĻm
Ġb ËĪoÊĬld
Ġk ËĪÉĶËĲÉ¹
Ġp ÉĻkt
ĠtÊĥ ËĪÉªÉ¹
ĠÉ¹ËĪÉªÅĭ ÉªÅĭ
ĠsËĪÉªÅĭk ÉªÅĭ
k ÉĻmÉĻ
É¹ ËĪÉĳËĲ
ËĪoÊĬn li
ĠËĪÉĽnd ÊĴ
Ġp ËĪÉªÉ¾i
ĠwËĪÉªn Éļ
ĠkËĪÉĳËĲn s
Ġl ËĪÉªÉ¹
Ġp ËĪoÊĬk
Ġsk ËĪÉĽÉ¹i
ĠbËĪÃ¦d Éªst
Ġbáµ»lËĪiËĲv ÉªÅĭ
uËĲ ÉĻl
Ã¦ kt
ĠdÉ¾ÉĻ vÉĻ
ĠÉ¹áµ»pl ËĪeÉªs
ËĪiËĲ ËĪÉĳËĲÉ¹
Ġp ËĪaÉªl
ĠfËĪoËĲÉ¹ tiËĲn
tÉ¹ ËĪuËĲ
Ġ áµ»v
ĠhËĪeÉª loÊĬ
ĠpÉĻf ÉĻkt
ĠdÉ¹ ËĪÉĽd
ÉĻv ÉĻÅĭ
Ġsl ËĪÉªk
ĠhËĪÉľËĲ É¹áµ»k
ĠbËĪÊĬ É¡i
Ġl ÉĻs
ĠtÊĥ ËĪÉĽÉ¹i
ĠÉ¹ËĪoÊĬ dz
ĠkËĪaÊĬnt i
ËĪÉĽnd ÉªÅĭ
? ),
ĠfÉ¹ ËĪaÉª
Ġst ËĪÊĮ
É¾ÉĻm ËĪÃ¦É¾Éªk
ĠstÉ¾ÉĻt s
ËĪÉĽ É¾Éªk
ËĮÉĽ t
ĠÉĲ tÉ¹
ÉĻm ÉĻmÉĻ
Ġf ËĪÉªfÎ¸
ĠÊĥ ËĪÉĳËĲ
Ġst ËĪeÉªk
Ġst ËĪiËĲv
ĠlËĪaÉªk t
ĠtÃ¦ tËĪuËĲ
ĠÉ¡ É¾ÉĻt
Ġf ËĪÉĽns
ĠhËĪiÉĻÉ¹oÊĬ z
Ġk ËĪÉĽm
ĠÊĥ ËĪaÊĬÉļ
Ġst ËĪÃ¦Êĥ
ĠbËĪÉĳËĲm z
Ġk ËĪÃ¦d
ĠËĪÃ¦ b
ËĮÃ¦dÊĴ áµ»nËĪeÉªÊĥÉĻn
j ËĪiËĲ
m a
Ġl ËĪÊĮ
Ġn ËĪoËĲÉ¹
juËĲ t
ĠÉ¹ËĪÃ¦p ÉªÅĭ
ĠËĪÉĳËĲnÉªst li
ËĪuËĲËĪuËĲËĪuËĲËĪuËĲ hËĪÃ¦Êĥj
ĠvËĪÉªdÉª oÊĬ
Ġb jÉĻt
ËĪÉĽvÉ¹Éª bËĮÉĳËĲdi
Ġp ËĪÉĶËĲÉ¹tÊĥ
ĠdÉ¹ËĪÉĳËĲp Éªn
dËĪÊĮbÉĻl jËĮuËĲ
w ËĪeÉªt
ĠÉ¹ËĪoÊĬl Éļ
ĠwËĪiËĲ ks
ĠËĮÉªnt É¹
ÉĻn ÉĻd
Ġst ËĪeÉªn
ĠdÊĴ ËĪÉªÅĭÉ¡ÉĻl
Ġpl ËĪan
Ġpl ËĪÃ¦tÉªnÉĻm
ĠhËĪoÊĬld z
ĠÃ° ËĪaÊĬ
ĠhËĪÉĳËĲÉ¹É¾ eÉªk
a nd
b ÉĽÉ¹i
j ËĪÉĳËĲ
ĠÉ¹ ËĪÃ¦k
áµ» É¡
ĠtËĪÊĮtÊĥ ÉªÅĭ
ĠbÉ¹ ËĪÊĬk
ĠËĪiËĲ É¡oÊĬ
ĠÉªm ËĮÃ¦dÊĴáµ»nËĪeÉªÊĥÉĻn
v ËĪÉľËĲs
Ã¦ ÉĻ
Ġp ËĪÉªt
ĠdËĪeÉª laÉªt
ĠstËĪÉĳËĲp ÉªÅĭ
ĠtwËĪÉĽnti wËĪÊĮn
áµ»k ËĮeÉªt
Ġb ËĪuËĲl
fÉ¹ ËĪiËĲ
ĠdÊĴËĪuËĲ ÉĻlz
ĠkËĪÉªk ÉªÅĭ
ËĪÉĳËĲÉ¹É¹ ËĪÉĳËĲ
Î¸ ËĪÉľËĲÉ¾i
fËĪoËĲÉ¹ É¾i
Ġdáµ» pÉ¹
ĠfÉļÉ¡ ËĪÉĳËĲÊĶn
ĠÊĥËĪÊĬÉ¹ li
ĠpËĪÃ¦ É¹ÉĻnËĮÉĶ
ĠkËĪÃ¦p tÉªn
ĠkÉĻmp ËĪÉĽÉ¹
ĠbjÉĻt ÉĻfÉĻl
w ÉĶËĲ
ËĪÃ¦n i
ĠËĪÊĮ n
ĠÎ¸ ÉĻz
b ËĪeÉª
ĠtÊĥ ÉĻs
ĠÎ¸É¹ËĪiËĲ hËĪÊĮndÉ¹ÉĻd
É¾ËĪÉĻ di
ĠpËĪaÊĬnd z
Ġp ËĪÉĳËĲn
ĠsËĪiËĲ ts
Ġbl ËĪÊĮnts
É¾ÉĻl z
É¾ oÊĬz
Ġbáµ»lËĪiËĲv d
ĠnÉĻt s
ĠÉĻl É¾ËĪÉĻdi
ËĪÉĽns Éªv
ĠÉ¡ ËĪeÉªt
ĠËĮÉªnt Éļ
Åĭ z
ÉĻs k
ĠpÉ¹ÉªtËĪÉĽnd ÉªÅĭ
h ÉĲ
ĠdËĪaÉª z
ĠhËĪÉĳËĲl Éļ
ĠpÉ¹ ËĪÃ¦kt
Ġm ÉļÉ¹
Ġt ËĪÃ¦t
Ġp ËĪeÉªv
ÉĽ st
ĠhËĪeÉª É¾Éļ
ĠÉ¹ËĪoÊĬ p
ĠfËĪeÉªÎ¸ fÉĻl
ĠhËĪÊĮsl Éªn
ĠstËĪÊĮnt Éªn
ĠÉ¹áµ»z ËĪÉªst
ĠËĪÃ¦ÅĭÉ¡ É¹i
ËĪÉªv Éļz
ĠpËĪÉĽÉ¹ ÉĻnts
ËĪÉĽn ÊĥÉĻnz
Ġfl ËĪaÉªz
ĠstÉ¹ ËĪÉªÅĭ
ĠtËĪÉĶËĲk t
ĠÊĮnn ËĪoÊĬn
Ġt ËĪÃ¦l
Ġd ËĪÉªskoÊĬ
Êĥ Éļ
Ġsl ËĪÉªpÉªÅĭ
ĠnËĪeÉªb Éļz
ĠÉĲpËĪÉĳËĲlÉĻdÊĴ ËĮaÉªz
h ËĪÊĬk
Ġh Éªm
ĠhËĪaÉª p
ĠËĮÉĽs ËĪeÉªtÊĥ
Ġst ËĪoÊĬ
ĠÉĲÉ¡ É¹ËĪiËĲ
n ÉļÉ¹
ÉĻÉĻ s
Ġl ËĪeÉªs
ĠsËĪeÉª n
ĠsËĪÊĮn laÉªt
ĠÊĥÉĻt s
ĠÉ¹ËĪÉªtÊĥ áµ»z
stÉ¹ ËĪeÉªt
ĠËĪeÉªt iËĲn
Ġp ËĪÉĶËĲl
ĠÎ¸ ËĪÊĮm
bl Éªn
ĠÉ¹ËĪeÉª Î¸
ĠdÊĴËĪÃ¦ks ÉĻn
ËĪaÉª pËĪiËĲ
ĠnËĪoÊĬ Éªn
ËĪÉªd Éªn
ĠfËĪaÉªnd ÉªÅĭ
ĠdÊĴ ËĪÉĶÉªnt
ĠhËĪÃ¦b Éªt
ĠwËĪÉĽd ÉªÅĭ
ĠhÉªm sËĪÉĽlf
Ġl ËĮÉĳËĲs
ĠpÉ¹ ËĪÉĽÉ¹z
ĠdÉĻn s
ĠstËĪÉĳËĲÉ¹ v
n ËĪuËĲ
Ġk ËĪeÉªn
ĠÎ¸ ËĪank
Î² ËĪÉĻ
z i
Ġw ËĪÉªÉ¹d
Êĥ ËĪoÊĬ
ËĪaÉªn ÉĻ
ĠmËĪÃ¦ s
j ËĪÊĮ
ĠÉ¡ ÉļÉ¹
ĠkÉ¹ ËĪÉªm
Ġsl ËĪÉªm
Ġf ËĪÉĶËĲt
Ġbl ÉĻnd
ĠpËĪÉĳËĲÉ¹tn Éļ
ĠdËĪeÉª li
v iÉĻs
Ġbl ËĪÉªÅĭ
Ġkl ËĪuËĲ
ĠÉĻm ÉĻ
Ġbáµ»h ËĪeÉªv
ĠÉĲk ËĪaÊĬnt
ÉĳËĲ ps
ĠvËĪaÉªb z
ĠpÉ¹ËĪÉĳËĲdÊĴ ÉĽkts
st Éªk
skËĮeÉª ËĮÉĳËĲÉ¹É¹ËĪÉĳËĲÉ¹
b áµ»
t ËĪÉĽn
st ÉĻk
ĠÊĥ ËĪÃ¦kÉªn
Ġp ËĪoÊĬz
ĠhËĪÊĮ s
ĠlËĪiËĲd z
ĠklËĪaÊĬ s
ĠhËĪÉª É¾ÉªÅĭ
ĠfËĪÉĶËĲÉ¹tÊĥÊĬ n
Ġb ËĪÉĳËĲÉ¹k
ĠÊĥ ËĪÊĮv
ft ÉĻbÉĻl
ĠÊĮn t
ĠÉ¡ÉĻt s
ËĪÉªn juËĲ
ËĮeÉª z
ËĪÉľËĲt iËĲn
ĠmËĪÉĳËĲÉ¹ tÊĥ
ĠnËĪiËĲ ÉĳËĲn
É¡É¹ËĮÃ¦ f
ĠjËĪuËĲÊĴuËĲ ÉĻli
Ġt ËĪÃ¦n
Ġn ËĪÉĶËĲÉ¾i
Ġsk ËĪÉªp
ËĪÉľËĲn i
ËĪÉĳËĲ ÊĴ
ĠËĪiËĲ kw
Ġsl ËĪÉªpÉªn
Éªl ËĪÉĽvÉĻn
ĠÉ¹ËĪaÉª ÉĻt
ĠsËĪoÊĬ dÉĻ
ĠËĪÉĳËĲÉ¹ É¾Éªst
Ġz ËĪÉªp
É¹ËĪiËĲ ÉĻl
ĠtËĪÉĽláµ»f ËĮoÊĬn
m ËĪuËĲv
Ġd ËĪÉĽl
ĠlËĪoÊĬn sÊĮm
ĠÉĲm ËĪÊĮÅĭ
ĠpËĪeÉªÊĥ ÉĻnt
ĠÊĥ ÉĻz
ĠdËĪiËĲl Éļ
ĠsËĪuËĲpÉļst ËĮÉĳËĲÉ¹
t ËĪÉĳËĲ
ĠËĪiËĲzi Éļ
ĠkÉ¹ËĪÃ¦Êĥ ÉªÅĭ
ĠdËĪÉªst ÉĻnt
ËĪaÉªÉĻ É¾i
ĠkÉ¹ËĪÉĽd Éªt
Ġs ÉĻÉĻn
ĠtÊĥËĪÉĳËĲÉ¹ m
ËĮÉªliÉĻn ËĪÉĽÉ¹
Ġl ÉĻdÉĻ
ĠÉ¹áµ»m ËĪÉªks
ĠhËĪÉľËĲÉ¹áµ»k ËĮeÉªn
ĠÊĮ p
Ġsw ËĪÉªÊĥ
ĠlËĪÉĽ É¾Éļz
Ġpl ËĪÉĳËĲt
Ġkw ËĪiËĲnz
ĠÊĥËĪoÊĬ Éªn
ĠpËĪÃ¦n Éªk
ĠÊĥ ËĪÊĬk
Ġskw ËĪÉĽÉ¹
ĠkÉĻnf ËĪÉĽs
ĠsËĪÃ¦kÉ¹áµ»fËĮaÉª s
ĠhËĪÊĮ Êĥ
ĠkËĪoÊĬld Éļ
ĠsmËĪaÉªl z
ËĪa d
ĠÉ¹ ËĪÉĶÉª
ËĪÉľËĲ dÊĴ
ËĪÉĽk ÊĥÉĻnz
ft i
ĠdËĪÃ¦ns Éļ
ĠkÉĻp s
b ËĪÃ¦Åĭ
Î²ÉĻ Î²lÉĻ
ĠÉ¡w ËĪÉĳËĲp
ĠsËĪÊĮf Éļ
ĠsËĪiËĲ d
uËĲ ËĪÉĽvÉļ
ĠlËĪaÉª ÉĻn
ËĪuËĲ ÊĴÉĻn
ĠfÉĻl ÉĻ
ĠkËĪÉĳËĲÉ¹ mÉĻ
ĠpÉ¾ÉĻ Î²ÉĻÎ²lÉĻ
ĠsËĪa d
f ÉĻn
Ġ ËĪÉĶËĲt
ÉĻÉĻ ËĮÉĻ
Ã¦n t
ĠpÉ¹ËĪeÉª Éªn
Ġb É¾ÉĻd
Ġv eÉªk
Ġsm ËĪÃ¦k
ĠlËĪeÉª Éªn
ĠÉ¹ËĪÉĳËĲk stÉĳËĲÉ¹
ĠwËĪÉĶ ndÉļ
Ġk ËĪÉľËĲv
ĠsËĪeÉªv ÉªÅĭ
ĠÎ¸ ËĪÉĳËĲt
ĠÉ¹áµ» dÊĴ
ËĪÉĽÊĥ ÉĻli
ĠbËĪÉĶËĲl ÉªÅĭ
ĠspËĪÉªn Éªn
ĠstÉĻt ÉĻd
ĠtÉ¹Ã¦n s
ËĪÉªk i
Ġsp ÉĻn
Ġsp ÉĻs
ÉĻst ÉĻ
ËĪÉĳËĲl Éļ
ĠskÉ¹ ËĪuËĲ
ĠfËĪÉªÉ¡ Éļd
báµ»l ËĪiËĲv
ĠdÊĴ ËĪeÉªmz
ËĪiËĲ É¾áµ»d
ËĪeÉªd iËĲz
ĠÊĥ ËĪÃ¦k
ĠmËĪuËĲv Éªz
ĠkÉĻnt ËĪÉªnjuËĲ
ËĪÉªÉ¾ Éªz
ĠkËĪÊĮ ts
ĠsËĪÊĮn z
ĠËĪÉĽkst ÉĻsi
Ġm ËĪÃ¦ks
Ġs ËĪÉªÉ¡
ËĮÉĽ d
ĠpÉ¹ ÉĻv
ĠkÉĻl ËĪaÉªd
ĠsËĪaÉªk oÊĬ
ĠaÊĬÉ¾ ÉĻÉĻÉĻ
ĠpÉ¹ ËĪÉĳËĲd
ĠbËĪaÉª bÉĻl
nÉĻs i
ĠpËĪÉªk ÉªÅĭ
ĠfÉĻn ËĪa
ĠbËĪÉĽl t
Ġdáµ»stÉ¹ ËĪÉĶÉª
z ÉĻl
ĠwËĪÉľËĲ ks
ĠmËĪÉªs Éªz
ĠtËĪÉĽks ÉĻs
ĠkËĪÃ¦d ÉªlËĮÃ¦
ĠtÉ¹ ËĪÉĽÊĴÉļ
ĠÉĻÉĻÉĻÉĻÉĻÉĻÉĻÉĻÉĻÉĻ ÉĻÉĻÉĻÉĻ
ĠÊĥËĪÉĳËĲp ÉªÅĭ
Ġb ËĪÃ¦t
ĠwËĪÊĬd z
ËĪÉĳËĲÉ¹d ÉĻn
ĠjËĪÊĮÅĭ É¡Éªn
ĠbÉ¹ËĪÉªÅĭ É¡Éªn
ĠpËĪeÉªnt áµ»d
Ġt ËĪÉĶs
Ġp É¾ÉĻz
st ËĪÃ¦nd
ĠtËĪiËĲ tÊĥÉļ
ĠwËĪÉªs p
ĠÎ¸ËĪÊĮÉ¡ Éªn
Ġt ËĪÃ¦ks
Ġh uËĲËĪÉĽvÉļ
Ġst ËĪeÉªz
ËĪÉĽk fÉĻst
Ġdáµ»v ËĪaÉªn
ĠlËĪaÉªf staÉªl
ĠpÉĻp ÉĻ
ĠdÉ¹ËĪÉĳËĲp ÉªÅĭ
Ġdáµ»s ËĪÉĽmbÉļ
v ËĪeÉªÊĥÉĻn
Ġf É¾ÉĻk
ĠdÊĴ ËĪoÊĬnz
ĠËĪÉĶËĲl soÊĬ
y dÊĴ
ĠÉĲ v
ĠÉĲ sËĪaÉªd
ËĪÉªp si
kl ËĪÉĳËĲk
ËĪÉĳËĲ É¡oÊĬ
ĠwÉĻ Î¸
sk É¹
ĠÉ¹áµ»l ËĪeÉªÊĥÉĻn
kÉĻ h
ĠhËĪÉĽn i
j ÉĻl
Ġs ËĪuËĲz
ËĮÉĽ st
ĠbÉ¹ ËĪÉĽkfÉĻst
ÊĥÉĻn ÉĻl
ĠwÉĻt ËĪÉĻvo
ĠlËĪÉªft áµ»d
ĠbÉ¹ËĪÊĬk lÉªn
l eÉª
ĠÉĻl ÉĻÅĭ
ĠbËĪÉĽl i
ĠÉ¹ËĪiËĲÉĻlaÉªz d
v Éªl
ËĪaÉªt s
Ġs uËĲ
Ġs áµ»kjËĪÊĬÉ¹
Ġf ËĪeÉªz
ËĪÉĽv ÉĻnz
Ġpl ÉĻÉĻÅĭ
ËĪeÉªn t
ĠtÉ¾ ËĪap
l ËĪÃ¦st
ĠlËĪÉľËĲn ÉªÅĭ
Ġl ËĪÉĽd
ĠbËĪiËĲ p
ĠÉ¡É¹ ËĪÃ¦v
ĠsËĪÉªn Éļ
ĠdÊĴËĪoËĲÉ¹d ÉĻn
ĠÉĻ É£
ĠÉ¡É¹ ËĪÉªl
ĠtËĪÉľËĲn t
ĠÊĥËĪÉĳËĲt É¡ÊĮn
Ġtw ËĪÉľËĲk
É¾ÉĻt ÉĻ
ĠbËĪÃ¦kw Éļdz
ËĪÉª Î¸
Ġp ËĪÃ¦l
ĠdÊĴ ËĪÉªÉ¡
É¹ ËĪÉĳËĲk
ĠÊĥ ÉĻp
ĠsËĪiËĲ dz
ĠËĪÃ¦ É¡
Ġsw ËĪiËĲp
ĠÉ¹ËĪeÉªn ÉªÅĭ
Ġt É¾ÉĻk
ÉĻl t
Î¸ ËĪÉªÅĭk
ÉĲ É¹
É¾ÉĻ bÉĻl
Ġsw ËĪoËĲÉ¹
ĠËĪÉĳËĲb viÉĻs
Êĥ ÉĳËĲt
Î¸ ËĪÃ¦Åĭk
ËĪÃ¦m ÉĻ
ĠÉĲl ËĪÉĳËĲÉ¹m
ĠhËĪa Åĭ
ĠsËĪÉªst Éļz
ĠËĪÉĶËĲÉ¹d ÉªnËĮÉĽÉ¹i
Ġt ËĪÉĶÉª
Ġsp ËĪaÉª
ĠstÉĻp ÉĻd
ĠlËĪÉĳËĲÉ¹ dÊĴ
ĠdÊĴ ËĪÉªn
ĠËĪÊĮp saÉªd
ĠËĮÃ¦ ftÉļ
ĠÉ¹áµ»É¡É¹ ËĪÉĽts
Ġw ËĪiËĲv
Ġw ËĪuËĲp
Ġt ËĪÃ¦k
Ġt ËĪÃ¦Åĭk
ĠtÊĥ ÉĻn
li ÉĻnz
Ġfl ËĪÉĶs
ÉªÊĥ t
ĠÊĥ áµ»k
ĠlËĪuËĲz Éļ
ĠÉ¡ÉĻd Î²ËĪÉĻ
ĠÉ¹ ËĪÉªÉ¹
ĠjËĪÊĮÅĭ É¡Éļ
ĠÉ¹ËĪaÊĬnd z
ĠsËĪÉĽ pÉ¹ÉĻt
Ġd É¾ÉĻn
ĠÉĻ ËĪo
dÊĴ ÉĻk
ĠtËĪuËĲ pËĪÃ¦k
ĠfÉ¹ËĪÊĮnt Éªn
p oËĲÉ¹
ÉĻf ËĮoÊĬn
Ġ- -
ËĪÉªÊĥ ÉĻl
ĠÃ° ËĪiËĲ
Ġs ËĪÉĳËĲks
Ġb ËĪaÊĬ
st Éªn
ÉĲ k
ĠmËĪÃ¦n ÉªdÊĴ
ĠkÉĻm ËĪÃ¦nd
ÉľËĲs ËĪeÉªdiËĲz
ËĪÉĶËĲ dz
ËĪÉĳËĲÉ¹t Éªn
Ġtw ËĪÉªn
ĠkËĪÉĳËĲ Åĭk
ĠÉ¹áµ»s ËĪiËĲv
ĠhËĪÉªd ÉĻn
ĠËĮÉĽmËĮÉĽm ËĪeÉªtÊĥ
ĠÉ¹ËĪÉĽÉ¡ jÊĬlÉļ
ĠtÉ¹ËĪÉĽntÊĥ áµ»z
d ËĪaÉª
ĠbÉ¹ ËĪÊĮ
ÉĲ b
ÉĲ É¡
ĠÉ¹ËĪÉĳËĲb Éªn
ĠËĪÃ¦Åĭ É¡Éļ
p ËĪÊĬt
ĠbÉ¹ ËĪÊĮÊĥ
ÊĴuËĲ ÉĻl
ĠsÉĻs p
ĠËĮÉĶËĲ É¾ÉĻmËĪÃ¦É¾Éªk
Ġ ËĪaÊĬns
Ġd ÉĻlÉĻ
ËĮÉĽ z
ËĮeÉª l
ĠkÉĻp lÉĻ
ĠlËĪoÊĬnli nÉĻs
ĠdÊĴËĪÃ¦k Éªt
ĠblËĪÉĽs ÉªÅĭz
pÉĻt ËĪÉªÊĥÉĻn
ĠpËĪÃ¦nt iz
Ġh ËĪÉĽz
ĠdÊĴËĪÉĽl ÉĻsi
ĠpËĪÉľËĲsÉĻn ÉĻl
wËĪÉĶn t
Ġkl ËĪoÊĬzÉªÅĭ
ĠÉĽ nd
ĠwËĪÉĳËĲÊĥ t
bËĮiËĲËĮÉĳËĲÉ¹É¹ ËĪÉĳËĲÉ¹
ĠkÉ¹ËĪÉªst ÉĻl
Ġk É¾ÉĻd
ĠtÊĥ ÉĻz
ĠÉĻf É¾ÉĻd
stÉ¹ÉĻm ËĪÉĽntÉĻl
b ÊĬ
t ËĪaÊĬn
Ġ :
ĠÉĻ É¡z
ĠtÊĥ ÉĻl
ĠtÊĥËĪoÊĬz ÉĻn
Ġf ËĪam
ĠtÉĻn ÉĻd
ĠwËĪÉªn Éªn
ĠpËĪoËĲÉ¹ Êĥ
ĠËĪÉĽs k
Ġl ËĪand
Ġh aÊĬ
ĠdÉªz ËĪiËĲz
ĠsËĪÉĽkÉĻnd z
ËĮ Éªk
Ġt ËĪoÊĬk
Ġl ËĪeÉªnz
ĠÉ¹ ËĪÃ¦tÊĥ
ËĪÉĳËĲl ÉªdÊĴ
ĠnËĪÉĳËĲk ÉªÅĭ
ĠÊĮnd ËĪÊĮn
ĠbÉ¹ ËĪÃ¦É¡
ĠmËĪÉªl k
ĠlËĪÃ¦ ftÉļ
n ËĪuËĲn
Ġd ËĪÃ¦b
Ġl ËĪÊĮntÊĥ
ĠÉĻ mz
Ġk É¾ÉĻm
ÉĳËĲ l
ĠhËĪÉĽn nÉĻsi
Ġp ËĪak
ĠÊĥ ÉĻd
ĠwÉĻn z
ĠkËĪÃ¦tÊĥ ÉªÅĭ
ĠdËĪa di
ĠÊĥáµ»k ËĪÉĳËĲÉ¡oÊĬ
Ġw ËĪÉªps
ĠhËĪeÉª l
ĠpËĪÉĳËĲp s
li ÉĻ
mÉĻn i
ĠsËĪÉĽnd ÉªÅĭ
ĠËĮÉĽm ËĮeÉªtÊĥËĪÉĽm
Ġm ËĪoÊĬn
ĠtÊĥ ÉĻndÊĴ
ĠjÉĻ t
ĠpÉ¹ËĪÉĽz ÉĻns
Ġ ËĪÉĽd
Êĥ ÉĻt
ĠtÊĥ ËĪÉĳËĲk
É¾ÉĻ f
Ġf ËĪÊĬ
ĠkËĪÉªl ÉĻ
ĠÎ¸ËĪÉľËĲst i
ËĪÉª nd
ĠËĪÉĽk oÊĬ
l ËĪÉªl
eÉª ks
Ġh ÉļÉ¹
áµ» s
ĠdÊĴ ÉĲm
ĠlÉĻk ÉĻd
Ġp ÉĻÉĻ
ĠbËĪÉªÉ¡ i
ĠhÉĻt ËĪo
ĠsÉļpÉ¹ËĪaÉªz d
ĠÊĥËĪÉĽl tÉļ
ËĪa z
Ġt ËĪÉªnt
ËĮÊĮ ndÉļ
Ġst ËĪÉĳËĲmp
ËĪÉªl Éªk
sp ËĪÉĽÊĥÉĻli
ĠÉ¹ËĪiËĲtÊĥ t
b ËĪÉľËĲ
Ġl ËĪÃ¦d
ĠËĪÉĽnd áµ»d
ĠfËĪaÉªt Éªn
ĠhËĪÉĽvÉĻn li
Ġb ÉĻÉĻ
ĠbËĪeÉªs mÉĻnt
Ġk Ã¦
ĠÉ¡ ËĪÊĮvÉļ
ËĪÉĻ m
ËĮÃ¦ t
ĠfËĪoËĲÉ¹ Î¸
k ÉĻl
ËĪÃ¦ É¹i
ĠËĪÉªn tÉ¹
Ġbl ËĪÉªÅĭk
ĠÉªn h
ĠblËĪÉĽs ÉªÅĭ
ĠËĮÃ¦ftÉļ nËĪuËĲn
? !
w ËĪÉĶËĲk
ĠkÉĻl ÉĻn
m ÉĻl
m ËĪeÉªb
ĠÉ¡ ËĪeÉªn
Ġsw ËĪeÉª
ĠhËĪÉĽd ÉªÅĭ
ĠÊĥ ËĪÉĶËĲn
ĠwËĪÉªnd z
ĠdÉªst É¹
ĠËĪÉªÊĥuËĲ z
Ġn ËĪeÉªlz
st ËĪeÉª
ËĮÉĽs ËĪeÉªtÊĥ
ĠmÉĻm ÉĻnt
ËĪiËĲ ks
Ġt ËĪÉªÉ¾Éªz
Ġst ËĪÉĳËĲk
p lÉĻ
ËĪoÊĬ vÉļ
ËĪÉĽnd i
ĠkÉĻl ËĪÉĽkt
ĠËĪÉĶËĲ É¾ÉĻ
ĠpÉ¹ËĪÉĽz ÉĻnt
ĠdËĪÃ¦n st
ĠsÉļÉ¹ËĪaÊĬnd áµ»d
ĠveÉªk ËĪeÉªÊĥÉĻn
ĠstËĪÉĽp Éªn
b ËĪÉĳËĲp
Ġp É¾
tËĪuËĲ n
ĠsËĪÃ¦d nÉĻs
ĠswËĪiËĲ É¾Éªst
s ËĮÊĮm
ĠtËĪuËĲ zdeÉª
ËĪÃ¦tÊĥ t
ĠËĮÉĽ skËĮeÉªËĮÉĳËĲÉ¹tËĪiËĲ
ĠËĪÉªm ÉªdÊĴ
ĠÉ¡É¹ËĪaÉªnd Éªn
Ġb ÉĻld
Ġd ËĪÊĮmp
ĠÉ¡ É¾ËĪa
Ġst ËĪÃ¦b
ĠËĪÃ¦ Êĥ
Ġdáµ»s ËĪiËĲv
ĠdËĪÉĽs pÉļÉ¹
ĠÉ¡ËĪÊĮvÉļ n
Ġd Éª
ĠkËĪÃ¦n aÉª
ĠtËĪuËĲ Î¸
ËĪÉĽnd z
ĠpÉ¹ËĪÉĳËĲ fÉªt
h ÉĽd
Ġb ËĪÉľËĲst
Ġb ËĪÊĮd
Ġt É¾ÉĻt
Ġl ËĪiËĲk
ĠtËĪoÊĬ É¾ÉĻl
ĠbËĪoËĲÉ¹d Éļ
ÅĭkÉ¹ iËĲt
ĠwËĪÉªz dÉĻm
ĠkËĪÉĳËĲmpl áµ»kËĮeÉªÉ¾áµ»d
ĠsËĮÉªÉ¡ÉļÉ¹ ËĪÉĽt
Ġm ÉľËĲsËĪeÉªdiËĲz
Ġp ËĪÉĳËĲÉ¹dÉĻn
Ġv ËĪÉĽn
f oÊĬ
w ËĪÉľËĲk
ĠmËĪaÉª kÉ¹
ÊĥÉĻn s
ĠpÉ¾ÉĻm ÉĻsÉĻ
d ËĪÉªd
ËĪaÉª Éļd
Ġh ËĪÊĮmbÉĻl
st ÉĻz
ĠtÉĻm ÉĻÉ¾ÉĻ
ÉĻÉĻÉĻ tÉĻ
ĠkËĪÊĮv Éļz
É¹ ËĪoÊĬ
Ġs ËĪÉĳËĲ
ËĪÉªl ÉªÉ¹
ÉĻs ÉĻz
ÉĻnt ÉĻn
ĠÉ¡l ËĪÊĮv
ĠÊĥËĪÉĳËĲÉ¹ p
Ġ ËĪÉľËĲn
Ġm ËĪaÊĬ
Ġp ÉĻd
Ġsp ËĪÃ¦n
ĠÉ¹ËĪÃ¦p s
pÉĻ Î¸i
ĠfËĪÉĶl s
Ġt ËĪÉĶÉªz
ĠÉ¹ ËĪÃ¦É¡
ĠtËĪÉĽÉ¹ ÉªÅĭ
boËĲÉ¹ É¡
Ġs ËĪÉĳËĲk
Ġst ËĪÊĮmbÉĻl
ÉĻs ËĪiËĲ
ËĮÉĽn ÉĻsËĪiËĲ
É¾ÉĻ wÉĻn
ĠsËĪÉĽt s
ÉĽn s
ĠsËĪuËĲpÉļ m
ĠkËĪÃ¦m É¹ÉĻz
ĠdÊĴÉĲm ËĪeÉªk
w ÉĻk
É¹ ÉªÉ¾i
Êĥ ËĪÉľËĲt
Ġpl ËĪÃ¦nd
Ìĥ )
ĠdÉ¹ËĪÉĳËĲp s
ËĪÉĽ bÉ¹
ĠkËĮÉĳËĲm pÉĻtËĪÉªÊĥÉĻn
ĠsnËĪÉªp Éªt
z áµ»z
Êĥ ËĪeÉªk
Ġsl ËĪÊĮm
ËĪaÊĬd Éļ
ĠÉĻËĮ ÉĻÉĻÉĻ
ĠnËĪÉªk i
Ġdáµ»v ËĪaÉªd
Ġl ËĪÉĽn
ĠÉª ÅĭkÉ¹
Ġp ËĪÉĶËĲz
ĠtÊĥ ËĪÉªps
ĠÉªn nËĪÉĳËĲ
ĠspËĪiËĲk Éļz
ĠpËĪÊĬÊĥ t
ĠdËĪiËĲm ÉĻn
ĠsnËĪeÉªk s
ĠjËĪuËĲz ÉªÅĭ
Ġs ËĪÃ¦l
Ġl ËĪÉªs
Êĥ ËĪÉªt
ËĪaÊĬn ts
Ġsl ËĪÉĽpt
ĠbËĪÉĳËĲÉ¹ oÊĬ
ĠÉ¡ËĪuËĲ s
ĠwËĪÉªs ÉĻl
ĠkËĪÃ¦dÉªlËĮÃ¦ k
v ËĮiËĲ
w ËĪÉĳËĲtÊĥ
ËĪÃ¦ É¡Éļ
tÊĥ ËĪÉĽk
ÉĲ dÊĴ
ĠkËĪÊĮm ftÉĻbÉĻl
ĠmËĪÃ¦ l
ĠÊĮn s
ĠlËĪÃ¦f Éªn
Ġsk ËĪiËĲ
ËĪÊĮf ÉĻl
ĠmËĪoÊĬ É¾Éļ
ĠËĪÃ¦k tÊĥuËĲÉĻli
i ÉĻnz
ËĪaÊĬ l
ĠÉĻv É¾ÉĻwÉĻn
laÉª ts
ĠÊĥ ËĪÉĽlf
ĠdÊĴ ËĪÉľËĲni
ËĪÉĳËĲk ÉĻ
ĠkËĪÊĮ f
ËĪÊĮÃ°Éļ n
ĠfÉ¹ËĪiËĲ ks
ĠËĮÊĮndÉļst ËĪÊĬd
y mËĪÉĻ
Î² ÉĻt
ĠfÉĻ Î¸
ĠdÉ¹ËĪaÉª vÉļ
wÉĶËĲ k
eÉª p
Ġt ËĮÉĽnÉĻsËĪiËĲ
Ġd jËĪuËĲs
ĠskËĪÉªn i
m boËĲÉ¹É¡
ËĪeÉª vÉļ
ËĪÉĶÅĭ k
ĠÉĽks ËĪaÉªÉ¾áµ»d
ĠsmËĪoÊĬk t
ĠÉ¡ËĪÃ¦Åĭ stÉļ
ĠÉ¡lËĪÃ¦s áµ»z
ĠÎ¸ÉĻz ÉĻnd
ËĪÉĽnd ÉĻnt
ÉĽ ndz
ĠÉªnv ËĪÉĳËĲlvd
ĠspËĪÉªt Éªn
ĠÉĲpÉ¹ ËĪiËĲÊĥ
v oÊĬ
Ġsk ÉĻn
Î² ÉĻz
ĠtÉ¾ ËĪa
ĠfËĪÉĳËĲloÊĬ ÉªÅĭ
ĠkjËĪuËĲ b
ĠkÉ¾ÉĻs mÉĻs
ĠtËĪuËĲ hËĪÊĮndÉ¹ÉĻd
ËĮÉª z
ĠÉ¡ËĪoÊĬst s
s ËĪÉĽvÉĻnt
ĠÉ¹ËĪoÊĬ vÉļ
pl ËĪeÉª
ĠwËĪÊĮÉ¹i z
ĠËĪÉĳËĲn Éļ
ĠmËĪÉĳËĲÉ¹ tÊĥÉªÅĭ
Ġh j
ÉļÉ¹ ËĮeÉªt
Ġsw ÉĻtÊĥ
ĠstËĪÉĳËĲp Éªn
ĠÉĽkspl ËĪoÊĬd
ĠswËĪÉªÅĭ ÉªÅĭ
ĠpÉ¹ËĪÃ¦kt Éªs
Ġf ËĪÉĽÃ°Éļ
Ġsk ËĪÉĽÉ¹
ĠkËĪÉĳËĲ ÅĭkÉ¹iËĲt
ĠpËĪÉľËĲ s
ĠsËĪÉĽnt ÉĻns
ÅĭÉ¡ ÉĻn
ËĪeÉª dÊĴÉĻs
Ġp ËĪÉľËĲl
Ġpl ËĪaÉªÉĻ
ÅĭÉ¡ ÉĻ
ĠkËĪaÊĬ bÉĶÉª
ĠpËĪoÊĬst áµ»d
ÊĮst É¹i
ĠkÉ¹ ËĪÉªp
ĠhËĪÊĮÅĭ É¡Éļ
ĠÉªtËĪÉľËĲn ÉªÉ¾i
ĠdÊĴ ËĮeÉª
ĠÉ¹ËĪÉª mz
ĠpÉ¾ÉĻ v
ĠËĪÉªnd ÊĮstÉ¹i
ĠdÉ¹ ËĪÉªl
ËĪiËĲd ÊĴ
ĠÉ¡ËĪÉĳËĲ É¾i
ĠkËĪÉªs Éªn
ĠdËĪoÊĬ m
ĠwËĪÉĽst saÉªd
ĠbËĪÉĽnd ÊĴ
Ġs ËĪÊĮÃ°Éļn
ËĪeÉª pt
Êĥ ËĪÊĬÉ¹
Ġsp ËĪaÉªn
ĠÉ¡É¹ ËĪÉªn
ĠËĪÉĳËĲ fÉªs
ĠspËĪÉĽnd Éªn
ĠhËĪeÉª É¾áµ»d
ĠÉĽks pÉ¹
ĠfÉªn ËĪÉĽs
Ġm ËĪÉĳËĲÉ¹tÉªn
ĠÊĮ ps
ĠtÉ¹ ËĪÉªn
ĠbÉ¹ ËĪÉĽ
ËĪiËĲl ÉĻ
ËĪiËĲl ÉªÅĭ
ĠËĪa k
ĠÉªnt ËĪÉĽnÊĥÉĻnz
ĠhËĪiËĲl ÉªÅĭ
ĠÉ¹ËĪiËĲk ÉĶËĲl
k eÉªs
Ã° ËĪat
ĠbÉĻ f
ĠsËĪÉĶft li
ĠlËĪÃ¦m boÊĬ
j ÉĻÉĻ
n ËĮÉĽt
Ã° i
ĠtËĪaÉª ni
ËĮÃ¦ m
Ġbl ËĪuËĲm
ĠsËĪÉĻ mz
! ),
ĠÉ¡ ËĪoËĲÉ¹
ĠdÊĴ ÉĻk
ËĪoÊĬn i
ĠpËĪÉĳËĲÉ¹t s
ĠsËĪiËĲz ÉĻnz
ĠËĪÉĽn vi
ĠbËĪÃ¦Åĭ É¡Éªn
ĠkÉ¹ËĪÊĬk Éªd
Ġs ËĪÉĶlt
p ÉĻkt
Ġf ËĪÉĳËĲks
Ġsl ËĪÃ¦Êĥ
ĠÉĻl ÉĻ
ĠfÉĻk s
ĠËĮÉĽ f
ĠflËĪÃ¦Êĥ ÉªÅĭ
ĠhËĪÊĬk t
Ġf É¾
ĠtÊĥ ËĪÊĮk
ĠËĪÉĶf Éļ
ĠsÉĻp ËĪoÊĬz
ĠfÉĻlÉĻÅĭ z
ĠhËĪÉĶËĲÉ¹s áµ»z
ĠvËĮiËĲ v
w ËĪiËĲ
ĠdÊĴ uËĲ
ËĪÉĳËĲÉ¹ É¾áµ»d
ĠbËĪÊĮ di
ĠdËĪÉªÉ¡ ÉªÅĭ
ĠvËĪÉªz Éªt
É¡ Éªt
Ġkl ÉĻn
ĠËĪÃ¦n i
Ġst ËĪÉĽpt
ĠkÉĻnd ÉĻ
ĠÉĻnËĪy wÉĻ
ĠlËĪoÊĬk oÊĬ
ĠËĪÉĽndÊĴ Éªn
Ġw ËĪÉĻn
Ġs Éªn
ĠÉ¹ áµ»d
ĠmËĪÃ¦ Êĥ
ĠpÉ¹ ËĪaÉªm
ĠstÉ¹ ËĪÉĽst
ĠdÉĻns ÉĻÅĭ
t ËĪÉĳËĲp
ĠÉ¡ËĪÉĳËĲt s
ĠdÉ¹ËĪÉªft ÉªÅĭ
kÉĻh ËĮÉĳËĲl
ËĪÃ¦ É¾i
Ġp ËĪÉªÉ¹
ĠhËĪÉĽl Î¸
ĠkËĪÉĽÉ¹ d
ĠdÉ¹ ËĪÉªpÉªÅĭ
Éªk w
ĠmËĪÃ¦n z
ĠhaÊĬ ËĪÉĽvÉļ
É¾ ÉĽk
ÉĻt ÉĻÅĭ
ĠkÉĻnf jËĪuËĲ
ĠwËĪÊĬl f
Ġh ËĪÉĽvÉĻnz
É¡ Éªst
ĠwÉĻ É¾ÉĻ
ĠbËĪÃ¦ m
ĠÉĻp ÉĻt
ËĪÉĳËĲd oÊĬ
ĠlËĪÃ¦ ft
Ġp ËĪÉªtÊĥ
ĠËĪiËĲ É¡ÉĻl
ĠhËĪaÉª Éªst
ËĪÉľËĲ b
ĠÃ¦m b
ĠËĪÃ¦n t
ĠËĪÉªntÉļ nËĮÉĽt
ĠËĪÃ¦v É¹ÉªdÊĴ
ĠÉ¹ ËĪaÊĬt
ĠÉĻp ËĪÉªn
ĠstËĪÉªk i
ĠÉ¹áµ»v ËĪÉĽndÊĴ
Ġs ËĪÉĳËĲlv
ËĪÉªz áµ»bÉĻl
ĠsËĪÉľËĲ f
ĠvËĪÉªkt ÉļÉ¹i
ĠmËĪÉĽksÉªk ËĮoÊĬ
É¾Éļ É¹i
ĠfËĪÉĳËĲÉ¹ m
ËĮaÉªz ÉªÅĭ
ĠdÉ¹ËĪÊĮm z
n oÊĬ
ÉĻ Î¸
ĠÉ¹ ËĪoËĲÉ¹
ĠhËĪa f
É¡É¹ aÊĬnd
ĠbËĪÃ¦l ÉĻns
l Éª
Ġb Ã¦
Ġst ÉĻm
ĠfËĪeÉª vÉļ
ĠlËĪiËĲd Éļ
Ġs ÊĮ
Ġh ÉĻnÉĻ
ËĪÉĻ l
ĠtËĪaÉª z
Ġz ËĪuËĲm
ĠËĪiËĲzi li
ĠfÉļÉ¡ËĪÉªv nÉĻs
mboËĲÉ¹É¡ ËĪiËĲni
ĠbÉ¹ ËĪÉĶËĲdz
Ġbl ÉĻz
Ġv ËĪÉĽst
ĠÊĥËĪÉªt s
ĠÉ¾ÉĻd ÉĻn
ĠÉĽksp ËĪÉĽnsÉªv
j ËĪÊĮÅĭ
ĠjuËĲ n
ĠtÊĥ ËĪÃ¦n
ĠwËĪeÉª l
ĠdËĪeÉª dÉ¹
ĠstËĪeÉª Éªn
ĠaÊĬts ÉĻd
ĠËĪÃ¦l kÉĻhËĮÉĳËĲl
ĠstËĪoÊĬl ÉĻn
ĠwËĪÉªl i
ĠpËĪÉªk Éªn
ĠÉ¹ËĪÉĽst lÉĻs
ĠfËĪÉªz ÉªkÉĻl
l ËĪÉªÅĭ
Ġw ËĪÉªÅĭ
Êĥ ËĪÉĳËĲ
ĠÉª nd
ĠbËĪÉĽ É¡Éªn
ĠwËĪuËĲ nd
ĠbËĪÉªli ÉĻn
ËĪiËĲ st
Ġk ËĪÉĶËĲ
ĠfËĪÉĽl ÉĻz
m ËĪeÉªÊĥÉĻn
ĠkËĪÉĳËĲp t
ĠËĪÉªnÉĻs ÉĻns
ĠtÉĻw ËĪÉĶËĲÉ¹dz
ĠmËĪÉĽnt ÉĻl
Ġd ËĮÊĮbÉĻljËĮuËĲ
ÉĲ f
Ġkl ËĪÊĮtÊĥ
ĠÉ¡ËĪÉĳËĲ s
lËĪaÉª f
ĠËĪÉĶËĲÉ¹ liÉĻnz
ĠfÉĻm ËĪÉªlÉªÉ¹
ĠtÉ¹ËĪÃ¦vÉĻl ÉªÅĭ
ĠswËĪiËĲ É¾Éļ
ĠkËĪÉĳËĲnf ÉªdÉĻns
ËĪÃ¦n ÉªÉ¾i
ËĪan z
ĠbËĪÉĳËĲ nd
ËĪÉªf Éªk
ĠbËĪÃ¦Î¸ É¹uËĲm
Ġw ËĪÉĳËĲp
Ġt ËĪÉĳËĲk
ËĮÉĽ ks
ĠtÉ¹ ËĪeÉªl
ĠÉĲp ËĪÉªÉ¹
ĠnËĪÉĳËĲk Éªn
b ËĪÉĳËĲm
Ġh Ã¦hËĪÉĳËĲhÉĻ
Ġp ËĪÃ¦pi
ËĮÊĮ lt
ĠwËĪÉľËĲld z
ĠstËĪÉĳËĲÉ¹t Éªn
ĠdËĪÉª di
ĠmËĪÉĳËĲ dÉĻlz
Ġb ËĪÊĮn
ĠbËĪoËĲÉ¹ ÉªÅĭ
w ËĪÉĳËĲnÉĻ
Ġm ÉĳËĲnt
ĠwËĮÊĮt s
ĠpÉ¹ ËĪeÉªd
ĠlËĪÃ¦st s
ĠbÉĻt ÉĻ
ĠmËĮÃ¦ É¹Éª
Ġst ËĪÃ¦
ËĪÉĽn Êĥ
ËĮÃ¦ tÉªn
Ġbl ËĪÉĳËĲks
ËĪoÊĬk ÉĻn
ĠkËĪÊĮ ps
ĠÉªnv ËĪÉªzáµ»bÉĻl
ĠkËĪÃ¦s ÉĻl
ĠÉ¹áµ»fl ËĪÉĽkÊĥÉĻn
Ġb ËĪÃ¦n
ĠÉ¡ËĪÉĳËĲ dz
ĠsÉĻp ËĪoËĲÉ¹t
É¡É¹ËĮÃ¦ m
Ġbl ÉĻm
ËĪan ÉĻ
ĠvËĪaÉªÉĻl ÉĻnt
fËĪÉªft iËĲn
ËĪaÉª p
Ġd É¾ÉĻs
Ġf ËĪÊĮks
ĠdÊĴ ÉĻm
ËĪeÉªs ÉĻn
ËĪÃ¦nt Éªk
ĠpËĪÉĳËĲÉ¹k ÉªÅĭ
ĠbÉ¹ËĪÉĽ Î¸Éªn
Ġst ËĪiËĲm
ĠÎ¸ ËĪaÉªz
oÊĬ t
Ġl ËĪiËĲs
ÉĻn st
Ġz ËĪiËĲ
l Éªt
w ËĪaÉªt
st Éļd
ĠstËĪoÊĬ nd
Ġb ËĪÊĬks
ËĪÉĳËĲ É¡
Ġl ËĪaÊĬ
Ġv ËĪÉªÊĴÉĻnz
ĠÉĻn ymËĪÉĻ
ĠstËĪÉĳËĲÉ¹ É¹Éªn
ĠsËĪÊĮmtaÉª m
ĠkËĪÉĳËĲp i
ĠËĮÉªnd áµ»p
ĠpÉ¾ÉĻt ÉĻnd
É¹ ÉĻnz
Ġs ËĮÉĽn
Ġd ËĪÉĽt
Ġh ÉĻdÉĻ
ĠmÉĻ Ã°ÉĻ
ĠËĪÉĳËĲ d
ĠfËĪiËĲ ndz
s ËĪÊĮn
Ġbl ËĪeÉªd
áµ»v ËĮÉª
ĠÉ¹áµ»m ËĪeÉªnz
ĠËĪÉĶËĲ d
ĠÉªnv ËĪÉĽst
ÉĲm ËĮaÉªt
ËĪÉĽvÉ¹Éª Î¸ËĮÉªÅĭ
Ġl ÉĻdÊĴ
ĠÉ¹ËĪeÉªn i
ÊĮ t
ĠÃ° ÉĽm
Ġs ËĪÉªs
áµ» b
ĠÉĻt ÉĻ
Ġbáµ»lËĪiËĲv Éļ
ĠpËĪeÉª ÉªÅĭ
ĠdÊĴËĪuËĲ d
ĠkËĪÃ¦É¹i d
ĠtÊĥËĪÉĳËĲÉ¹ li
ĠÊĮps ËĪÉĽt
j Éļz
ËĮ ÊĬ
Ġt ËĪÉĶËĲks
Ġst ÉĻn
ĠbÉ¹ ËĪoÊĬz
ÉĲ ÉĲ
ĠbÉĻt wËĪÉĻn
ĠfËĪÉĶËĲÉ¹ Éªst
âĢĶ ,
ĠkËĪÉĳËĲn ÊĥÉĻns
ĠsÉĻl ËĪuËĲt
ĠmËĪÃ¦t É¹ÉĻs
poËĲÉ¹ t
ĠkÉĻnfjËĪuËĲ ÊĴÉĻn
l ËĪeÉª
ĠdËĪÃ¦m d
Ġv ÉĻl
ĠdËĪaÉª ÉĻl
ĠwÉĻnt s
ĠmËĪÉĳËĲÉ¹ z
Ġm ËĪak
Ġp ËĪÃ¦d
Ġkl ËĪÉªps
Ġfl ËĪeÉªvÉļ
ĠÉĲl ËĪaÊĬ
ĠÉª spËĪÉĽÊĥÉĻli
ĠÉĲ tÊĥ
ĠËĪÊĮp taÊĬn
ĠdÊĴËĪÉĶËĲÉ¹ dÊĴÉĻ
ÉĻ É¡
Ġk ËĪeÉªv
ĠkÉ¹ ËĪÃ¦ks
ĠÊĥËĪuËĲ É¾Éļ
ĠtÊĥËĪÉĳËĲk lÉĻt
Ġb ÉĲn
ĠwËĪÉĽÉ¹ z
ĠhËĪÉĳËĲp t
ĠstÉĻ É¾ËĪi
ĠsËĪÉªÉ¹ ÊĮp
ĠÉªÅĭkÉ¹ ËĪÉĽd
' -
ĠÉ¹ ËĪÉĽm
Ġv ËĮaÉª
ĠÉĲl ËĪaÊĬd
ĠÉªns p
ĠsËĪÉªÅĭ z
ĠvÉĻ É¾ËĪi
Ġf ÉĽÉ¹
ĠÊĥ ËĪÉĽvi
ÉĻÉĻÉĻÉĻÉĻÉĻÉĻÉĻ ÉĻÉĻ
ĠsËĪÉľËĲv Éªs
ĠÉĻ ndÊĴÉĻ
Ġbáµ» tÉ¹
ËĪÃ¦Åĭ ks
ĠbËĪuËĲ t
ĠÉĲpÉ¹ ËĪoÊĬ
Ġt ËĪÉĳËĲks
st ÉĽ
Ġpl ËĪiËĲd
sp ÉļÉ¹ËĪeÉªÊĥÉĻn
ĠwËĪiËĲk nÉĻs
ĠÉ¡ËĪÊĮvÉļn mÉĻnt
y ti
Ġw ËĪÉĶnd
Ġt ËĪÉĽnd
ĠËĪeÉª s
ËĮiËĲ z
ĠËĪaÊĬt l
ĠÉ¹ËĪeÉª nd
ĠtÊĥËĪÉĳËĲp Éļz
ĠpËĪÉĽn i
ĠmËĪaÉªkÉ¹ ÉĻfËĮoÊĬn
É¹ ËĪÉĳËĲÉ¹É¹i
ĠÉ¡É¹ ËĪÃ¦ntáµ»d
ĠbÉªkËĪÊĮm z
ĠfËĪoËĲÉ¹É¾i fËĪaÉªv
ĠlËĪÉĶÉª Éļ
ĠstËĪand ÉĻÅĭ
ĠvËĮaÉª bÉ¹
ĠbËĪaÉª ÉªÅĭ
ĠpËĪÃ¦É¹ÉĻnËĮÉĶ Éªd
ĠfËĪam ÉĻli
Ġb ÉĻnd
ĠwËĪÉľËĲ Ã°i
ĠÉ¡É¹ ËĪeÉªd
ĠbËĪÊĮmp Éªn
ËĪoÊĬ ÊĥÉĻn
Ġl ËĪÉªn
É¡ ËĪÉĻt
ĠkÉ¹ ËĪÉª
ĠÉ¡l ËĪÉªÉ¾Éļ
ĠbËĪÊĮ ks
ĠbËĪa Åĭ
ĠÉ¹áµ»l ËĪeÉªt
Ġdáµ»s ËĪÉªÊĴÉĻnz
ĠstÉ¹ËĪÉĽs Éªn
ĠmËĪÉĳËĲÎ¸ÉĲfËĮÊĮk Éªn
Ġs Ã¦l
Ġst ËĪÃ¦É¾Éªk
Ġpl ÉĻÉĻn
ĠÉ¹ËĪÊĮn ÉĻwËĮeÉª
ËĪiÉĻ É¹ÉĻ
ĠËĪÉªntÉ¹ Éªst
f ËĪÉĶËĲl
Ġk ËĪÉĽli
ĠÉ¹áµ» É¡
ĠÉ¡ËĪÊĬd nÉĻs
ĠbÉĻ É£ÉĻn
ĠsÉĻk ÉĻnd
ĠÉ¾ËĪap o
ĠÉĲpl ËĪÉĶËĲz
ĠÉ¹ËĪÃ¦tÊĥ Éªt
ĠmÉĳËĲnt ËĪÃ¦nÉĻ
ĠtÉ¹ ËĪÉªl
ĠkÉ¹ ËĪiËĲ
ĠÉ¡l ËĪÉĳËĲks
ĠpËĪoËĲÉ¹ Éªn
ĠÉ¾ÉĻl ÉĻn
ĠspËĪÃ¦n ÉªÊĥ
Ġbáµ»lËĪÉĶÅĭ z
Ġm ËĮÉªliÉĻnËĪÉĽÉ¹
Ġn ËĪÉĳËĲn
ĠËĪÉªn tÊĥ
ĠmÉĻ É¾ÉĻ
ĠbËĪaÉª k
ĠvËĮiËĲv ËĮiËĲËĪÉĽs
Ġs ËĪoËĲÉ¹d
ĠÎ¸ ËĪÉľËĲ
ÉĻd ËĮeÉªz
ĠpÉ¹ ÉĻf
ĠklËĪÉªÉ¹ li
É¹ ËĪuËĲm
ĠmËĪÊĮÃ°Éļ z
ĠbËĪÉľËĲn t
nËĪoÊĬ bÉĳËĲdi
ĠsËĪÉĽk ÊĥÉĻn
ĠlËĪiËĲ É¡
ĠpËĪÉĳËĲ É¾ÉĽk
m ËĪaÉªnd
ĠÉĻ sÉĻn
ËĮÉĽ vÉļ
ĠfÉ¹ ËĪaÊĬn
ËĮÉª l
ĠkËĪÉªl z
ĠpËĪÊĬÊĥ Éªn
ĠfËĪeÉªd z
h ËĪÃ¦v
Ġh ÉĻv
Ġh ËĪÉĶËĲÉ¹n
st ËĪeÉªt
ËĪÃ¦Åĭ É¡Éªn
ĠlËĮÃ¦ mboËĲÉ¹É¡ËĪiËĲni
ĠÃ°ÉĽm sËĪÉĽlvz
s ËĪuËĲ
s ks
ĠkÉĻn ËĪÉĽkt
ĠwËĪÉĶËĲÉ¾Éļ z
ĠtÊĥËĪÉªl ÉªÅĭ
ĠÉ¡É¹ËĪeÉªv i
ĠtËĪeÉªl Éļ
É¹ËĪaÉª b
nËĪÊĮ Î¸ÉªÅĭ
ĠdÊĴuËĲ lËĪaÉª
ËĪÃ¦ sk
ĠÉ¹ ËĪÉªvÉļz
Ġdáµ»sËĪaÉªd áµ»d
ĠlËĪÊĮ lÉĻb
ĠnËĪaÊĬ ÉĻdËĮeÉªz
ĠËĪÃ¦ vÉĻn
ËĪÃ¦nd ÉĻ
ĠdÉĻ Î¸
ĠdÉ¹ËĪaÉªv z
ĠdËĪiËĲl ÉªÅĭ
ËĪÉĳËĲ É¾Éªk
Ġp ËĪÉĳËĲsáµ»bÉĻl
ÉĻm pl
pl eÉª
ĠÉ¹ËĪuËĲ ts
ĠnËĪiËĲ Ã°Éļ
ĠpÉ¹ËĪiËĲ tÊĥÉļ
p oÊĬ
Ġk ËĪÉĽl
li z
Ġfl ËĪÉĳËĲp
Ġspl ËĪÃ¦Êĥ
ĠÉ¹ËĪeÉªs ÉªÅĭ
ĠfËĪÊĬ li
a m
Ġ ËĮÉĳËĲÉ¹
ĠÉ¡ËĪÉĽt ÊĥÉĻ
Ġsl ÉĻd
ĠhËĪÉĽl plÉĻs
áµ»n ËĮeÉªt
ĠwÉĻk ÉĻn
ĠsÉĻÅĭ z
ĠkÉ¹ËĪiËĲp ÉªÅĭ
ĠhËĪÊĮsl Éļ
ĠhÉľËĲ sËĪÉĽlf
ĠhËĪoÊĬm z
ĠÉĽ nt
Ġdáµ» kl
Ġdáµ»s ËĪÉªÊĴÉĻn
ĠÉĲb jËĪuËĲs
Ġw ËĪÉĽn
Ì© ,
ĠmËĪÉĽs ÉªÅĭ
h ÉĳËĲÉ¹t
Ġk ËĪÊĮst
ĠmËĪiËĲ d
twËĪÉĽnti wËĪÊĮn
ËĮÉĽ f
ËĮÉĽ skËĮeÉªËĮÉĳËĲÉ¹tËĪiËĲ
ĠtÉ¹ ËĪÊĮmp
ÉĽm pt
ËĪÉĽ É¾
ĠtÊĥ ËĪÃ¦t
ĠtËĪoÊĬ t
ĠdËĪaÉªn ÉĲmËĮaÉªt
ĠklÉĻ Ã°z
ĠÉĲpÉ¹ËĪiËĲÊĥ ÉªËĮeÉªt
h uËĲ
ĠdÊĴ ËĪiËĲp
ĠdÊĴ ÉĻp
ËĮÉª ks
ĠblËĪaÉªnd áµ»d
Ġdáµ»l ËĪÉªvÉļ
ĠbÉ¹ËĪÉªdÊĴ áµ»z
ĠÉ¡ËĮÃ¦É¹ÉĻnt ËĪiËĲ
Ġt ËĪÉªn
Ġst ËĪÊĮdi
ĠhËĪÃ¦ Êĥ
ĠnËĪiËĲd ÉĻl
ĠlËĪÉĽ ÊĶn
ĠÉ¡ËĪuËĲ nz
ĠhËĪÉªp nÉĻt
ĠklËĪÃ¦s Éªk
Ġn ËĪÉĽt
É¡ ÊĬd
É¡ ËĪÉĳËĲÉ¾ÉĻ
tÊĥ ÉĻs
ĠhËĪÃ¦ l
vËĪiËĲ jËĪÉĽËĲ
ËĮÉĽs ËĪeÉª
ĠkËĪÉĶf Éªn
ÊĮ k
Ġm ËĮÊĮlt
Ġs ËĮÃ¦
ĠÎ¸ ËĪÉľËĲtiËĲn
ĠwËĪÉĽÉ¹ Éªn
Ġd ËĪÊĮtÊĥ
Ġd ËĪÉªks
ĠÉª v
ĠfÉ¹ ËĪÉĽntÊĥ
ĠpÉĻp ÉĻn
ĠkÉ¹ËĪÉĶËĲl ÉªÅĭ
Ġl ÉĻps
ĠkÉ¹ ËĪeÉªv
ĠtËĪuËĲ l
ĠÉ¹áµ»m ËĪÉĽm
ĠÎ¸ËĪÃ¦Åĭk fÉĻl
dÉļ n
ĠkËĪa É¾i
ĠÉļÉ¹ ËĪÉªdÊĴ
ĠsËĮÉªÉ¡ÉļÉ¹ ËĪÉĽts
k ËĪoÊĬ
s ËĪÉªÅĭ
Ġt ËĪeÉªbÉĻlz
ĠÉ¹ ËĪeÉªl
ĠtÉ¹ ËĪeÉª
ËĪÉĽk ts
ĠÉ¹ËĪaÉªt s
ĠstÉ¹ ËĪÉĶËĲ
ĠtÉ¾ ÉĻn
v Éªn
ĠdÊĴ ËĪeÉªk
ĠwËĪeÉª ts
ĠÉ¾ ÉĻv
ĠmËĪÃ¦ É¡n
ÉļÉ¹ËĮÉª sks
ĠpËĪoËĲÉ¹ d
ĠÉ¡É¹ËĪeÉªt fÉĻl
bÉĻ Î²ÉĻ
Ġdáµ»m ËĪÃ¦nd
t ËĪÉªk
ËĪÉľËĲ ts
ĠkËĪaÊĬnt Éļ
jÊĬ lÉĻs
ĠsËĪÉªÉ¡ n
ÉĻm i
ĠÉ¾ËĪa ks
ĠwËĪÉĶl Éªt
Ġb ËĪÉª
ËĪÃ¦ dÊĴÉªk
Ġpl ËĪeÉªnz
ĠdËĪÉĳËĲ dÊĴ
ĠpËĪeÉª pÉļz
ĠkËĪoÊĬ b
ĠpËĪÉľËĲf juËĲm
ĠËĪÉĶËĲÉ¹ ÉªndÊĴ
ĠbÉĻz nÉĻs
ĠÉ¡ËĪÊĮ É¾Éļ
uËĲ k
Ġt ÉĽmpt
ĠkÉ¹ ËĪÉĳËĲnÉªk
ĠwÉĻ v
ĠtÉ¹ËĪÃ¦p ÉªÅĭ
ĠbËĪeÉªs Éªk
h ËĪÃ¦nd
ĠÉ¹ ËĪÉªs
ĠstÉ¹ ËĪÊĮk
ËĮÉĳËĲÉ¹ d
hoÊĬ l
ĠlËĪÉªp stÉªk
f ÉļÉ¹
Ġb ËĪÉĳËĲn
Î¸ ËĪÉĻz
ĠÉ¡ËĪoÊĬ l
ĠfÉ¹ ËĪuËĲt
ËĪÉªst Éªk
ĠsËĪÉľËĲ fÉªs
ĠpÉ¹ËĪÉĳËĲ dÉĻ
ĠvËĪÉľËĲs áµ»z
Ġáµ»v ËĪÉĽn
ĠsÃ¦l vËĪeÉªÊĥÉĻn
Ġl ËĪeÉªz
ÉĻl ËĮÉªn
ÉĻnt ËĮaÉªn
ĠÉ¾ÉĻ É£
ĠdÊĴËĪÉĶËĲÉ¹ dÊĴ
t ÉĻk
w ËĪaÊĬ
Ġl ÉĻnz
ÉĻn ËĪeÉªd
Ġp ËĪeÉªt
Ġbl ËĪÉªs
ĠkËĪÃ¦ skÉªt
ĠpÉ¹ËĪiËĲ tÊĥ
ĠmËĮÃ¦É¡ÉĲz ËĪiËĲn
f ËĮÉĶËĲl
k ËĪÉĳËĲm
s ËĪÉªÉ¹
ĠÃ° ËĮaÉª
Ġs ËĪÉĽntÊĥ
Ġk ËĮeÉª
Ġp ËĪÉªks
ËĪÉľËĲ m
ĠÊĮ m
ĠwËĪÊĬd ÉĻ
ĠmËĪÉĳËĲ dÉļn
ĠÎ¸ÉĻnk ÉĻn
ĠhËĪÃ¦f weÉª
ÉĶ Éªz
ËĪÉªf ts
ĠdËĪÉĶËĲ É¡z
ĠÉĻmÉĻ É¾ÉĻk
n Éªv
É¹ Éªt
É¡ ËĪÉĻ
ĠÉ¹áµ» b
ĠmÉĻn ÉĻt
ĠwËĪaÉªld Éªn
ĠkËĪÉĳËĲ ÊĶn
ĠpËĪeÉªdÊĴ áµ»z
ÊĮ kt
Ġsk ËĪeÉªt
ËĮoÊĬ m
ĠkËĪÉĳËĲÉ¹ pÉªt
ĠstËĪÉĽp ÉªÅĭ
ĠhËĪÉĽz áµ»tËĮeÉªt
p juËĲt
y t
Î¸ ÉĻm
Ġsp ËĪÉĽÉ¹
ĠplËĪeÉª Éļz
ĠfËĪaÉªt s
ĠlÉĻv ÉĻd
ĠËĮÉĽm sáµ»É¹ËĮÉªlÉªkjËĪÉĽËĲ
ĠnËĪÉĽk lÉĻs
ĠÉĻk st
ĠmÉªs ËĮÊĮndÉļ
ĠbËĪÊĮÉ¾Éļfl ËĮaÉªz
ĠÉ¡É¹ËĪÃ¦v ÉªÉ¾i
Î¸ËĪÉĻz ÉĻnd
Ã¦ ks
Ġp ËĪÊĮn
ÉĻl ËĮiËĲn
Ġsl ËĪÉªpt
ËĪÃ¦nd ÉĻm
ĠmÉĻÃ°ÉĻf ÉĻkÉĻ
ĠmËĮÃ¦É¹Éª wËĪÉĳËĲnÉĻ
m i
ĠËĪaÉª d
st i
ĠÉ¹ ËĪÉĶÉªs
ĠhÉĻm ÉĻ
ĠkËĪÉĳËĲ Åĭ
ĠlËĪÉªst ÉĻnËĮÉªn
ĠËĪÉªÅĭ k
Ġb aÉª
ĠÉ¡ É¾ÉĻs
Ġf ËĪÊĮs
ĠsËĪÉĽ É¾ÉªÅĭ
ĠflËĪÉĽks ÉªÅĭ
ĠkËĪÊĬk ÉªÅĭ
ĠÉĽm b
m ËĪeÉªd
ĠsËĪeÉª tÉĻn
ĠkËĪÉĳËĲÉ¹ É¾Éļ
ĠÉĻm ÉĻmÉĻm
ĠbËĪÊĮk Éªt
j ËĪÊĮp
Ġf ËĪiËĲm
ĠstÉ¹ ËĪoÊĬk
ĠkÉĻl ËĪe
ĠËĪiËĲkw ÉĻl
w ËĪÉªl
Ġ ËĪÉĶÉª
ĠÉ¹ËĪÉĳËĲk i
ĠkËĪÃ¦nd ÉĻlz
ĠaÉªd ËĪi
Ġ ËĪan
Ġk ËĪÉĽn
Ġk ÉĻst
Ġf jÉĻt
ËĪÉĽm jËĪÉĽËĲ
ĠdÊĴ ËĪÉĽnt
Ġsn ËĪuËĲp
sËĮiËĲ ËĪeÉªtÊĥ
ĠdËĪÉĽf Éªn
Ġw ÉĻlz
Ġm ËĪeÉªt
ĠÉ¹ ËĪÊĮÉ¡
ĠÊĥ ÉĻm
ËĮÃ¦ nd
Ġsp ËĪaÉªd
ĠswËĪÉªtÊĥ Éªn
ĠpÉļ f
ĠkËĪÉľËĲt ÉĻnz
ĠtËĪÉĳËĲks Éªk
ĠbÉ¹ ËĪeÉªs
ËĪÊĮk t
ËĪeÉªtÊĥ jËĪÉĽËĲ
ĠfËĪÉªl m
ĠbÉ¾ÉĻ Î¸
ĠsËĪÉľËĲk ÉĻs
ĠkÉļÉ¹ ËĪÉªÉ¹
Ġw ËĪÉªÉ¹i
ĠÊĥ ËĪÉĽÉ¹d
ĠdËĪuËĲ m
ĠbÉĻ É£
Ġdáµ»f ËĪÉĽns
ÉĻlt ËĮoÊĬ
Ġw ËĪÉªd
ËĪÃ¦ É¾
Ġf ËĮÉĻ
ĠtÊĥ ËĪÃ¦p
ĠdÉ¹ ËĪÉĶËĲÉ¹
ĠfÉ¹ËĪÉĽnd li
ĠhËĪÉĳËĲ v
!! !
ĠpÉ¹ÉĻv ËĪaÉªd
ÉĻm ÉĻnt
ĠpÉ¹ ÉĻm
ĠÉĲw ËĪÉĽÉ¹
ĠdÉ¾ÉĻ É¡z
ĠpÉ¹Éªp ËĪÉĽÉ¹d
ĠÉªÅĭkÉ¹ËĪÉĽd ÉªbÉĻl
st ËĪÉĳËĲÉ¹
ĠdÊĴ ËĪÃ¦z
ĠtÉ¹ ËĪoÊĬ
ĠËĪÃ¦ t
ËĪÉªli ÉĻn
ĠkËĪÊĮl tÊĥÉļ
ĠkËĪÉľËĲ b
s Éļ
ĠdÊĴ ËĪÃ¦É¡
ĠhËĪÉĳËĲÉ¹t lÉĻs
ĠfjÉĻt jÉĻ
m ÉĽn
Ã¦ st
ĠËĪeÉª liÉĻn
ËĮÉªn stÉ¹ÉĻmËĪÉĽntÉĻl
ĠwÉĻk ÉĻd
ĠtÉ¾ ÉĻÉĻn
É¹ ËĪaÉªd
Ġb ÉĻlz
Ġn ËĪÉĳËĲlÉªdÊĴ
ĠÉ¾ ÉĻvÉĻ
ĠlËĪeÉª É¾Éªst
ĠmËĪÉªs ÉĻltËĮoÊĬ
ĠsËĪÊĮk Éªn
ĠzËĪÃ¦n z
É¡ ÉĻlz
ËĪÉªp i
kËĪÊĮm ÉªÅĭ
ËĪÃ¦ÅĭÉ¡ ÉĻld
Ã¦ Åĭ
ËĮÉĳËĲ k
ĠkÉĻm ËĪÉªt
pÉ¹ ËĮuËĲ
ĠnËĪÉªÉ¹ li
ĠklËĪaÉªm ÉªÅĭ
ĠÉĲf ËĪÉĽkÊĥÉĻn
ĠÎ¸ É¾
É¾ÉĻ É¡É¹ËĮÃ¦f
ĠmËĪeÉªk ÊĮp
ĠkËĪÊĬd ÉĻ
ĠhËĪÉĽl pt
ĠtËĪÉĳËĲÉ¹ É¡Éªt
iËĲ ÉĻl
Ġd ËĪÉªm
Ġst ËĪoÊĬv
Ġpl ËĪÃ¦nt
ÉĻb ËĪÉªl
f ËĪÉľËĲst
ĠtÊĥËĪÉĽk ÉªÅĭ
ĠÉ¹áµ»k ËĪoËĲÉ¹d
ĠÉ¡É¹ËĪÃ¦m z
Ġm ËĮÉªs
Ġk ÉĻvËĪo
ĠdÊĴ ËĪÉªpsi
ĠsËĪoÊĬ k
ĠpËĪeÉª l
ĠÉĲt ËĪÃ¦tÊĥt
ĠËĪÃ¦vÉĻn ËĮuËĲ
Ġs ÉĽ
Ġz ËĪoÊĬ
ĠwËĪuËĲ ndz
ĠbËĪÉĳËĲÉ¹ b
k ËĪÉªl
w ÉĻl
ĠÉĻ sÉĻ
ËĪuËĲ uËĲ
Ġp ËĪaÊĬdÉļ
tÊĥ aÉª
ĠÉ¹ËĪuËĲm Éļz
ĠtËĪÉĳËĲm i
Ġw ÉĻm
ĠbËĪÃ¦Åĭ kÉ¹oÊĬ
ĠfËĪÉĳËĲloÊĬ d
ĠkÉĻns ËĪÉªd
ĠËĮoÊĬv o
ĠËĪÉªÉ¡ nÉļÉ¹
ÊĮ v
ÉĻp ÉĻ
ĠfËĪÉªÉ¡ jÉļz
ĠÉ¾ËĪa Ã°o
Ġhj ÉĻmÉĻn
É¹ áµ»m
ĠdÊĴ ËĪÉĶËĲ
É¾i z
ÉĻnt lÉĻ
ÉĽ z
ĠdËĪaÉª mz
ĠnËĪaÉªn hËĪÊĮndÉ¹ÉĻd
Ġj ËĪÉĽp
Ã¦ s
Ġb ËĪank
ĠÉ¹ ËĪeÉªp
ËĪÉľËĲ É¹i
ĠtÉ¹ ËĪÃ¦dÊĴ
Ġkw ÉĻk
ĠËĪÉĳËĲ ks
pÉ¹ËĮuËĲ f
Ġd ËĪÉªtÊĥ
fÉ¹ ÊĮm
ĠwËĪÉªÊĥ áµ»z
ĠbÉĻt s
ĠÉļÉ¹ ËĪÉĽst
ĠÉĽk stÉ¹
ĠhËĪÉĳËĲm ÉªsËĮaÉªd
n ÉļÉ¹ÉĻl
ĠdÊĴ ÉĻnÉĻ
ËĪÉĳËĲÉ¹ ks
Ġsk ËĪeÉªl
ĠpËĪÃ¦ É¹ÉĻ
ĠËĪeÉªk ÉªÅĭ
ĠÉªmpÉ¹ ËĪÉĽs
t Éªm
É¡ oÊĬz
Ã° ÉªÅĭ
ĠtÉ¹ ËĪÉĽm
ĠpÉ¹ ËĪÉĳËĲs
ĠÉ¹ËĪÃ¦ É¾ÉĻl
ĠfËĪoÊĬ É¾ÉĻÉ¡É¹ËĮÃ¦f
ĠnÉĻm bËĪo
ĠkÉ¹ËĪiËĲp Éªn
ĠbËĮiËĲËĮÉĳËĲÉ¹É¹ ËĪÉĳËĲÉ¹
Ġt ËĪakÉĻn
Ġst ËĪÉªtÊĥ
ĠbËĪÃ¦Åĭ ÉªÅĭ
ĠbÉ¾ ËĪand
ĠÉ¡É¹ËĪiËĲd i
ĠÉ¡ËĪiËĲk t
s ÉĻns
ËĮ iÉĻ
Ġst ÉĻf
ËĪat ÉĻn
ĠfjËĪuËĲ nÉļÉ¹ÉĻl
ĠkÉĻnf jËĪuËĲz
ĠsËĪÉľËĲtÊĥ Éªn
s ÉĻz
Ġs ËĮÃ¦n
Ġk ËĪam
Ġst ËĪÊĮn
ĠtÉĻk ËĪiËĲlÉĻ
ĠtÉ¾ ËĪak
ĠstËĪÉĽÉ¹ ÉªËĮoÊĬ
t Éļz
ËĮ ÊĬÉ¹
tÊĥ ËĪÉĳËĲ
ËĮoÊĬ z
É¹oÊĬ z
tw ËĪÉĽlv
ĠdÉĻv ÉĻl
ĠpÉļÉ¹ ËĪeÉªd
ĠËĪaÉª st
ĠÉĻ Î¸
Ġv ËĪÊĮl
ĠËĪÉĳËĲ dz
ĠsËĪeÉªk É¹Éªd
ĠËĪÃ¦fÉ¹ ÉªkÉĻ
ĠÉĲw ËĪaÉªl
ĠfËĪoËĲÉ¹ hËĪÊĮndÉ¹ÉĻd
ĠÉĲf ËĪÉĽÉ¹
p ËĪoÊĬzd
Ġv ËĪaÊĬ
ĠbËĪÃ¦ É¹ÉĻl
tÉ¹ ËĪaÉª
ĠskÉ¹ËĪiËĲm z
ĠÉªmËĪoÊĬÊĥÉĻn ÉĻl
ĠsÉĻÅĭÉ¡ lÉĻ
Ġs ÉĻdÊĴ
Ġb ËĪÊĮb
ĠÉ¹ ËĪÊĮst
ĠmËĪiËĲ ts
ĠpËĪÊĬ s
ĠnËĪÊĮ tÉªn
ĠsÉĻk É¾ÉĻt
ËĪÉªÉ¹i ÉĻl
ĠdËĪÉĳËĲm Éªn
p jËĪuËĲ
Ġp ËĪiËĲl
ËĪÉĻ ÊĥÉĻn
Ġfl ËĪÉªpÉªn
Ġv ËĪeÉªk
ĠhËĪÉĳËĲ É¾Éªst
ÉĻkt ËĪyÉĻn
ĠsËĪÉľËĲv Éªn
ĠsËĪaÉª É¹ÉĻnz
l ËĪÉĽs
Ġs ÉĽns
ÉĻÅĭ z
ĠËĮoÊĬvÉļ sËĪiËĲz
ĠËĪÉĽnt Éļ
ĠtËĪiËĲn eÉªdÊĴ
ĠÉªt sËĪÉĽlf
Ġst ËĪÉªÅĭ
ĠËĪÃ¦ li
ĠwËĪÉľËĲ ÊĥÉªp
ĠsËĪÉªÉ¾i z
ËĪÉĳËĲÉ¹É¹ ÉĻ
ĠÉĽksp ËĪiÉĻÉ¹Éª
ĠtÉ¹ ËĪÉªps
ËĪÃ¦nd oÊĬ
Ġsm ËĪÉªÎ¸
ĠmËĪoÊĬ d
bl ËĪÃ¦k
ĠtËĪeÉªst s
ĠvËĪÉľËĲ dÊĴÉªn
ĠËĪaÊĬtl ÉĶËĲ
ĠÊĮm bÉ¹
- )
k ËĪÊĮz
uËĲ l
Ã¦ p
ĠÉ¡ ËĪÉªÉ¹
dÊĴ ËĮiËĲËĮÉĳËĲÉ¹É¹
Ġv ËĪÉªp
ĠspËĪoÊĬk ÉĻn
ĠÉ¹ËĪiËĲp leÉª
ĠËĮÉªntÉ¹ ÉĻdËĪuËĲs
Ġ !
Éª É¾Éļ
Ġp ËĪÊĮp
ĠÎ¸ ËĪiËĲf
ĠËĮÉĽm ËĪÉĽs
É¾Éªk ÉĻl
ĠkËĪÃ¦m p
ĠtËĪÉĽm pt
ËĪÃ¦z Éªn
b ËĪiËĲt
Éª tÊĥÉļ
ËĪiËĲ ÉĻ
Ġs ËĪÊĮÅĭ
ĠkËĪÊĬk Éªn
ĠpÉ¹ ËĪaÉªz
Ġtw ËĪiËĲk
ËĪÉĽp ÊĥÉĻn
ĠËĪaÊĬ É¾Éļ
ĠbËĪÉĳËĲÉ¾ÉĻm z
ĠkÉ¹iËĲ ËĪeÉªt
ĠmËĮÊĮlt Éª
Ġd ËĪÊĮv
ĠÉ¡ ËĪÉľËĲ
ĠspËĪÉĳËĲt laÉªt
bËĪÉĳËĲ di
ĠsËĪÉĽm aÉª
ĠhÉļÉ¹ ËĪaÉªz
ÊĬ lf
Ġm ËĪakÉĻn
ĠtËĪaÉª É¡Éļ
ÉªndÊĴ Éļ
ĠÉĲv ËĪÉĶÉªd
ĠÉ¹áµ»É¡ ËĪÉĳËĲÉ¹d
k ËĮeÉª
ĠdÉ¹ËĪiËĲm Éļ
É¾Éªs f
ĠpÉ¹ËĪÉĳËĲdÊĴ ÉĽkt
ĠfËĪuËĲ ld
Ġf ËĪÃ¦É¡
Éªn t
ĠdÊĴ ËĪÃ¦n
Ġkl ËĪaÊĬt
ËĮoÊĬ p
ĠlËĪuËĲ t
ÉĻsÉĻ ËĪal
ĠstÉ¾ÉĻ ndÊĴÉĻ
ĠtËĪeÉªl z
ĠpËĪoÊĬl oÊĬ
ĠbËĪÊĬlÉªt pÉ¹ËĮuËĲf
ĠÉ¡ËĪÊĮ ts
Ġt ËĪoÊĬl
Ġp i
ĠsËĪiËĲ l
ĠdÉ¹ ËĪuËĲ
ĠÉ¹áµ»v ËĪiËĲl
ĠËĪ Éªz
Ġm eÉª
ËĪeÉªd áµ»d
ĠmËĪuËĲv mÉĻnt
ĠkÉ¹ËĪÉªm ÉªnÉĻl
ĠÉ¹ËĪÉĶÉª ÉĻl
pjuËĲt ËĪeÉªÊĥÉĻn
d ËĪÊĮn
ÉĻn ÉĻt
É¾ aÊĬt
ĠbÉ¹ ËĪuËĲz
ĠËĪÉĶËĲ sÊĮm
dÉ¹ ËĪÉĳËĲp
ĠhËĪaÊĬ záµ»z
ËĪÉĽks Î¸É¹ËĪiËĲ
ĠkÉ¹iËĲ ËĪeÉªÉ¾áµ»d
ĠdËĪeÉªv Éªd
l ËĪiËĲv
ËĪiËĲ jËĪÉĽËĲ
Ġs ÉĻlÉĻ
ĠdÊĴËĪÊĮst Éªs
Ġsk ËĪÉľËĲt
ĠpËĪoÊĬ Éªt
ĠÉ¹áµ»pl ËĪaÉª
fÉļ mËĪeÉªÊĥÉĻn
ĠfÉ¹ËĪaÉª ÊĶn
Ġj ËĪÉĶËĲl
ËĪÊĮ ndÉļ
tÊĥ ËĪeÉªndÊĴ
ËĪÉĻt ÉĻ
ĠÉ¹áµ» h
ĠtËĪÉĽn ÊĥÉĻn
ÉĲÉĲ ËĮÃ¦
Ġp ËĪÊĮl
Ġsp ËĪiËĲtÊĥ
juËĲ É¡
Éªm ÉĻnt
ĠsÉĻm wÉĻ
ĠstËĪiËĲl ÉªÅĭ
sw ËĪiËĲt
ĠdËĪÉĽspÉļÉ¹ ÉĻt
ĠÉ¹ËĪÉĽm ÉĻdi
ĠÉļÉ¹ËĪÉªdÊĴ ÉªnÉĻl
ĠkÉ¹ ËĪÊĮm
dÊĴ ÉĻn
ĠÉ¹ËĪiËĲd ÉªÅĭ
ĠfËĪeÉªv É¹Éªt
ĠdËĪÉªdÊĴ Éªts
ĠbËĪÃ¦ks iËĲt
l ÉĻmz
Ġk ËĪiËĲl
ĠÉ¡ ËĪÉĽst
Ġf ËĪÉªli
ËĮÉª É¹
Ġz ËĪÉĳËĲm
p Éªd
Ġs ËĪaÊĬÉļ
Ġd ËĪÉªzi
ÉĲ É¡É¹ËĮÃ¦m
Ġbl ËĪÊĮf
ĠtÉĻk ËĪi
stÉ¹ ËĪeÉª
ĠÉ¡É¹ËĪÃ¦b d
ĠsËĪÃ¦ É¾ÉĻl
ĠkÉĻmplËĪiËĲt li
[ ?]
ËĮa l
ĠsËĪÉªm pÉĻÎ¸i
tÉĻn ËĪaÉªt
ĠsËĪÊĮf ÉļÉ¹ÉªÅĭ
b ËĮÉªn
Ġ ËĪÉĶÉªl
ĠÉĻ dÊĴÉĻ
Ġst ËĪÉľËĲ
ËĮoÊĬ s
sk É¹ËĪaÉªb
ĠhËĪoÊĬm taÊĬn
ĠÉ¹ËĪoÊĬl ÉĽks
ĠkËĪÃ¦tÊĥ Éªn
ĠwËĪÊĮnd ÉļÉ¹ËĮÉªn
ĠÉ¹ËĪÃ¦t s
ĠwËĪÉĽn zdeÉª
ËĪÃ¦ ft
Ġp ËĪÉĽnt
Ġkl ÉĻm
Ġfl ÉĻp
Ġsm ËĪÉªl
ĠmËĪÃ¦ Î¸
ĠfËĪaÉªn Éªst
ĠtÊĥËĪÉĽk Éªn
ĠhËĪÊĮnÉªd z
ĠbËĪuËĲl Éªv
ĠËĪÃ¦É¡ aÉª
Ġb ËĪÉªd
ËĪÃ¦ É¡z
Ġl ËĪÉĳËĲks
Êĥ ËĪaÉªn
ĠdÊĴ ËĪak
ĠmËĪeÉªk Éļ
ĠpËĪÊĬ ts
Ġsl ËĪÉĶËĲÉ¾Éļ
ĠËĪÃ¦nÉªm ÉĻlz
bËĮiËĲËĮÉĳËĲÉ¹É¹ ËĮÉĳËĲÉ¹tËĪiËĲ
Ġw ÉĻs
ĠbËĪaÉª Éªn
ĠtÉ¾ÉĻ Î²lÉĻ
ĠkËĪeÉªs áµ»z
ĠpÉļs ËĪÉĽnt
ĠdËĪÉĽfÉªn ÉĻtli
Ġm ÉĲ
ËĪeÉª É¾Éļ
ĠÉ¡ ÉĻst
ĠÉ¹ ËĪÉĶs
ĠdÊĴ ËĪÉĳËĲÉ¹
ËĮeÉª ts
ĠÉ¡ËĪÊĬd b
ĠËĮÉĽ ks
Ġn ËĪaÉªk
Ġkl ËĪÉĽvÉļ
kËĪeÉª jËĪÉĽËĲ
ĠkËĪuËĲl Éļ
ĠspËĪiËĲk Éªn
ĠÉ¡É¹ËĪaÉªnd ÉªÅĭ
ĠwËĪÉĳËĲÊĥ ÉªÅĭ
ĠdËĪeÉªdÉ¹ iËĲm
h ËĪÉĳËĲl
ĠmËĪiËĲ l
Ã° ÉľËĲ
ĠbÉ¹ ËĪuËĲ
ĠdÊĴËĪuËĲ k
ËĪÉĳËĲÉ¹É¹ ËĮÉĳËĲÉ¹É¹
ĠÉ¹ËĪeÉªz Éļ
ĠkËĪÉĶËĲÉ¹n Éļz
ĠbÉĻn ÉĻÅĭ
ĠmÉĻst ËĪo
bÉľËĲ d
ĠlËĪÉĶÉªÉĻl É¾i
ĠpËĪÉĽ pÉļ
ĠpÉĻkt jÉĻ
b ÉĶÉªz
Ġd aÉª
Ġl ÉĻÉĻÅĭ
Ġk an
pÉ¹ ÉĻm
ĠwÉĻÊĥ ËĪÊĮp
ĠkËĪÉĳËĲl Éļ
ĠmÉĻv ÉĻÅĭ
ĠpÉ¹ËĪÉĳËĲd ÊĮkt
uËĲ m
ĠdÊĴ ËĪÊĮÉ¡
ĠkÉĻn ËĪÉĽkÊĥÉĻn
ĠhËĪÉľËĲt Éªn
ĠÉ¡ÉĻm ËĪi
b oÊĬz
w ÉĻd
Ġl ËĪÉĶËĲn
ĠlËĪaÉª É¾Éļ
ËĪÉªt Éªn
É¾Éļ É¹
bÉ¹ ÉĻ
ĠsmÉĻk ÉĻn
hÉĲ hËĪÉĳËĲhÉĻ
ĠtÉ¹ËĪÃ¦dÊĴ ÉĻdi
Ġt ËĪÉĳËĲn
Ġk ËĪeÉªp
Êĥ Éª
ĠtÉ¾ÉĻ p
ĠdÊĴËĪÊĮdÊĴ mÉĻnt
ĠsÉĻs ËĪaÉªÉĻÉ¾i
b ÉĻnd
p ËĪoÊĬ
w ËĪÉĽst
Ġs áµ»d
ĠÉ¹ ËĪÉªpt
ĠdÊĴ ËĪÉªÉ¡ÉĻ
ĠdÉ¹ ËĪoÊĬ
Ġkl ËĪÉªÅĭ
ĠÉĲÉ¡ É¹
ĠkËĪÊĮ s
ĠÉĻÎ² ËĪÉĻv
ĠÉ¡É¹ËĪoÊĬ Éªn
ĠlËĪiËĲd ÉªÅĭ
ĠÉ¹ËĪaÉª tÊĥÉĻs
ĠËĪy mÉĻ
Ġd ÉĻdÊĴÉĻ
ĠnËĪoÊĬ ts
ĠdÉ¹ ËĪÉĶËĲn
Ìĥ ?
ËĪÉľËĲn ÉªÅĭ
ĠtËĪÊĮtÊĥ Éªn
ĠtwËĪÉĽnti fËĪaÉªv
ĠsËĪuËĲn Éļ
É¡l ÉªÊĥ
t ËĪaÉª
Êĥ ËĪo
ËĪiËĲz ÉĻ
ĠfËĪaÉª Éļd
ĠbËĪa nd
ĠsËĪuËĲpÉļm ËĮÃ¦n
Ġm ËĮoÊĬ
ĠÉ¡ ËĪÊĮm
Ġst ÉĻlÉĻ
ËĪÉĳËĲÉ¹t s
Ġsl ËĪÉªdÉªn
ĠmËĪÉĳËĲm z
ĠflËĪoÊĬ ÉªÅĭ
Ġk ÉĻtÊĥ
ĠÉ¡ ËĪeÉªz
ĠtÊĥ ËĪÃ¦l
Ġsw ËĪÉĽl
ndÊĴ ÉĻz
ĠlÉĻk s
É¹i ÉĻs
Ġsn ËĪÉªf
ĠwËĪÊĮndÉļ lÉĻnd
ĠÉ¾ÉĻd ÉĻÅĭ
ĠdÉªst ËĪÉľËĲb
ĠlËĪÉªs ÉĻnd
m ËĪÉĳËĲm
ÉĻl ÉĻs
Ġst ËĪuËĲ
ĠtÊĥ ÉĻ
ĠhÉĻt ÉĻÅĭ
ËĪÉĽkt Éªv
ĠÊĥËĪaÉªn i
ËĮaÉªz Éļ
ĠspÉ¹ ËĪaÉªt
ĠpÉ¹ËĪÉªns ÉĽs
ĠsÉĽns ËĪeÉªÊĥÉĻn
Ġm ËĮÉĳËĲÉ¹
Ġt ËĪaÊĬ
Ġt Ã¦t
ËĮÉĽ skËĮeÉªËĮÉĳËĲÉ¹É¹ËĪÉĳËĲÉ¹
ĠnÉĻ wÉĻ
ĠÉĻn st
ÉĻns áµ»z
ĠflËĪaÉª Éļ
ĠbÉĻl ÉĻÅĭ
ĠÉ¡ËĪÃ¦s ÉĻlËĮiËĲn
ĠnËĪoËĲÉ¹ mÉĻl
ĠfÉ¹ ËĪÉĶst
ËĪaÉªd ÊĴ
Ġv ËĪaÉªn
ĠtÉ¹ËĪÊĮbÉĻl d
ĠblËĪÉĳËĲ nd
ĠÉ¡ËĪÊĬdb aÉªz
ĠÉ¹ ËĪÉĽn
ĠËĪÊĮp s
ĠsËĪoÊĬ ÊĥÉĻl
ĠbÉ¹ ËĪiËĲd
ĠpËĪÃ¦s Éªn
ĠbËĪa ndz
ĠpËĪiËĲ É¾Éļ
ĠÉªl ËĪÉĽvÉĻn
ĠvËĪÃ¦l ÉĻntËĮaÉªn
ĠËĪÉªnst ÉĲÉ¡É¹ËĮÃ¦m
wÉľËĲ k
l ËĪÉĶËĲÉ¹d
Ġd ËĪÉĽv
ĠÉ¡ËĪoÊĬ lz
áµ»m ÉĻt
ĠÉ¹ËĪÉĽp Éªn
ĠstÉ¹ËĪaÉª ps
ĠdÉ¹ ËĪeÉªn
Ġsk ËĪÉĽl
ĠkÉ¾ ËĪak
p ËĪÊĬ
Ġs ËĪÉĽn
É¡ ËĪÊĮn
ĠÊĥ ËĪiËĲp
ĠËĪÉªn Éļ
taÉª mz
ĠËĪÉªÅĭ É¡lÉªÊĥ
ĠwËĪoËĲÉ¹ n
ĠbËĪÊĮÉ¾Éļfl ËĮaÉª
Ġst ËĪÉªÉ¹
ĠlËĪÉª f
ĠÉĻn t
ĠslËĪiËĲp s
ĠÊĥËĪÉĽl z
ĠtÃ¦t ËĪuËĲz
w ËĪÊĬd
Ġk ËĪand
ĠÊĥ ËĪÃ¦É¾Éļd
ĠtËĪÉĽl áµ»vËĮÉª
ĠpÉ¾ÉĻÎ² lÉĻm
Ġk ËĪÉªÉ¾i
st ËĪÉªl
É¹ËĮiËĲ n
ĠËĪÉĳËĲÉ¹ ËĪaÉªpËĪiËĲ
ĠwËĪÉĶËĲÉ¹ z
ĠÉ¡ËĪoËĲÉ¹ dÊĴÉĻs
ĠËĮÉªndáµ»p ËĪÉĽndÉĻnt
a l
Ġf ËĪÉĽÉ¹i
ÉĻl ÉĻt
ÉĻp i
ËĪÉªst Éļ
ĠkËĪÊĮ É¾ÉªÅĭ
ĠlËĪoÊĬ Éļ
ĠËĪÉĶËĲ fÉĻl
ĠklËĪaÊĬ di
ĠkËĪÉľËĲ É¹
bÉľËĲ É¡
Ġkan ËĪÉĻt
Ġt ËĪeÉªm
Ġl ËĪÉĳËĲbi
Ġp ËĪiËĲn
ĠËĪoÊĬ l
ËĮÉĽl ÉĻbÉ¹
ĠÃ¦n t
ĠfËĪoÊĬn i
ĠtwËĪÉĽnti tËĪuËĲ
Ġdáµ»l ËĪÉªv
Î¸É¹ ËĪoÊĬ
ĠpÉ¹Éªp ËĪÉĽÉ¹
Ġj ËĪaÊĬ
ĠtÊĥ ËĪÉªn
ĠÎ¸É¹ ËĪÉĽt
ËĪÉĽst ÉĻ
ĠÉĲw ËĪÃ¦
ĠmËĪÊĮ sÉĻl
Ġsm ËĪaÉªld
ĠlÉĻk ÉĻ
ĠËĮÉĽ vÉļ
ĠfËĪÉªl ÉªÅĭ
Ġk ËĪÉªn
Êĥ i
ĠmËĪÉĽm fÉªs
b aÉª
Ġ ËĮeÉªtÊĥËĪÉĽm
Ġf Éªl
Ġp ËĪÃ¦ks
ĠkËĪÃ¦n ÉĻn
dÊĴ oÊĬ
ĠÉªl ËĪuËĲÊĴÉĻn
ËĪÉĽ ft
Ġd ËĪiËĲv
ËĪÉĶËĲl ÉĻs
ÉĶËĲÉ¹ n
Ġv ÉĻs
Éªd ÉĻ
ĠfÉļÉ¹ ËĪÉĳËĲÉ¹É¹i
ĠjËĮuËĲ ËĮÉĽsËĪeÉª
k ËĪiËĲ
l ËĪoÊĬd
Ġj ÉĻn
st ËĪÊĬd
ĠmËĪiËĲ É¾ÉªÅĭ
ĠÉĲ st
ĠtÉ¹ËĪaÉª ÉĻl
ĠÉ¹ËĪaÉªd z
ĠkwËĪÉªk li
Ġdáµ»f ËĪiËĲt
Ġáµ»vËĪÉĽn tÊĥuËĲÉĻli
w ËĪÉľËĲd
ĠtÉ¹ËĪÉªn ÉĻ
Ġp ÉĻmp
ĠsËĪeÉª lÉªÅĭ
ĠtÉĻ p
ĠtÉ¹ËĪaÉª z
ĠsËĪÉĻ lÉĻ
ĠËĪÉĽm p
ĠfËĪoÊĬn z
ĠbËĪuËĲlÉªv ËĮÉĳËĲÉ¹d
k ËĪÃ¦Êĥ
Ġs ËĮÉĽlÉĻbÉ¹
Ġt ËĪÉĶËĲÉ¹tÊĥ
É¡ ËĮÉĻnÉĻ
ĠËĪÃ¦ ndÊĴ
Ġfl ËĪiËĲ
ËĪÉĳËĲÉ¹d áµ»d
ĠÉĲm ËĪaÊĬnt
ËĪÃ¦stÉļÉ¹ËĮÉªsk ÉĲstÉļÉ¹ËĮÉªskÉĲstÉļÉ¹ËĮÉªsk
ĠkÉ¹ËĪaÊĬd áµ»d
ĠtÊĥËĪiËĲ É¾ÉªÅĭ
ĠtËĪÊĮk t
Ġdáµ»É¡É¹ ËĪiËĲz
k oÊĬ
w ËĪÉĶËĲÉ¾Éļ
ĠnËĪoÊĬ É¾Éªst
ĠwËĪÉľËĲ l
ĠnËĪiËĲd ÉªÅĭ
Ġáµ»l ËĪÉĽvÉĻn
stÉĻÉ¾ÉĻsk ËĮa
ĠÎ¸ËĪÉľËĲ zdeÉª
ËĮ o
Ġt ËĪÉĶËĲÉ¹
Ġk j
ĠÉ¡ ÉĻnz
ĠËĪeÉª pÉ¹
ĠdÊĴ ËĪÉĽf
ĠÉĲpËĪÉĳËĲÉ¹t mÉĻnt
ĠdÊĴËĪÉľËĲ si
ĠlËĪaÊĬ b
ĠdÊĴËĪÉĽnt li
h ËĪÉĳËĲt
Ġ ËĪÉĽp
Ġf ËĪat
ËĪÉĽm pt
ĠkËĪÉĳËĲm pÉ¹ÉĻm
ĠsËĪÉĽk Êĥ
ĠfËĪÉĳËĲ É¡
ËĪÃ¦stÉļÉ¹ËĮÉªsk ÉĲstÉļÉ¹ËĮÉªsk
ĠÉªÉ¡n ËĪaÉªt
ĠlËĪoÊĬk ÉĻl
mËĪeÉªb iËĲ
Ġn ËĪÉĽÉ¡
ĠmËĪÉľËĲ k
ĠlËĪÉĽs ÉĻnz
ĠswËĪÉªtÊĥ ÉªÅĭ
ĠkËĪoÊĬd Ã¦k
sËĪÊĮm taÉªmz
ĠËĪuËĲuËĲ ËĮuËĲ
Ġb ÉĻnz
Ġb ÉĻks
Ġsk ËĪuËĲ
ËĮÉª ps
ĠhËĪÃ¦nd sÊĮm
ĠÉĻf ËĪÉªÊĥÉĻl
ĠwËĪÉªp ÉªÅĭ
ĠkÉ¹ËĪuËĲ s
ĠpÉ¾ÉĻÎ² lÉĻmz
l ËĪÉªsÉĻn
ËĪÉĽ É¾ÉĻ
Ġw ËĪÉĳËĲn
ĠpËĪÉĳËĲÉ¹É¾i z
ĠkÉĻp ÉĻ
ĠÉ¹ËĮÉĽ pjuËĲtËĪeÉªÊĥÉĻn
ĠwÉĻtÊĥ ÉĻÅĭ
ËĪÃ¦É¹ ÉªÉ¾i
ËĮeÉª k
ĠkËĪaÉªnd nÉĻs
ĠËĮÉªnd ËĪiËĲd
ĠkÉ¹ËĪuËĲz Éªn
ĠmÉĻÃ°ÉĻfÉĻk ÉĻn
s ËĪÉĽnt
w ËĪeÉªk
ĠÉ¹ ËĪÃ¦b
ËĪÉĻ p
ĠsÉĻ b
ĠfËĪeÉªs ÉªÅĭ
ËĪÉªm ps
ĠjËĪuËĲ ËĪÉĽs
ĠkwËĪÉªk Éļ
-- --
m ËĪÉªÊĥÉĻn
ËĪeÉª ps
tÊĥ Éļd
ĠtÊĥ ËĪaÉªnÉĻ
fl ËĪaÉª
ĠfËĪa kt
Ġf ËĪÉĽndi
ĠtÊĥ ËĪÃ¦ÅĭÉ¡Éªn
ĠÉ¾ ËĪan
ĠdÉĻ Î²lÉĻ
É¾ÉĻk s
ĠdÉªz ËĪÃ¦stÉļ
ĠkËĪÉĳËĲn tÉ¹
ĠkjËĪuËĲ bÉĻn
ĠtËĪÉĻ Î¸ËĪÉĻzÉĻnd
ËĮÉĽst ËĪiËĲ
ĠtÉĽmpt ËĪeÉªÊĥÉĻn
k ËĪÉĳËĲs
w ËĪÉĽt
ĠtÉ¹ËĪiËĲ É¾áµ»d
ĠkÉ¾ ÉĻÉĻÅĭ
ĠtËĪÃ¦ É¡z
ĠÉ¡ËĮÃ¦É¹ÉĻnt ËĪiËĲd
ÉĻl ËĮaÉªzd
Ã° ËĪÉĻs
Ġst ËĪÃ¦kÉªn
ĠdÊĴ ËĪÉľËĲk
ĠsËĪeÉª lz
ĠlÉĻt ËĪo
ĠfËĪÉªl Î¸i
ĠswËĪÉªtÊĥ t
ĠsÉĻÅĭÉ¡ ÉĻÅĭ
ĠËĪaÉª k
Éªn ÉĻ
É¾ ËĪap
ËĪÉľËĲ f
ĠÎ¸ ËĪÉĽÉ¹
ĠkÉ¹ ËĪÊĮmbÉĻl
Ġsw ËĪÃ¦É¡Éļ
ĠhËĪaÉª z
ĠfjËĪuËĲ ÉĻl
ĠsËĪÊĮk Éļz
ĠÉ¹ËĪÊĮÊĥ ÉªÅĭ
ĠfÉ¾ÉĻ Êĥ
ĠtËĪÉĽláµ»vËĮÉª ÊĴÉĻn
j i
Ġp ËĪuËĲ
ĠbÉ¹ ËĪÉĽst
ĠpÉ¹ ÉĻs
ĠnÉĻk ÉĻd
ĠmËĪa dÊĴÉĻk
ĠkËĪÉĳËĲnd oÊĬ
É¹ ËĪÉĶÉª
Ġs ËĪÉĶËĲÉ¹t
Ġp Éªk
Ġfl ÉĻt
ĠÎ¸É¹ ËĪÉĽd
ĠÉ¹ËĪÊĮn weÉª
ĠËĪoÊĬvÉļ d
ĠkËĪÃ¦ É¾
ĠtËĪÃ¦ É¾áµ»d
Ġ ËĪÉĽÉ¡
É¹ áµ»p
Ġsw ËĪÉĽÉ¾Éļ
É¾ÉĻk t
ĠÉ¹ËĪuËĲ mz
ĠfÉĻn ËĪi
ĠhËĪÉĳËĲÉ¹ lÉĻm
ĠÉ¡É¹ËĪeÉª É¾Éļ
ĠÉ¹áµ»lËĪeÉªÊĥÉĻn ÊĥËĮÉªp
Éª Î¸
ĠÉ¡ ËĪÉªdi
ĠbËĪiËĲ n
ĠwËĪÉªÊĥ t
ĠËĮÊĮndÉļ k
ĠmÉĻm ËĪa
ĠhËĪÉĶËĲnt áµ»d
ËĪÉª É¾ÉĻl
tÊĥ ÉĻnt
ËĪÉĳËĲk t
Ġsl ËĪÃ¦t
ËĮaÉª l
ĠfÉ¹ËĪiËĲ weÉª
ĠkËĪÉĳËĲÉ¹ É¾i
ĠwÉĻt ÉĻn
ĠlÉĻÅĭ É¡ÉĻ
ĠsËĮiËĲ dËĪiËĲ
ĠlËĪÊĮlÉĻb ËĮaÉª
ĠÊĮmbÉ¹ ËĪÉĽlÉĻ
Ġm ËĪy
ËĪÊĮ pt
Ġf ÉĻz
ĠwËĪÊĮn Î¸ËĪaÊĬzÉĻnd
ĠsÉĻn ÉĻ
ni ÉĻn
ĠtËĪÉªk ÉªÅĭ
ĠspËĪÉªÉ¹ Éªts
ĠÉ¹Éª ËĪÃ¦kÊĥÉĻn
ĠkËĪÉĳËĲk t
Î¸É¹ ËĪuËĲ
w ÊĮ
iËĲ ÉĻ
Ġt ËĪaÊĬÉļ
Ġfl ËĪÉĶËĲz
ĠfËĪoËĲÉ¹ d
ĠwËĪÉĶËĲÉ¾Éļ fËĮÉĶËĲl
ËĮÉªz ÉĻm
ĠbËĪÃ¦ÅĭkÉ¹oÊĬ l
É¾Éªsf ËĪÃ¦kÊĥÉĻn
ÉĻÉĻ tÊĥ
ËĪÃ¦n oÊĬ
ĠËĪÊĮp Éļ
ĠpËĪÉĳËĲ z
f ËĪÉĳËĲ
h ËĪÃ¦pi
É¹ ËĪeÉª
ĠdÊĴ ÉĻz
ÉĻm ÉĻz
ĠdËĪuËĲ z
ĠfËĪoÊĬ É¾oÊĬ
ĠsËĪeÉªn ts
ĠdÉª ËĪoËĲÉ¹
ĠstËĪÃ¦ É¾ÉĻs
ĠsmËĪÉªl Éªn
Ġm ËĪÉĽk
ĠÉ¡ ÉĻz
Ġp ËĮÉĳËĲ
ĠËĪÉªn t
bÉ¹ ËĪÉªÅĭ
ĠÉĻvÉ¾ËĪy wÉĻ
jÊĬl ËĮeÉªt
ĠÉĽkspÉ¹ ËĪÉĽs
f ËĪeÉªs
l ËĪÃ¦Êĥ
Ġd ËĪÃ¦Åĭ
ÉļÉ¹ ËĮeÉªÉ¾áµ»d
ĠlËĪÉª ks
ĠsÉĻm plÉĻ
ĠÉ¹ËĪÉªtÊĥ Éļd
ËĪuËĲËĪuËĲ ËĪuËĲ
ĠstÉ¹ËĪaÉª ks
ĠsËĮÉĽlÉĻbÉ¹ ËĪeÉªÊĥÉĻn
ĠÉ ĶËĲ
ĠËĪaÉª dÉĻl
Ġl uËĲ
ĠÉĻ st
ĠËĪÃ¦ pÉªt
Ġkl ËĪap
ĠoÊĬ b
ĠtËĪÊĮn ÉĻl
ĠfÉĽÉ¹ wËĪÉĽl
ËĪÉĽn jËĪÉĽËĲ
ËĪÉªn ÉªÉ¾i
Éªd z
ĠÉ¾ÉĻt ÉĻn
ĠpÉ¾ÉĻ ÊĥËĪo
ĠÉ¹ËĪeÉªd ÉĳËĲÉ¹
ĠswËĪÉªÅĭ É¡Éªn
ĠdËĮÉĽ stÉªn
b ËĪaÊĬns
h ËĪÉªt
ĠlËĪaÉª m
ĠdÊĴ ÉĻvÉĻÅĭ
pt ËĪÉĽmbÉļ
ĠdËĪÉª f
ĠhÉĻld ÉĻÅĭ
ĠkËĪÊĬk i
ĠwËĪaÉªf i
' "
? âĢĿ
f aÉªÉļ
l ËĪaÉªv
É¹ ËĪuËĲ
Ġst ËĪÃ¦Åĭk
Ġv ËĪÉĳËĲ
ĠsÉĻt ÉĻÅĭ
ĠpËĪÉªst ÉĻlz
ĠÉĻks pl
ĠpËĪÉľËĲk ÉĳËĲs
ĠËĪÉĽÉ¡z Éªt
Ġsáµ»kjËĪÊĬÉ¹ É¹ÉªÉ¾i
m ÉĲ
É¹ ËĪÉªtÊĥ
Ġm ÉĻnz
ĠtÉ¹ ËĪÃ¦dÊĴÉªk
ĠfÉ¹ ÊĮ
ĠsËĪÉľËĲ fÉªn
ĠsÉĻp ÉĻsÉĻd
ĠwËĪÉªs pÉļz
ĠsmÉĻk ÉĻÅĭ
aÊĬt ËĮÉªn
ĠbÉ¹ËĪÉĶËĲd weÉª
ĠÉĲdÉ¹ ËĪÉĽs
ĠtÊĥÉĻndÊĴ ÉĻd
ËĪaÉª É¾ÉªÅĭ
dÊĴ ÉĻst
Ġkw ËĪaÉªÉļ
ĠÉ¡l ËĪÃ¦m
ĠkËĪÉĳËĲ ld
ËĪuËĲd uËĲ
ĠhËĪÊĮs bÉĻnd
b ËĮÉĶËĲl
m ÉĻt
Ġf ËĪÉªlz
Ã° ËĪiËĲz
ĠbËĪÃ¦ stÉļd
ĠpËĪeÉª Éªn
pÉļ tËĪuËĲn
ĠdÊĴËĪiËĲn ÉªÉĻs
ĠpËĪeÉªv mÉĻnt
ĠsuËĲ pÉ¹
ĠlËĪaÊĬb aÊĬtËĮÉªn
Î¸ Éļ
ĠtÉĻ Åĭ
Ġsp ÉĻnt
ĠflËĪoÊĬ tÉªn
ĠbËĪaÊĬns Éªn
ĠsËĪÉľËĲv ÉªÅĭ
ĠbËĪÉľËĲd ÉĻn
Ġdáµ»nËĪaÉª ÉĻl
ĠÉĻ dÉĻ
Ġbáµ» wËĪÉĽÉ¹
ĠlÉĻt ËĪa
Ġdáµ» skÉ¹ËĪaÉªb
ĠdËĪiËĲp Éªst
ĠflËĪÊĮd áµ»d
ĠmËĪÉªkst eÉªp
ĠaÊĬtÉ¹ ËĪeÉªdÊĴÉĻs
ĠfÉĻnËĪa li
p o
ĠÉ¡ ËĪas
Î¸ ËĮÉªn
ĠpÉ¹ ËĪÉĽst
ĠÉĻn ÉĻst
ĠfËĪaÉªnd z
ËĪy n
ËĪaÉªl aÉªt
ĠdËĪÊĮm i
ĠÎ¸ËĪÊĮ É¡Éļ
f jËĪuËĲ
s n
Éª h
eÉª m
Ġm ËĪÉĽnd
Ġp ËĪÉĽt
É¾ áµ»v
ËĪÉĽd Éļ
ĠpÉ¹ËĪÉĳËĲ f
ĠdÉ¹ËĪÃ¦É¡ ÉĻn
ĠkÉļÉ¹ ËĪÉĽs
ĠkÉ¹iËĲ ËĪeÉªÊĥÉĻn
ĠÉ¡ÉļÉ¹ ËĪÉĳËĲÊĴ
ĠdÊĴÉĲmËĪeÉªk ÉĻ
Ġp ÉĻnk
É¾ ÊĮm
Ġsp ÉĻ
ÉĻp t
ĠÉĻn sÉĻ
ĠpËĪÉľËĲ ks
ĠtËĪÉĳËĲp s
ĠpÉĻs ÉĻz
Ġdáµ»É¡É¹ ËĪiËĲ
ĠbËĪÉĽndÊĴ ÉĻm
ĠsÉĽ ptËĪÉĽmbÉļ
b ËĪÊĮst
f ÉĶËĲl
Ġh ÉĻn
ĠÉĻ É£ÉĻ
ÉĻnd ÉĻ
ĠbÉ¾ÉĻk ÉĻÅĭ
ĠbËĪÊĬ Êĥ
ĠdËĪyz ÉĻv
ĠpËĪÉĽd ÉĻl
ĠkËĪÉĳËĲns Éªkw
ĠsËĪÉĽntÊĥ ÉļÉ¹i
l ËĪÉªv
Ġd ËĪÉĽp
ĠÉ¡ ËĪÉªfts
ĠmËĪiËĲ k
ËĮÃ¦ Î¸
ĠËĪÃ¦ Åĭk
Éªl ËĮÉªn
Ġdáµ»n ËĪaÉªd
ĠÉĳËĲ pÉļtËĪuËĲn
b ËĪÊĮm
f eÉªs
ĠbËĪiËĲ z
Ġsw ËĪaÉ¡
Ġkw ÉĻst
ĠstËĪÉĳËĲÉ¹ laÉªt
ĠbËĪÃ¦Åĭ ks
ĠÉ¹ËĪÉĳËĲ ÊĶn
ĠÉĻnËĪy Î²ÉĻdi
ĠÉĲtÊĥ ËĪiËĲv
Ġb ËĪÉĽk
ËĪeÉª Êĥ
nd i
ĠÊĮ ndÉ¹
É¾ÉĻ p
Ġbl ÉĻs
ĠpËĪÉľËĲfÉĽkt li
ĠdÊĴËĪÉĽl i
ĠdÉĻl ÉĻÅĭ
ĠstÉ¹ËĪÉªp Éļ
ĠkÉ¹ËĪÉªst ÊĥÉĻn
ĠmÉªsËĮÊĮndÉļ stËĪÊĬd
Ġ ËĪÉĳËĲÉ¹k
Ã¦ d
Ġs aÉª
Ġl ËĪiËĲp
Ġf ËĪaÊĬl
É¾ Éªn
ĠdÊĴ ËĪÉª
ĠwËĪÉĽl Î¸
ĠdÊĴÉĻ ËĪal
ĠlËĪeÉªm z
ĠÊĮnf ËĪoÊĬld
zËĪiÉĻÉ¹oÊĬzËĪiÉĻÉ¹oÊĬ zËĪiÉĻÉ¹oÊĬ
Ġm ËĪÉĳËĲp
Ġb ËĪeÉªt
ÉľËĲ l
Ġtw ËĪÉªÉ¾Éļ
ĠmÉĻl ËĪi
l ËĪÉĶÅĭ
l ÉĽ
n ËĪÉĳËĲm
Ġs ÉĻnsÉĻ
ĠpÉ¹ ËĪÉĽ
dÊĴ ÉĽkt
ĠbËĪÉĶËĲl Éļ
ĠhjËĪuËĲ stÉĻn
ĠpÉļ fËĪÉĶËĲÉ¹m
ĠËĪÉĽkst ËĪuËĲ
ĠÉĲdv ËĪÃ¦ns
ĠhËĪoËĲÉ¹ ni
ĠnËĪaÉªtmÉĽÉ¹ z
Ġm j
ËĪaÉªd ÉĻl
ËĪÉĶÅĭ ki
Éªk ÉĻn
ËĪÉĽks fËĪoËĲÉ¹
ÉĻf i
ĠdËĪÉĽd áµ»kËĮeÉªÉ¾áµ»d
ĠlËĪiËĲ f
ĠËĪÉª tÊĥ
Ġm ËĪÃ¦mÉĻ
Ġl ËĪÉĽnd
Êĥ ÉĻz
É¾ a
ËĮiËĲ ËĮÉĽstËĪiËĲ
ĠstÉ¹ ËĪeÉª
ĠËĪuËĲ ps
ĠÉªm ËĪÉľËĲdÊĴ
ĠËĪÃ¦n Î¸ÉĻm
ĠfËĪeÉª ld
ĠjËĪuËĲs lÉĻs
ĠkËĪÉľËĲ É¹ÉªdÊĴ
ĠsËĮÃ¦ É¾ÉªsfËĪÃ¦kÊĥÉĻn
n ËĪiËĲd
t ËĪoÊĬ
ËĪÉĽ ÊĶn
Ġh ÉĻlz
Ġk ËĪÉľËĲl
ĠÉ¹ ËĪÉĳËĲd
ÉĻk ÉĻlz
ĠkÉ¹ ËĪÃ¦kt
ËĪÃ¦st ÉļÉ¹ËĮÉªsks
fÉ¹ ÉĽndz
ĠpËĪÉĳËĲz áµ»tËĮÉªv
ĠdËĮÉĽstÉªn ËĪeÉªÊĥÉĻn
h ËĪÉĳËĲÉ¹t
s ÉĻd
Ġd ÉĻÉĻÅĭ
Ġn ËĪiËĲnÉĻ
ËĮÉĳËĲ ÊĴ
ÉªÉ¡ ÉĻn
ĠËĪÉĶËĲ É¾ÊĮm
ĠËĪÉĳËĲp ÉĻz
ĠpÉļf ËĪÉĽkÊĥÉĻn
ËĪÉĽ ÊĥÉĻnz
ĠsËĪiËĲ s
ĠmÉĻ ÊĥÉĻn
ĠhËĪeÉª ts
ĠjËĪuËĲ bÉļ
fl uËĲ
ĠmËĪÉĽs Éªn
ĠvËĮaÉªbÉ¹ ËĪeÉªÊĥÉĻnz
w ÉĻt
ËĪaÉª Éļz
Ġk ÉĻf
ËĪuËĲ É¾oÊĬ
ÉĻd iz
É¾ÉĻ Åĭ
Ġv ËĪuËĲduËĲ
Éªd ËĪÉĽnÊĥÉĻl
ĠwËĪÉĶËĲÉ¹ ÉªÉļ
ĠÉĻvÉ¾ËĪy dÉĻ
ĠËĮoÊĬvÉļ kËĪÊĮm
ĠmÉĻt ËĪÉªÉ¹iÉĻl
ËĪÉªns áµ»bÉĻl
f ÉĻm
ĠÉ¡ ËĪÉªt
Ġf ËĪÉªkst
ËĪÉĳËĲn t
ĠhËĪÃ¦ sÉĻn
ĠtÊĥ ËĪÉªlz
ĠtËĪaÉªm ÉªÅĭ
ÉĳËĲ m
ÉĻdÊĴ ÉĻz
ĠhËĪÉĳËĲÉ¹ mÉĻni
ĠdÊĴËĪoÊĬ ks
ĠhÉļÉ¹ËĪaÉªz ÉĻn
ËĮ yn
Ġw ËĪÉĽp
Ġp o
ĠfËĪÉªt s
ĠÉ¹áµ»mËĪaÉªnd z
ĠfËĪÊĬt stÉĽ
ĠdËĪÊĮk Éªn
wËĪÉĶn ÉĻ
ĠdËĪÉªdÊĴ ÉªÉ¾ÉĻl
Ġh ËĪÉĳËĲs
dÊĴ ÉĻnt
ĠwËĪÉĳËĲtÊĥ áµ»z
ËĪiÉĻ É¹i
ĠkjËĪuËĲ pÉªd
ĠwËĪÉĽ É¾Éļ
ĠmËĪÉĳËĲÎ¸ÉĲfËĮÊĮk ÉĻ
ĠfÉĻv o
Ġp ÉĻsÉĻn
ËĪÉĻ k
ËĪiËĲp ÉĻl
Ġv ËĪÉĳËĲl
ĠÉ¡ËĪÃ¦Åĭ stÉĻz
ĠËĮÊĮndÉļstËĪÃ¦nd ÉªÅĭ
ĠÉĲb ËĪÃ¦nd
) :
i wËĪÉĻn
Ġp ËĪÉĽÉ¾i
ĠbËĪiËĲ É¾Éªn
ĠÉ¡É¹ ËĪaÉªm
ĠÉ¹ËĪÃ¦ É¡z
ĠÉ¡lËĪoÊĬ b
ĠhËĪÉªd Éªn
b jÊĬl
Ġp ÉĻnd
st ËĪÉĽp
ĠÉ¹ ËĪeÉªt
Ã° ÉĻz
Ġst ËĪeÉªnz
ÉĻk ÉĻn
ËĪiËĲd ÉĻ
ËĪiËĲt ËĪiËĲ
ĠfÉĻ Ã°ÉĻ
ĠÉ¹ËĪÉĳËĲb d
Ġf ÊĬlf
ĠÉ¹áµ»m ËĪaÉª
ĠtÉĻl ÉĻÅĭ
ĠsËĪÊĮk ÉªÅĭ
ĠlËĪiËĲn Éªn
ĠËĪÉĽmpti nÉĻs
ĠÉ¹áµ»v ËĪÉľËĲs
ĠÉĽkskjËĪuËĲs áµ»z
ĠhËĪÃ¦b Éªts
ĠpËĪÉĳËĲl ÉĻt
l ËĪeÉªdi
m ËĪan
Ġs ËĪÃ¦ks
ĠÉĻ É¡
ĠÉĻ hÉĻd
ĠhËĪÉªÉ¹ Éªn
Ġv ËĪÉªÊĥÉĻs
ĠËĪa l
ĠwËĪÊĮ t
ĠbÉĻt ÉĻm
ĠspËĪeÉªs ÊĥÉªp
ĠsËĪÊĮb st
ĠÉ¹áµ»t ËĪÉĳËĲÉ¹dáµ»d
ĠtËĪÉªnt áµ»d
ĠsÉĻdÊĴ ËĪÉĽst
Ġk ÉĲ
ÉĻn ÉªÅĭ
sk i
ĠjËĪÉĽl ÉªÅĭ
ĠËĪÉĳËĲÉ¹m Éļ
Ġdáµ»l ËĪaÉªt
ĠslÉĻp ÉĻÅĭ
ĠvËĪÉľËĲ ÊĴÉĻn
ĠtÊĥËĪÉĽÉ¹ ÉªÊĥ
ĠskÉ¾ÉĻm ÉĻÅĭ
ĠlËĪÉªÅĭ É¡Éļ
ĠnËĪÉĽÉ¡ ÉĻtËĮÉªv
m ÉĻst
ĠpÉ¹ Éªd
ĠkÉĻl ËĪo
ĠsËĪÉĽns áµ»z
ĠdËĪÉĶËĲÉ¾Éļ z
ĠÉ¹ËĪÉªk i
ĠÉ¡É¹ËĪuËĲp i
Ġd ËĪiËĲs
Ġv ËĪoÊĬ
Éªd ÉĻnts
ĠkËĪoÊĬ tÊĥ
ĠÉĻm p
tËĪuËĲ ËĪÉĽks
ĠfËĪeÉªk ÉªÅĭ
ĠdËĮiËĲ ËĪÉĽm
ĠdËĮÉªsÉĲp ËĪÉĶÉªnt
ĠdÉªsk ËĪÊĮvÉļ
É¾Éªv ËĪeÉªÊĥÉĻn
p ËĪÊĬl
s ËĪÉĽd
Éª mÉĻn
Éª É¡É¹
ËĪa tÊĥ
Ġst ÉĻd
ĠkËĪÉĳËĲnst ÉĻntli
fÉļÉ¹ ËĪÉĽvÉļ
ĠpËĪeÉªt É¹ÉĻn
Ġpi ËĪÃ¦noÊĬ
ËĪa É£
ĠdÊĴ ÉĻnz
ĠfËĪaÉª Éļz
ĠnËĪÉĳËĲ d
ĠklËĪÊĮb z
ĠsÉĻk sÉĻ
ĠÉªnv ËĪÉªnsáµ»bÉĻl
ĠÉĲtÉ¹ ËĪÃ¦kt
ĠÉĲpÉ¹ËĪoÊĬ tÊĥ
h ËĪÃ¦
h aÉª
k ÉĻt
Éª ËĪÉĳËĲ
ĠmËĪÊĮ di
ĠËĮÉªn fÉļmËĪeÉªÊĥÉĻn
ĠkËĪÉĳËĲm ÉĻz
ĠjËĪÉĽl áµ»n
ĠÊĮnf ÉļÉ¡
ĠÉ¹ËĪeÉªnd ÉªÉ¹
ĠtËĪÉĳËĲn aÉª
ĠwËĪÉĽp ÉĻnz
k weÉª
v eÉª
ĠÉ¡É¹ ËĪÃ¦mi
ĠËĮÉªn spÉļÉ¹ËĪeÉªÊĥÉĻn
ĠkÉĻl ÉĻd
ĠhËĪÉĽlp ÉªÅĭ
ĠkÉĻn ËĪo
tw ËĪÉĻna
ĠmËĪÉĽl oÊĬ
ĠdËĪaÊĬt s
ĠsËĪuËĲt keÉªs
ĠjËĪuËĲz i
ĠmeÉª nt
f ÉĻni
t ËĪÊĮtÊĥ
ËĪÉĽs i
Ġst ËĪÉĶËĲl
ĠfÉ¹ ËĪÃ¦ns
Ġpl ÉĻn
ĠtÉĻk st
h Ã¦hËĪÉĳËĲhÉĻ
oÊĬ v
Ġk ËĪÉªm
Ġk ËĪap
ĠÉ¹ ËĪiËĲl
ĠnËĪoÊĬ l
kÉ¹ ËĪÉĶs
ĠÉĽÉ¡z ËĪÉĳËĲÉ¾Éªk
ĠsËĮÉª l
ĠkËĪÉĳËĲk i
f ËĮÉªÉ¹
ËĪÉĽnt áµ»d
ĠlËĪÉĶÅĭ ÉªÅĭ
Ġtw ËĪaÉªlaÉªt
ĠdËĪÉĽd li
dËĪÉĳËĲ É¡
ĠpËĪaÉª É¹
ĠdÉ¹ËĪeÉªk oÊĬ
Éª ÉĻt
Ġb Ã¦nd
ĠwËĪÉĶnt Éªn
ËĪeÉªt iËĲn
ĠwËĪÊĬl vz
ĠkËĪÉĳËĲnst ÉĻnt
l ÉĻvÉĻ
t ËĪÃ¦t
ĠÊĥ ËĪoÊĬn
ĠÎ¸ ÉĻts
ĠtÊĥ ËĪÉĽdÉļ
ĠkÉ¹ ËĪiËĲk
ËĪÃ¦nd i
É£ ÉĻz
juËĲ z
fËĪÉĻ v
ĠkËĪoÊĬk oÊĬ
ĠÉĽkst Êĥ
Ġm ËĪÃ¦st
Ġd ËĪÊĮÉ¡
Ġf ÉĻnt
Ġf ËĪÉªÉ¾áµ»d
ĠnÉĻd z
b iËĲ
m ËĪÉľËĲ
ĠËĪ oËĲÉ¹
Ġf jÉĻ
ËĮÉĽn ËĪeÉª
ĠpÉ¹ Éªf
ÉļÉ¹ Éļ
Ġfl ËĪÉľËĲt
ĠkËĪÉĶËĲz d
Ġtw ÉĻst
ĠsËĪuËĲ ts
ĠsËĪÊĮk t
Ġdáµ»f ËĪaÉªn
ĠÉĲdÉ¹ ËĪÉĽn
ĠËĪÉĽlÉªv ËĮeÉªÉ¾Éļ
l ÉĻd
Ġd ËĪeÉªm
Ġl oÊĬk
Ġf ËĪÃ¦kÉªn
ËĪÃ¦n z
ĠtËĪaÉª Éļz
ĠÉĻv ÉĻ
juËĲ ËĮÉĽÉ¹i
ĠbËĪÃ¦nd oÊĬ
ĠÉªtËĪÉľËĲn ÉĻl
Ġw ËĪÃ¦É¡
Ġh ËĪÉĽh
ĠÉ¡ ÉĻtÊĥ
ËĪÉªp ÊĥÉĻn
ĠÉ¡ËĪÉĳËĲ ÊĶn
ĠÉ¡l ËĪuËĲ
ËĪy ÉĻnz
ĠsÉĻt ÉĻn
ĠhËĪÃ¦pÉĻn ËĮÉªn
ĠtÊĥËĪÉªk Éªnz
Ġ )
ËĪa kt
Ġm ÉĻks
Ġp ËĮÉĽn
Ġst ËĪÉĶËĲk
Ġst ÉĻdÉĻ
ĠhËĪÃ¦ dÉĻn
Ġsk ËĪÊĮm
ĠËĪa nd
ĠbÉĻk ËĪÉĻm
ĠstÉ¹ËĪÉªp Éļz
ĠlËĪÃ¦d Éļ
ĠËĪÉĽmp aÉªÉļ
ĠËĪÃ¦pÉªt ËĮaÉªt
m ËĪÉĽmbÉļ
s ÉĻnt
w ËĪÉľËĲ
Éª ÉĻn
ËĪÊĮ dz
ËĪÉĳËĲ Åĭ
Ġf ËĪaÊĬntÉªn
Ġv ËĪoÊĬt
ËĮÉª ts
Ġsl ËĪÉĳËĲp
ĠsËĪÉªm fÉĻni
ĠËĪÉľËĲÎ¸ kweÉª
ĠpÉĻk ÉĻt
ĠfËĪÊĬtstÉĽ ps
m ËĪÉªs
ËĪoÊĬ ks
Ġn ËĪÉĻz
st ÉĻl
ËĪÉĳËĲt si
ĠtËĪaÉª É¾ÉĻl
Ġsl ËĪaÉªs
ĠÉªns ÉĻn
ĠkËĪaÉªnd z
ĠdÉ¾ÉĻ v
ĠÉ¾ÉĻl ÉĻÅĭ
ĠtËĪuËĲÎ¸ËĪaÊĬzÉĻnd fËĪÉªftiËĲn
ĠfËĪeÉªl ÉªÉ¹
pÉļÉ¹ ËĪÉĳËĲtsi
É¹ËĪÉĶÉª t
ĠmËĪy stÉĻk
k ÉĻnt
Ġt ËĪÉªps
ĠhËĮÃ¦ loÊĬ
ĠlËĪÉĽ ks
ËĪy s
ĠpËĪÊĬl z
ĠËĪeÉªt hËĪÊĮndÉ¹ÉĻd
jËĪuËĲn Éªt
ĠwËĪÉªsp ÉļÉ¹ÉªÅĭ
ĠpËĪÉĽnt haÊĬs
ĠhËĮÃ¦loÊĬ ËĪiËĲn
j ÉĻs
Ġd ÉĻnt
Ġl ËĪÉĶËĲz
ĠÉĻ É¡n
ĠstÉ¹ ËĪÃ¦nd
ĠÉĽkspËĪiÉĻÉ¹Éª ÉĻns
w Éªn
Ġ ËĮeÉªtÊĥ
Ġt É¾ÉĻl
Ġn ËĪiËĲl
ĠstÉ¹ ËĪoÊĬl
Éªs ÉĻn
É¡É¹ ËĪiËĲ
sp ËĪoÊĬkÉĻn
ĠÉ¡ÉĻl f
ĠdÊĴÉĻp ËĪÃ¦n
ĠnËĪaÉªnhËĪÊĮndÉ¹ÉĻd ÉªlËĪÉĽvÉĻn
É¹ Éªks
Ġj ËĪÉĳËĲt
Ġj ËĪÊĬÉ¹
Ġt ËĪÉĶÉªl
ËĪÉĽn Éª
Ġfl ËĪÉĶËĲÉ¹
pt ÉĻ
ĠklËĪÉªÉ¹ Éļ
ÉĻkt ÉĻd
ĠpËĪÉªÅĭk i
ĠkÉĳËĲnvÉļs ËĪeÉªÊĥÉĻnz
ĠswËĪÉľËĲv Éªn
ĠÉ¡ËĪÉĳËĲs Éªp
ĠdÉ¹ËĪÉĶËĲÉ¹ z
ĠkËĪÉĳËĲÉ¹É¾i Éļ
Ġm ËĪÉĽÎ¸
Ġh ËĪÊĮmp
ĠsËĪoÊĬ p
Ġv ËĪÉĽlv
ĠbÉĻ É£ËĪo
ĠsÉĻk ÉĻ
ĠdËĪiËĲl Éļz
ĠfÉ¹ËĪiËĲk ÉªÅĭ
ĠÎ¸ËĪÃ¦Åĭ z
ĠÉ¡É¾ ËĪand
ĠbËĪÊĮÉ¡ Éªn
ĠÉ¡ËĪÉĳËĲÉ¹ b
ĠmeÉªnt ËĪeÉªn
Ġt ËĪÃ¦b
ĠkËĪÃ¦n sÉļ
ĠtÊĥ ËĪÉªm
ËĪÉªv ÉĻn
ĠÉ¡É¹ ËĪeÉªn
Ġtw ÉĻntÉĻ
ĠÉ¹ËĪuËĲ t
ĠsËĪÉĽvÉĻnt i
juËĲÉ¡ ËĪÃ¦É¾i
ĠÉĽkstÊĥ ËĪeÉªndÊĴ
t ËĪÉĻ
eÉª z
Ġk ÉĶËĲÉ¹
ĠsËĪoÊĬ fÉĻ
ËĮiËĲ ld
ĠtÉĻ f
ĠbËĪÃ¦k st
ĠkÉĻl o
ĠpËĪÃ¦s áµ»z
ĠËĪÉĶËĲ wÉĻ
ĠËĪÉĳËĲp ÊĥÉĻnz
ĠnËĪÉªk ÉĻl
ĠtÊĥËĪiËĲ ks
áµ»p ËĮiËĲ
ĠkËĪÊĮst ÉĻm
ĠpÉ¹ÉĻs ËĪiËĲd
ĠËĮÊĮndÉļk ËĪÊĮvÉļ
Ġ ËĮaÉª
Ġ ËĪÉĶl
ËĪaÉª iËĲ
ĠÉ¹ ËĪÉĳËĲt
ĠÉ¹ ËĪeÉªv
ĠdÊĴ ÉĻt
ĠÉĲ fl
ĠkËĪÃ¦n z
ÉļÉ¹ ÉĻli
Ġsp ÉĻd
Ġsw ËĪoÊĬl
ĠÉ¾ÉĻd ÉĻÉĻ
ĠdËĪiËĲl z
sËĪÊĮm Î¸ÉªÅĭ
Ã¦Ã¦ Ã¦
ĠdÊĴËĪÊĮÅĭk i
ĠÉĲdÉ¹ËĪÉĽn ÉĻlËĮÉªn
b lÉĻ
Åĭ É¡É¹
st oÊĬn
ĠÉ¹ ËĮoÊĬ
ĠËĪÉªn s
ĠdÊĴ ËĪam
Ġbl ËĪÃ¦zÉªn
ĠdËĪiËĲl Éªn
ĠbËĪÉªld Éªn
ĠjuËĲn ËĪaÉªÉ¾áµ»d
ĠsuËĲpÉ¹ ËĪiËĲm
i ÉĻm
w ÊĬd
ËĪÉĻ lÉĻ
ĠpÉ¹ ËĮÉĽz
ËĮÉĽm ÉĻnËĪeÉªd
ÉļÉ¹ ËĪeÉªndÊĴ
ĠlÉĻd ÉĻz
ĠtÉ¹ËĪÃ¦v ÉĻld
laÉªn z
ĠtËĪoÊĬk ÉªËĮoÊĬ
ĠfËĪiËĲm eÉªl
s ËĪeÉªk
Ġs ËĮÉĽ
Ġbáµ»l ËĪiËĲf
ĠÉ¡l ÉĻ
ĠpËĪÉľËĲ mÉĻn
ĠmÉĻs ÉĻÅĭ
ĠÉ¾ÉĻÉĻl ÉĻz
Ġl ËĪÉľËĲk
ĠdÊĴ ÉĻdÊĴÉĻ
ĠÎ¸ ËĪÉĻti
ĠbËĪÃ¦k É¡É¹aÊĬnd
ËĪÃ¦m pÉĻl
ĠÉ¹ËĪaÉªd Éļz
ĠÉ¹ËĪoÊĬd ÉªËĮoÊĬ
ĠÉ¹ËĪÉªtÊĥ Éļ
ËĪÃ¦dÊĴ ÉĻl
ĠpÉ¾ÉĻs ÉĻ
ĠmËĪiËĲd iËĲÉĻ
ĠfÉ¹ÊĮ stÉ¹
f s
ĠtÊĥ ËĪÉªp
Ġsp ËĪÉªÉ¾ÉªÅĭ
ĠdËĪÉª Êĥáµ»z
É¡É¹ ËĪÃ¦m
ĠbËĪÉĳËĲÉ¹ bi
ÉªkÉĻl t
ĠÊĥËĪÃ¦l oÊĬ
ĠhËĪÉĶËĲnt ÉªÅĭ
ĠkËĪÉľËĲt ÉĻn
ĠdÉªt É¹ËĪÉĶÉªt
ĠvËĪÉªl ÉĻn
ĠtËĪÃ¦l ÉĻnt
ĠstÉ¹ËĪÉĶËĲ bÉĽÉ¹i
ĠaÉªdËĪi ÉĻz
ËĪiËĲ ld
Ġs ÉĻnz
Ġt ÉĻlÉĻ
Ġn ËĪÉĽv
ĠÉ¡É¹ ËĪiËĲv
ËĪi ÉĻn
Éªt ËĪeÉªÊĥÉĻnz
ĠsÉĻp lËĪaÉª
ĠpÉ¹ËĪÉĽz ÉĻnts
ĠsnËĪiËĲk Éļz
ĠlËĪÉĳËĲ dÊĴÉªk
ĠbÉĲn ËĪÃ¦nÉĻ
f ËĪoÊĬn
Ġb juËĲÉ¡ËĪÃ¦É¾i
ĠdÊĴ ËĪÉĳËĲk
ĠwËĪeÉª dÊĴ
Ġz ÉĻn
ĠÉ¡ËĪÊĮn ÉĻ
ĠmËĪÉªÉ¹ Éļz
dÉ¹ ËĪiËĲm
ĠdËĪÉªf ÉªkÉĻlt
ĠhËĪÉĳËĲs p
b ËĪÉĶËĲÉ¹n
b sÉĻl
ĠÃ° ËĪoÊĬ
Ġs ÉĻvÉĻn
Ġl ËĮÉĽmÉĻnËĪeÉªd
ĠËĪeÉª ËĪÉĽm
ĠdÉ¹ ËĪaÊĬt
ĠpÉ¹ Éªsk
ËĪÊĬk i
ËĪÃ¦Åĭ É¡oÊĬ
ĠËĪÉĽl ËĪaÉª
ĠkËĪÃ¦ É¹ÉĻl
ĠËĮÊĮndÉļstËĪÃ¦nd z
ĠtÉĻl ÉĻn
ĠmËĪÉĳËĲÉ¹ ks
ĠmËĪÊĮÎ¸ÉĲfËĮÊĮk ÉĻ
ĠmËĮoÊĬ É¾ÉªvËĪeÉªÊĥÉĻn
v Éªs
É¹ ËĮÉĽ
Ġt ËĪÃ¦ÅĭÉ¡ÉĻld
Ġl ËĪoÊĬz
ËĪaÊĬ di
ĠÊĥ ËĪÉªmi
ĠfËĪÊĮk Éļ
Ġsp ÉĻl
ĠËĪÉĳËĲ li
kÉ¹ ËĪaÉª
É¡n ÉĻnt
ĠÉĲb s
l ËĪuËĲ
s ÉĻm
Ġw ËĪÃ¦ks
Ã¦ Êĥ
ĠËĪeÉªn tÊĥÉĻnt
Ġsl ÉĻm
ĠmËĪÉªn i
ĠsÉĻp ËĪo
ĠbÉ¾ÉĻk s
ĠtËĪÉĽÉ¹ áµ»bÉĻl
ĠÉ¡ËĪÉĳËĲÉ¹b ÉªdÊĴ
É¹ ÉĻns
Ã¦ ÉĲÉĲËĮÃ¦
ËĪÉªÉ¹ iÉĻs
ËĮÉĽm ËĮeÉªtÊĥËĪÉĽm
Ġv ËĪÉĶÉªd
ĠÉ¹áµ» st
ĠpËĪÃ¦s ÉªndÊĴÉļ
ĠsËĪÊĮk ÉĻ
ĠswËĪÉªm Éªn
ĠÊĥËĪaÊĬ É¾aÊĬt
z ÉļÉ¹
ĠËĪ iÉĻ
ËĪÉĶn t
ĠËĪoÊĬ ÊĥÉĻnz
ĠpÉ¹ ÉĻdËĪuËĲs
Ġfl ËĪÉĶËĲlÉĻs
É¹oÊĬ d
ĠtËĪiËĲ tÊĥÉļz
ĠflËĪoËĲÉ¹ z
ĠkËĪÉĳËĲ z
ĠtËĪÉĽm pÉ¹
ĠÉĻpËĪÉªn iÉĻn
f ËĪoÊĬ
Ġp ËĪaÊĬÉļz
Ġst ËĪaÉª
ĠbËĪÃ¦k jÉĳËĲÉ¹d
ĠÉ¹áµ» fÉ¹
ĠÉ¡l ÉĻs
ËĪÊĬÉ¹ É¹i
ĠsËĪaÉªd weÉªz
Ġsn ÉĻ
ĠpËĪÉĳËĲÉ¹ kt
ĠbËĪÉĽn tÊĥ
ĠfËĪoËĲÉ¹É¾i fËĪoËĲÉ¹
ĠsÉªn sËĪÉªÉ¹
É¹ Éªst
Ġp ÉĻlz
ĠÉ¹ Éªz
ĠÉ¹ ËĪaÉªs
ĠsËĪeÉª fti
ĠstËĪeÉª ts
ĠwËĪeÉªv ÉªÅĭ
ĠlËĪÉĽdÊĴÉĻnd ÉļÉ¹i
b ËĪÉĽÉ¾Éļ
w ÉĻp
É¹ Éļ
ĠÉ¡ ÉĻmz
áµ» É¾i
ËĮiËĲ t
Ġsp ËĪaÉªt
Ġv ËĪoÊĬk
Ġv ËĪiËĲdÉĻ
ËĪÊĮÅĭ ks
Éªs ËĪaÉªdÉĻl
ĠÉ¹áµ»m ËĪuËĲv
ĠfËĪaÉªv hËĪÊĮndÉ¹ÉĻd
ĠÉ¹áµ»l ËĪaÉª
ĠsËĪaÊĬÎ¸ saÉªd
ĠÉ¹áµ»pl ËĪeÉªst
ĠmËĪÊĮÎ¸ÉĲfËĮÊĮk Éªn
ĠÉ¹áµ»É¡ËĪÉĳËĲÉ¹d lÉĻs
Ġm ËĪÉĽÊĴÉļ
ËĪÃ¦ di
É¡ ÉĻst
ĠfÉ¹ ËĪÃ¦dÊĴÉĻl
ËĪan i
bÉĻl z
pÉ¹ ËĪoÊĬ
ĠkÉĻn ËĪÉĽktáµ»d
ÉĻÉĻÉĻÉĻÉĻÉĻÉĻÉĻ ÉĻÉĻÉĻÉĻ
ĠlËĪÉªm p
ĠbËĪÊĮs Éªn
ĠpËĪÊĮmp Éªn
Ġbáµ»hËĪeÉªv jÉļ
ĠsËĪÃ¦É¾ÉĻl ËĮaÉªt
ĠËĪeÉªpÉ¹ ÉĻl
ĠhËĪÉĳËĲsp ÉªÉ¾ÉĻl
h ËĪÉĳËĲÉ¹d
p ÉĻz
ĠÉ¹ ËĪÉĽl
ĠmÉĻ vÉĻn
ĠpÉ¹ Éªv
ËĪÉĽnd oÊĬ
ÉĻv ÉĻd
ĠÉĻm ÉĻm
ĠbÉĻl t
ĠÉ¾ÉĻk ÉĻn
ĠjËĪÉĳËĲ ndÉļ
ĠdÉªsk ËĪÊĮv
ĠÉ¡É¾ËĪa b
ĠmËĮÊĮltÉª pl
ÉĻ ËĪ
Éª ËĮÉª
Ġd ËĪÊĬÉ¹
ËĪuËĲ nz
ĠËĪeÉª p
ĠÊĥ ÉĻld
ĠÊĥ ËĪÉªps
ĠdÊĴ ÉĻb
Ġsk ÉĻz
ĠÊĥËĪÉĳËĲp Éªn
stËĪÉĳËĲp ÉĻbÉĻl
ĠlÉĻz ÉĻÅĭ
ĠaÊĬtÉ¹ ËĪoÊĬ
ĠpËĪÊĮl s
ĠdÊĴÉĻz ÉĻs
ĠpËĪÉĳËĲlÉĻt ËĮÉªks
v ËĪaÉª
ËĮeÉª s
ĠfÉĻ É£
ĠÉ¡ËĪÉĽ É¾ÉĻ
ĠkÉĻl ÉĻ
ĠhËĪeÉªt É¹Éªd
jËĪÉĽËĲ tËĪiËĲ
ĠpËĪoËĲÉ¹ z
ĠfÉļÉ¡ËĪÉªv ÉĻn
tÊĥuËĲ ÉĻl
ĠpËĪÃ¦l Éªs
ĠtÊĥËĪÃ¦n ÉĻl
ĠvËĪÉĽlv Éªt
ËĪoÊĬ É¾ÉĻ
Ġn aÉª
Ġp ÉĻm
É¡ ËĪÉĶn
ĠbËĪÃ¦ skÉªt
ĠwËĪÉĻ tÊĥ
ĠdËĪÉªÉ¡ Éªn
fËĪÊĮk Éªn
ĠklÉĻs ËĪo
ĠÃ¦mb ËĪÉªÊĥÉĻn
ĠsËĪÉĽkÊĥ uËĲÉĻl
ËĪÃ¦ É¹oÊĬ
Ġd ËĪÃ¦p
Ġk oÊĬ
ÉĻs iz
ĠbÉ¹ ËĪaÉªd
ĠÉ¡É¹ ËĪÃ¦ni
ĠlËĪeÉª st
ĠÉ¹ËĪuËĲm Éļ
ÉĻdÊĴ ÉĻn
ĠhËĪÊĬd i
ĠdËĮÉªs ÉĲ
ĠÉĽkspl ËĪoËĲÉ¹
ĠnËĪÃ¦ É¹oÊĬ
ĠËĮÉĽvÉļ lËĪÃ¦st
É¹ ÉĻp
ÊĬ dz
ËĪeÉª ÉĳËĲw
Ġl ËĪeÉªb
Ġl ÉĻp
ËĪÉĶÉª ÉĻ
Ġsl ËĪaÉª
Ġkw ÉĻn
ĠfËĪoËĲÉ¹ st
ĠkËĪÉªd n
ĠbËĪÊĮst ÉªÅĭ
ĠlËĪiËĲn ÉªÅĭ
ĠkÉĻmp jËĪuËĲ
ĠmËĪÉĳËĲÉ¹k Éªt
ĠÉ¹áµ»mËĪÉĽm b
ĠÉ¹ËĪÃ¦b Éªt
Ġh ÉĻk
Ġn ËĪÉľËĲs
ĠfÉĶËĲÉ¹ sËĪeÉªk
ĠstÉ¹ ËĪÊĮÅĭ
ËĮÉĳËĲ É¡
ĠÉ¡l ËĪÃ¦ns
kÉ¹ ËĪeÉªzi
ĠÉ¹ËĪuËĲ Î¸
ĠÉ¡lËĪoËĲÉ¹ iÉĻs
ĠÉ¹áµ»p ËĪÉĽnt
ĠlËĪÉªm Éªts
ĠmËĪÉĶn stÉļz
ĠwËĪÉªÉ¡ ÉĻl
ËĪÉªlÉªk ÉĻÉĻÉĻ
Ġm ËĮÉĽd
Ġn ËĮÉĳËĲn
ĠËĪÉªn fluËĲ
ĠdÊĴ ËĪÉĽÉ¹
ĠbËĪÊĮ dÊĴ
ĠfËĪiËĲ tÊĥÉļ
w aÉªd
Éª É¾áµ»d
eÉª lz
ËĪÊĬ lÉĻ
bÉļ t
ĠÉĻm ËĪa
ĠstËĪÉªk Éªn
ĠÉĻnÉĻ wÉĻn
ËĮÉĳËĲl Éªt
ÉĻÅĭÉ¡ lÉĻ
sËĪÉĽvÉĻnt i
Ġv ËĪuËĲ
Éªs ËĪÉªpi
ĠwËĪÉªsp Éļd
ĠdËĪiËĲv ÉĻ
b iz
Ġj i
Ġd ËĪiËĲd
Ġf É¾ÉĻd
É¾ ËĪak
ËĪÉĽs jËĪÉĽËĲ
ĠÊĥ ËĪÉĳËĲÉ¾ÉĻ
ËĪÉĳËĲÉ¹ jËĪÉĽËĲ
ĠdËĪaÊĬn z
ĠkÉ¹ ËĪÃ¦kÉªn
ĠtËĪuËĲ m
Ġkl ÉĻk
Ġsp ËĪÉĳËĲÉ¹ks
ĠbÉ¹ËĪeÉªk daÊĬn
ĠswËĪiËĲt hÉĳËĲÉ¹t
ĠsÉĻm dÉĻ
ĠÉĲd ËĪÉªkÊĥÉĻn
ĠÉĻm ptÉĻ
ĠÉ¹Éª ËĪÃ¦kt
ĠÉĻbs ËĪÉĽst
ĠmËĪÉľËĲd Éļd
bÊĬ k
ĠsËĮÉªl ÊĬ
v ÉĻs
ËĪeÉª dÊĴ
Ġst É¾ÉĻs
ĠtÉ¹ ËĪÃ¦ns
ĠbÉ¹ ËĪeÉªzi
ĠkËĪÉĳËĲn ÊĥÉĻs
ĠlËĪÃ¦f z
ĠkËĪeÉª ÉĳËĲs
ĠsËĪÉĽvÉĻn Î¸
ĠkÉ¾ ËĪaÊĥ
ĠflËĪaÉªt s
Ġm ËĪÉĽÉ¹
ËĪÃ¦st Éªn
ĠÉ¡l ÉĻk
ĠÉ¹ËĪÉĳËĲk t
ĠmËĪÉĽn Éªs
ĠlÉĻv z
ĠpÉĻl ÉĻd
ĠpËĪÃ¦k ÉªdÊĴ
ĠspËĪÉĳËĲt s
ĠkÉĻns ËĪuËĲm
ĠkÉĻk ÉĻn
ĠsËĪaÉª ÉĻns
ĠmËĮÉªs ÉªsËĪÉªpi
h ËĮÃ¦
k ËĪÉĳËĲÉ¹
Ġm ËĪoÊĬs
Ġd ËĪÉĻ
ÉĻt ÉĻn
ĠÉªf ËĪÉĽkt
ĠfËĪaÉª É¾Éļ
ĠwÉĻz ÉĻ
ËĪÃ¦nt ÉªdÊĴ
ĠfÉĻst ÉĻ
ĠÉ¹ËĮiËĲ ÉļÉ¹ËĪeÉªndÊĴ
ĠbËĮiËĲËĮÉĳËĲÉ¹É¹ ËĮÉĳËĲÉ¹tËĪiËĲ
p ËĪaÊĬÉļ
p Ã¦k
w ËĮÉĻn
É¹ áµ»
É¹ ËĪÉĽd
Ġf iËĲ
Ġf jËĪuËĲz
Ġst É¾ËĪap
ĠnÉĻ stÉĻ
ÉĳËĲ ks
ĠfÉĻ É¾ÉĻn
juËĲ n
ĠfËĪÉĶËĲÉ¹ k
Ġl ÉĻsÉĻ
ĠjÉĻ k
vËĪiËĲ jËĪÉĽËĲËĪÉĳËĲÉ¹
ĠÉ¹ËĪÉĶÅĭ z
âĢĶ )
ĠÉĲp ËĪiËĲl
ĠÉ¡lËĪoÊĬ ÉªÅĭ
ĠÉ¹oÊĬm ËĪÃ¦ntÉªk
ĠÉĲpËĪÉĳËĲlÉĻdÊĴ iz
ĠblËĪeÉªz ÉªÅĭ
ĠmÉĻÎ¸ ËĪa
ĠhËĪapÉĻn ËĮe
ĠkËĪÉĳËĲmpÉ¹ÉĻm ËĮaÉªz
b Éªn
Ġ ËĪÉĶËĲk
É¹ aÉª
Ġl ËĪÃ¦v
Ġh ËĪÉªtÊĥ
ĠÎ¸ ËĪÉĶËĲÉ¹n
ĠtÉ¹ ËĪÊĮks
ĠkÉ¹ ËĪÃ¦Åĭk
ĠdËĪÉĳËĲÉ¹k Éļ
ĠËĪÉľËĲ nd
ĠtËĪÉªÉ¹ dÉ¹
ĠkËĪÉĶËĲ ÊĥÉĻn
ĠhËĪÉªpnÉĻt ËĮaÉªzd
f ËĪaÉªÉļ
h ËĪÉĳËĲÉ¹É¾áµ»d
n ËĪÉªÉ¡
n ËĪÊĮÃ°Éļ
Ġs ËĪÉĽÉ¹
Ġt ËĪÉªts
Ġn ËĪÃ¦p
ÉĻv É¾ËĪy
ĠÉ¡l ËĪiËĲm
ĠÉ¹ËĪuËĲ ft
ĠËĪÉĳËĲnÉªst i
ĠpËĪeÉªÊĥ ÉĻntli
ĠtÊĥÉĻld É¾ÉĻn
ĠlËĪÉªÉ¹ ÉªkÉĻl
ĠplËĪÉĳËĲt Éªn
É¹áµ»p ËĪiËĲt
h ÊĬd
p ËĪiËĲs
Ġm ËĪoÊĬld
Ġst ËĪÉªÅĭk
ĠÉ¡ËĪoÊĬ t
ĠËĪÃ¦ É¹oÊĬ
ĠpÉ¹ Éªs
Ġsl ËĪaÉªt
ËĪat ÉĻ
ĠwËĪÉľËĲld waÉªd
ĠkËĪÊĮt Éªn
ĠstËĪÉªk ÉªÅĭ
ĠmÉĻm ÉĻÉĻz
ĠÉ¡É¹ËĪuËĲv i
ĠÉ¹áµ»fl ËĪÉĽkt
ĠÊĥËĪaÊĬ É¾ÉªÅĭ
ĠkÉĻnsËĪÉªd Éļ
l tÉ¹
É¹ ËĮeÉªt
Ġn ËĪÉĽli
Ġk ËĪÉľËĲst
Ġf ËĪÉĻti
ĠÉª ndÊĴ
ËĮÉĽ k
ËĪoËĲÉ¹ s
dÊĴ ËĪÊĮmp
ĠtËĪuËĲ lz
Ġsp ËĪiËĲks
Ġsk ËĪÃ¦nd
ÉĽ t
Î² ÉĻn
Î² ÉĻl
ĠbËĪÉľËĲ kÉªn
ĠtÉ¾ ÉĻz
ĠbËĪa lÉĻn
ĠÉĻÉ£ÉĻn st
ĠËĪÃ¦d Éªkt
Ġdáµ»É¹ ËĪÉĽkt
ĠdËĪÊĮ É¾i
ĠÎ¸ËĪÉĽÉ¹ ÉĻpi
Ġm ÉĻlz
É¾ Éªz
ËĪÉĶËĲl weÉªz
ĠdÊĴ ËĪÉĳËĲkÉªn
ĠÎ¸ ËĪÊĮmp
ĠtÊĥ ËĪÉĶËĲk
ĠlËĪuËĲ si
ĠlËĪÉªk Éªn
ĠbÉĻn ËĪiËĲÉ¾ÉĻ
ĠÊĥËĪÉĽÉ¹ ÉªÅĭ
ĠfËĪÉªÅĭÉ¡Éļ t
ĠwËĪÊĮnd Éļz
ĠkÉļÉ¹ ËĪÉĽkt
tËĪÉĶËĲk Éªn
ĠkËĪÉĳËĲÅĭk Éļ
ĠlËĪiËĲs ÉĻ
Ġs ËĪat
Ġh ËĪaÉªts
Ġn ËĪeÉªl
Ġk jÉĻ
Ġf ËĪÉĻv
ËĪÉĳËĲm ÉĻz
ĠÊĮn ÉĻÉĻÉĻÉĻÉĻ
ĠwËĪeÉªv i
ĠwËĪÉĶnd ÉļÉ¹ÉªÅĭ
ĠflËĪÉĶËĲÉ¹ ÉªdÉĻ
k ËĪeÉªn
ËĪaÉª vÉļ
ÊĮ ts
Ġd iËĲ
Ġd É¾ËĪÉĻ
Ġl ËĪÉĳËĲb
Ġk ÉĳËĲÉ¹
Î¸ É¾ËĪÉĻ
ĠtÊĥ ËĪÉªli
ĠnËĪÉĳËĲt s
ËĪÉªÅĭk ÉĻl
ĠwÉĻk s
ĠlËĪiËĲ Êĥ
ĠdÉªs É¡É¹
ĠkÉ¾ÉĻ b
ĠÉĲs ËĪuËĲm
ĠkËĪÉĽl z
ĠËĪÉĳËĲpÉĻz ËĮÉªt
Ġs ÉĻst
Ġs ËĪÊĮks
Ġb ËĪÉĶst
Ġb ËĪÉªÉ¾i
Éļ b
ĠmËĪÊĮ l
ĠmËĪaÉªn z
ËĪÉĻty ÉĻnz
ĠpÉ¹ÉĻt ËĪÉĽkÊĥÉĻn
ĠsËĮÉĽn tÉªm
ĠhÉĻv ËĪi
w ÉĳËĲ
Ġs ÉĻld
Ġf ËĪoÊĬz
Ġsk ÉĻt
Ġsk ËĪoÊĬp
ĠwËĪÉªl j
ĠbËĪÉĳËĲ d
ĠÉ¡l ËĪaÉªd
ĠhËĪÉĶËĲl z
ĠÎ¸ËĪÉĳËĲ Åĭ
ĠpËĮÉĳËĲ pÉļÉ¹ËĪÉĳËĲtsi
a Êĥ
p ÉªÅĭ
oÊĬ b
ËĪÉª ÊĶn
Êĥ ËĪuËĲ
ĠÊĥ ËĪÉĽf
ĠkÉĻm jËĪuËĲn
ËĪÃ¦tÊĥ uËĲ
ĠdÉ¹ËĪaÉªv weÉª
hËĪoÊĬ li
ĠwËĪÉĽ b
ĠhËĪÊĮsl Éļz
ĠtËĪÃ¦k si
w ËĪÉĳËĲp
Ġ ËĪÉĳËĲt
Ġw ËĪÃ¦stÉªn
Ġm ËĪeÉªz
Ã¦ b
Ġt ËĪÉª
Ġd iËĲt
Ġf ÉĻÅĭÉ¡
ĠÉ¹ ËĪÉĽz
ĠÊĮn stËĪÉĳËĲpÉĻbÉĻl
nËĪoÊĬ p
ĠsËĪÃ¦ li
ĠdÉĻl ÉĻz
ĠstËĪÃ¦k ÉªÅĭ
ĠtËĪÉĽm pÉĻl
ĠdÊĴËĪaÉª ÉĻnt
ĠnËĪÉľËĲv z
ĠstËĪÉĳËĲÉ¹v ÉªÅĭ
ĠpÉ¹ËĪÉĽ É¡nÉĻnt
uËĲ d
Ġst ËĪÃ¦kt
ĠtÊĥ ËĪÉĽkt
ÉĻnt ËĪyÉĻn
ĠbËĪÃ¦ p
ĠkËĪÉĽÉ¹ lÉĻs
ĠsËĪÉĽnd Éªn
ÉĳËĲn z
ĠdÉ¾ÉĻm ÉĻÅĭ
ĠbËĪÃ¦É¾ÉĻl z
ĠËĪuËĲuËĲ ËĮoÊĬ
Ġdáµ»sp ËĪÉĽÉ¹
ĠmËĮÃ¦É¡ÉĲz ËĪiËĲnz
ĠstËĪÊĮ ft
ĠdÉ¾ËĪÉĻ ma
w ËĪuËĲp
Ġn ËĪÉĳËĲnÉĻ
ËĪuËĲ st
ËĮÃ¦ Åĭ
Ġv ÉľËĲ
ĠsÉĻ ft
ËĪÉĽÉ¹i ÉĻ
ĠfËĪuËĲl ÉªÅĭ
ÉĻkt ÉĻ
ĠdËĮiËĲ ËĮÉĽnËĪeÉª
ĠÉ¹áµ»s ÉļÉ¹
ĠdÊĴËĪÉĽn ÉļÉ¹ÉĻl
ĠtÉ¹ËĪoÊĬ fi
Éª ËĮÃ¦k
ĠtÊĥ ËĪeÉªst
ËĪÉªst ÉĻns
ĠËĪÉªs ÉĻl
ËĮoËĲÉ¹ i
ĠlËĪÉĽm ÉĻn
ĠkËĪÉĽm Éªst
ĠtËĪoÊĬÉ¾ÉĻl i
ËĪÉĽs Éªv
Ġst ËĪÃ¦m
Ġsk ÉĻp
Ġsw ËĪÉªft
ĠkËĪuËĲl Éªn
ĠkËĪÃ¦p ÉªÉ¾ÉĻl
ĠËĪÉĳËĲp ÊĥÉĻn
ĠsËĪuËĲz ÉĻn
ĠÉªnh ËĪeÉªl
ĠspËĪaÉªd Éļ
b ÉĻtÊĥ
Ġm ËĪÉªÅĭk
ĠsËĪÊĮm Éļz
Ġsp ËĪuËĲn
Ġv aÉª
sl ËĪoÊĬ
É¾ËĪÉĻ s
ĠjËĪeÉª oÊĬ
ĠlËĪiËĲ É¡ÉĻl
ĠÊĥÉĻn ÉĻÅĭ
ĠkËĪÉĳËĲnt Ã¦kt
ĠtÉ¹Ã¦ns fËĪÉĶËĲÉ¹m
Ġd ÉĻndÊĴÉĻ
É¾ Éªf
ĠbÉ¹ ËĪuËĲs
Ġsp ËĪoËĲÉ¹
ĠbËĪÃ¦ É¾ÉļÉ¹i
fl ËĪoÊĬ
Ġspl ËĪÉªf
ĠkËĪaÊĬ Éļd
ĠsnËĪÉªp Éªts
ĠpÉĻkt jÉĻz
Ġbáµ»tÉ¹ ËĪeÉª
ĠÃ¦nt ËĪÉªs
nËĪÉªÉ¡ ÉĻz
ËĪÉĳËĲn oÊĬ
ĠtÊĥ ÉĻst
ËĪÉĶËĲÉ¹ m
ĠsËĪÉĻ po
ĠpËĪiËĲs fÉĻl
mÉĻs fËĮÉªÉ¹
ĠÉ¹ËĪÉªÅĭ É¡Éªn
ĠsÉĻl ÉĻÅĭ
ĠmËĪÉªÉ¹ ÉĻkÉĻlz
ĠkÉ¹ËĪÃ¦Êĥ t
ĠÉ¹ËĪÉĽs áµ»pËĮiËĲ
ĠpËĪÉľËĲl z
Ġt ËĪÃ¦m
Ġl ÉĻÉĻn
Ġk ËĪaÉªt
ËĪÉĽm p
É¡ ËĪÉªmi
ĠlËĪaÉª É¾ÉªÅĭ
áµ» É¾
ĠÉ¡É¹ ËĪoÊĬs
Éªs ËĮÉªn
Ġkw ËĪÉĶl
ĠËĪÃ¦s hoÊĬl
ÉĽn tÊĥi
ĠkËĪÃ¦p Éªn
ĠËĮoÊĬvÉļ nËĪaÉªt
ĠÉ¾ÉĻ Êĥ
ĠbÉĻd z
ĠfÉĻd ÉĻd
ĠkËĮÉĳËĲn tÉ¹
ĠËĪiÉĻ É¹ÉĻ
ÉĻÉĻ t
Ã¦ ts
ĠÉ¹ ËĪÉªÉ¡
ËĪat ÉĻk
ĠplËĪeÉª ts
nËĪaÉªn tiËĲn
ËĪÊĮl t
ĠËĪÃ¦t mÉĻsfËĮÉªÉ¹
Ġ ËĪÉĽst
Ġw ËĪÉĶËĲÉ¹d
ËĪÃ¦ ftÉļ
ËĪÊĮ ÊĥÉĻn
Ġpl ËĪuËĲÉ¾oÊĬ
ĠhËĪÉªÉ¹ z
ĠËĪÉĽvÉ¹Éª Î¸ËĮÉªn
ĠsËĪÉĻ lf
ĠkËĪoÊĬld Éªst
É¾ÉĻk ÉĻ
É¡ËĪoÊĬ ÉªÅĭ
ĠpÉ¹ËĪÉĽz ÉªdÉĻnts
ĠËĪakt ÉĻn
áµ»É¡ ËĪÉĳËĲÉ¹
ĠÉĽnt ËĪaÉªÉļ
l ËĪaÉªt
ĠbËĪiËĲ nz
ËĪoËĲÉ¹ iÉĻ
Ġfl ËĪaÊĥ
Ġv jËĪuËĲz
ĠslËĪiËĲp lÉĻs
Éªl ÉĻn
ĠdÊĴËĪÉĳËĲb z
ĠÉĲdv ËĪÃ¦ntÉªdÊĴ
ĠËĪÉªnd iÉĻn
wÉľËĲ ks
ĠËĪÃ¦ks ÉªdÉĻnt
ĠtÊĥËĪÃ¦l ÉªndÊĴ
m ËĮÃ¦Î¸
p ÉĻs
uËĲ ËĮÉĽÉ¹i
oÊĬ ËĮÉªn
Ġj ÉĻlÉĻ
Ġs áµ»É¡ËĪÉĳËĲÉ¹
ËĪÃ¦ ÊĥÉĻnÉĻl
ĠdÉ¹ ËĪaÊĬnd
ËĮeÉª É¾Éļz
jËĪuËĲ l
ĠmËĪÃ¦ É¡
ĠbËĪÉľËĲn Éļ
ĠkÉĻp ÉĻÅĭ
Ã¦l ËĪeÉª
ĠÉ¡É¹ËĪuËĲp iz
É¹áµ»m ËĪÉĽmbÉļ
ĠoÊĬb ËĪÉĳËĲmÉĻ
ĠnËĪÉĽv ÉĻ
k ËĪÉªs
p ËĪiËĲpÉĻl
Ġs ËĪÉªv
ĠÉĻ ÊĥÉĻn
Ġsp ÉĻsÉĻËĪal
ËĪiËĲv z
ĠÉ¹ËĪoÊĬ ps
Ġsm ËĪÉĳËĲÉ¹
ĠstËĪoËĲÉ¹ mz
ĠËĪÃ¦n taÉª
ÉĳËĲÉ¹ k
ĠËĮoÊĬvÉļ lËĪoÊĬd
ĠÉĻk É¾ËĪÉĻs
ĠfËĪiËĲd ÉªÅĭ
ĠËĮÉĽs ËĮeÉªtÊĥËĪeÉªtÊĥ
ĠnËĪÃ¦tÊĥ ÉļÉ¹ÉĻli
ĠdËĪÉĽn Éªm
ĠmÉĻv ÉĻz
ĠÉļÉ¹ËĪaÉªv d
k ËĪan
s Éªs
É¹ ËĪÃ¦ks
Ġf ÉĻtÉĻ
ĠlËĪaÉª sÉĻns
ËĪiËĲd ËĪiËĲ
ÉĳËĲ lf
ĠsËĪÉªÅĭ Éļ
pl eÉªs
ĠËĪÉĽl ËĪoÊĬ
ĠstËĪoËĲÉ¹ z
ĠlËĪÃ¦nd áµ»d
ĠËĮÃ¦ bsÉĻl
ĠaÉªd ËĪiËĲ
j ËĪo
Ġb ËĪÉĳËĲni
ĠÉĻ ps
Ġf ËĪÉĳËĲl
Ġf Ã¦nt
ÉĻd ÉĻd
dÊĴ Ã¦
ÉĳËĲ ts
tÉ¹ ËĪiËĲnÉĻ
ĠslËĪaÉªd ÉªÅĭ
ĠlÉĻdÊĴ ËĪÉªt
ĠfÊĬlf ËĪÉªl
ĠsËĮÉĽntÉªm ËĪÉĽntÉĻl
b ÉĻz
m ËĪÉĽÉ¹i
Ġm ËĮa
Ġl ËĪÉĶ
Ġf ËĪÉªd
Î¸ ËĪÉĽÉ¾Éªk
ĠwÉĻ Åĭz
ĠhËĪÉĽd laÉªts
ĠËĮÉªnt ÉļÉ¹
ĠÉĻp ËĮÉĻn
ĠtËĪÉªk Éªts
ĠkËĪÊĮl Éļd
ĠhËĪÊĮsÉĻl ÉªÅĭ
fÉªn ËĪÉªÊĥÉĻn
ĠlËĪÉĽÉ¡ ÉĻsi
n ËĪÉĳËĲk
ËĪÉĳËĲ nd
ĠtÊĥ ÉĻks
ĠbÉ¹ ËĪÃ¦n
ĠÉ¹áµ»l ËĪiËĲf
ĠsÉĻl ËĪÉĽbÉ¹
ĠbËĪuËĲm Éªn
ĠÉ¡É¾ÉĻ p
ĠsÉĻlÉĻ Î²
f ËĮiËĲld
Ġh ÉĻst
áµ» stÉ¹
ËĮÉª d
ĠÉ¡ËĪÉªv ÉĽntÊĥi
ĠsÉĻp ÉĻn
ĠwÉĻl kÉĻmÉĻ
mËĪÉĳËĲm ÉĲ
Ġb ÉĻlÉĻ
Ġd wËĪÉĽl
É¾ áµ»fËĮaÉªd
É¡ d
ĠdÊĴ ÉĻÅĭÉ¡lÉĻ
ĠbÉ¹ ËĪÉªt
ÉĻÅĭ É¡ÉĻ
bÉļ É¾i
ĠËĪÃ¦s Éªd
ĠmËĪÉªs i
ĠmËĪÉĽt É¹oÊĬ
ĠmËĪÃ¦dÊĴÉªk ÉĻl
É¡ËĪÉĽt s
ĠâĢ ¦
ĠdËĮÉªsÉĲpËĪÉªÉ¹ d
ĠkÉ¹iËĲ ËĪeÉª
ĠÉĳËĲ hËĪÉĳËĲ
ĠËĪoÊĬvÉļd ËĮoÊĬs
Ġn ËĮÉĽvÉļ
Ġk ËĪÉªt
ËĪÉªv ÉªÉ¾i
ĠËĪoÊĬvÉļ tËĮaÉªm
ĠËĪÉĳËĲ veÉª
ËĪÃ¦d Éªn
ÉªÉ¡ n
ĠkËĪoÊĬ stÉļ
ĠstÉ¹ËĪÉĽs ÉªÅĭ
l ËĪÃ¦Åĭ
Éª ÉĻ
Ġd ËĪÉªpÉªn
st ËĪÉĽÉ¹z
Î¸ ÉĻl
ĠËĪÉªn f
ĠdÊĴ ËĪÉĽts
ĠÉ¡ËĪÉľËĲl fÉ¹ÉĽndz
ĠhËĪuËĲ m
ĠsËĪÉªt s
ĠhËĪav ÉĻÅĭ
ĠkËĪÃ¦É¹i ÉªÅĭ
ĠkËĪÃ¦p s
ĠËĪeÉªdÊĴ áµ»z
ËĪuËĲs Éªv
ĠsËĮuËĲ pÉļ
ĠpÉ¹Éªf ËĪÉľËĲ
zÉļÉ¹ ËĪÉĳËĲÉ¾i
ĠdËĮÉªsÉĲ É¡É¹ËĪiËĲ
n ÉĽk
w ËĮÉĽÉ¹
Ġp ËĪÉĶÉªn
Ġsl ËĪÉªps
ĠfÉļÉ¡ ËĪÉĽÉ¾ÉªÅĭ
ĠslËĪiËĲp i
ĠpÉ¹ËĪoÊĬ É¡É¹
ĠstËĪoËĲÉ¹m i
ĠÉªÅĭk l
ĠdËĪÉĽl t
ĠfËĪÉªÅĭÉ¡Éļt ËĮÉªps
k ËĪuËĲ
ÉĻk É¹
ĠtÊĥ ÉĻnz
Ġsp ËĪÉĶÉªl
Ġfl ÉĻks
Ġsk ËĪuËĲp
ĠpËĪaÊĬÉļ fÉĻl
ĠpÉļ mËĪÉªÊĥÉĻn
ĠdÉªv ËĪoÊĬÊĥÉĻn
ĠsËĮuËĲ ÉªsËĪaÉªdÉĻl
ĠÉĲtÉ¹ ËĪÃ¦kÊĥÉĻn
ĠdÊĴËĪÉªÉ¡ i
b ËĮÉľËĲ
Ġl ËĪeÉªbÉĻlz
Ġh ËĪaÊĬnd
Ġf ÉĻld
ĠÉ¹ Éªd
ĠhËĪa ndÉĻ
kÉ¹ ËĪÉªs
ĠlÉĻn ÉĻd
ĠfÉĻs z
ĠtÊĥËĪiËĲ f
ĠpËĪaÉªl ÉĻt
ĠËĮÉªntÉ¹ ÉĻd
ĠslËĪÉĳËĲp i
p ËĪÉªk
Ġn ËĪÉĽs
ËĪÉĶËĲ s
Ã° ËĪÉĽn
ĠÎ¸ É¾ÉĻt
Ġfl ËĪÉªpt
Ġv ËĪaÉªs
ĠlÉĻt lÉĻ
ĠhËĪÃ¦p ÉªÉļ
tÉ¹ ËĪÃ¦p
ÉĻÉĻÉĻÉĻÉĻÉĻÉĻÉĻ ÉĻÉĻÉĻ
ĠËĪeÉªt Î¸
ĠtÊĥËĪÉĶÉªs áµ»z
ĠÉĻbs ËĪÉĽÊĥÉĻn
oÊĬv ËĪÉĽmbÉļ
Ġh Éªp
Ġsl ËĪÉªÅĭ
Ġsw ËĪÉĳËĲp
ĠËĪa d
ĠkËĪÉĳËĲÉ¹ v
ĠkËĪÉªd ÉªÅĭ
dËĪÉĳËĲ dÉĻ
ĠsËĪÉĽl z
ĠbËĪÉĶËĲl d
ĠbËĪÊĮst áµ»d
ĠfÉ¹ËĪiËĲk Éªn
ĠplÉĻ É¡
ĠplÉĻ ËĪe
sáµ»É¹ ËĪÉªlÉªkÉĻÉĻÉĻ
ĠpËĪÉĳËĲm z
ËĪiÉĻÉ¹Éª ÉĻd
j oÊĬ
ÊĬ l
Ġb ËĪÃ¦tÊĥ
Ġt s
ËĪÉªk jÊĬlÉĻs
Ġv Éªkt
ËĪaÉªv z
ĠtËĪÉĽn Éªs
ĠsËĪÉĽnt É¹ÉĻl
ËĪÉĳËĲlÉĻdÊĴ i
Ġdáµ»pÉ¹ ËĪÉĽÊĥÉĻn
ĠÉĲst ËĪÉĳËĲn
ĠtËĪÉĶËĲÉ¹ tÊĥÉļ
ĠpËĪÉľËĲmÉĻn ÉĻnt
k ËĪaÉª
Ġ áµ»
ËĪa li
Ġl ËĪÃ¦b
ĠÉ¡ ËĪa
ÉĲ ks
ĠÊĮn É¹
ĠËĪÉĽl vÉªs
ËĮuËĲ t
ĠnÉĻd ÉĻd
ĠËĮÉĽ skËĮeÉªËĮÉĳËĲÉ¹É¹ËĪÉĳËĲÉ¹
ĠfËĪiËĲ tÊĥÉļz
ĠkÉĻns ËĪÉľËĲn
ĠËĪÉĽf Éļt
ĠkjËĪÊĬÉ¹ É¹iÉĻs
ĠstËĪiËĲv i
ĠvËĪÉĳËĲl juËĲm
l ÉĳËĲk
Ġw ËĪan
Ġt ËĪÉĶst
É¡ lÉĻnd
ĠÉĲ stÉ¹ËĪeÉª
ĠfÉ¹ ËĪÉĶËĲd
ĠnÉĻ f
dÊĴ ËĪÉªn
ĠnËĪÊĮ f
ĠhÉĻ hËĪÉĻ
kËĪeÉª ÊĴÉĻn
Ġsn ÉĻk
ĠskÉ¹ ËĪuËĲd
aÊĬ ts
Ġbáµ»h ËĪoÊĬld
ĠtwËĪÉĽnti Î¸É¹ËĪiËĲ
ĠÉ¹áµ»l ËĪoÊĬd
ĠÉ¹ËĪeÉª ndÉ¹
ĠmËĮÃ¦ zÉļÉ¹ËĪÉĳËĲÉ¾i
ĠdËĮÉĽ fÉªnËĪÉªÊĥÉĻn
ĠÉ¹ËĪiËĲk oÊĬ
áµ»s ÉļÉ¹i
' ),
p É¹i
s ËĪoÊĬl
ËĪa si
ft ÉĻn
ÉĻns ÉĻz
Ġsn ËĪaÉª
ĠhËĪÉĳËĲ ndÉĻ
ĠÉ¹ËĪuËĲ bi
ĠhËĪÉĽÉ¹ oÊĬËĮÉªn
ĠÉ¹ËĪÉªst s
ĠpÉ¹ËĪiËĲ st
ĠsËĪÃ¦v Éªn
ĠklËĪaÊĬn z
ĠËĪÉĽv ÉªdÉĻns
k ËĪoÊĬld
Éª mz
Ġt ÉļÉ¹
ËĪÊĮ É¾Éļ
Ġn ËĪÊĮk
ÉĻl Éªs
ĠÊĮn ÉĻÉĻÉĻÉĻ
ĠËĪÉĽm ËĪoÊĬ
ĠklËĪoÊĬs Éªst
ĠÊĥËĪÉĽÉ¹ Éªf
ĠkÉĻmp ËĪÉĽÉ¹z
wËĪÉĽÉ¹ É¾oÊĬ
ĠsËĪoËĲÉ¹ s
ĠpËĪaÉªn t
ËĪÉªlÉªk jÉĻËĲ
ĠÉ¾ÉĻÉ£ É¾ÉĻt
ĠwËĪÊĮt tÊĥuËĲ
ĠËĪÉľËĲÎ¸kweÉª k
ĠtËĪÉĽmpÉ¹ ÉªtÊĥÉļ
áµ»É¾ ËĪÉªlÉªkjÉĻËĲ
h ËĪÃ¦ps
Ġm ËĪÉªki
ÉĻl ËĪÉĻ
tÊĥ ËĪÉªÅĭ
É¾ÉĻ st
Éªk ÉĻlz
ËĪÉªz ÉĻl
ĠfÉ¹ËĪiËĲ staÉªl
ĠhËĪÉĽlp s
ĠÉ¡ËĪÉĽs ÉªÅĭ
Éªl Éļ
ĠfÉĻn ÉĻÊĥ
ĠwËĪÉĶËĲÉ¹m Î¸
ĠkÉĻnd ËĪÉªÊĥÉĻn
ĠswËĪÉĶloÊĬ d
ĠlËĪeÉªz Éļ
ĠËĮÉĽvÉļlËĪÃ¦st ÉªÅĭ
b Éªt
h ÉĻt
m ÉļÉ¹
w aÉªl
Ġj ËĪÉĽËĲ
Ġn áµ»
Ġf ËĪan
Ġp ËĪÃ¦tÊĥ
Ġfl ËĪÉªpÉªÅĭ
ËĪaÉªv ÉĻl
ĠÊĮn wËĪaÉªnd
ĠsËĪiËĲn z
ĠÉªnv ËĪaÉªÉ¾áµ»d
ĠfËĪÉĳËĲÃ°Éļ z
ĠÉ¹áµ»sp ËĪÉĳËĲns
ĠsÉļv ËĪaÉªvÉļ
ĠdÊĴËĪoÊĬk Éļ
ĠjËĪuËĲÊĴuËĲ ÉĻl
ĠtËĪÊĮm blÉªÅĭ
ĠsËĪuËĲz i
ĠÉªnsp ËĪaÉªÉļd
ĠloÊĬk ËĪeÉªÊĥÉĻn
ĠpÉ¹ËĮÉĽz ÉªdËĪÉĽnÊĥÉĻl
ĠdÉªsÉ¡É¹ ËĪeÉªs
h ËĪa
Ã¦ É¡
Ġd ËĪÉªl
ĠdÊĴ ËĪÉĽm
Ġv ÉĻb
ĠhËĪÉľËĲ s
ĠfËĪaÉªÉļ wÉľËĲks
ĠsËĪÉªk nÉĻs
boÊĬ n
ĠpËĪeÉªnt ÉªÅĭ
ĠtËĪuËĲn tÊĥaÉª
ĠmÉĻÃ°ÉĻfÉĻk ÉĻÅĭ
ĠÉªmËĪÉľËĲdÊĴ ÉĻnsi
ĠÉ¡ËĪÉĽÉ¾ÉĻ wËĮeÉª
d ËĪÉªÅĭ
ËĪiËĲ É¡ÉĻl
ĠËĪaÉª v
Ġn oÊĬvËĪÉĽmbÉļ
Ġf ËĪÃ¦s
É¡ ËĪoÊĬld
ËĪÉĽl jËĪÉĽËĲ
ĠÉ¹áµ» tÉ¹
ËĮa ÊĬÉļ
ËĮÉĳËĲ pt
ĠspËĪiËĲk Éļ
ÉĶ f
ĠblËĪiËĲd Éªn
ĠÉ¾ÉĻÅĭ z
Ġdáµ»stÉ¹ ËĪÊĮkÊĥÉĻn
ĠÉĲpl ËĪaÉª
f iÉĻ
eÉª ts
ËĪÃ¦n Éªk
Ġsk ËĪÉĳËĲÉ¹d
Î² a
ĠfËĪeÉªv Éļz
ĠkÉĻnv ËĪÉªns
ĠtÊĥËĪoÊĬk ÉªÅĭ
ĠlËĪaÊĬbaÊĬtËĮÉªn z
j ÉĻn
ĠÉĻ kÉĻ
ĠÉ¹ ËĪÉĽv
ĠdÊĴ ËĪÉĽÉ¹i
ĠdÊĴ ËĪeÉªsÉĻn
di ÉĻns
Ġkl ËĪÃ¦n
ĠÉ¾ ÉĻb
pt ËĪaÉªt
ĠËĪÃ¦s ks
ĠskÉ¹ ËĪÊĮb
ĠwËĪÉĶËĲÉ¹ nd
ĠkËĪÉĳËĲn v
ĠfÉĻt ÉĻÅĭ
ĠtËĪÊĮÅĭ z
ĠbËĪÃ¦kw ÊĬdz
ĠÊĮp stËĪÉĽÉ¹z
ĠÉ¹áµ»dÊĴ ËĪÉĶÉªs
ĠtËĪaÊĬ ÉĻl
ĠÉ¹Éªd ËĪÉªkjÊĬlÉĻs
' ?)
b ËĪÉľËĲn
f ÉĻt
m Éªk
uËĲ ËĮoÊĬ
Ġf ËĪÉľËĲn
Ġf ËĪiËĲn
Ġf jËĪÊĬÉ¹
ËĪiËĲd oÊĬ
ĠsËĪuËĲ p
ĠËĪÉĽl ÉĻ
ĠkÉĻl ËĪoÊĬn
ĠpÉĻl ÉĻs
ĠpÉĻt ËĪÉĽnÊĥÉĻl
ĠfËĪÃ¦nt ÉĻsiz
ĠfËĪÊĬt bÉĶËĲl
ĠsËĮiËĲ ËĪeÉªtÊĥ
Ġdáµ»pËĪÉĽnd z
ĠzËĪÉĳËĲm bi
f oËĲÉ¹
É¹ ËĪÉĽdi
Ġb ÉĻnsÉĻ
Ã° ËĪÉĻ
ĠbËĪiËĲ mÉļ
ĠjÉĻ st
ĠsËĪiËĲ ld
ËĮeÉª mËĪÉĽn
ĠÉªns ËĪÃ¦nÉªÉ¾i
ĠwËĪaÉªld Éªst
b ÉĻÉĻ
d ËĪiËĲp
s ËĪeÉªv
Ġd ÉĻmÉĻnd
Êĥ ËĪÊĮt
ĠÉ¹ ËĪaÊĬdi
ĠÎ¸ ËĪaÉª
ld ÊĴ
ËĪÉªn tÉļ
Ġsk ËĪÉªlz
ĠÉ¡É¹ ËĪeÉªp
ĠbËĪÃ¦ pt
ĠstÉ¹ ËĪÉªpt
ĠÉĽksp Éªkt
ĠsËĪaÉªt s
ÉªtËĮuËĲ t
sËĪÊĮm bÉĳËĲdi
ĠsnËĪÉªtÊĥ áµ»z
ĠmÃ¦ É¡n
m eÉªd
ËĮ n
Ġs ËĪÃ¦É¡
ĠÉ¹ ËĪÉĳËĲn
ĠÊĥ ËĪÃ¦É¾Éļ
ĠtÉ¹ ËĪÉĽd
ĠnËĪÉĳËĲt Êĥ
Ġsk ËĪÊĮl
ĠÉ¡l ËĪÉªsÉĻn
ÊĶ ËĮn
ĠwËĪÉªn z
ĠmËĪÉľËĲ dÉĻ
Ġbáµ»sËĪaÉªd z
ĠÉ¾ÉĻs pÉĻkt
ĠdÊĴËĪuËĲÉĻl Éļ
ĠËĪÉĽk oÊĬz
b jËĪuËĲ
ËĪa stÉĻÉ¾ÉĻsk
Ġm Éªl
Ġj ËĪoËĲÉ¹
ĠdÊĴ ËĪiËĲni
ÉļÉ¹ ËĮeÉªÉ¾Éļ
Ġv ËĪÉĳËĲm
bÉ¹ ËĪiËĲ
ĠfËĪÉĽl ÉĻ
ĠÊĥËĪeÉªk s
ĠdÉ¾ÉĻ pÉĻn
ĠsÉĻnd ÉĻ
ĠkËĪÉĳËĲnt ÉĻmpl
ĠhËĪÊĮm ÉªÅĭ
ĠpËĪÉĳËĲÉ¹tn Éļz
ËĪiËĲËĪÉĳËĲÉ¹ jËĪÉĽËĲ
ĠstÉ¹ËĪÃ¦nd áµ»d
jËĪuËĲl ÉªÉ¹
pÉ¹i h
ÉĻÉĻ m
Ġk ËĪaÊĬnts
ĠÉ¡ ËĪÊĮt
Ġp ÉĲ
Ġp wËĪÉĽÉ¹É¾oÊĬ
tÊĥ ÉĻz
Ġpl ËĪÉĳËĲ
ËĪÃ¦nd Éļ
ËĪÉĳËĲl ÉļÉ¹
Ġkw ËĪÉªÉ¹
ĠkËĪoÊĬ m
dÉ¹ ËĪÉªp
ĠstËĪiËĲl Éªn
ĠËĪÉĽs ËĪoÊĬ
jÊĬl ËĪeÉªÊĥÉĻn
ĠoÊĬ pÉĻn
h ËĮÃ¦l
k ËĪÉĳËĲn
k ËĮoÊĬ
Ġm ËĪÉĽÉ¡
Ġk ËĪat
Ġbl ËĪÉĶs
Ġfl ÉĻk
ËĪeÉªv i
ĠmËĪoÊĬ É¾áµ»v
ĠskÉ¹ ËĪÉªpt
ÉĻnk ÉĻ
ĠdÉ¾ÉĻ É¡
jÊĬ lÉĻ
ĠpÉļ hËĪÃ¦ps
ĠsËĪÊĮf ÉĻk
Ġ? ??
ĠbËĪÃ¦b ÉªlÉĻn
ĠÉ¹áµ»mËĪÉĽmb ÉļÉ¹ÉªÅĭ
j ËĪÉĻ
l ËĪÉªÉ¾ÉĻl
Ġb ËĪÉĳËĲÉ¹t
Ġd ËĪiËĲz
Ġp ÉĻtÊĥ
ĠÊĥ ËĪÉªvÉļ
ĠtÊĥ ËĪa
ĠkÉ¹ ËĪÉĳËĲk
ĠÉ¹ËĪiËĲÉĻl Éļ
ĠdËĪÊĮz ÉĻn
mËĪaÉª É¾i
ĠfËĪÃ¦nt ÉĲs
ĠbÉĻd ÉĻz
ĠhËĪÉĳËĲÉ¹tbÉ¹eÉªk Éļ
ma dÊĴ
Ġdáµ»pÉ¹ ËĪÉĽst
ĠbËĪaÊĬ dÊĴi
ĠkÉ¹ËĪiËĲ tÊĥÉļ
l Éªst
Ġm Ã¦n
Ġs ËĮÊĮ
Ġt ËĪÉĻn
ĠtÉ¹ ËĪÉĽnd
ĠhËĪoÊĬ st
Ġsp ËĪaÉªs
ĠlËĪÉª bÉļÉ¾i
ĠbËĪÉĽ É¾ÉĻ
ĠsËĪaÉªd wÉĶËĲk
ĠÉĽks ËĪaÉªt
ĠkÉĻp t
ĠËĪÉľËĲ b
ĠÉ¡lËĪoËĲÉ¹ iÉĻ
ĠstÉ¾ÉĻ ÅĭÉ¡ÉĻ
ĠÉĳËĲpÉļtËĪuËĲn ÉªÉ¾i
b Éªk
m ËĪÊĮÃ°Éļ
Ġs ËĪak
Ġt ËĪÊĮmbÉĻl
Ġk ËĪÉĶÉªn
ËĪÉĽs ÉªÅĭ
ÉĻm ËĪÃ¦É¾Éªk
ËĮÃ¦ s
ĠËĪÃ¦ lf
ĠÉĻl mÉĻst
ĠËĮÉªnt Éļn
bl ËĪuËĲ
ĠsËĪiËĲlÉªÅĭ z
fÉĻk ËĮÉªn
ĠsËĪÃ¦Åĭ kt
sËĪÉªkst iËĲn
ĠpÉ¹ËĪoÊĬÉ¡É¹ Ã¦m
Ġk ËĪaÊĬÉļ
Ġst ËĪÉªf
ÉĻt ËĮiËĲn
ĠËĪaÊĬt fÉªt
ĠtÉĻ Î¸
Ġv ËĪÉªk
Ġsw ËĪÉĽpt
ËĪÉĽnt iz
ËĪÉªm Éļ
ĠfËĪiËĲ st
ĠtÊĥËĪaÉªld hÊĬd
ĠÉªnv ËĪaÉªt
ĠÉ¡É¹ËĪÃ¦b ÉªÅĭ
ĠpËĪÃ¦É¹ ÉĻlËĮaÉªzd
ĠpÉ¹ËĪaÉªs lÉĻs
ĠÉĻsk ÉĻp
ĠbËĪÊĮmp ÉªÅĭ
ĠskËĪÉĽl áµ»t
ĠtËĪÉĶÉªl Éªt
Ġs ËĪÉĶl
ĠdÊĴ ËĮiËĲËĪÉĽs
ĠÉ¹ËĪiËĲ fÉļ
ĠÊĥÉĻ É£ËĪo
É¡É¹ ÉĽs
ĠÉ¹ËĪuËĲ Éªnd
ĠÉ¹ËĪeÉªz ÉªÅĭ
ĠpËĪÉĳËĲ si
ĠÉĲmËĪeÉªz Éªn
ĠpÉļs ËĪuËĲ
ĠlËĪÉĶËĲÉ¹ ÉĻnt
madÊĴ ËĮyn
p ËĪÉĳËĲÉ¹
Ġp ËĪÉĶËĲn
ËĮÊĮ nd
ĠÊĥ ËĪÉĳËĲÉ¹k
ĠtËĪuËĲ t
ĠÉªn ÉĻÉĻÉĻÉĻÉĻÉĻ
ĠtËĪiËĲ ËĪaÉª
ÉªÉ¡ ËĮoÊĬ
ĠÉ¹áµ»l ËĪiËĲst
ĠfËĪÉªÉ¹ lÉĻs
jÊĬ p
Ġdáµ»f ËĪÉĽnd
ĠskÉ¾ÉĻm ÉĻn
ĠvËĪÉĽn ÉĻm
ĠËĪÃ¦ndÊĴ ÉĻlÉªs
Ġb Ã¦k
ĠÉ Ķ
ĠÉª kw
ĠdÊĴ ËĪaÉªv
ĠÉ¡ËĪÉĳËĲ Êĥ
ĠfÉ¹ËĪÊĮnt ÉªÅĭ
ĠhËĪÃ¦f i
ĠbËĪÉªld ÉªÅĭz
ĠpÉ¹ËĪÉĳËĲ É¡É¹ÉĽs
ĠtÊĥËĪiËĲ É¾áµ»d
ĠmÉĻÊĥ ËĪiËĲnz
ĠdËĪÉĽst Éªnd
ĠÉªnf ËĪÉªnÉªÉ¾i
ĠlËĪÉĽv ÉĻlz
ĠdËĪÉĳËĲmÉªn ËĮoÊĬ
ĠtÊĥËĪÉªm ni
n ËĪaÉª
Ġp Ã¦
Ġp ËĪÃ¦m
ËĪÊĮk i
ĠmÉĻ stÉĻ
Ġkl ÉĻdz
Ġfl ËĪÉĳËĲk
Ġv ËĪÉĳËĲd
ÉĻv ÉĻz
ĠmËĪoËĲÉ¹ n
ĠdËĪÉĳËĲ dÉĻ
ÉªdÊĴ ÉĻn
ËĮÉĽmËĮÉĽm ËĪeÉªtÊĥ
ĠbËĪoÊĬ ts
ĠËĪÃ¦ftÉļ mËĮÃ¦Î¸
ĠmËĪÉĳËĲ d
ĠdËĮiËĲ ËĮÉĽm
ĠplÉĻs ÉĻz
ĠdÉ¾ÉĻnk ÉĻn
ĠsËĪaÉªk ÉĻl
ĠdÊĴËĮiËĲ ËĪÉĳËĲÉ¹É¹ËĪÉĳËĲ
ĠÊĮnt ËĪÊĮtÊĥ
ËĪeÉªnt áµ»d
Ġn ËĪÉĻnt
Ġp ËĪÃ¦kÉªn
ĠÉ¹ uËĲt
Ġst ËĪak
ËĪÉªs ÉªÉ¾i
Ġbáµ» kËĪÊĮmÉªÅĭ
áµ»n ËĮeÉªÉ¾áµ»d
ĠlËĪiËĲ Î¸ÉĻl
ĠtËĪÉľËĲ m
ĠËĮÉĽmËĮÉĽm ËĮÉĽmËĪÉĽm
ĠdÊĴÉĻl ÉĻz
ĠmËĮÉĳËĲÉ¹ dÊĴi
ĠpÉªk jËĪuËĲlÉªÉ¹
ĠpÉ¹Éªsk É¹
hËĮÃ¦l áµ»lËĪuËĲjÉĻ
d ËĪoÊĬ
p Éªn
Ġ ËĪÉĽÉ¹iÉĻ
ËĪaÉª ÉĻn
Ġd ËĪÊĮÅĭk
Ġd ËĪÊĮfÉĻl
Êĥ ËĪaÊĬt
ËĪuËĲ ÊĴÉĻnz
ĠÉ¹ ËĪÉªtÉªn
ĠËĪÊĮ ÊĥÉļ
ĠhËĪoÊĬm bÉĶÉª
ĠÉĻn ËĪo
Éªst Éļ
Ġdáµ» kËĪeÉª
Ġtw ÉĻs
ÉªÉ¡ ËĪeÉªÊĥÉĻn
ĠËĮÉĽ vÉĻlËĪuËĲÊĥÉĻn
ËĮÉĽs ËĮeÉªtÊĥËĪeÉªtÊĥ
ĠspËĪiËĲd Éªn
ĠÉ¡ËĪÉªl t
ĠkËĪÉľËĲv z
ĠsÊĮ bl
ĠpÉ¹ÉĻf ËĪÉĽÊĥÉĻn
ÉĻbËĪÉªl ÉªÉ¾i
d ËĪÉĽd
p É¾ÉĻz
ĠtËĪaÉª Éļ
ĠÉĲl ËĪÉľËĲt
sl ËĪÃ¦t
ĠkËĪÃ¦p t
ĠmÉªstËĪeÉªk ÉĻn
ĠfiËĲ ËĪÉĽstÉĻ
f ËĪÃ¦kts
Êĥ ÉĻp
ĠÉ¹ ËĪÉĽvÉļ
ĠdÉ¹ ËĪÉªvÉĻn
Ġbl ËĪÉľËĲ
ĠËĪÃ¦ lÉĻ
ĠÉĻt ÉĻntËĪyÉĻn
Ġsp ËĪoËĲÉ¹t
Ġsl ËĪat
ËĪÉĳËĲm pl
ĠkËĪÉĳËĲÉ¹ di
ĠÉĻm b
ĠÉ¡É¹ËĪeÉªt nÉĻs
ĠtÉ¹ËĪÉªp i
ĠpËĪÃ¦k ÉªÅĭ
ĠmËĪÉĽl ÉĻdiz
ĠdÉ¹ËĪaÊĬn Éªn
ĠsÉĻks ËĪiËĲd
ĠÉªÉ¡n ËĪoËĲÉ¹d
ĠËĪÉĳËĲks ÉªdÊĴÉĻn
Ġb ËĪÊĮni
ĠÉ¡ ËĪÃ¦n
Ġf ËĪÉĽbÉ¹
Ġst ÉĻdÊĴÉĻ
ĠÊĮ ptËĪaÉªt
Ġsl ËĪÊĮt
Ġsl ËĪÊĮÉ¡z
ĠdÉĻ É¡z
ĠtÉĻn z
ĠdËĪÉĳËĲ Åĭ
ĠdËĮiËĲ sËĪiËĲ
ĠstËĪÊĮnt ÉªÅĭ
ĠËĪÉªÅĭ É¡lÉĻnd
ĠkËĪuËĲ tÊĥi
ĠÉ¡ËĪÃ¦m bÉĻl
Ã¦nt ËĪÉĳËĲnÉĻ
Ġl ËĪÉĳËĲl
ĠÉĻ ndz
Ġf É¾ÉĻz
ĠËĪÃ¦ É¾Éªk
ËĪÉĶËĲÉ¹ ÉªÉ¾i
ĠtËĪÊĮtÊĥ daÊĬn
ĠfËĪÉĳËĲÉ¹ Ã°Éļ
ĠflËĪoÊĬ Éªn
ĠÉĲd mËĪaÉª
sÉĻl ËĪeÉªÊĥÉĻn
ĠhËĪÉĶËĲl weÉª
ĠlËĪoÊĬk ÉĻ
ĠËĪy madÊĴËĮyn
pËĮiËĲ s
ĠÉ¹ËĪÉªs Éªn
b ËĪiËĲp
w o
ËĪiËĲ É¾oÊĬ
Ġp ËĪÊĮz
Ġbl ËĪÊĮÊĥ
Ġkl ËĪiËĲv
Ġsk ËĪÃ¦m
Ġsk ËĪaÉªl
ĠÉ¡É¹ ËĪiËĲt
Ġv ÉĻn
ĠbËĪÉĳËĲ Åĭ
ĠËĪÉĽm ËĪaÉª
ĠÉ¡ÉĻd ËĪam
ĠtÉ¾ÉĻ pÉĻn
ĠdÉªz ËĪaÉªÉļz
ĠspÉ¹ ËĪÊĮÅĭ
Ġmj ËĪÊĬlÉĻ
ĠÉ¡ÉĻlf É¾ÉĻnd
ĠvaÉª ÉĻl
s Éªn
ËĪ ÉĻÉĻ
Ġt ËĪÊĮ
Ġsp ËĪÃ¦z
ËĮaÉª k
ĠfËĪeÉªs d
ĠlËĪuËĲz Éļz
ĠÉĽks kl
ĠÎ¸ËĪaÊĬzÉĻnd z
ĠËĮÃ¦ lÉĻb
ĠsÉļvËĪaÉªv d
ĠtwËĪÉªst ÉªÅĭ
loÊĬ d
nÉªv ËĪÉľËĲs
l ËĪiËĲn
s ÉĻt
w ËĪaÉªl
ËĪeÉª É¾oÊĬ
Ġh ÉĻÅĭÉ¡
ĠkÉ¹ ËĪÃ¦p
dÊĴ ËĪiËĲzÉĻs
ĠÉ¡É¹ ËĪiËĲs
ĠÉĽ Åĭk
bÉļ n
ĠpËĪeÉªn z
ĠwËĪÊĮndÉļ d
ĠËĪÉĳËĲn laÉªn
ĠaÉªd ËĪÉĽnt
pÉļÉ¹ ËĮÉĽÉ¹i
ĠsnËĪÉªtÊĥ Éªn
áµ»b li
p ËĪoÊĬz
s ËĪÉĽks
Ġh ËĪÉĶ
ĠÉĻ Ã°ËĪo
ĠdÊĴ ËĮiËĲËĮÉĳËĲÉ¹É¹
Ġpl ËĪiËĲ
ÉļÉ¹ ËĪÉĳËĲdoÊĬ
Ġfl ÉĻm
Ġfl ÉĻz
ĠÎ¸É¹ ËĪÉªlz
ĠnËĪuËĲ s
ĠhËĪaÉª k
ĠnËĪÉĳËĲ ks
ĠkËĪoÊĬ p
wËĪÊĮn s
ĠÉ¹ËĪÉª b
ĠdÊĴËĪÃ¦k i
!! !!
ĠfËĪoËĲÉ¹s áµ»z
ĠbÉĻf É¾ÉĻnd
É¡ÊĬd bËĪaÉª
ĠsËĮÉªlÊĬ wËĪÉĽt
ĠvËĪÉĳËĲd kÉĻ
" ?
Ġh ËĪÉĶÅĭki
ÊĴ i
ÉĲ wËĪeÉª
Ġbl ËĪÊĮdz
ĠtÉĻn ÉĻÅĭ
ĠpËĪÉĳËĲp jÊĬlÉļ
É¾ÉĻd ÉĻs
ĠÉªl ËĪiËĲÉ¡ÉĻl
ĠÊĮÅĭk ËĪaÉªnd
bÃ¦ É¡
ĠfËĪa ÊĥÉĻn
ĠblËĪÃ¦Åĭk Éªt
ĠdËĪÉĽv ÉĻlz
Ġw ËĪÉªÅĭk
ĠËĪaÉª É¹
ĠÉĻ ndÊĴÉĻz
Éªn v
Ġp ËĪÉĳËĲs
Ġp ÉĻnts
Ġp ËĮÉĳËĲlÉªt
ÉĻt ËĮÉĽÉ¹i
ĠwÉĻ f
Ġkl ËĪeÉª
ĠfÉ¹ËĪÉĽnd ÊĥÉªp
ĠjÉĻst ÉĻdÉĻ
a z
p ËĪaÊĬ
É¹ ÉĻf
Ġk ËĪÉĽv
Ġp ËĪiÉĻÉ¹ÉªÉĻd
ËĪÃ¦t s
ĠËĪÉªn fÉªn
ĠdÊĴ ÉĻnt
tÊĥ ËĪiËĲ
ËĪoËĲÉ¹ iÉĻs
ĠlËĪÉª É¾ÉļÉ¹
ĠhËĪÃ¦nd áµ»d
tËĪÉªl dÉĻ
lÉĻ fÉĻn
ĠdÊĴËĪuËĲ si
ĠpËĪÊĮmp ÉªÅĭ
lËĪÊĬk ÉªÅĭ
hËĪÉĽl p
Ġdáµ»sp ËĪaÉªt
ĠÉ¹ËĪeÉªl É¹oÊĬd
Ġn ËĪÃ¦Êĥ
