{"version":"1.0","truncation":null,"padding":null,"added_tokens":[{"id":0,"special":true,"content":"<s>","single_word":false,"lstrip":false,"rstrip":false,"normalized":false},{"id":1,"special":true,"content":"<pad>","single_word":false,"lstrip":false,"rstrip":false,"normalized":false},{"id":2,"special":true,"content":"</s>","single_word":false,"lstrip":false,"rstrip":false,"normalized":false},{"id":3,"special":true,"content":"<unk>","single_word":false,"lstrip":false,"rstrip":false,"normalized":false},{"id":4,"special":true,"content":"<mask>","single_word":false,"lstrip":true,"rstrip":false,"normalized":false},{"id":5,"special":true,"content":"<genre>","single_word":false,"lstrip":false,"rstrip":false,"normalized":false},{"id":6,"special":true,"content":"<artist>","single_word":false,"lstrip":false,"rstrip":false,"normalized":false},{"id":7,"special":true,"content":"<title>","single_word":false,"lstrip":false,"rstrip":false,"normalized":false},{"id":8,"special":true,"content":"<emotions>","single_word":false,"lstrip":false,"rstrip":false,"normalized":false},{"id":9,"special":true,"content":"<topics>","single_word":false,"lstrip":false,"rstrip":false,"normalized":false},{"id":10,"special":true,"content":"<lyrics>","single_word":false,"lstrip":false,"rstrip":false,"normalized":false},{"id":11,"special":true,"content":"<lang>","single_word":false,"lstrip":false,"rstrip":false,"normalized":false},{"id":12,"special":true,"content":"</lyrics>","single_word":false,"lstrip":false,"rstrip":false,"normalized":false},{"id":13,"special":true,"content":"<chorus>","single_word":false,"lstrip":false,"rstrip":false,"normalized":false},{"id":14,"special":true,"content":"<block_end>","single_word":false,"lstrip":false,"rstrip":false,"normalized":false},{"id":15,"special":true,"content":"<sentence_end>","single_word":false,"lstrip":false,"rstrip":false,"normalized":false},{"id":16,"special":true,"content":"<continue>","single_word":false,"lstrip":false,"rstrip":false,"normalized":false},{"id":17,"special":true,"content":"<generated>","single_word":false,"lstrip":false,"rstrip":false,"normalized":false},{"id":18,"special":true,"content":"<num_syllables>","single_word":false,"lstrip":false,"rstrip":false,"normalized":false}],"normalizer":null,"pre_tokenizer":{"type":"ByteLevel","add_prefix_space":false,"trim_offsets":true},"post_processor":{"type":"RobertaProcessing","sep":["</s>",2],"cls":["<s>",0],"trim_offsets":true,"add_prefix_space":false},"decoder":{"type":"ByteLevel","add_prefix_space":true,"trim_offsets":true},"model":{"type":"BPE","dropout":null,"unk_token":null,"continuing_subword_prefix":"","end_of_word_suffix":"","fuse_unk":false,"vocab":{"<s>":0,"<pad>":1,"</s>":2,"<unk>":3,"<mask>":4,"<genre>":5,"<artist>":6,"<title>":7,"<emotions>":8,"<topics>":9,"<lyrics>":10,"<lang>":11,"</lyrics>":12,"<chorus>":13,"<block_end>":14,"<sentence_end>":15,"<continue>":16,"<generated>":17,"<num_syllables>":18,"!":19,"\"":20,"'":21,"(":22,")":23,",":24,"-":25,":":26,";":27,"?":28,"[":29,"]":30,"a":31,"b":32,"d":33,"e":34,"f":35,"g":36,"h":37,"i":38,"j":39,"k":40,"l":41,"m":42,"n":43,"o":44,"p":45,"r":46,"s":47,"t":48,"u":49,"v":50,"w":51,"x":52,"y":53,"z":54,"{":55,"}":56,"¡":57,"£":58,"¦":59,"©":60,"ª":61,"«":62,"¬":63,"°":64,"²":65,"µ":66,"¸":67,"¹":68,"»":69,"¾":70,"¿":71,"Â":72,"Ã":73,"Å":74,"É":75,"Ê":76,"Ë":77,"Ì":78,"Î":79,"á":80,"â":81,"Ċ":82,"Ġ":83,"Ģ":84,"ĥ":85,"Ī":86,"Ĭ":87,"ĭ":88,"Į":89,"Ĳ":90,"ĳ":91,"Ĵ":92,"Ķ":93,"ķ":94,"Ļ":95,"ļ":96,"Ľ":97,"ľ":98,"Ŀ":99,"ËĪ":100,"ÉĻ":101,"Éª":102,"ËĲ":103,"ÉĻÉĻ":104,"ËĪÉ":105,"ËĪa":106,"É¹":107,"ËĪaÉª":108,"ÊĬ":109,"iËĲ":110,"ËĪÉĽ":111,"ĠÃ":112,"ÊĮ":113,"uËĲ":114,"ĠËĪ":115,"eÉª":116,"ËĪiËĲ":117,"ËĮ":118,"ĠÉĻÉĻ":119,"Ġw":120,"ĠÃ°":121,"Ġm":122,"oÊĬ":123,"Ġj":124,"ËĪÉª":125,"Ã¦":126,"Ġs":127,"Ġb":128,"ĳËĲ":129,"Ġt":130,"ĠÉ":131,"ĠËĪaÉª":132,"ËĪÃ¦":133,"ËĪÊĮ":134,"ËĪÉĳËĲ":135,"ËĪeÉª":136,"Ġd":137,"ËĪoÊĬ":138,"ËĪÉĶ":139,"Ġl":140,"Ġh":141,"Ġn":142,"nd":143,"ĠÉĻ":144,"Ġk":145,"ĠÃ°ÉĻ":146,"Åĭ":147,"ĠÉ¡":148,"Ġf":149,"ĠjuËĲ":150,"Êĥ":151,"ĠÉª":152,"ĠÉĻÉĻÉĻÉĻ":153,"Éļ":154,"ÉĻn":155,"Éªn":156,"ËĪuËĲ":157,"ĠÃ¦":158,"ËĪaÊĬ":159,"ĠËĪeÉª":160,"ËĪÉĶËĲ":161,"ÉªÅĭ":162,"ËĮÉĻ":163,"Ġp":164,"ĠÉĻÉĻÉĻ":165,"st":166,"ĠÉªt":167,"É¾":168,"ĠÉ¹":169,"ĠÃ¦nd":170,"ĠtuËĲ":171,"'t":172,"ĠmËĪaÉª":173,"ËĪÉĻ":174,"ĠmËĪiËĲ":175,"Ġ(":176,"ÉĻl":177,"ËĪÉĶn":178,"ľËĲ":179,"Î¸":180,"ËĪÉĽs":181,"ÊĴ":182,"ĠÉĻËĮÉĻ":183,"ËĮÊĮ":184,"ËĮÉ":185,"ËĪÉĽm":186,"É¡":187,"ËĲÉ¹":188,"ÉĻÉĻÉĻ":189,"ĠÊĥ":190,"ËĪÃ¦t":191,"ĠËĪÉĻ":192,"ĠnËĪoÊĬ":193,"ËĪÊĬ":194,"ËĮÉĽ":195,"ĠËĪÉªn":196,"ËĪÉľËĲ":197,"Ã°":198,"ĠlËĪaÉª":199,"ËĪÉĶËĲl":200,"ĠÃ°ËĪÃ¦t":201,"ËĪÉĽl":202,"µ»":203,"áµ»":204,"ËĪÃ¦n":205,"ËĪÊĮn":206,"Ġst":207,"ËĮÊĮt":208,"ËĪÉĳËĲt":209,"ËĪÉĽt":210,"ĠËĪÉĶn":211,"ĠdÊĴ":212,"ËĪÉĳËĲÉ¹":213,"ĠËĪoÊĬ":214,"ËĪÉĳËĲn":215,"ËĪÉĽv":216,"ĠÊĮ":217,"tÊĥ":218,"ĠËĪÊĮ":219,"ÊĬÉ¹":220,"ĠwiËĲ":221,"ĠÎ¸":222,"ĠjÊĬÉ¹":223,"ĠÉĲ":224,"ĠËĪÉĶËĲl":225,"ËĪeÉªk":226,"ËĪÉĽÉ¹":227,"ĠÊĮv":228,"ĶËĲÉ¹":229,"ĠbËĪiËĲ":230,"ËĪÊĮm":231,"ĠÉĻÉĻÉĻÉĻÉĻ":232,"ËĪÉªl":233,"ÉĻm":234,"ËĪo":235,"ËĪÉªs":236,"ĠlËĪaÉªk":237,"ËĪÉĽn":238,"ËĪÊĮv":239,"ĠdËĪÉĳËĲn":240,"ËĪaÊĬt":241,"ÉªÃ°":242,"ËĪaÉªt":243,"ĠwÉªÃ°":244,"ËĪÉĽh":245,"ĠËĪÊĮp":246,"ĠkËĪÃ¦n":247,"ËĪÉªÅĭ":248,"ĠlËĪÊĮv":249,"ÉĻs":250,"ÉĶËĲÉ¹":251,"ËĪÊĮst":252,"ĠjÉĻ":253,"ĠfÉĶËĲÉ¹":254,"ÉĻt":255,"ĠsËĪoÊĬ":256,"ĠÉªz":257,"Ġ'":258,"ËĪoËĲÉ¹":259,"ËĪÊĬd":260,"ĠwËĪÉĶn":261,"ËĮiËĲ":262,"ËĪÃ¦k":263,"ĠbËĮÊĮt":264,"ld":265,"ĠÉ¡ËĪÉĳËĲt":266,"ÉĻd":267,"ĠjËĪÉĽh":268,"ĠÉĻÉĻÉĻÉĻÉĻÉĻ":269,"ĠdÊĴËĪÊĮst":270,"ËĪÉªÉ¡":271,"ËĮÉĽn":272,"ĠÉ¡ËĪoÊĬ":273,"ĠtÉ¹":274,"ÉĻk":275,"ĠÃ°ËĪÉªs":276,"ĠËĪÉĻÉĻÉĻ":277,"ĠdËĪuËĲ":278,"ĠhËĪÃ¦":279,"ËĪÉĽd":280,"ËĪÉªÉ¹":281,"ÉĻz":282,"ĠÉ¡ËĪÉĽt":283,"ĠwËĪÊĮn":284,"ĠwËĮÊĮt":285,"ĠfÉ¹":286,"ËĪÉĽvÉļ":287,"ĠsËĪiËĲ":288,"ËĪaÊĬn":289,"ĠÉĻËĪ":290,"ĠwËĮÉĽn":291,"É¹ËĮiËĲ":292,"ËĪeÉªb":293,"ĠtÊĥ":294,"ĠsËĪeÉª":295,"ĠÃ°eÉª":296,"ĠhËĪoÊĬ":297,"ËĪÉªt":298,"li":299,"ĠnËĪaÊĬ":300,"ĠÊĥiËĲ":301,"ĠbÉ¹":302,"ĠwËĪeÉª":303,"ĠËĪaÊĬt":304,"ĠnËĪÉªÉ¡":305,"ËĪiËĲl":306,"ĠÉĻËĪÉĻÉĻÉĻ":307,"ĠtËĪaÉª":308,"ËĮÉĽl":309,"ËĪiËĲp":310,"ĠÉªf":311,"ËĮÉĽlËĪÉĽl":312,"ks":313,"ĠbËĪeÉªb":314,"ËĮÃ¦":315,"ËĪÊĮk":316,"ÉĲ":317,"Ġpl":318,"É¾ÉĻ":319,"ËĪÉĳËĲp":320,"ĠdÉ¹":321,"ÉľËĲ":322,"ËĪaÉªd":323,"ËĪiËĲd":324,"Ġbl":325,"ĠÎ¸ËĪÉªÅĭ":326,"ĠlËĪÉĽt":327,"ĠdËĪaÊĬn":328,"ĠbËĪeÉªbi":329,"ĠkËĪÊĮm":330,"ĠnÉĻ":331,"ĠËĪÃ¦":332,"ĠwËĪÉĶnt":333,"É¾i":334,"ĠwÊĮ":335,"ĠtËĪaÉªm":336,"Ġa":337,"ĠkÉ¹":338,"Ìĥ":339,"ĠËĪeÉªn":340,"ĠfËĪiËĲl":341,"ËĪÉĽvÉ¹":342,"ËĮÉªn":343,"ĠÉĻÉĻËĪÉĻ":344,"di":345,"ĳËĲÉ¹":346,"ĠtÉĻ":347,"ĠËĪÉĽvÉ¹":348,"ÉĻnt":349,"É¾Éļ":350,"ËĪiËĲz":351,"ĠÉĻËĪÉĻ":352,"ËĪÉĶËĲÉ¹":353,"ĠmËĪeÉªk":354,"ĠmÉĻ":355,"ËĪÉĶËĲz":356,"aÉª":357,"ĠwÊĮz":358,"ĠÉĻt":359,"Ã°Éļ":360,"ËĪÉªtÊĥ":361,"ĠÉĻÉĻËĮÉĻ":362,"ĠwËĪaÉª":363,"ĠpÉ¹":364,"ËĪaÊĬnd":365,"ĠwÉĻ":366,"ÉĻÉĻÉĻÉĻ":367,"ËĪÉªv":368,"ĠbËĪÃ¦k":369,"ËĪÉªk":370,"ĠnËĪÉĽvÉļ":371,"ËĪÉĶÅĭ":372,"ËĪÊĬk":373,"ËĪÉĳËĲÉ¹t":374,"ĠwËĪÉľËĲ":375,"dÊĴ":376,"Ê°":377,"ËĮÉĽm":378,"ĠtËĪeÉªk":379,"ÉĻÅĭ":380,"vËĪiËĲ":381,"ĠtËĪuËĲ":382,"ËĪeÉªn":383,"ÉļÉ¹":384,"ÊĥÉĻn":385,"ĠËĪÉĻn":386,"ËĮÉĻn":387,"ËĪeÉªm":388,"ĠsËĪÊĮm":389,"Ġkl":390,"ĠnËĪÉĳËĲt":391,"ÊĮm":392,"ĠhËĪÉªÉ¹":393,"ËĪÉĽnd":394,"ĠÃ°ËĪÉĽÉ¹":395,"ĠwËĪÉĶnÉĻ":396,"ts":397,"ĠhËĪaÊĬ":398,"ĠfËĪÊĮk":399,"Ġsp":400,"Ġfl":401,"ĠÃ¦t":402,"ĠhÉľËĲ":403,"ĠpËĪÊĬ":404,"Éªk":405,"ËĪÉªn":406,"ĠmËĪÉĻ":407,"ĠhiËĲ":408,"ĠÉĻtÊ°":409,"ĠfÉ¹ÊĮm":410,"Ġsk":411,"ĠÎ¸É¹":412,"ËĪÉľËĲl":413,"ËĪeÉªs":414,"ĠnËĪiËĲd":415,"ËĪÉĽk":416,"ĠÉ¾":417,"Ġbáµ»":418,"ĠÉĳËĲÉ¹":419,"ËĪÉªp":420,"áµ»d":421,"ĠhËĪÃ¦v":422,"ËĪÉĻt":423,"ĠÉ¡ËĪÉľËĲl":424,"ĠfËĪaÉª":425,"ĠÉ¡É¹":426,"ĠËĪiËĲ":427,"ËĪÉªd":428,"ĠnËĪÉªÉ¡ÉĻ":429,"ËĪoÊĬn":430,"ĠÉ¹ËĪaÉªt":431,"ĠbËĪÉªtÊĥ":432,"Ġand":433,"Ġv":434,"ĠtËĪÉĽl":435,"ĠbËĪÃ¦":436,"ĠdËĪeÉª":437,"ËĪÉĶËĲk":438,"ËĪÉĳËĲk":439,"bËĪaÊĬt":440,"ĠÉĻÉĻÉĻÉĻÉĻÉĻÉĻ":441,"kËĪÉĶËĲz":442,"ËĪi":443,"ËĪÉĶÉª":444,"ĠlËĪÊĬk":445,"ËĪiËĲv":446,"ÉĽ":447,"ËĪuËĲz":448,"ĠÉ¡ËĪÉĳËĲ":449,"ËĮÉª":450,"ËĪeÉªd":451,"ÉĻv":452,"Éļz":453,"Éªt":454,"ĠwËĪÉªl":455,"ft":456,"ĠstÉ¹":457,"áµ»z":458,"ĠbËĮÉªn":459,"ĠkËĪÊĬd":460,"ĠÉªn":461,"ÉĻnd":462,"Ġsl":463,"ËĪÉľËĲn":464,"ËĪiËĲn":465,"ËĪÉĳËĲm":466,"ĠÎ¸ËĪÉªÅĭk":467,"ĠÊĥËĪÉªt":468,"ĠËĪÉĽvÉ¹Éª":469,"ĠlËĪaÉªf":470,"ĠËĮÊĮ":471,"ĠmËĪÃ¦n":472,"ĠhËĪeÉª":473,"É¾ÉĻl":474,"ĠÉ¹áµ»":475,"ĠËĪoÊĬn":476,"ĠkËĪiËĲp":477,"ĠwËĪÉĽÉ¹":478,"ĠÉ¡ËĪÉªv":479,"ËĪÃ¦nd":480,"ËĮÉĻnÉĻ":481,"Ġ\"":482,"É¾ÉªÅĭ":483,"ĠÉ¡ËĮÉĻnÉĻ":484,"ÉĻp":485,"ĠnËĪaÉªt":486,"ËĪat":487,"Î¸ÉªÅĭ":488,"ĠnËĪÉªÉ¡ÉĻz":489,"ËĪÃ¦st":490,"ËĮeÉª":491,"Ġsw":492,"ÉĳËĲ":493,"ËĪÉĽst":494,"ĠÃ¦z":495,"ĠhËĪÉĳËĲÉ¹t":496,"ĠbËĪaÉª":497,"vÉļ":498,"ĠÉĻv":499,"ĠhËĪuËĲ":500,"ËĮoÊĬ":501,"ĠËĪuËĲ":502,"ËĮÊĮm":503,"ĠÉĲw":504,"ndÊĴ":505,"ËĪiËĲm":506,"ĠsËĮÊĮm":507,"ËĪÊĮni":508,"ĠmËĪÊĮ":509,"ËĪÉĽnt":510,"ËĮa":511,"ĠÃ°ËĮÉĽm":512,"ĠmËĪoËĲÉ¹":513,"ËĪÉĶf":514,"ĠÉ¹ËĪoÊĬ":515,"ĠÃ°ËĪÉĽn":516,"ĠlËĪÉª":517,"sk":518,"ĠÉĲbËĪaÊĬt":519,"ÉĻst":520,"ËĪÉªz":521,"ĠÃ°ËĪat":522,"É¹ËĪaÊĬnd":523,"ËĪoÊĬk":524,"ËĪiËĲt":525,"ĠËĪÉĶf":526,"ĠÉĲwËĪeÉª":527,"ĠÉ¡ËĪÊĬd":528,"ËĪÃ¦m":529,"ÉĻli":530,"ĠÉ¹ËĪÊĮn":531,"ĠbÉĻ":532,"ĠkËĪÉĶËĲl":533,"Ġsm":534,"ËĪÃ¦p":535,"Î²":536,"ËĪeÉªt":537,"ĠÎ¸É¹ËĪuËĲ":538,"ËĪÊĮÅĭ":539,"ĠnËĪuËĲ":540,"ĠhËĮÃ¦":541,"ĠÉ¡ËĪÉĻt":542,"ĠÉ¹ËĪiËĲ":543,"jËĪuËĲ":544,"ĠwËĪÊĬd":545,"ĠÃ°ËĪiËĲz":546,"ËĪoÊĬld":547,"ĠÉĻl":548,"ĠstËĪÉªl":549,"ĠsËĪÉĽd":550,"ĠlÉĻk":551,"ĠÉļ":552,"ĠnËĪÊĮ":553,"ĠËĪoÊĬnli":554,"ËĪan":555,"ĠhÉĻ":556,"ĠÉĲÉ¡":557,"ĠÉĶËĲÉ¹":558,"ĠbËĪÉĳËĲ":559,"ËĮÉĻt":560,"ĠhËĮÃ¦d":561,"ËĪaÉªn":562,"ĠÉĲl":563,"ĠtÉ¹ËĪaÉª":564,"ĠdËĪÉªd":565,"'d":566,"ĠhËĪoÊĬm":567,"ndÉļ":568,"ĠmËĪuËĲ":569,"ËĪÃ¦ns":570,"ËĪÃ¦Åĭ":571,"jËĪÉĽh":572,"ĠwËĪÉľËĲld":573,"ËĮÉĳËĲ":574,"ĠÉļÉ¹ËĪaÊĬnd":575,"Éªs":576,"ĠËĪÉĽvÉ¹i":577,"ĠËĪoÊĬvÉļ":578,"ĠdËĪaÉª":579,"ĠËĮÊĮs":580,"ĠbËĪÉĽ":581,"weÉª":582,"ËĪÉĳËĲÉ¹d":583,"ĠpËĪÊĬt":584,"ĠmËĪÊĮni":585,"ĠÉĲÉ¡ËĪÉĽn":586,"ĠlËĪÉªÉ¾ÉĻl":587,"',":588,"É¹i":589,"ËĮÉªÅĭ":590,"ËĪÉĳËĲl":591,"ĠtËĪÉĶËĲk":592,"Î¸ËĮÉªÅĭ":593,"ĠÉ¡ËĪÉĳËĲÉ¾ÉĻ":594,"ÉĻvÉĻ":595,"ËĪaÉªnd":596,"ĠbËĪÉĶÉª":597,"ĠdÉĻ":598,"ËĪÉªst":599,"ËĪeÉªz":600,"É£":601,"ĠÉĻn":602,"ĠdÉĻn":603,"ĠÃ°ËĪÉĻ":604,"ÊĬÉļ":605,"vÉĻn":606,"ĠmËĪaÉªnd":607,"bÉĻl":608,"ĠhËĪoÊĬld":609,"ĠhËĪÃ¦nd":610,"ĠtÉĻn":611,"ĠlËĪÉĶÅĭ":612,"ËĪÉĶËĲt":613,"ĠmËĪÃ¦":614,"ĠÉ¹ËĪiËĲÉĻl":615,"ËĮaÉª":616,"ĠËĮa":617,"ĠwËĪÉª":618,"ĠhËĪaÉª":619,"ĠËĮaÊĬÉļ":620,"ËĪoÊĬz":621,"ËĪÉĽlf":622,"ËĪiÉĻli":623,"ĠbËĪÉĽÉ¾Éļ":624,"ËĪeÉªndÊĴ":625,"ĠwËĪÉĽl":626,"ĠlËĪiËĲv":627,"ĠplËĪeÉª":628,"ĠÉĻÉĻÉĻÉĻÉĻÉĻÉĻÉĻ":629,"ĠÉ¹ËĪiÉĻli":630,"ĠËĪÉĽvÉļ":631,"Éªst":632,"ĠfÉĻ":633,"ĠjÉĲ":634,"ĠstËĪeÉª":635,"ËĪiËĲk":636,"fËĪoËĲÉ¹":637,"ËĪuËĲl":638,"mz":639,"weÉªz":640,"ĠkËĪÊĮ":641,"ÉĻns":642,"ËĪaÉªv":643,"ĠfËĪÉĶËĲl":644,"ĠhËĪÉªz":645,"ĠhËĪÉĽd":646,"Éªd":647,"bÉĳËĲ":648,"ĠÃ¦m":649,"ÉĲn":650,"ĶËĲ":651,"ĠstËĪÉĳËĲp":652,"ĠËĪÉĶËĲlweÉªz":653,"ĠtËĪÉľËĲn":654,"ĠËĪÉĽn":655,"ĠlËĮÃ¦":656,"ĠlËĪÉĽ":657,"ĠwÉĻn":658,"ĠhËĪÉĽl":659,"bÉĳËĲdi":660,"Ġbáµ»l":661,"ĠÉĽ":662,"ĠÉ¡ËĪÉĳËĲn":663,"ĠËĪiËĲvÉĻn":664,"ĠÊĮn":665,"ËĪÊĮÃ°Éļ":666,"Ġkw":667,"ĠhËĪÉĳËĲÉ¹d":668,"ĠmËĪuËĲv":669,"ËĪÃ¦s":670,"ĠnËĪÊĮÎ¸ÉªÅĭ":671,"sËĪÉĽlf":672,"ĠsÉĻ":673,"dz":674,"ĠbËĪÉĻ":675,"ĠhËĪÉľËĲ":676,"ĠËĪÉĳËĲ":677,"ĠËĮÉªn":678,"ĠdÉ¹ËĪiËĲm":679,"ĠfËĪaÉªnd":680,"ËĮÉªm":681,"áµ»n":682,"ĠnËĪÉĳËĲ":683,"ĠËĪaÉªz":684,"ĠÃ¦n":685,"bÉļ":686,"ĠÊĥËĪoÊĬ":687,"ĠsËĪÉª":688,"ĠÉ¡ËĪÉĽ":689,"ËĪÊĮf":690,"ĠsËĪÉĻ":691,"ĠwËĪÉĶËĲk":692,"ĠkËĪÉĶËĲz":693,"ĠhËĮÉªm":694,"juËĲ":695,"ĠËĪÉĽvÉ¹ÉªÎ¸ËĮÉªÅĭ":696,"ĠËĪÉĻp":697,"ĠbËĪÃ¦d":698,"kt":699,"'m":700,"ĠÃ°ÉĲn":701,"ÉĽÉ¹":702,"ĠkÉĻm":703,"ĠlËĪaÉªv":704,"ËĪÉĶËĲÉ¹n":705,"tËĪÉªl":706,"ĠwÉĻÃ°":707,"),":708,"ÉĻnz":709,"ĶËĲl":710,"ĠhËĪÉªt":711,"ĠÉĻz":712,"ĠmËĪeÉªd":713,"ĠËĮÉªnt":714,"ËĪÉĳËĲtÊĥ":715,"ĠwÉľËĲ":716,"ĠÊĥËĪÊĬd":717,"ËĪeÉªÊĥÉĻn":718,"ËĪÉĻn":719,"ĠsËĪÊĮn":720,"ĠÉ¡ËĪoÊĬÉªÅĭ":721,"ĠbËĪÉªÉ¡":722,"ĠbÉ¹ËĪeÉªk":723,"ËĪÃ¦Êĥ":724,"ĠfËĪeÉªs":725,"ĠÉªns":726,"ĠhËĪÊĮ":727,"ĠdËĪÃ¦ns":728,"ĠÎ¸ËĪÉªÅĭz":729,"ĠkËĪan":730,"ĠfÉ¹ËĪÉĽnd":731,"ĠmËĪÊĮtÊĥ":732,"ĠlÉĻt":733,"ĠtÉĻnËĪaÉªt":734,"Éļd":735,"ĠstËĪÉĳËĲÉ¹":736,"ĠsËĪÉªÅĭ":737,"ĠsËĪÊĮmÎ¸ÉªÅĭ":738,"ÉĻlz":739,"É¾áµ»d":740,"ĠÉ¡ËĪÉĳËĲd":741,"ĠÉ¡l":742,"ËĪÊĮtÊĥ":743,"Ġdáµ»":744,"ĠtÊĥËĪeÉªndÊĴ":745,"ËĪÊĮz":746,"ĠlÉĻvÉĻ":747,"ËĪeÉªv":748,"ĠÉ¡ËĪÉĶn":749,"ĠÉĻf":750,"fÉ¹":751,"ËĪoÊĬs":752,"ĠwËĪÉĳËĲtÊĥ":753,"ĠÉ¹ËĪÉĽd":754,"ÊĶ":755,"pÉĻn":756,"ËĪÉĽks":757,"ĠËĪa":758,"Ġtw":759,"ĠÉ¹ËĪoÊĬl":760,"Ġbáµ»lËĪiËĲv":761,"ĠËĮÉªntÊĬ":762,"ĠÊĥÉĻ":763,"ËĪy":764,"ÊĶn":765,"lÉĻ":766,"ĠlËĪaÉªt":767,"É¾ÉĻm":768,"ĠtÉ¹ËĪuËĲ":769,"Ġbáµ»fËĪoËĲÉ¹":770,"ĠwËĪoÊĬ":771,"ĠjÉĻh":772,"ĠnËĪeÉªm":773,"pt":774,"ĠpËĪiËĲp":775,"bËĮÉĳËĲ":776,"ĠwËĪÉĻ":777,"ËĪÉĳËĲÉ¹k":778,"ĠÉ¹áµ»m":779,"ĠkÉ¹ËĪaÉª":780,"!)":781,"bËĮÉĳËĲdi":782,"ËĪaÉªl":783,"ĠlËĪeÉª":784,"ÉĻld":785,"É¡z":786,"pl":787,"ĶËĲlÉ¹":788,"ĠfËĪiËĲlÉªÅĭ":789,"ĠËĪÉĽnd":790,"ËĪÉĶst":791,"ĠbËĮÉĻt":792,"ÉĻf":793,"ĠdÊĴÉĻst":794,"ËĪÉĳËĲb":795,"ĠsËĪeÉªm":796,"ĠÉ¹ËĪaÉªd":797,"ĠdËĪÉĳËĲ":798,"ËĪÊĬÉ¹":799,"ĠwËĪÉľËĲk":800,"ËĪÃ¦d":801,"ĠwËĪÊĮ":802,"ËĪÉªm":803,"ĠÉĲn":804,"ĠpËĪiËĲpÉĻl":805,"ĠËĪÉĽnÉª":806,"ĠËĪoÊĬld":807,"ĠÉ¹ËĪÉĳËĲk":808,"ËĪiËĲnÉĻ":809,"ĠkËĪÉªl":810,"ĠÉĶËĲlÉ¹":811,"ĠÉĲlËĪoÊĬn":812,"ĠjËĪÊĮÅĭ":813,"ĠdËĪÊĮn":814,"ĠfÉĻl":815,"ĠtËĪoÊĬld":816,"mÉĻn":817,"ĠÉĲnËĪÊĮÃ°Éļ":818,"ĠÃ°ËĪÉĻs":819,"ĠlËĪÉĽft":820,"ËĪuËĲm":821,"âĢ":822,"ĠbËĪÉĳËĲdi":823,"ËĪak":824,"Î²ÉĻ":825,"ĠwËĪeÉªt":826,"ĠstËĪÃ¦nd":827,"ĠlËĪÃ¦st":828,"ËĪaÉªz":829,"nÉĻs":830,"si":831,"Éªm":832,"ĠmËĪoÊĬ":833,"ĠmËĪiËĲn":834,"ĠjËĪoÊĬ":835,"ËĪÃ¦tÊĥ":836,"fÉĻl":837,"?)":838,"ĠtÉĻk":839,"ĠmËĪÉĳËĲm":840,"ËĪiËĲs":841,"ĠkËĪÉĽÉ¹":842,"ĠbÉªk":843,"ĠplËĪeÉªs":844,"ĠlËĪÉªv":845,"ĠmËĪÉĽn":846,"ĠtÉ¹ËĪiËĲnÉĻ":847,"ËĪÉªÉ¹z":848,"ĠsËĪuËĲ":849,"Ġ[":850,"ÉĻÉĻÉĻÉĻÉĻ":851,"kËĪeÉª":852,"ĠsËĪaÉªd":853,"ĠmËĪaÉªt":854,"ĠËĪÉĽl":855,"ĠfÉ¹ËĪiËĲ":856,"ĠËĪÃ¦s":857,"ĠÉªnsËĪaÉªd":858,"ËĪeÉªzi":859,"ËĮÉĳËĲÉ¹":860,"ËĪuËĲzd":861,"ËĪoÊĬl":862,"ĠpËĪeÉª":863,"ÉļÉ¡":864,"ĠsËĪÉĶÅĭ":865,"ndÉ¹":866,"ĠwËĮÉĻt":867,"ĠhËĪoÊĬl":868,"ĠmaÉª":869,"ĠbÉ¹ËĪÉªÅĭ":870,"ĠsËĪÊĮmw":871,"ĠwËĪÉªÊĥ":872,"ĠËĪÉĽvÉ¹ÉªbËĮÉĳËĲdi":873,"É£ËĪa":874,"ĠÉ¹ËĪÉĶÅĭ":875,"ËĪÉĽkst":876,"ĠmËĪaÉªn":877,"iz":878,"oËĲÉ¹":879,"ËĪÉľËĲst":880,"ËĪÉªÅĭk":881,"ĠhËĪÉĻ":882,"Éªz":883,"ËĪÉĽÉ¹i":884,"ĠmËĪÊĮÃ°Éļ":885,"ĠplËĪiËĲz":886,"ĠÉ¡ËĪeÉªm":887,"ĠËĪÊĮÃ°Éļ":888,"ĠnÉĻÉ£ËĪa":889,"ĠwÉªÃ°ËĪaÊĬt":890,"ËĮÉĻm":891,"ĠhËĪoÊĬp":892,"jÉĻ":893,"ĠkËĪeÉªm":894,"hËĪÊĮ":895,"ËĪÉĽvÉĻn":896,"ĠfÉļÉ¡":897,"ËĪÊĬl":898,"ËĪÉĽmbÉļ":899,"ĠhËĪa":900,"ĠËĪÉĽm":901,"ĠmËĪÉªs":902,"ĠbËĪÉªtÊĥáµ»z":903,"ËĪÉĽÃ°Éļ":904,"ĠpËĪÉĳËĲp":905,"ĠsËĪoÊĬl":906,"ĠmaÉªsËĪÉĽlf":907,"ĠËĮÉĽn":908,"É¡Éļ":909,"ĠflËĪaÉª":910,"ĠlËĪoÊĬ":911,"Ġsn":912,"ĠpËĪÊĬl":913,"ËĪÊĮmp":914,"ĠkÉ¹ËĪeÉªzi":915,"ĠblËĪÃ¦k":916,"ĠwËĪaÉªl":917,"ĠpËĪÉľËĲ":918,"ĠfËĪaÉªÉļ":919,"ĠlËĪÉĶst":920,"ĠÎ¸ËĪÉĶËĲt":921,"ËĪÊĮnt":922,"ĠpËĪeÉªn":923,"ËĪÉĳËĲs":924,"ĠwËĮÉĻn":925,"ËĮuËĲ":926,"ĠstËĪÉĳËĲÉ¹t":927,"ĠfËĪoËĲÉ¹":928,"ĠpËĪÉªk":929,"É¾ËĮÉĻ":930,"ĠËĪÉĳËĲÉ¹":931,"ĠlËĪuËĲz":932,"Î¸Éªn":933,"ĠkËĪÉĳËĲÉ¹":934,"ĠhÉĻt":935,"ĠmÉĻn":936,"ĠÉªnËĪÊĮf":937,"ĠjËĪuËĲzd":938,"ÊĮn":939,"ËĪÉªks":940,"ĠkËĪÊĮmÉªÅĭ":941,"pÉļ":942,"ĠnËĪoÊĬbÉĳËĲdi":943,"ĠbËĪÉľËĲn":944,"ĠhËĪÃ¦ndz":945,"ĠÉ¡ËĪÉĻ":946,"mÉĻnt":947,"ĠËĪÃ¦sk":948,"ĠklËĪoÊĬs":949,"ËĪÉĶËĲÉ¹d":950,"ĠslËĪiËĲp":951,"pÉ¹":952,"ĠËĪaÉªi":953,"ËĪaÊĬd":954,"ËĪÉĽkt":955,"ĠsËĪiËĲn":956,"ÉªdÊĴ":957,"ĠbÉ¹ËĪoÊĬk":958,"ĠËĮÊĮndÉļ":959,"ĠfËĪaÉªn":960,"ĠjËĪuËĲ":961,"ĠtËĪÊĮtÊĥ":962,"ĠfÉĻk":963,"ËĪÊĮb":964,"ĠbËĪÉĽst":965,"ËĪaÉªs":966,"ĠÉĻËĪÉĻÉĻÉĻÉĻ":967,"ĠmËĪeÉªb":968,"ĠfÉļÉ¹":969,"wÉĻ":970,"ĠhËĪÃ¦p":971,"lËĮÃ¦":972,"vÉĻ":973,"ĠfËĪÉľËĲst":974,"ĠÉ¹ËĪeÉªn":975,"ĠdËĪÃ¦m":976,"kÉ¹":977,"ĠlËĪÊĬkÉªÅĭ":978,"ĠdËĪÉªdÉĻn":979,"ĠÉ¹ËĪÃ¦p":980,"ĠÉ¹áµ»mËĪÉĽmbÉļ":981,"tÊĥÉļ":982,"ĠÉ¡ËĪÉĽÉ¾ÉªÅĭ":983,"ËĪaÊĬnt":984,"ËĪeÉªl":985,"ĠÉªm":986,"ĠdÉ¹ËĪÉĳËĲp":987,"ĠfÉļÉ¹ËĪÉĽvÉļ":988,"ËĪÊĮÉ¡":989,"ĠÎ¸É¹ËĪoÊĬ":990,"ĠsËĪÉľËĲ":991,"ĠsËĪÉªn":992,"ĠbÉªkËĪÊĮz":993,"ĠkËĪÉªs":994,"ĠÊĥÉĻt":995,"ĠpËĪÉĳËĲÉ¹":996,"ËĮÊĮk":997,"ËĪÃ¦Åĭk":998,"ĠdËĪeÉªz":999,"ĠkËĪÉĳËĲm":1000,"ĠtËĪÉĳËĲp":1001,"Ġ-":1002,"fËĮÊĮk":1003,"ĠkÉĻl":1004,"ĠmËĪeÉªbiËĲ":1005,"ËĪÊĮbÉĻl":1006,"ËĪÃ¦l":1007,"ftÉļ":1008,"ĠskÉ¹":1009,"ËĪÊĮd":1010,"ĠdËĪoËĲÉ¹":1011,"ĠfËĪÉĳËĲÉ¹":1012,"nËĪÉĳËĲ":1013,"ÉĻdÉĻ":1014,"aÊĬ":1015,"ĠÉĶËĲlÉ¹ËĪaÉªt":1016,"ËĪÉĽp":1017,"ĠsËĪÊĮmwÊĮn":1018,"É¾ÉĻt":1019,"ĠfÉ¹ËĪÉĽndz":1020,"ĠjËĪÉĽs":1021,"ĠbÉĻÎ²ÉĻ":1022,"ĠkËĪoÊĬld":1023,"ĠÉĽks":1024,"ĠhËĪeÉªt":1025,"ĠlËĪÉĳËĲt":1026,"ĠdËĪÉĳËĲÉ¹k":1027,"lÉĻs":1028,"ĠbÉĻt":1029,"ĠÉĻÉĻÉĻÉĻÉĻÉĻÉĻÉĻÉĻ":1030,"ËĪÉĽÊĥ":1031,"ĠÊĥËĪaÉªn":1032,"Ġz":1033,"ĠbËĪiËĲt":1034,"bÉ¹":1035,"ĠhËĪÉĳËĲ":1036,"ĠhËĪÃ¦z":1037,"jËĪuËĲz":1038,"pÉĻl":1039,"ĠÃ°ÉĽÉ¹":1040,"É¡ËĪÉĽÃ°Éļ":1041,"ËĮÉĽmËĮÉĽm":1042,"ĠÉ¹ËĪÉĽdi":1043,"ĠhËĪÉĽlp":1044,"ĠÃ°ËĮoÊĬ":1045,"ËĪÉĶËĲÉ¾Éļ":1046,"ËĪÉªli":1047,"ĠsËĪÊĮmbÉĳËĲdi":1048,"ĠtÉĻÉ¡ËĪÉĽÃ°Éļ":1049,"ĠpËĪÉĳËĲÉ¹É¾i":1050,"ĠmËĪÉĻk":1051,"ĠwÉĻnt":1052,"ÉļÉ¹i":1053,"ĠbËĪoÊĬ":1054,"ĠblËĪuËĲ":1055,"ÉĻlÉĻl":1056,"ĠdËĪiËĲp":1057,"ĠÉ¡ËĪÉľËĲlz":1058,"ĠwÉĻz":1059,"ĠlËĪaÉªn":1060,"ËĪÉĶs":1061,"ĠsËĪÉªÉ¾i":1062,"ĠmËĪÉĽni":1063,"ÉĻÉĻÅĭ":1064,"taÉª":1065,"ĠfËĪÉĽl":1066,"ĠskËĪaÉª":1067,"ĠswËĪiËĲt":1068,"É¹oÊĬ":1069,"ÊĬd":1070,"ĠdËĪÉª":1071,"ĠsmËĪoÊĬk":1072,"ĠwËĪÉªnd":1073,"ĠfËĪÊĮkÉªn":1074,"ĠblËĪoÊĬ":1075,"oÊĬkËĪeÉª":1076,"ËĪuËĲp":1077,"ĠÎ¸É¹ËĪiËĲ":1078,"ĠdËĪÉĽd":1079,"É¡É¹":1080,"ĠkËĪaÉªnd":1081,"ĠlËĪÉªl":1082,"ĠtËĪÊĬk":1083,"ĠsËĪeÉªv":1084,"ĠslËĪoÊĬ":1085,"ĠtËĪiËĲ":1086,"ĠdËĪÉĻn":1087,"ĠwËĪÉĶËĲÉ¹":1088,"ËĪÉªsÉĻn":1089,"?]":1090,"ĠpËĪiËĲs":1091,"ËĪÃ¦ks":1092,"nËĪoÊĬ":1093,"ĠbÉĻtÊĥ":1094,"ĠËĪÃ¦ftÉļ":1095,"ĠlËĪoÊĬn":1096,"ĠÉĻÉĻÉĻÉĻÉĻÉĻÉĻÉĻÉĻÉĻ":1097,"ĠsËĪaÊĬnd":1098,"ĠfËĪÉĶËĲÉ¹":1099,"ĠwËĪeÉªÉ¾ÉªÅĭ":1100,"ĠÊĥËĪuËĲ":1101,"ĠkËĪÉªd":1102,"ĠËĪiËĲz":1103,"ĠmËĪÊĮst":1104,"ĠfËĪaÊĬnd":1105,"ËĪÉĽnti":1106,"ĠlËĪeÉªt":1107,"ĠstËĪoËĲÉ¹":1108,"É¾ËĪy":1109,"ÉªÉ¾i":1110,"ÉªÊĥ":1111,"ĠhÉĻl":1112,"ĠÉ¡ËĪÃ¦Åĭ":1113,"ĠhËĪÉĳËĲt":1114,"ĠkÉĻnt":1115,"ĠÉ¡ËĪÊĮn":1116,"ĠmËĪÊĮÃ°ÉļfËĮÊĮk":1117,"ĠfËĪaÉªt":1118,"É¾ÉĻnd":1119,"ËĪÉªÉ¾i":1120,"ÉªÉ¡":1121,"ĠmËĪÉĶËĲÉ¹n":1122,"ËĪaÊĬÉļ":1123,"ËĪÉªft":1124,"ĠtËĪaÉªmz":1125,"Ã°ÉĻ":1126,"ËĪÉªld":1127,"ËĮoÊĬÉªn":1128,"ËĪÉĽËĲ":1129,"Åĭk":1130,"ĠnËĪoÊĬz":1131,"ÉĻmÉĻnd":1132,"ĠÃ°ËĪoÊĬz":1133,"ËĪÃ¦É¡":1134,"ĠËĪoÊĬpÉĻn":1135,"ĠpÉ¹ËĪÉĳËĲb":1136,"ĠÊĥËĪÉĳËĲt":1137,"ĠhËĪaÊĬs":1138,"ĠÉ¡ËĮoÊĬÉªn":1139,"Ġ[?]":1140,"ĠmËĪÉĳËĲmÉĲ":1141,"ĠËĪÃ¦kt":1142,"ĠbËĪak":1143,"ËĪÃ¦nt":1144,"ĠlËĪÉĶËĲÉ¹d":1145,"ĠkËĪÊĮmz":1146,"ĠlËĪÉªsÉĻn":1147,"ĠhËĪÉľËĲd":1148,"âĢĶ":1149,"ËĪÉĽz":1150,"ĠkËĪÃ¦":1151,"ĠmËĪÃ¦É¾Éļ":1152,"Éªts":1153,"jËĪÉĽËĲ":1154,"ĠÉ¡ËĪÉĽÊĶn":1155,"ËĪÉĽÎ¸":1156,"ĠËĪÉĽls":1157,"ĠnËĪÉĽkst":1158,"ĠËĮÊĮndÉļst":1159,"ĠlËĪÉªvÉªÅĭ":1160,"tÉ¹":1161,"ĠÊĮntËĪÉªl":1162,"ĠnÉĻv":1163,"ĠaÊĬ":1164,"ĠÊĥËĪÊĬÉ¹":1165,"ËĪÉªps":1166,"lÉªÅĭ":1167,"dÉĻ":1168,"dËĪuËĲ":1169,"ĠwËĪaÉªt":1170,"ĠbjËĪuËĲ":1171,"ĠtÊĥËĪÉĽk":1172,"ËĪÊĮÅĭk":1173,"ĠÊĥËĪeÉªk":1174,"ĠbËĪÉľËĲ":1175,"ĠsmËĪaÉªl":1176,"ĠÉĻvÉ¾ËĪy":1177,"tËĪiËĲ":1178,"ÉĻnk":1179,"ĠtÉ¹ËĪaÉªÉªÅĭ":1180,"ĠdÉ¹ËĪÉªÅĭk":1181,"Î¸ÉĻÅĭ":1182,"dËĪÉĳËĲ":1183,"hËĪeÉª":1184,"ÉĻlÉĻ":1185,"ĠnÉĻvËĪo":1186,"ĠdÉ¹ËĪaÉªv":1187,"ÉļÉ¹ËĮÉª":1188,"ĠÉ¹ËĪoÊĬd":1189,"ĠwËĪÊĮndÉļ":1190,"ĠÉ¡ËĪoÊĬz":1191,"ĠfÉļÉ¡ËĪÉĽt":1192,"Éªv":1193,"ĠkÉĻn":1194,"ĠwÉĻnËĪa":1195,"ĠtÉĻd":1196,"ĠÉ¡ËĪÉĽs":1197,"ĠwËĪÉªn":1198,"ĠoÊĬkËĪeÉª":1199,"ĠkÉĻp":1200,"ĠlËĪoÊĬnli":1201,"ĠfËĪÊĮkÉªÅĭ":1202,"ĠsËĪÊĮmtaÉª":1203,"ËĪÃ¦kt":1204,"ĠËĮÊĮndÉļstËĪÃ¦nd":1205,"ËĪiÉĻ":1206,"ËĪÃ¦kÉªn":1207,"ËĪiËĲts":1208,"ĠhËĪoÊĬz":1209,"ĠËĪÉĽvÉ¹Éªw":1210,"É¾ÉĻk":1211,"jËĪuËĲzÉªk":1212,"ËĪÉľËĲÉ¾i":1213,"ËĪÉĽdi":1214,"ĠfËĪÃ¦st":1215,"ĠbjËĪuËĲÉ¾i":1216,"ËĪÉªpÉªn":1217,"ĠtÉĻl":1218,"ĠÉ¹ËĪÊĮnÉªÅĭ":1219,"ĠtËĪaÊĬn":1220,"ĠjoËĲÉ¹":1221,"ĠsÉĻm":1222,"ps":1223,"ĠËĪÃ¦n":1224,"hËĪÉĳËĲ":1225,"ĠÉ¹ËĪuËĲm":1226,"sp":1227,"ĠjoËĲÉ¹sËĪÉĽlf":1228,"ĠmjËĪuËĲzÉªk":1229,"ĠmËĪeÉª":1230,"ĠwËĪÉĽnt":1231,"ĠËĪiËĲzi":1232,"ĠhËĪÉľËĲt":1233,"ĠwËĪÊĮns":1234,"ĠwËĪÉľËĲdz":1235,"ĠnËĪÉĻt":1236,"ĠlÉĻ":1237,"ĠÉ¡ÉĻd":1238,"ĠmËĪÉĳËĲ":1239,"ĠsËĪÉĽl":1240,"ĠdÉ¹ËĪiËĲmz":1241,"ĠbËĪÉĽd":1242,"ĠhÉĻd":1243,"ĠwËĪÉĶËĲÉ¾Éļ":1244,"ĠkËĪoÊĬ":1245,"ĠÉ¹ËĪÉªtÊĥ":1246,"ĠËĪÉĽÉ¹":1247,"ĠÉ¾ÉĻt":1248,"ĠdËĪuËĲÉªÅĭ":1249,"ĠsËĪÉĽt":1250,"ĠpËĪÊĬsi":1251,"ĠÉĲp":1252,"ĠdËĪoÊĬ":1253,"ĠwËĪeÉªk":1254,"ËĪÉĻd":1255,"ĠsËĪÉªk":1256,"ÉļÉ¹ËĮÉªsk":1257,"ĠsËĪÊĮmtaÉªmz":1258,"tÊ°":1259,"ĠËĮÉĽni":1260,"ĠflËĪoËĲÉ¹":1261,"ĠkËĪÃ¦tÊĥ":1262,"ÉĻb":1263,"ËĪaÊĬÎ¸":1264,"É¾ÉĻd":1265,"ndz":1266,"ĠatÊ°":1267,"ËĮÊĮn":1268,"ĠmËĪÃ¦d":1269,"ĠlËĪaÉªts":1270,"ĠbËĪÊĮ":1271,"wËĮÊĮt":1272,"ĠsËĪÉªns":1273,"iËĲn":1274,"mÉĻs":1275,"Ġbáµ»h":1276,"oÊĬz":1277,"ĠÉ¡ËĪoÊĬld":1278,"tÉļ":1279,"ĠdËĪaÉªÉĻmÉĻnd":1280,"ĠfËĪiËĲlz":1281,"ĠdËĪÉªfÉ¹":1282,"ĠsËĪÉĶËĲ":1283,"ĠflËĪoÊĬ":1284,"ĠÉ¡ËĪeÉªv":1285,"ĠtËĪÉªl":1286,"ĠmËĪÉĶËĲÉ¹nÉªÅĭ":1287,"sl":1288,"ĠwËĪuËĲ":1289,"ËĪÃ¦b":1290,"ĠfËĪoÊĬn":1291,"Ì©":1292,"ĠÉĲd":1293,"ĠstÉ¹ËĪeÉªt":1294,"ËĮaÉªz":1295,"ĠstÉ¹ËĪÉĶÅĭ":1296,"ĠnËĪÊĮÎ¸Éªn":1297,"ËĪaÉªm":1298,"bËĪaÉª":1299,"ĠlÉĻv":1300,"ÊĥÉĻnz":1301,"ËĪaÊĬz":1302,"ĠËĪÉĽnÉªÎ¸ËĮÉªÅĭ":1303,"ĠkËĪuËĲl":1304,"ËĮeÉªt":1305,"ĠfÉ¾ÉĻm":1306,"ÉĻmz":1307,"ĠfjËĪuËĲ":1308,"ĠwÉĻk":1309,"ĠhËĪÉĽvÉĻn":1310,"ĠblËĪÊĮd":1311,"ĠpËĪÃ¦":1312,"ĠËĪÊĮndÉļ":1313,"kÉĻz":1314,"tw":1315,"ĠfËĪuËĲl":1316,"ĠÉ¹ËĪuËĲ":1317,"ĠtÉĻdËĪeÉª":1318,"ĠhËĪaÉªd":1319,"ĠkËĪÊĬdÉĻn":1320,"ĠËĪÉľËĲ":1321,"ĠnÉĻd":1322,"ĠsËĪÉªt":1323,"ĠÉĻÉĻÉĻËĮÉĻ":1324,"ËĪÉľËĲt":1325,"ĠÃ°ÉĻn":1326,"ĠkÉ¹ËĪÉªs":1327,"ËĪÊĬmÉĻn":1328,"ËĪÃ¦f":1329,"ĠsËĪÉĳËĲÉ¹":1330,"ĠhËĪÃ¦pi":1331,"ĠkËĪÉªÅĭ":1332,"ĠpËĪÃ¦s":1333,"ĠtËĪÉĶËĲkÉªÅĭ":1334,"ĠpËĪÉĳËĲÉ¹t":1335,"ĠkËĪaÊĬnt":1336,"hËĪÊĮndÉ¹":1337,"ĠÎ¸ËĪÉªÅĭkÉªÅĭ":1338,"ĠkÉĻmÉĻ":1339,"ĠÉĲlËĪaÉªv":1340,"ĠwËĪÊĬmÉĻn":1341,"ĠwËĪiËĲk":1342,"ĠÉ¹ËĪaÊĬnd":1343,"aÉªt":1344,"Éªl":1345,"ĠtËĪÉĶËĲkÉªn":1346,"ĠlËĪuËĲ":1347,"É¡ÉĻl":1348,"Ã¦n":1349,"ĠtÉĻm":1350,"ĠpÉ¹ËĪÉªÉ¾i":1351,"ĠtÉ¹ËĪuËĲÎ¸":1352,"hËĪÊĮndÉ¹ÉĻd":1353,"ĠfËĪÊĬl":1354,"ĠwÉĻt":1355,"ĠÉ¹ËĪiËĲz":1356,"ĠpÉ¹ËĪÉĳËĲm":1357,"ĠdËĪÉªk":1358,"ĠwËĪeÉªst":1359,"ĠbËĪuËĲ":1360,"ËĪÉĳËĲloÊĬ":1361,"ĠdÊĴËĪÊĮmp":1362,"ĠmËĪeÉªks":1363,"ËĪÉľËĲnd":1364,"ĠhËĪÃ¦Åĭ":1365,"ĠÉ¹ËĪÉªÅĭ":1366,"stÉ¹":1367,"ĠpËĪÃ¦st":1368,"ĠtÉ¾ÉĻ":1369,"wËĪoÊĬ":1370,"ĠËĪÉĽnÉªw":1371,"ËĪaÊĬzÉĻnd":1372,"ÉĻdÊĴ":1373,"ËĪÉĶÉªs":1374,"ĠÉĲm":1375,"ĠstÉ¹ËĪiËĲt":1376,"ĠkËĪÊĮt":1377,"ĠmËĪÉªst":1378,"ĠlËĪÊĬkÉªn":1379,"ĠtwËĪÉĽnti":1380,"áµ»t":1381,"ĠstËĪÉĽp":1382,"ËĪÉĶl":1383,"ĠwËĪÉĶntáµ»d":1384,"ĠtËĪÉĽn":1385,"ĠdÉªz":1386,"ĠdÊĴËĪuËĲ":1387,"ĠbËĪÃ¦Åĭ":1388,"ĠmËĪÉªn":1389,"ĠbjËĪuËĲÉ¾ifÉĻl":1390,"Ġbáµ»hËĪaÉªnd":1391,"ĠklËĪÊĮb":1392,"ĠtÉ¾":1393,"ĠnÉĻt":1394,"ĠtÉ¹ËĪaÉªd":1395,"aÉªn":1396,"ĠbËĪÉĶÉªz":1397,"ÉĳËĲÉ¹":1398,"ĠwËĪaÉªld":1399,"ĠnËĪaÉªn":1400,"ĠlËĪeÉªdi":1401,"ĠbÉ¹ËĪiËĲ":1402,"ĠtÊĥËĪÃ¦ns":1403,"É¹ËĪoÊĬl":1404,"ĠËĮÉĽ":1405,"ĠlÉĻf":1406,"ĠÉĻvËĪo":1407,"ĠpÉ¹ËĪeÉª":1408,"ËĪÉĶÉªn":1409,"ĠhËĪÊĮndÉ¹":1410,"ÉĽkt":1411,"ĠhËĪÊĮndÉ¹Éªd":1412,"ĠnËĪÊĮm":1413,"ĠÉ¡ÊĬd":1414,"hÉĻ":1415,"ĠskÉ¹ËĪiËĲm":1416,"ĠtÉ¹ËĪÊĮst":1417,"É¡Éªn":1418,"É¾ËĪÉĻ":1419,"ÉªËĮoÊĬ":1420,"ĠfËĪiËĲt":1421,"ĠfËĪÉĶËĲlÉªÅĭ":1422,"É¾ÉĻs":1423,"ĠËĮoÊĬ":1424,"ËĪeÉªtÊĥ":1425,"ĠjËĪÉªÉ¹z":1426,"ĠwËĪÉĶËĲl":1427,"ĠdËĪÉªfÉ¹ÉĻnt":1428,"ĠbËĪÉĶËĲl":1429,"ĠspËĪÉĽnd":1430,"ËĪeÉªnz":1431,"É¾Éļz":1432,"ĠmËĪuËĲn":1433,"ĠmËĪÉªli":1434,"ÉĻzÉĻ":1435,"ĠswËĪÉĽÉ¹":1436,"ËĪeÉªst":1437,"wËĪÊĮn":1438,"ÊĴÉĻn":1439,"ĠbËĪa":1440,"?\"":1441,"ĠdÊĴËĪiËĲ":1442,"É¹ÉĻn":1443,"ĠmËĪÉľËĲ":1444,"ËĮÉĳËĲÉ¹É¹":1445,"ĠpËĪoËĲÉ¹":1446,"ĠfËĪaÉªv":1447,"ĠwËĪÉĻl":1448,"ĠËĪaÊĬ":1449,"ËĪÉĽÉ¹d":1450,"ĠÉ¡É¹ËĪaÊĬnd":1451,"ĠfÉ¹ËĪÊĮnt":1452,"fl":1453,"ĠsËĪuËĲn":1454,"ĠhËĪav":1455,"ĠsÉĻp":1456,"ĠbÉ¹ËĪoÊĬkÉĻn":1457,"ĠbÉ¹ËĪiËĲÃ°":1458,"ËĪÉľËĲv":1459,"ĠkÉ¹ËĪÉªsmÉĻs":1460,"ĠspËĪiËĲk":1461,"wËĪuËĲ":1462,"ĠstËĪÉĳËĲÉ¹z":1463,"ĠbËĪÉªt":1464,"ĠwËĪÊĮÉ¹i":1465,"ĠstÉ¹ËĪiËĲts":1466,"ĠsÉĻk":1467,"ĠsËĪÉĽks":1468,"ĠÉ¡ÉĻl":1469,"ĠbËĮÉĻn":1470,"ËĪÉĽpt":1471,"áµ»l":1472,"ĠtËĪÉªÉ¹z":1473,"ĠpÉĻl":1474,"ĠbÉ¹ËĪÊĮÃ°Éļ":1475,"ĠÉĻËĪÉĻÉĻÉĻÉĻÉĻ":1476,"ĠmËĪiËĲt":1477,"lz":1478,"ĠdËĪÉĳËĲl":1479,"ĠmËĪeÉªkÉªÅĭ":1480,"ĠsÉĻd":1481,"ĠÉªts":1482,"ĠtÉ¹ËĪÃ¦p":1483,"ËĪÉªÊĥÉĻn":1484,"ĠhËĪÉĽÉ¹":1485,"ĠÃ°ËĮÉĻm":1486,"ĠÉĻm":1487,"ĠkËĪÉªk":1488,"sÉĻn":1489,"ĠsËĪÊĮmÉļ":1490,"ĠËĪiËĲt":1491,"ĠhÉĻm":1492,"ÉĻtÉĻ":1493,"ĠÉĻÎ²":1494,"ĠÉ¹ËĪiËĲzÉĻn":1495,"ËĪÉĳËĲÉ¹É¹":1496,"ËĪÉĽns":1497,"ĠÊĥËĪuËĲt":1498,"ĠmËĪÉĽs":1499,"Ã¦nd":1500,"ĠwËĪÉľËĲd":1501,"ĠfËĪÉĳËĲloÊĬ":1502,"ĠsËĪÉĳËĲÉ¹i":1503,"wËĪaÉª":1504,"ĠbËĪÃ¦É¡":1505,"ĠbÉªÉ¡":1506,"ĠÉ¹ËĪÉĽst":1507,"ËĮÉĽÉ¹":1508,"ĠbËĪiËĲÉªÅĭ":1509,"ĠdËĪÊĮz":1510,"ÉĽn":1511,"ĠnÉĻÉ£ËĪaz":1512,"sËĪiËĲ":1513,"tËĪuËĲ":1514,"ĠkËĪÃ¦Êĥ":1515,"ĠbËĪÉĽt":1516,"ĠhËĪÊĬd":1517,"ĠbËĪÉĳËĲÉ¹":1518,"ĠplËĪÃ¦n":1519,"ĠpÉ¹ËĪÉĳËĲmÉªs":1520,"ĠÉ¹áµ»l":1521,"ĠfËĪiËĲlÉªn":1522,"ĠkÉĻntÉ¹ËĪoÊĬl":1523,"ËĪÉĶËĲÉ¾i":1524,"ĠÉĻb":1525,"ĠwËĪÉªt":1526,"ĠwËĪÊĬdÉĻn":1527,"ĠÉ¾ÉĻn":1528,"ĠfËĪÊĮn":1529,"ĠÉ¡ÊĬdbËĪaÉª":1530,"ĠpËĪÊĬÊĥ":1531,"deÉª":1532,"ËĮÉªs":1533,"ËĪoËĲÉ¹z":1534,"ĠdÉĻd":1535,"ĠËĪÉĳËĲÉ¹mz":1536,"ËĪaÉªk":1537,"ĠÉĻp":1538,"ĠfËĪeÉªd":1539,"ĠmËĪÉªd":1540,"ËĪÃ¦v":1541,"ĠbÉĻl":1542,"ĠÎ¸ÉĻnk":1543,"ĠkËĪÉĳËĲn":1544,"ËĪÉĳËĲks":1545,"Éªf":1546,"ĠlËĪÊĮvÉªÅĭ":1547,"ĠÉĶËĲlÉ¹ËĪÉĽdi":1548,"ĠblËĪÉĳËĲk":1549,"ËĪÉĽf":1550,"ĠkËĪÉĳËĲp":1551,"ĠmËĪoÊĬmÉĻnt":1552,"ĠkËĪÉĳËĲmÉªn":1553,"ĠÃ°ËĪÉĻz":1554,"ĠpÉĻp":1555,"ĠÉ¡É¹ËĪoÊĬ":1556,"ĠpËĪÉľËĲf":1557,"ËĮÉĳËĲn":1558,"ĠmËĪan":1559,"ËĪÉªlz":1560,"ĠsËĪÉĽnd":1561,"ĠsËĪeÉªÉªÅĭ":1562,"ĠÉ¹ËĪÉĽk":1563,"ĠfËĪÉªÉ¹":1564,"ËĪÉªÊĥ":1565,"ĠËĪaÉªs":1566,"ĠdËĪaÉªÉĻmÉĻndz":1567,"ĠbËĪÊĬl":1568,"ĠbËĪoÊĬÎ¸":1569,"ĠbËĪÊĮst":1570,"ĠËĮÉĽm":1571,"ĠstËĪÉĳËĲÉ¹É¾áµ»d":1572,"ĠwËĪÉĳËĲs":1573,"ËĪeÉªp":1574,"ĠÉ¡ÉĻvÉĻ":1575,"ĠÉĲlËĪÉĶÅĭ":1576,"ĠËĪiËĲtÊĥ":1577,"ĠsËĪÃ¦d":1578,"ËĪÉªmi":1579,"ĠtËĪeÉªkÉªÅĭ":1580,"ËĪÉĶËĲn":1581,"ÉªÉ¹":1582,"É¾oÊĬ":1583,"ÉĳËĲn":1584,"ĠsËĪÉĽk":1585,"ĠÉ¾ÉĻd":1586,"ĠmËĪÉĽm":1587,"ĠwËĪÉĳËĲsÉĻn":1588,"ĠhËĪÃ¦f":1589,"ËĪoËĲÉ¹d":1590,"ĠspÉ¹":1591,"ĠlËĪÃ¦f":1592,"stÉĻ":1593,"ÉĻÉĻÉĻÉĻÉĻÉĻÉĻÉĻ":1594,"sÉĻ":1595,"ĠÉĲt":1596,"ĠsËĮÉĻm":1597,"ĠaÊĬts":1598,"ËĮÉĳËĲÉ¹tËĪiËĲ":1599,"ĠkËĪÉĳËĲ":1600,"ĠdËĪÉĳËĲÉ¡":1601,"ĠbËĪÉĶËĲÉ¹n":1602,"skËĮeÉª":1603,"ĠlËĪaÊĬd":1604,"ĠkËĪÉĶËĲt":1605,"wiËĲ":1606,"ĠÎ¸ËĪÃ¦Åĭk":1607,"ËĪand":1608,"ĠdËĪÃ¦":1609,"ËĪuËĲv":1610,"Ã¦m":1611,"fËĮaÉª":1612,"ĠwËĪÉĳËĲ":1613,"ĠfËĪeÉª":1614,"É¹ÉĻ":1615,"ËĪaÉªld":1616,"ĠsÉĻn":1617,"tËĪÉĽvÉļ":1618,"ĠËĪÉĳËĲn":1619,"ĠÉ¹ËĪiËĲtÊĥ":1620,"bl":1621,"ĠpÉ¹ËĪÉĳËĲbl":1622,"ÉĻÉĻn":1623,"ĠÉ¹ËĪÃ¦":1624,"ËĪoÊĬzd":1625,"ËĪÊĮÊĥ":1626,"ĠlËĪaÉªz":1627,"ĠmÉĻs":1628,"ĠdËĪÉĳËĲÉ¹":1629,"ĠdËĪiËĲl":1630,"iÉĻ":1631,"áµ»k":1632,"ĠÉ¡ÉĻt":1633,"ĠhËĪÊĮni":1634,"ĠdËĪiËĲ":1635,"ĠvËĪaÉª":1636,"ĠjËĪeÉª":1637,"ËĪÉĳËĲÉ¹oÊĬ":1638,"ËĪam":1639,"ĠmËĪÉĽt":1640,"ĠÉĻÎ²ËĪÉĻt":1641,"ĠbËĪÉªz":1642,"ĠÉ¡ËĪÉĽts":1643,"ĠsËĪÉªks":1644,"ËĪaÉªi":1645,"ĠpËĪÉľËĲfÉĽkt":1646,"ĠsËĪÊĮk":1647,"ĠsËĪiËĲmz":1648,"ĠmËĪaÊĬÎ¸":1649,"ĠkËĪÉĻd":1650,"ĠvËĪÉĽÉ¹i":1651,"ËĪiÉĻÉ¹oÊĬ":1652,"ĠwÊĮtËĪÉĽvÉļ":1653,"É¡n":1654,"ĠtÉĻmËĪÉĳËĲÉ¹oÊĬ":1655,"ÉĻtÊĥ":1656,"ĠsËĪiËĲm":1657,"ĠËĪÉĽvÉ¹ÉªwËĮÊĮn":1658,"ĠËĪeÉªndÊĴ":1659,"ĠdËĪuËĲÉªn":1660,"ËĮÉĽmËĮÉĽmËĪÉĽm":1661,"ĠlËĪiËĲ":1662,"ĠjËĪÉªÉ¹":1663,"ĠÊĥËĪÉĶËĲÉ¾i":1664,"ĠmËĪoÊĬst":1665,"ĠfËĪÉªl":1666,"ĠËĪÉĶËĲ":1667,"ĠjËĪuËĲs":1668,"ĠsËĪÊĮmÎ¸Éªn":1669,"ÉĻËĮÉĻ":1670,"ĠlËĪÉľËĲn":1671,"ËĪÉĽvÉĻl":1672,"ĠkËĪÉªdz":1673,"Ġaz":1674,"ĠtËĪaÉªÉļd":1675,"dËĪÉĳËĲn":1676,"sËĪaÉªd":1677,"ĠlËĪÉĳËĲk":1678,"ĠdËĪoÊĬs":1679,"ĠjËĪoËĲÉ¹z":1680,"Ã°z":1681,"ĠfËĪÊĮkt":1682,"ĠÉ¡ÉĻn":1683,"ĠfÉ¹ËĪiËĲk":1684,"ËĪÊĮt":1685,"ĠmËĪÉªliÉĻn":1686,"ĠÉĲpËĪÉĳËĲÉ¹t":1687,"ËĪÉĳËĲd":1688,"ĠÉ¹ËĪeÉªz":1689,"É¾ÉĻn":1690,"ĠfËĪÃ¦m":1691,"ĠsÉĻl":1692,"ĠwËĪeÉªv":1693,"ĠstÉ¹ËĪeÉªndÊĴ":1694,"ĠlËĪÊĮvd":1695,"ĠËĪeÉªt":1696,"ĠsÉļ":1697,"ĠstÉĻl":1698,"ĠnËĪÉĳËĲk":1699,"nÉĻ":1700,"ËĪÉľËĲs":1701,"ĠfËĪÉĽlt":1702,"lÉļ":1703,"ÉªmËĪoËĲÉ¹":1704,"ĠsËĪÊĮtÊĥ":1705,"ĠfËĪiËĲ":1706,"ĠdËĪÃ¦di":1707,"ËĪaÊĬns":1708,"ĠstËĪÉªk":1709,"ĠaÊĬtsËĪaÉªd":1710,"ĠklËĪoÊĬ":1711,"ĠtËĪaÉªt":1712,"ĠhËĪÉĳËĲp":1713,"ĠmÉĻnÉĻ":1714,"ĠtËĪeÉªst":1715,"ĠlËĪÃ¦nd":1716,"ĠlËĪÉªvÉªn":1717,"ĠËĮÉĽnÉªmËĪoËĲÉ¹":1718,"ĠfËĪÉĳËĲ":1719,"ĠsËĪÉªm":1720,"ĠÉ¡É¹ËĪeÉªt":1721,"ĠlËĪiËĲd":1722,"ĠtÉ¹ËĪÊĮbÉĻl":1723,"ĠtÊĥËĪaÉªld":1724,"Éªks":1725,"ĠnËĪaÉªs":1726,"ĠfËĪeÉªk":1727,"ĠÉ¹ËĪÊĮnÉªn":1728,"ĠskËĪÉĽÉ¹d":1729,"ËĪÊĮp":1730,"ËĪÉĶÉªnt":1731,"dÊĴÉªk":1732,"ĠwËĪÉĶËĲkÉªÅĭ":1733,"ĠkËĪÉĶËĲlÉªÅĭ":1734,"jÉĻh":1735,"ĠskËĪÉªn":1736,"ĠÎ¸ÉĻÅĭ":1737,"ĠdËĪoÊĬsÉĻn":1738,"ĠvËĪÉĶÉªs":1739,"ĠdËĪoÊĬp":1740,"ĠlËĪÉĽs":1741,"stÉļÉ¹ËĮÉªsk":1742,"ËĪÉĽdÊĴ":1743,"ÉļÉ¹ÉªÅĭ":1744,"ĠwËĪÉľËĲÎ¸":1745,"ĠklËĪÉªÉ¹":1746,"ĠdËĪÉĽÎ¸":1747,"ĠlËĪÊĮk":1748,"aÉªz":1749,"mËĪaÉª":1750,"ĠwËĪÉªp":1751,"ĠbËĪÉĳËĲÉ¾ÉĻl":1752,"ËĮeÉªtÊĥ":1753,"ĠdËĮÉªs":1754,"ĠskËĪuËĲl":1755,"ËĪuËĲËĪuËĲ":1756,"ĠhËĮa":1757,"ĠÉĻwÉĻ":1758,"ĠwÉĻld":1759,"Éªli":1760,"É¹ËĪiËĲ":1761,"ËĪÉĻÉĻÉĻ":1762,"ĠdËĪÊĮbÉĻl":1763,"fÉ¹ËĪeÉªd":1764,"ĠÉ¹ËĪaÉªz":1765,"ti":1766,"ÉĻdi":1767,"ĠpËĪaÊĬÉļ":1768,"É¾Éªk":1769,"lf":1770,"ĠmËĪÉĽnt":1771,"ĠnËĪaÉªts":1772,"ĠlËĪÉªk":1773,"ĠhËĪÉĳËĲl":1774,"ĠtÉ¹ËĪÉªp":1775,"ĠÉ¡ËĪuËĲ":1776,"sÉĻl":1777,"ĠsËĪaÉªn":1778,"É£ÉĻn":1779,"lËĪÉĽt":1780,"ĠdËĪÃ¦nsÉªÅĭ":1781,"ÉĽnd":1782,"ĠkËĪÊĮpÉĻl":1783,"twËĪiËĲn":1784,"ÉĻÉĻl":1785,"ĠdÉ¾ÉĻ":1786,"ÉĻsÉĻ":1787,"ĠstÉĻ":1788,"ĠtËĪÉľËĲnd":1789,"ĠtËĪeÉªks":1790,"ÉĻsÉĻn":1791,"ĠÊĥËĪÉĶËĲÉ¹":1792,"Ġskw":1793,"ÉĻnts":1794,"ĠÉ¹ËĪÉª":1795,"kl":1796,"ËĪÊĮÉ¡z":1797,"É¾Éªst":1798,"ĠsËĪÉĽkÉĻnd":1799,"ĠbÉ¾ÉĻk":1800,"ĠfËĪÉªft":1801,"ĠÉĲfÉ¹ËĪeÉªd":1802,"ĠblËĪaÉªnd":1803,"ĠhËĮad":1804,"ĠwËĪÉĶnts":1805,"ĠplËĪeÉªÉªÅĭ":1806,"ĠfËĪeÉªm":1807,"ËĪÉªvÉļ":1808,"ĠsÉĻt":1809,"ĠÉ¡É¹ËĪiËĲn":1810,"ĠstËĪÃ¦ndÉªÅĭ":1811,"kËĪÊĮm":1812,"ĠÉĻnl":1813,"jËĪÊĬÉ¹":1814,"ĠdËĪÉľËĲÉ¾i":1815,"ĠnËĪÊĮmbÉļ":1816,"dËĪiËĲ":1817,"ËĪÉĻÉĻÅĭ":1818,"ËĪap":1819,"')":1820,"ĠfËĪÉªÅĭ":1821,"ĠpÉ¾ÉĻ":1822,"ĠÉ¹ËĪiËĲd":1823,"ËĪÉĽlv":1824,"ĠÉĻÉ¾ÉĻnd":1825,"ÉĻkt":1826,"ĠÉ¹ËĪaÉª":1827,"É¡oÊĬ":1828,"ĠmËĪÉªÉ¹":1829,"ĠÎ¸É¾ËĪÉĻ":1830,"ËĪuËĲd":1831,"ĠmËĪÉĳËĲÉ¹":1832,"Ìĥ,":1833,"ĠdËĪÊĮm":1834,"ĠÉĻbËĪÊĮv":1835,"ĠtÊĥËĪeÉªn":1836,"ĠmËĪÉªnÉªt":1837,"ĠsËĪa":1838,"ĠtÉ¹ËĪaÉªÉªn":1839,"Ġbáµ»twËĪiËĲn":1840,"ÉĻbli":1841,"fËĪaÉªv":1842,"ĠlÉĻst":1843,"ĠbËĪÉĶËĲt":1844,"ĠsËĪuËĲpÉļ":1845,"ĠstËĪÉĽÉ¹":1846,"ĠjËĪÉĽt":1847,"ËĪiËĲzÉĻs":1848,"ĠwËĪÊĮnz":1849,"ĠsËĪeÉªÉªn":1850,"ĠklËĪoÊĬÃ°z":1851,"ĠÎ¸ËĪaÊĬzÉĻnd":1852,"ĠËĮÉĻ":1853,"ĠkÉĻnf":1854,"ĠbÉ¾ÉĻ":1855,"ĠÉ¹ËĪeÉª":1856,"ĠsËĪÉĽnt":1857,"ĠstËĪoËĲÉ¹i":1858,"ĠpËĪoÊĬ":1859,"ĠhËĪoÊĬldÉªÅĭ":1860,"ĠfÉĻn":1861,"ĠspËĪeÉªs":1862,"ĠtÊĥËĪÉĳËĲp":1863,"ĠblËĪeÉªm":1864,"ÉĻÉĻÉĻÉĻÉĻÉĻ":1865,"ĠpËĪÉĳËĲk":1866,"ĠÉĻnlËĪi":1867,"ĠËĪÃ¦l":1868,"ĠlËĪÉªps":1869,"bËĪiËĲ":1870,"jÊĬ":1871,"jËĮuËĲ":1872,"ĠsËĪoÊĬld":1873,"ĠbÉªÉ¡ËĪÉªn":1874,"ĠbÉ¹ËĪeÉªn":1875,"ËĪÊĮs":1876,"ËĪÉªdÊĴ":1877,"ĠkËĪÃ¦É¹i":1878,"ĠbËĪÉĽl":1879,"ĠdËĮiËĲ":1880,"ĠnËĪÉĽk":1881,"ĠfËĪÉªn":1882,"ĠhËĪÃ¦pÉĻn":1883,"ËĪÊĮnd":1884,"ËĮÉĽmËĮÉĽmËĪeÉª":1885,"ĠwÉĻl":1886,"ËĪÉªkt":1887,"ĠstËĪÊĮk":1888,"ĠÉ¡ÉĻtËĪa":1889,"laÉªt":1890,"ĠÉ¹ËĪÉªd":1891,"ĠlÉĻn":1892,"ĠsËĪÉĽz":1893,"ĠtÊĥËĪeÉªs":1894,"ĠspËĪÉªn":1895,"ĠËĪÉªs":1896,"ĠkÉĻ":1897,"ĠfËĪÃ¦mÉªli":1898,"ĠÉ¾ÉĻk":1899,"ĠbËĪÉªld":1900,"ĠpÉ¹ËĪÉĳËĲbÉĻbli":1901,"ĠhËĪaÉªÉļ":1902,"dËĮeÉª":1903,"mÉĻ":1904,"ĠÉ¾ÉĻlÉĻ":1905,"ĠfËĪeÉªÎ¸":1906,"ĠËĪÉĽks":1907,"ĠpËĪeÉªpÉļ":1908,"ĠsËĪÉĻm":1909,"ĠbÉ¹ËĪÉĽÎ¸":1910,"ĠkËĪoËĲÉ¹":1911,"ĠkËĪÉĶËĲld":1912,"ËĪal":1913,"ĠÉ¡ËĪÉªmi":1914,"ÉĻbÉĻl":1915,"ĠbËĪeÉªs":1916,"ÉĻmÉĻ":1917,"ĠpÉĻ":1918,"ĠËĮÉĻs":1919,"ĠdÊĴËĪiËĲzÉĻs":1920,"ĠhËĪÉĳËĲÉ¹":1921,"hËĪÉĽd":1922,"ĠËĪiËĲv":1923,"mÉªn":1924,"ĠsÉĻÅĭ":1925,"ĠpËĪÉªktÊĥÉļ":1926,"ĠswËĪÉªtÊĥ":1927,"ĠkÉĻz":1928,"ĠtËĪoÊĬ":1929,"ĠÉªnv":1930,"ĠÉªmËĪÃ¦":1931,"pti":1932,"stÉļ":1933,"É¾Éªs":1934,"ĠdËĪÉĳËĲÉ¹lÉªÅĭ":1935,"ËĪoÊĬnz":1936,"ĠmËĪÉĽÉ¹i":1937,"ĠÉ¡É¹ËĪeÉª":1938,"É¾ÉĻz":1939,"ĠlËĪÊĮvÉļ":1940,"dÉļ":1941,"ĠfËĪoÊĬ":1942,"Ã°ËĪÃ¦t":1943,"ĠkwËĪÉªk":1944,"ĠwËĪÉªs":1945,"ËĪÉªÅĭz":1946,"ĠÉ¡ËĪÉªvÉªÅĭ":1947,"ĠmËĪÉªstÉļ":1948,"ĠbËĪaÊĬt":1949,"ĠÉ¾ÉĻÉĻl":1950,"ĠpÉĻs":1951,"ĠlËĪiËĲn":1952,"ĠbÉ¹ËĪaÉªt":1953,"wÉĽÉ¹":1954,"ĠpÉ¹Éªt":1955,"ËĪÉĽkÊĥÉĻn":1956,"ĠÎ¸ËĪÉªÅĭkÉªn":1957,"hËĪuËĲ":1958,"dÉ¹":1959,"ĠdËĪÉªÉ¡":1960,"ĠbËĪÉĽÉ¹":1961,"ĠËĪÃ¦ns":1962,"ĠkÃ¦n":1963,"ËĪÊĬks":1964,"ĠÉ¹ËĪuËĲl":1965,"ĠfÉĻnd":1966,"ĠÊĥËĪaÊĬt":1967,"ĠtËĪaÉªp":1968,"ĠmÉĻnd":1969,"ĠÉ¹ËĪÃ¦Ã°Éļ":1970,"ËĮeÉªÉ¾áµ»d":1971,"ĠËĪÉľËĲÎ¸":1972,"ĠpÉ¹ÉªtËĪÉĽnd":1973,"ĠpËĪÉĻt":1974,"ĠfËĪaÉªnÉĻli":1975,"ÉĻts":1976,"ËĪÉĻna":1977,"ÉĶ":1978,"ĠkËĪÉĶËĲÉ¹n":1979,"ÅĭÉ¡":1980,"ĠwËĪÉĳËĲtÊĥÉªÅĭ":1981,"ÊĴÉļ":1982,"ËĪÉªf":1983,"moÊĬ":1984,"ĠbÉĻn":1985,"dÊĴËĪeÉª":1986,"ĠËĮÊĮnd":1987,"ĠkÃ¦nËĪÉĳËĲt":1988,"ĠbËĪÉľËĲnÉªÅĭ":1989,"ĠËĪÉªm":1990,"ĠtÊĥËĪÉªl":1991,"ĠkÉ¹ËĪÃ¦k":1992,"ĠwËĪÉĽst":1993,"ËĪiËĲnz":1994,"ĠmÉªst":1995,"ĠmËĪuËĲvÉªÅĭ":1996,"ĠËĪÉĽmpti":1997,"ĠwËĪiËĲd":1998,"ËĪÊĮvÉļ":1999,"ĠbÉĻtËĪo":2000,"ĠÉ¹ËĪÉªst":2001,"ĠsËĪÉªst":2002,"aÊĬn":2003,"áµ»fËĮaÉª":2004,"ĠlËĪÊĮvÉªn":2005,"ĠpËĪÃ¦k":2006,"ĠmËĪÃ¦dÊĴÉªk":2007,"ĠsËĪÊĮmwÉĽÉ¹":2008,"lÉªn":2009,"ĠËĮÉĽmËĮÉĽmËĪÉĽm":2010,"!\"":2011,"ĠÉ¡É¹ËĪÃ¦b":2012,"ĠtÊĥËĪÉªk":2013,"ĠsËĪÃ¦":2014,"ĠstËĪiËĲl":2015,"ĠsËĪÉªÅĭÉªÅĭ":2016,"eÉªk":2017,"ĠtËĮiËĲ":2018,"ĠtÉ¹ËĪiËĲt":2019,"ĠÉ¹ËĪeÉªd":2020,"ĠÉ¾ÉĻl":2021,"ËĪaÉªÉļ":2022,"ĠnËĪiËĲz":2023,"ËĪÉĶÉªz":2024,"ĠklËĪiËĲn":2025,"ĠhËĪÉĳËĲÉ¹ts":2026,"ĠbËĪuËĲm":2027,"ĠmËĪÉªdÉĻl":2028,"ĠkËĪeÉª":2029,"ĠtËĪÉªÉ¹":2030,"ĠkËĪÃ¦p":2031,"nËĪiËĲ":2032,"ĠbËĪaÊĬns":2033,"ĠmËĪaÉªk":2034,"ĠtÉ¹ËĪeÉªn":2035,"ĠtÊĥËĪeÉªndÊĴd":2036,"ĠÉĽÉ¡z":2037,"ĠwÉĻd":2038,"ĠÊĥËĪuËĲz":2039,"ĠpËĪeÉªd":2040,"ĠÉĽksp":2041,"ĠhÉĻld":2042,"ĠspËĪÉĳËĲt":2043,"ĠwËĪeÉªz":2044,"ĠsËĪiËĲkÉ¹":2045,"ĠÉ¹ËĪÉªvÉļ":2046,"ËĪÉĽvi":2047,"ĠkÉ¹ËĪÉĶs":2048,"ĠËĮoÊĬvÉļ":2049,"ĠËĪÃ¦k":2050,"ĠÉ¾ÉĻ":2051,"ËĪÉªb":2052,"ĠpËĪiËĲ":2053,"É¡ËĪoÊĬ":2054,"tÊĥi":2055,"Ġbáµ»lËĪÉĶÅĭ":2056,"ĠkwËĪÉĽst":2057,"ĠfËĪiËĲlÉªÅĭz":2058,"ĠhËĪoÊĬmi":2059,"ĠnËĪoÊĬn":2060,"ĠfËĪÉĳËĲÃ°Éļ":2061,"ĠmËĪÊĮÃ°ÉļfËĮÊĮkÉļ":2062,"ĠbËĪÉªl":2063,"ÉĻnsÉĻ":2064,"ËĪÃ¦stÉļÉ¹ËĮÉªsk":2065,"ĠËĪÉªsÉĻn":2066,"tËĪÉĽl":2067,"ĠËĮÃ¦":2068,"ĠsËĪeÉªf":2069,"ĠbËĪÉĳËĲm":2070,"ËĮaÉªm":2071,"ĠsËĪaÉªl":2072,"ĠkËĪÊĮz":2073,"bËĪÉĳËĲ":2074,"ĠkÉ¹ËĪuËĲ":2075,"lÉĻnd":2076,"ĠsËĪiËĲz":2077,"ĠÉĻËĮ":2078,"ĠlËĪiËĲvÉªÅĭ":2079,"ĠËĪÉĽvÉ¹ÉªwËĮÉĽÉ¹":2080,"skËĮeÉªËĪÉĳËĲÉ¹É¹":2081,"ĠnËĪÉªÉ¹":2082,"ĠdÉªs":2083,"ĠsËĪÉĽvÉĻn":2084,"ÉļÉ¹iz":2085,"ĠËĪaÊĬÉ¾ÉĻ":2086,"ĠstËĪaÉªl":2087,"ĠÉ¡ËĪaÉª":2088,"aÉªd":2089,"ĠdËĪÉĽm":2090,"ĠÉ¾ÉĻm":2091,"ĠlÉĻÅĭ":2092,"ĠhÉĻp":2093,"ĠpËĪÉĶÉªnt":2094,"ĠlÉĻtÉĻ":2095,"ĠhÉĻlËĪoÊĬ":2096,"ĠnËĪÊĮn":2097,"ĠÊĥËĪÊĮt":2098,"ĠnËĪoÊĬwÉĽÉ¹":2099,"ÉĻsi":2100,"ĠhjËĪuËĲ":2101,"Ã¦k":2102,"ĠdËĪÉĽvÉĻl":2103,"ĠÊĥËĪÉĽÉ¹":2104,"ËĪeÉªÊĥÉĻnz":2105,"pËĪiËĲ":2106,"Éªp":2107,"ËĪÉĽÉ¹Éªk":2108,"ÊĴÉĻ":2109,"bÉĻ":2110,"jÉļ":2111,"áµ»É¹":2112,"ĠÉĲÉ¡ËĪÉĽnst":2113,"tÊĥÉªÅĭ":2114,"ĠkjËĪuËĲ":2115,"ÉĻks":2116,"fËĪÉĻ":2117,"fËĪÊĮk":2118,"tÉĻl":2119,"ĠkËĪa":2120,"ËĪaÊĬntÉªn":2121,"ĠwËĪÉªtÊĥ":2122,"ĠkËĪiËĲps":2123,"ĠfÉ¹ËĪÉĽÊĥ":2124,"ĠÉĻpËĮÉĳËĲn":2125,"ĠÉ¡ËĪoÊĬst":2126,"ĠkËĪeÉªs":2127,"skËĮeÉªËĪÉĳËĲÉ¹É¹ËĮÉĳËĲÉ¹tËĪiËĲ":2128,"ĠÉ¹ËĪoÊĬz":2129,"haÊĬ":2130,"áµ»bÉĻl":2131,"ĠdËĪÉªÉ¹":2132,"ĠÎ¸ËĪÉľËĲÉ¾i":2133,"ĠklËĪaÊĬ":2134,"ĠÉĻÉ£ÉĻn":2135,"ĠmÉªstËĪeÉªk":2136,"ĠtÉ¹ËĪiËĲ":2137,"ĠfjËĪuËĲtÊĥÉļ":2138,"ËĪÉĳËĲkÉªn":2139,"ĠdÊĴËĪÃ¦k":2140,"ĠbËĪÉĶs":2141,"ĠwËĪÉĻd":2142,"ĠÉ¡É¹ËĪaÉªnd":2143,"sËĪoÊĬ":2144,"ĠwËĪÉªndoÊĬ":2145,"tÊĥÉļz":2146,"ĠpËĪÃ¦É¹":2147,"nËĪaÉªn":2148,"ËĪÉªpÉªÅĭ":2149,"ĠpÉļ":2150,"ĠfÉĻs":2151,"ĠbËĪÃ¦l":2152,"ËĮiËĲËĮÉĳËĲÉ¹É¹":2153,"ĠÉ¹ËĪoÊĬláµ»n":2154,"bi":2155,"ĠbËĪÉĽn":2156,"ĠbËĪÃ¦ndz":2157,"ĠpËĪÉĳËĲ":2158,"ĠbËĪÉªznÉĻs":2159,"wÉĻz":2160,"ĠdËĪÉĳËĲlÉļ":2161,"'?":2162,"ĠsnËĪoÊĬ":2163,"ni":2164,"ĠÉĽkspl":2165,"ĠmËĪÉĽl":2166,"ĠbÉ¹ËĪÃ¦nd":2167,"ĠmËĪeÉªn":2168,"ĠplËĪeÉªÉªn":2169,"ĠbËĪÉĳËĲÉ¾ÉĻm":2170,"ĠÉ¹áµ»sp":2171,"ĠÉ¹ËĮÉĽ":2172,"ĠËĪÉĳËĲp":2173,"ĠflÉĻ":2174,"ĠtËĪÉĽlÉªÅĭ":2175,"ÊĥiËĲ":2176,"nz":2177,"kÉĻ":2178,"boÊĬ":2179,"ĠkËĪaÉªndÉĻ":2180,"ĠnÉĻm":2181,"ĠËĮÉĻn":2182,"ĠplÉĻ":2183,"tÉªn":2184,"ĠlËĪÊĮvz":2185,"ĠhËĪiËĲt":2186,"ĠjËĪÉĽl":2187,"ĠwËĪÉĶËĲÉ¹m":2188,"ĠÊĥËĪÃ¦d":2189,"bËĪeÉªb":2190,"ĠËĪuËĲoÊĬ":2191,"ĠfËĪÉªÉ¡":2192,"ĠtÊĥËĪÉªld":2193,"ĠstËĪuËĲp":2194,"Ġfo":2195,"lËĪÊĮv":2196,"ĠkÉ¾ÉĻ":2197,"ĠhËĪiËĲl":2198,"ĠÉ¡lËĪÃ¦s":2199,"ĠmËĪÃ¦kÉªn":2200,"ĠklËĪoÊĬsÉļ":2201,"lÉªk":2202,"É¡ËĪÉĽt":2203,"ĠËĪÉĳËĲÉ¹m":2204,"ĠkËĪÊĮnt":2205,"ĠfËĪÉªfti":2206,"ËĮÉľËĲ":2207,"ĠkÉ¾":2208,"nËĪiËĲÎ¸":2209,"ĠblËĪiËĲd":2210,"yn":2211,"ĠfÉļÉ¡ËĪÉªv":2212,"ĠlËĪaÉªvz":2213,"ĠtÉ¹ËĪÃ¦k":2214,"ĠÉĻvÉĻn":2215,"tÊĥuËĲ":2216,"hËĪÉĻ":2217,"ki":2218,"ĠdÉ¹ËĪÊĮÉ¡z":2219,"ĠÎ¸ËĪÃ¦Åĭ":2220,"ĠfËĪÊĮni":2221,"ĠtËĪÉªk":2222,"ĠsËĪÉĶÅĭz":2223,"ĠtÊĥËĪÉĳËĲÉ¹":2224,"ĠËĪÉĽs":2225,"ĠËĪeÉªndÊĴÉĻl":2226,"ĠflËĪeÉªm":2227,"ÉªkÉĻl":2228,"Ġspl":2229,"ĠÉĻnd":2230,"ĠnÉĻk":2231,"ËĪÉĶËĲÉ¹k":2232,"ĠtÊĥËĪÉªldÉ¹ÉĻn":2233,"ËĪÊĮntÊĥ":2234,"ĠsËĪÉĽns":2235,"ĠkÉĻmp":2236,"ĠlËĪÉªft":2237,"iÉĻs":2238,"ĠdÊĴËĪÉĶÉª":2239,"Ġam":2240,"ÊĥÉĻ":2241,"ĠmËĪÉªl":2242,"ĠbÉ¹ËĪeÉªkÉªÅĭ":2243,"ĠtËĪiËĲm":2244,"wËĪÉĽl":2245,"ĠbËĪÃ¦nd":2246,"ĠpÉ¹ËĪÉĽÊĥ":2247,"ËĪÉĽnÊĥÉĻn":2248,"ĠsËĪaÉªt":2249,"ĠfËĪeÉªv":2250,"ĠsËĪÉĽlf":2251,"bËĪeÉªbi":2252,"ÉĲp":2253,"ĠpÉ¹ËĪÉĳËĲ":2254,"ĠspËĪÉªt":2255,"ĠÊĥËĪeÉªm":2256,"ĠkÉĻmpl":2257,"ĠsËĪÉªÅĭÉ¡ÉĻl":2258,"ĠÉ¹ËĪÃ¦n":2259,"ĠÉĻlwÉĻz":2260,"ĠmËĪÉĳËĲmÉĻ":2261,"ĠsÉļv":2262,"ĠpÉ¹ËĪÉĳËĲblÉĻm":2263,"ĠdÊĴËĪÉĳËĲn":2264,"ĠhËĪÉªp":2265,"ĠbËĪad":2266,"ĠÊĥËĪÉĳËĲts":2267,"ĠstËĪuËĲpÉªd":2268,"ĠdÉ¹ËĪÉĽs":2269,"ĠmËĪaÊĬntÉªn":2270,"ËĪeÉªbÉĻl":2271,"ĠÉ¹ËĪÉªdÉªn":2272,"ĠdÉ¾ÉĻm":2273,"dÊĴÉªn":2274,"ĠÉĻkÉ¹":2275,"ĠÉĻkÉ¹ËĪÉĳËĲs":2276,"ĠwËĪÉªmÉªn":2277,"ĠkËĪÃ¦m":2278,"ĠhËĪÃ¦t":2279,"moÊĬst":2280,"ĠsËĪÉĽ":2281,"tÉĻ":2282,"ĠwËĪaÉªd":2283,"ĠwËĪÉľËĲkÉªÅĭ":2284,"ĠdÉ¹ËĪÊĮÅĭk":2285,"ĠÉªmp":2286,"ĠkÉ¹ËĪaÉªÉªÅĭ":2287,"ĠlËĪuËĲzÉªÅĭ":2288,"ĠkËĪÊĮntÉ¹i":2289,"ĠÉĻÉĻÉĻÉĻÉĻÉĻÉĻÉĻÉĻÉĻÉĻ":2290,"ËĪÉĻlf":2291,"Î¸ËĪaÊĬzÉĻnd":2292,"ĠdËĪaÊĬt":2293,"ĠÉ¡lËĪoËĲÉ¹":2294,"ĠfÉĻlÉĻÅĭ":2295,"ĠjÉĻz":2296,"ĠstËĪoÊĬn":2297,"ĠlËĪÊĬks":2298,"wËĮÉĽn":2299,"ËĪÉªpt":2300,"ĠfÉĻt":2301,"ĠÉĲmËĪÉĽÉ¹Éªk":2302,"ËĮÉĽÉ¹i":2303,"ĠÎ¸ËĪÊĮÉ¡":2304,"ĠdÊĴËĪeÉª":2305,"ĠkËĪÊĮp":2306,"ĠwËĪÉĽt":2307,"ĠkËĪÃ¦nd":2308,"ĠÉĻËĮo":2309,"ĠnËĪiËĲdz":2310,"ĠjËĪÉĶËĲÉ¹k":2311,"ĠkÉĻns":2312,"ĠËĪÉĶËĲlmoÊĬst":2313,"wÉĻn":2314,"ĠsËĮÉª":2315,"ĠpËĪeÉªnt":2316,"ÉĲm":2317,"ĠdËĪÉĳËĲk":2318,"ĠpËĪÃ¦n":2319,"ËĮi":2320,"bÉĻt":2321,"ĠhËĪÉĽvi":2322,"ĠlËĪeÉªdiz":2323,"ĠwËĪaÉªn":2324,"ÉĲl":2325,"ĠmÉĻtÊĥ":2326,"Ã°ËĪÉªs":2327,"ËĪÉĽntÉĻl":2328,"ĠbÉªkËĪÊĮm":2329,"ËĪÃ¦ntÉĻ":2330,"ËĪÉĳËĲnÉĻ":2331,"ËĮÃ¦l":2332,"ĠsËĪÉľËĲv":2333,"ĠËĪÃ¦d":2334,"ĠÉ¹ËĪeÉªdÉªËĮoÊĬ":2335,"ĠâĢ":2336,"ËĪÉĻz":2337,"ĠpÉĻt":2338,"ËĮiËĲn":2339,"ĠmËĪÊĮÃ°ÉļfËĮÊĮkÉªn":2340,"Î¸É¹ËĪiËĲ":2341,"ĠÎ¸ËĪÉĶËĲ":2342,"iËĲt":2343,"ĠkÉĻd":2344,"ËĪÉĽÊĥÉĻl":2345,"ĠËĪÉĽvÉ¹ÉªdËĮeÉª":2346,"ËĪÉĽndÉļ":2347,"ĠÉļÉ¹":2348,"ĠhËĮÉĻm":2349,"ĠÉĻk":2350,"ĠsÉļÉ¹":2351,"ĠkwËĪiËĲn":2352,"ĠmËĪÉªsÉªÅĭ":2353,"ĠÉ¡É¹ËĪÃ¦nd":2354,"ËĪÉªvÉªn":2355,"ĠfËĪÉªt":2356,"ĠËĪÉĳËĲnÉªst":2357,"ĠflËĪÉĽks":2358,"ĠÉĲhËĪÉĽd":2359,"fËĪÉĶËĲÉ¹":2360,"ĠstÉĻt":2361,"Ġdáµ»s":2362,"ĠsÉĻpËĪoÊĬzd":2363,"ĠjËĪÊĮ":2364,"ĠsmËĪÉĽl":2365,"ĠsmËĪÉĶËĲl":2366,"ĠhËĪÉĻz":2367,"ĠdÉĻk":2368,"ĠhËĪÊĮÅĭ":2369,"ÉĲstÉļÉ¹ËĮÉªsk":2370,"ĠvËĪaÉªb":2371,"ĠdÉ¹ËĪaÉª":2372,"ËĪÊĮdÊĴ":2373,"ĠÉ¹ËĪoÊĬlÉªÅĭ":2374,"ËĪÉªÊĴÉĻn":2375,"ĠsËĪaÊĬÎ¸":2376,"ĠÉ¡ËĪÃ¦s":2377,"ËĪÉĳËĲÉ¾ÉĻ":2378,"ĠÎ¸ËĪÉĶËĲts":2379,"ĠdÉĻz":2380,"ĠfËĪÉĽÉ¹":2381,"ĠÉ¹ËĪiËĲÉĻlaÉªz":2382,"pÉĻ":2383,"jËĪuËĲs":2384,"ĠkËĪÊĮl":2385,"ĠpËĪÉĳËĲpÉªn":2386,",\"":2387,"ĠdÉĻm":2388,"wËĪÉĽÉ¹":2389,"ËĪÊĬt":2390,"ĠlÉĻd":2391,"ĠkËĪÉĳËĲÉ¹z":2392,"ËĪÉľËĲk":2393,"nÉªÅĭ":2394,"ĠwËĪÉĳËĲÊĥ":2395,"ĠmÉĻl":2396,"ĠËĪÃ¦nsÉļ":2397,"ĠlËĮa":2398,"ĠkËĪÊĬk":2399,"ĠkËĪiËĲ":2400,"ĠkÉ¹ËĪaÊĬd":2401,"ĠslËĪaÉªd":2402,"ĠÉ¡É¹ËĪeÉªv":2403,"ndÉĻ":2404,"ĠdÉ¹ËĪaÊĬn":2405,"tËĪÉľËĲn":2406,"ĠwËĪaÉªf":2407,"ĠwËĪÉĶËĲkt":2408,"ĠklËĪÃ¦s":2409,"ĠtÊĥËĪuËĲz":2410,"ĠÉ¹ËĪeÉªs":2411,"ĠkËĪÉĶËĲÉ¹nÉļ":2412,"ĠbÉĻk":2413,"kÊĮm":2414,"ĠbÉĻst":2415,"ĠspËĪÉĽÊĥÉĻl":2416,"nt":2417,"ĠdÊĴËĪÉĳËĲb":2418,"ĠÉ¡lËĪÃ¦d":2419,"ĠfËĪoËĲÉ¹É¾i":2420,"ĠfËĪÃ¦kt":2421,"ËĪÉĶlt":2422,"fÉ¹ÉĽnd":2423,"ĠËĪoÊĬÊĥÉĻn":2424,"ĠjÉĻs":2425,"ËĪÉĶft":2426,"ĠkÉ¹ËĪÃ¦Êĥ":2427,"ĠËĪÉªÉ¹":2428,"ĠpËĪaÉª":2429,"ĠÉĻvÉ¾ËĪyÎ¸ÉĻÅĭ":2430,"ĠmËĪÉĽmÉļÉ¹iz":2431,"ĠspËĪÉĽnt":2432,"ĠsËĪÉªÉ¾ÉªÅĭ":2433,"ĠplËĪeÉªn":2434,"ĠhËĪÉľËĲts":2435,"ĠmËĪaÉªlz":2436,"ĠËĪÉĽnÉªwËĮÊĮn":2437,"ĠkÉ¹ËĪÉªb":2438,"ĠtÉĻnÉĻt":2439,"ĠÉ¹ËĪÉĳËĲ":2440,"ĠÉ¡lËĪoÊĬ":2441,"dÊĴËĪÊĮst":2442,"ĠmËĪuËĲvÉªn":2443,"ĠÉ¹ËĪaÉªdÉªÅĭ":2444,"ĠlËĪÊĬkt":2445,"ĠklËĪaÉªm":2446,"ĠdËĪeÉªndÊĴ":2447,"ĠÉ¾ÉĻÅĭ":2448,"ĠËĪÉĽnÉĻm":2449,"ËĪÉªkst":2450,"É¹uËĲ":2451,"ĠmËĪÃ¦k":2452,"ĠbÉ¹ËĪÉĶËĲt":2453,"ĠÉ¡ËĪÊĮnz":2454,"ĠmÉĻt":2455,"ĠÉ¹ËĪÉĳËĲb":2456,"ĠmËĪa":2457,"ĠÉ¹ËĪÊĮÊĥ":2458,"ĠbËĪÃ¦Åĭk":2459,"ĠnËĪiËĲ":2460,"ÉĻvËĪo":2461,"ËĪÉªmp":2462,"ĠspËĪÉªÉ¹":2463,"É¡Éļz":2464,"ĠfÉĻst":2465,"kw":2466,"ĠmËĪÉĻd":2467,"ĠwËĪÉĶËĲlz":2468,"ĠÉ¹áµ»spËĪÉĽkt":2469,"ÉĻÉĻÉĻÉĻÉĻÉĻÉĻ":2470,"ĠÉ¡ËĪÉĻÉĻÅĭ":2471,"ĠsÉļvËĪaÉªv":2472,"dÊĴËĪiËĲ":2473,"ĠËĪÉĽnÉªbËĮÉĳËĲdi":2474,"ĠwËĪÉĽÃ°Éļ":2475,"ËĪÉªÉ¾Éļ":2476,"ĠtwËĪÉªst":2477,"ĠblËĪÉĽs":2478,"ĠnÉĻÎ¸ÉĻÅĭ":2479,"ĠÉ¹ËĪÃ¦ks":2480,"Ġdáµ»l":2481,"ĠÉĲb":2482,"ÉĳËĲhËĪÉĳËĲ":2483,"ĠdÊĴËĪÉĽl":2484,"ËĪÉªsk":2485,"ĠtËĪÃ¦kÉªn":2486,"ĠsËĪÊĮmdeÉª":2487,"ĠpÉ¹ËĪÉĽz":2488,"ĠnËĪiËĲdáµ»d":2489,"ĠmËĪiËĲnz":2490,"ĠstÉ¾ÉĻt":2491,"ĠwËĪiËĲl":2492,"ĠsËĪÉĻmÎ¸ÉĻÅĭ":2493,"ĠâĢľ":2494,"ĠkÉĻt":2495,"ĠÊĥËĪaÉªnÉªÅĭ":2496,"ĠmËĪÉľËĲdÉļ":2497,"ĠdÉ¹ËĪiËĲmÉªÅĭ":2498,"tuËĲ":2499,"saÉªd":2500,"ĠfËĪÃ¦nt":2501,"ĠtËĪÉľËĲnÉªÅĭ":2502,"ĠmÉĻst":2503,"ĠbËĪÉĽÉ¡":2504,"ĠËĪÉĽnÉªwËĮeÉª":2505,"ĠkÉĻs":2506,"ĠÉĻnÉĻ":2507,"ĠpËĪÉĳËĲÉ¹k":2508,"ËĪÉĽÉ¡":2509,"ĠpÉĻk":2510,"ĠmËĪÉªÉ¹Éļ":2511,"ĠËĪÉª":2512,"áµ»v":2513,"ĠpÉĻn":2514,"ĠnËĪaÉª":2515,"dÊĴi":2516,"ĠhËĪÃ¦vÉªÅĭ":2517,"âĢĿ":2518,"ĠpËĪÉªl":2519,"ĠÉ¹áµ»mËĪaÉªnd":2520,"tÉĻn":2521,"Ã°ËĪo":2522,"ĠlËĪÉĶÅĭÉ¡Éļ":2523,"ĠwÉĻÊĥ":2524,"ĠÊĮnl":2525,"ĠkËĪÉĽpt":2526,"ĠhËĪoÊĬli":2527,"ĠsËĪÉľËĲk":2528,"ĠÉ¡ËĪÉĻn":2529,"Ġáµ»l":2530,"ĠdËĪaÉªÉªÅĭ":2531,"ĠsËĪÃ¦nd":2532,"ĠlËĪÉªt":2533,"ËĪÉĳËĲmÉĻ":2534,"ĠÉ¡ËĪuËĲtÊĥi":2535,"ĠÉ¡ËĪeÉªmz":2536,"ĠjÉĻÅĭ":2537,"ĠstÉ¾ÉĻ":2538,"ËĪÃ¦mp":2539,"ĠsËĪÉĶft":2540,"ĠpÉ¹ËĪaÉªs":2541,"tiËĲn":2542,"ĠfËĪÃ¦t":2543,"ĠlËĪoÊĬd":2544,"ĠfËĪÉªÅĭÉ¡Éļ":2545,"ĠÊĥËĪoÊĬld":2546,"Î¸ÉĻn":2547,"ĠtÊĥËĪÉĽst":2548,"ĠbÉĻÉ¡":2549,"ĠdÉªzËĪÉľËĲv":2550,"ĠkËĪÃ¦t":2551,"ĠstËĪeÉªt":2552,"ĠbËĪÉľËĲd":2553,"ĠpÉ¹ËĪoÊĬ":2554,"ĠÉ¹ËĮiËĲ":2555,"ĠwÉĻtÊĥ":2556,"ĠbÉĻtÊĥÉĻz":2557,"ĠÉ¡ÉĻ":2558,"ĠÉ¹áµ»p":2559,"ĠdËĮÉªsÉĲp":2560,"ĠÊĥËĪÉĶËĲÉ¹É¾i":2561,"ËĪÉľËĲd":2562,"Ġdáµ»f":2563,"ĠdËĪÉĶËĲ":2564,"ĠhËĪeÉªÉ¾Éļz":2565,"ĠplËĪÊĮs":2566,"ĠbËĪÉĽnd":2567,"ĠplËĪeÉªd":2568,"ĠkËĪÉªlÉªÅĭ":2569,"ĠdËĮiËĲdÊĴËĪeÉª":2570,"ĠbËĪÉĳËĲks":2571,"ËĮÊĬd":2572,"ĠtËĪÊĮÅĭ":2573,"ĠËĪÉĶËĲÉ¹d":2574,"ĠËĪÉĽdÊĴ":2575,"ĠdËĪaÉªd":2576,"ĠkËĪuËĲp":2577,"ĠnËĪuËĲz":2578,"ĠdÊĴËĪÊĮdÊĴ":2579,"ĠkÉĻk":2580,"ĠpÉ¹ËĪÉĳËĲblÉĻmz":2581,"ĠsËĪaÉª":2582,"ËĪÉĽntÊĥ":2583,"ĠklËĪÃ¦p":2584,"Ġdáµ»n":2585,"ĠstËĪoËĲÉ¹m":2586,"ĠtËĪÉĽst":2587,"ĠlËĪeÉªÉ¾Éļ":2588,"Éªsk":2589,"ĠbËĪoËĲÉ¹d":2590,"ĠlËĪÊĮki":2591,"ÉĻndÊĴÉĻ":2592,"ĠlËĪÉªm":2593,"ÉĻvÉĻn":2594,"ĠtÉ¾ËĪÉĻna":2595,"É¡ÉĻ":2596,"ĠsmËĪÉĳËĲkÉªn":2597,"ĠfËĪiËĲd":2598,"Î²lÉĻ":2599,"ĠbÉĻdÉĻ":2600,"ĠdËĪÉľËĲt":2601,"ĠËĪÃ¦nd":2602,"sáµ»É¹":2603,"ËĪÊĮmbÉĻl":2604,"ĠdËĪiËĲm":2605,"ĠlËĪuËĲs":2606,"ĠfËĪeÉªvÉļÉ¹":2607,"ĠsËĪiËĲkÉ¹áµ»t":2608,"ĠbËĪÃ¦láµ»n":2609,"ĠÉªnÉĻÉĻÉĻ":2610,"ÉļdËĮeÉª":2611,"ĠËĪÉĽf":2612,"ĠhËĪÊĮn":2613,"É¾ÉĻnt":2614,"ËĪÊĬÉ¡Éļ":2615,"ĠtÉĻld":2616,"ĠËĮÉĻna":2617,"ËĮÉĽmËĪÉĽm":2618,"ĠflËĪÉªp":2619,"mÉļ":2620,"Ġdi":2621,"ĠsËĪÉªl":2622,"ĠÉ¹áµ»v":2623,"Î²ÉĻdi":2624,"ĠdËĪÉĳËĲÉ¹knÉĻs":2625,"ÉĻmÉĻn":2626,"ĠswËĪÉªm":2627,"ĠfËĪeÉªvÉļÉ¹áµ»t":2628,"ĠfËĪÉĽd":2629,"ËĮÉĽs":2630,"ĠpËĪÉĳËĲkÉªt":2631,"ËĪÉªns":2632,"ËĪÉĽstÉļdËĮeÉª":2633,"ĠfËĪÃ¦n":2634,"ĠpËĪÉĽn":2635,"ĠbÉĻfËĪÉĻ":2636,"dÉĻl":2637,"ĠhjËĪuËĲmÉĻn":2638,"ĠhËĪÃ¦ÅĭÉªÅĭ":2639,"ĠpËĪÉªst":2640,"ĠËĮÉĽl":2641,"ĠlËĪaÉªÉªÅĭ":2642,"ĠswËĪÉªÅĭ":2643,"ĠflËĪÃ¦Êĥ":2644,"ÊĥaÉªn":2645,"ĠpÉ¹ËĪaÉªd":2646,"Éļt":2647,"Î²ÉĻd":2648,"ĠÉªnst":2649,"kËĪÃ¦n":2650,"ĠkËĪaÊĬ":2651,"É¹Éª":2652,"ĠfÉ¾ÉĻnd":2653,"ĠblÉĻ":2654,"ĠtÊĥËĪeÉªnz":2655,"iÉĻn":2656,"ĠÎ¸ÉĻÅĭz":2657,"ĠspËĪiËĲd":2658,"ĠwËĪÉªÅĭz":2659,"ĠdÉĻp":2660,"ĠklËĪaÊĬdz":2661,"ĠtÉ¹ËĪÊĮk":2662,"ĠÉ¹áµ»É¡É¹":2663,"ĠhËĪÉĳËĲÉ¹dÉļ":2664,"ĠslÉĻp":2665,"ËĪÃ¦stÉļ":2666,"âĢ¦":2667,"ĠpÉĻlËĪiËĲs":2668,"ĠkwËĪÉªt":2669,"ÉļÉ¹ÉĻl":2670,"ĠpËĪaÊĬnd":2671,"ĠËĪÉĽndz":2672,"ĠwËĪÊĮnhËĪÊĮndÉ¹ÉĻd":2673,"ĠÉ¹ËĪuËĲlz":2674,"ĠfËĪÉªks":2675,"ĠdÉ¹ËĪÊĮm":2676,"ĠÉ¡ËĪaÉªz":2677,"ĠdËĪÊĮst":2678,"ĠfËĪoÊĬk":2679,"ĠwËĪoÊĬk":2680,"ËĪÉĽts":2681,"ĠÉĻsk":2682,"ĠÊĥËĪÊĬÉ¡Éļ":2683,"ĠsÉĻnd":2684,"ĠpÉĻplÉĻ":2685,"ĠkwËĪÉĽstÊĥÉĻn":2686,"ĠdËĪÉªst":2687,"ĠjËĪÉĽstÉļdËĮeÉª":2688,"!!":2689,"ĠlËĪÉľËĲnd":2690,"ĠpÉ¹ËĪaÊĬd":2691,"ËĮaÉªd":2692,"ĠfËĪÉĶËĲÉ¹ÉĻn":2693,"ÉļÉ¹ÉĻs":2694,"ÉªÅĭz":2695,"ĠËĪÉĽkst":2696,"ĠwËĪeÉªtÉªn":2697,"ĠbÉ¹ËĪoÊĬ":2698,"ÉĽnËĪÉĽvÉļ":2699,"Ã°ÉĻm":2700,"ĠÊĥËĪÉĻd":2701,"ÉĽk":2702,"ĠwËĪÉĽlkÊĮm":2703,"ĠlÉĻft":2704,"ĠbÉĻd":2705,"ĠsmËĪoÊĬkÉªÅĭ":2706,"ĠblËĪuËĲz":2707,"ĠbËĪÉªÉ¡Éļ":2708,"ĠÊĥËĪÉĳËĲp":2709,"loÊĬ":2710,"ĠkËĪÉĳËĲÉ¹d":2711,"ĠslËĪiËĲpÉªÅĭ":2712,"ĠsËĪÉªpÉªn":2713,"ËĪÉľËĲtÊĥ":2714,"ĠpÉĻz":2715,"ËĪiËĲzi":2716,"ĠhËĪÊĮsÉĻl":2717,"ĠmËĮÃ¦":2718,"ĠtwËĪaÉªs":2719,"ĠlËĪÉĳËĲkt":2720,"lËĪaÉª":2721,"ĠtÉ¹ËĪÃ¦v":2722,"ĠfÉ¹ËĪiËĲd":2723,"ĠÉ¡lËĪoËĲÉ¹i":2724,"ĠfËĪÊĮÅĭk":2725,"ĠskÉ¹ËĪiËĲmÉªÅĭ":2726,"ĠhËĪeÉªvÉĻn":2727,"ĠÉ¹ËĪuËĲf":2728,"ĠdÊĴËĪiËĲnz":2729,"ĠtËĪÉªp":2730,"ËĪÊĮl":2731,"ĠÉĲwËĪeÉªk":2732,"ĠkËĪÉĶËĲláµ»n":2733,"ĠbËĪÉľËĲÎ¸":2734,"ĠlËĪiËĲst":2735,"ËĪÉĻty":2736,"ĠbÉ¹ËĪÉĽd":2737,"ĠsËĪÉªmpÉĻl":2738,"ËĪÉĽÉ¹z":2739,"ĠbËĪÉĽÉ¹i":2740,"bËĪo":2741,"ĠkËĪoÊĬk":2742,"ĠbËĪÊĮs":2743,"ĠbËĪÊĮk":2744,"ĠmÉĻm":2745,"ĠlËĪeÉªtli":2746,"ĠÉ¹Éª":2747,"ĠÉĲmËĪeÉªz":2748,"ĠÉªnsËĪeÉªn":2749,"ĠÉªnt":2750,"ĠsËĪÉĽksi":2751,"ĠÉĻks":2752,"ĠjËĪÉĳËĲ":2753,"ĠwÉĽnËĪÉĽvÉļ":2754,"ĠtËĪÉĽÉ¹":2755,"ĠdÉĻl":2756,"ĠkwËĪaÉª":2757,"ĠwËĪÊĮnd":2758,"ĠpËĪÉªmp":2759,"ĠÉªmËĪoÊĬ":2760,"ĠkÉĻnd":2761,"ËĪÉĽÅĭ":2762,"ĠkËĪoÊĬd":2763,"sw":2764,"ĠÉĽsk":2765,"ĠÉªl":2766,"ĠsËĪÉªÅĭk":2767,"ĠnËĪÉĻ":2768,"ĠpËĪÉľËĲsÉĻn":2769,"ĠstËĪÊĮf":2770,"ĠsËĪÉªÉ¹":2771,"ĠkËĪÊĮlÉļ":2772,"ĠËĪeÉªndÊĴÉĻlz":2773,"ĠstËĪÃ¦k":2774,"ĠbÉ¹ËĪaÊĬn":2775,"ËĪoÊĬd":2776,"ĠstÉ¹ËĪÉĽs":2777,"É¹ÉĻl":2778,"ĠvjËĪuËĲ":2779,"ĠÉªnstËĪÉĽd":2780,"ÉªtËĮaÉªm":2781,"ĠkËĪeÉªk":2782,"ĠfÉ¾ÉĻ":2783,"Ġ('":2784,"ĠskËĪÉĳËĲÉ¹":2785,"ĠsËĪÉªtÉªn":2786,"Ã¦t":2787,"ĠkËĪÉĶst":2788,"ËĮÉªlÉªk":2789,"ĠwËĪÉĶËĲkÉªn":2790,"sáµ»É¹ËĮÉªlÉªk":2791,"sáµ»É¹ËĮÉªlÉªkjËĪÉĽËĲ":2792,"ĠËĪÃ¦skt":2793,"ĠhËĪÃ¦pÉĻnd":2794,"ĠfËĪÉªnÉªÊĥ":2795,"ĠÉ¡É¹ËĪoÊĬn":2796,"ĠmËĪÃ¦É¹i":2797,"ĠsËĪÉªkst":2798,"ĠtËĪaÉªd":2799,"ĠÉĻlÉĻn":2800,"ĠdÊĴÉĻ":2801,"ÉļÉ¹ËĪeÉªÊĥÉĻn":2802,"zËĪiÉĻÉ¹oÊĬ":2803,"ĠËĪeÉªdÊĴ":2804,"ĠtÉ¹ËĪiËĲz":2805,"ĠplÉĻs":2806,"ĠtËĪÉĽláµ»n":2807,"ËĪuËĲjÉĻ":2808,"ĠbËĪÊĮmp":2809,"ĠtËĪeÉªl":2810,"ĠÉĻnÉĻÃ°ËĪo":2811,"ĠmËĪuËĲvi":2812,"ĠbËĪoÊĬt":2813,"ËĪÉĶËĲd":2814,"ĠsËĪaÉªlÉĻns":2815,"ÉĻnÉĻ":2816,"ĠdËĪÉĳËĲktÉļ":2817,"ĠtÉ¹ËĪÉªpÉªn":2818,"ËĪÃ¦lÉªÉ¾i":2819,"ĠÉĲtËĪÉĽnÊĥÉĻn":2820,"ÉĶËĲ":2821,"ĠÉ¡ËĪeÉª":2822,"ÊĥÉĻl":2823,"ÉĲfËĮÊĮk":2824,"ĠbËĪÃ¦É¾ÉĻl":2825,"ĠslËĪÉªp":2826,"ĠÉĲk":2827,"ĠsËĪÊĮnÊĥaÉªn":2828,"ĠmËĪÉĽmÉļÉ¹i":2829,"ĠËĪaÊĬÉļ":2830,"ĠdÉ¹ËĪÉªp":2831,"ĠhËĪÉªl":2832,"ĠkÉ¹ËĪiËĲp":2833,"ĠplËĪeÉªsáµ»z":2834,"ĠbËĪeÉª":2835,"ĠfËĪÊĬt":2836,"ĠÎ¸ËĪÊĮ":2837,"Î¸ÉĲfËĮÊĮk":2838,"ĠlÉĻvÉĻÅĭ":2839,"ĠsÉĻks":2840,"ĠÉ¹áµ»s":2841,"fÉĻ":2842,"áµ»lËĪuËĲjÉĻ":2843,"ÉĻdËĮaÉª":2844,"ĠklÉĻs":2845,"ĠÉ¡ËĪÃ¦ÅĭstÉĻ":2846,"ĠnËĪÉĶËĲÉ¹":2847,"ĠÉĻnËĪy":2848,"ĠkwËĪaÉªÉĻt":2849,"ËĪuËĲs":2850,"ËĪaÅĭ":2851,"ĠkËĪÊĮvÉļ":2852,"ËĪÃ¦É¾Éªk":2853,"ĠfÉ¹ËĪiËĲdÉĻm":2854,"ĠbËĪÊĬk":2855,"ĠËĪas":2856,"ĠÎ¸É¾ÉĻ":2857,"ĠmÉĻk":2858,"ĠËĪÃ¦skÉªÅĭ":2859,"ĠdÉ¹ËĪaÉªvÉªÅĭ":2860,"ĠbËĪoÊĬn":2861,"ĠbËĪiËĲf":2862,"ĠfËĪiËĲld":2863,"ĠfËĪÉĶËĲláµ»n":2864,"ĠfËĪaÉªÉ¾ÉªÅĭ":2865,"ĠdËĪoËĲÉ¹z":2866,"tËĪeÉªk":2867,"oÊĬm":2868,"Ġ,":2869,"ËĪÉĻnt":2870,"ËĪÉĶËĲÉ¹s":2871,"ĠdÉ¾":2872,"ĠsmÉĻk":2873,"pÉ¹ËĪaÉªz":2874,"ĠËĮÉĽmËĪÉĽm":2875,"ĠhËĪÃ¦ndÉĻl":2876,"ĠkËĪoÊĬst":2877,"ĠnËĪÉªk":2878,"ĠsËĪÊĮmhaÊĬ":2879,"ĠfËĪÃ¦":2880,"ĠhËĪÉĽld":2881,"ĠdÉ¹ËĪÊĮÉ¡":2882,"Ġdáµ»nËĪaÉª":2883,"hËĪoÊĬ":2884,"ĠÉ¡lËĪÉĳËĲk":2885,"ĠtËĪÊĮf":2886,"ĠpÉ¹ËĪuËĲv":2887,"ĠËĪÉĽnÉªwËĮÉĽÉ¹":2888,"ËĪÉĽÊĥÉĻn":2889,"ĠËĪaÊĬÉļz":2890,"Ġbáµ»sËĪaÉªd":2891,"ËĪuËĲn":2892,"ËĪÉĳËĲlv":2893,"lÉĻt":2894,"ĠsËĪÊĮnd":2895,"ĠflËĪaÉªÉªÅĭ":2896,"ÊĮp":2897,"ĠmËĪÉĽd":2898,"ĠËĪÃ¦stÉļÉ¹ËĮÉªsk":2899,"ÉĻdÊĴÉĻ":2900,"ÉĶËĲl":2901,"ĠtËĪÉľËĲnz":2902,"ĠwÉĽÉ¹":2903,"ĠdÉ¹ËĪÃ¦É¡":2904,"ĠdËĪÉĽÉ¹":2905,"ĠpËĪoÊĬl":2906,"ĠdÊĴËĪeÉªl":2907,"ĠwÉĽÉ¹ËĪÉĽvÉļ":2908,"ĠstÉ¹ËĪÉĶÅĭÉ¡Éļ":2909,"pËĪeÉªn":2910,"hËĪaÊĬ":2911,"ĠÉĲdv":2912,"ĠspËĪÉªÉ¹Éªt":2913,"ËĪÉĶnd":2914,"laÉªn":2915,"taÊĬn":2916,"oÊĬk":2917,"ĠpËĪÊĬld":2918,"dÉĻn":2919,"lËĪaÉªk":2920,"É¹uËĲm":2921,"ĠkËĪÉĳËĲl":2922,"ĠÉªÉ¡n":2923,"ĠvËĪÉľËĲs":2924,"ĠkËĪÉªtÊĥ":2925,"ĠsËĪiËĲt":2926,"ĠbÉ¹ËĪÊĮÃ°Éļz":2927,"ĠpËĪÊĬÉ¹":2928,"ĠÉ¡ËĪÉĽÉ¾oÊĬ":2929,"ĠbËĪÊĬlÉªt":2930,"ĠËĪÊĮÉ¡":2931,"ĠtÉĻtÊĥ":2932,"nËĪaÉªt":2933,"ĠdËĮÉªsÉĲpËĪÉªÉ¹":2934,"ĠplËĪÊĮÉ¡":2935,"ĠswËĪÉĽt":2936,"ĠmËĪuËĲvz":2937,"ĠjËĪÉĽloÊĬ":2938,"ËĮÉĽskËĮeÉªËĪÉĳËĲÉ¹É¹ËĮÉĳËĲÉ¹tËĪiËĲ":2939,"ËĪÉĽvÉĻnt":2940,"ĠÉªnsÉĻd":2941,"ĠÉ¾ÉĻz":2942,"ĠÉĲÉ¡ËĪoÊĬ":2943,"ĠdËĪiËĲpÉļ":2944,"ËĪÃ¦nÉĻ":2945,"ĠbËĪÉĽnt":2946,"dÉĻm":2947,"ĠkËĪÉľËĲ":2948,"ËĪaÊĬÉļz":2949,"ĠtËĪÉĽm":2950,"ĠtËĪÉĶËĲl":2951,"ËĪÉĻv":2952,"ĠÉ¡ËĪÉĳËĲÉ¹d":2953,"ĠslËĪoÊĬli":2954,"ĠhËĪÊĬk":2955,"ĠstÉ¹ËĪÉªp":2956,"Ġ{":2957,"ĠpËĪÊĮmp":2958,"ËĮÃ¦n":2959,"ËĪyÅĭ":2960,"ĠpËĪiËĲsáµ»z":2961,"ĠtËĪiËĲÎ¸":2962,"ĠÊĥËĪÊĬdÉĻn":2963,"ĠbËĪÉĳËĲÉ¾ÉĻlz":2964,"Ã°ËĪÉĽÉ¹":2965,"ĠwËĪÉľËĲst":2966,"ĠsÉļpÉ¹ËĪaÉªz":2967,"ĠkËĪÉªtÊĥÉĻn":2968,"ĠjËĪiËĲ":2969,"ĠÉ¹ËĪoÊĬt":2970,"ĠdÉĻnsÉĻ":2971,"ĠlËĪaÉªnz":2972,"ĠlËĪÉĶËĲ":2973,"ĠÎ¸ÉĻt":2974,"ĠÉĽskËĪeÉªp":2975,"ÉĻmp":2976,"ĠÉ¹ËĪÉĽkÉļd":2977,"ĠËĮÉª":2978,"ĠwÉªÃ°ËĪÉªn":2979,"ËĪÉĽktáµ»d":2980,"ĠwËĪÉªntÉļ":2981,"ĠdËĪÉĶËĲÉ¡":2982,"ĠkËĪÉªld":2983,"niÉĻ":2984,"sËĪÉªks":2985,"ĠmÉĻsËĪÉĻlf":2986,"ĠkËĪÉĳËĲps":2987,"naÉªt":2988,"ĠfËĪÉªÉ¡jÉļ":2989,"hiËĲ":2990,"ĠpËĪÉĽÉ¹":2991,"ËĪÉĻtyÉĻn":2992,"ËĪuËĲt":2993,"ĠstÉ¹ËĪÃ¦p":2994,"ĠbËĪÉľËĲdz":2995,"ĠbËĪÉĽnts":2996,"É¹ÉĻs":2997,"ĠbËĪoÊĬnz":2998,"ÉĻdËĮaÉªs":2999,"ĠtÊĥËĪÉľËĲtÊĥ":3000,"Î²ÉĻdËĮi":3001,"ĠpÉ¹ËĪiËĲ":3002,"ĠmËĪÉĽsÉªdÊĴ":3003,"ĠfËĪÉľËĲ":3004,"ĠËĮÉĽs":3005,"ĠËĪÉĶËĲÉ¹":3006,"ĠbÉĻlÉĻvÉĻ":3007,"ĠlËĪÉĶÉª":3008,"ĠfËĪÉªÅĭÉ¡Éļz":3009,"vÉĻl":3010,"--":3011,"bËĪÉªtÊĥ":3012,"ĠÉ¹ËĪÉĳËĲkÉªn":3013,"ĠmËĪÊĮn":3014,"ËĪoËĲÉ¹t":3015,"ËĮÃ¦lÉª":3016,"ĠËĪÃ¦ktÉªn":3017,"ĠmËĪÃ¦tÊĥ":3018,"ĠsËĪÉªp":3019,"ĠsËĪÃ¦ntÉĻ":3020,"ĠdÊĴËĪÃ¦m":3021,"ËĪank":3022,"ËĪÉĽÊĴÉļ":3023,"ĠkÉļÉ¹":3024,"ĠkÉ¹ËĪÉĶËĲl":3025,"ĠÉ¹ËĪÉªÃ°ÉĻm":3026,"ĠsËĪÃ¦k":3027,"ĠhËĪiÉĻÉ¹oÊĬ":3028,"ĠÉĻvÉ¾ËĪyÎ²ÉĻdi":3029,"ĠzËĪoÊĬn":3030,"Éļdz":3031,"ĠkwËĪaÉªt":3032,"ĠtwËĪÉĽlv":3033,"ĠsËĪÉľËĲtÊĥÉªÅĭ":3034,"ĠpËĪoÊĬst":3035,"ÉĶÉª":3036,"ËĪaÊĥ":3037,"ĠtÊĥÉĻk":3038,"ĠbËĪaÉªt":3039,"ĠÉĻld":3040,"ĠdËĪÉĳËĲlÉļz":3041,"ĠÉ¡É¹ËĪeÉªs":3042,"ĠtÊĥËĪiËĲ":3043,"ĠËĪiËĲvÉĻl":3044,"ĠpÉ¹ËĪÉĽÊĥÉļ":3045,"ĠÊĥËĪÃ¦l":3046,"ĠsËĮiËĲ":3047,"ĠÉĽksplËĪeÉªn":3048,"ĠdËĪÉĶËĲn":3049,"ĠÉ¡ËĪoÊĬldÉĻn":3050,"ĠfËĪÉªÊĥ":3051,"ËĪÉĽtÊĥ":3052,"ĠÉ¡É¹ËĪuËĲv":3053,"sËĪeÉª":3054,"ĠnËĪeÉªb":3055,"ĠflËĪaÉªt":3056,"ĠbËĪiËĲts":3057,"ËĮaÉªzd":3058,"ĠvËĪiËĲ":3059,"ĠhÉĻs":3060,"ĠmËĪÉĻt":3061,"ĠdËĪoÊĬn":3062,"ĠhËĪoÊĬpÉªÅĭ":3063,"Éªnz":3064,"ĠÊĥËĪeÉªd":3065,"ÊĥÉªt":3066,"ĠËĪÉľËĲli":3067,"fÉĶËĲÉ¹":3068,"ĠdËĪÉĶËĲÉ¾Éļ":3069,"ĠlÉĻl":3070,"ĠÉªmËĪÃ¦dÊĴÉªn":3071,"ĠsËĪÊĮndeÉª":3072,"slËĪiËĲp":3073,"ĠlËĪeÉªn":3074,"ĠtËĪÉĽkst":3075,"ĠfËĪÉªnÉĻ":3076,"Ã°eÉª":3077,"ĠmÉĻÊĥ":3078,"É¹ËĪaÉª":3079,"ĠbËĪÉªlt":3080,"ÉĻbÉ¹":3081,"ĠskËĪaÉªz":3082,"ĠËĪeÉªm":3083,"ĠhËĪoÊĬmiz":3084,"ĠdÊĴËĪoÊĬ":3085,"ĠkËĪÉĳËĲk":3086,"ĠtÉĻkÉĻÅĭ":3087,"ĠspÉ¹ËĪÉĽd":3088,"ËĪÉĳËĲz":3089,"ĠkËĪÊĮlÉļz":3090,"ĠstÉĻp":3091,"ĠbÉĻz":3092,"ĠnËĪÉĻÎ²ÉĻdËĮi":3093,"Î¸s":3094,"ĠÉ¹ËĪÊĮf":3095,"É£ÉĻ":3096,"ĠdÉ¾ÉĻp":3097,"ĠmÉĻvÉĻ":3098,"ĠmËĪÉªdnaÉªt":3099,"láµ»lËĪuËĲjÉĻ":3100,"ĠdÊĴËĪoÊĬk":3101,"ĠpËĪÃ¦É¹ÉĻdËĮaÉªs":3102,"ĠtËĪuËĲÎ¸ËĪaÊĬzÉĻnd":3103,"ĠhÉĻz":3104,"ĠbËĪuËĲÉ¾i":3105,"ĠËĪiËĲst":3106,"É¹Éªk":3107,"ĠwËĪÉľËĲkÉªn":3108,"ĠÉ¡ÉĻlz":3109,"ËĪÉªÉ¹Éªks":3110,"ĠstËĪeÉªdÊĴ":3111,"nËĪaÊĬ":3112,"ĠvËĪÉªÊĴÉĻn":3113,"ĠmËĪÉľËĲsi":3114,"ĠÉĽm":3115,"ËĮÃ¦lÉªfËĪoËĲÉ¹":3116,"jËĪÉĽs":3117,"ĠtÊĥÉĻndÊĴÉĻ":3118,"ĠblÉĻd":3119,"liÉĻn":3120,"ÉĽks":3121,"ĠlËĪÊĮvÉļz":3122,"jÊĬl":3123,"ĠstËĪÉĳËĲÉ¹ts":3124,"ĠbËĪÊĬlÊĥÉªt":3125,"ĠkËĪiËĲz":3126,"ĠÉ¡ÉĻm":3127,"ĠÉĽk":3128,"ĠbËĪiËĲtÊĥ":3129,"jÊĬÉ¹":3130,"ĠlËĪeÉªd":3131,"ĠaÉªd":3132,"ĠÊĥËĪÉĶËĲÉ¹t":3133,"ĠkËĪÉĶf":3134,"ĠdÊĴËĪaÉª":3135,"ĠdÉ¹ËĪÉªÅĭkÉªÅĭ":3136,"kËĪoËĲÉ¹":3137,"ÊĴuËĲ":3138,"ĠÉ¹ËĪaÉªm":3139,"ËĮÃ¦lÉªfËĪoËĲÉ¹niÉĻ":3140,"ĠnËĪÉľËĲv":3141,"ĠlËĪÉĽÉ¡z":3142,"ĠdËĪy":3143,"ĠfËĪeÉªl":3144,"ĠdÊĴËĪÉĽt":3145,"ĠfËĪeÉªsáµ»z":3146,"ĠfËĪeÉªmÉĻs":3147,"ĠlËĪÉªst":3148,"ËĪÉªnt":3149,"bÉĻm":3150,"ĠpËĪÉªktÊĥÉļz":3151,"ĠsËĪÉªstÉļ":3152,"ĠdËĪiËĲmÉĻnz":3153,"ĠËĪÃ¦ktÉªÅĭ":3154,"ĠdÉªsk":3155,"ĠlËĪÃ¦":3156,"ĠlËĪuËĲi":3157,"ĠsËĪeÉªl":3158,"ĠÉ¾ÉĻdÉĻ":3159,"ĠpËĪÉĳËĲkÉªts":3160,"ËĪyÉĻn":3161,"ĠkËĪiËĲpÉªÅĭ":3162,"ĠstËĪand":3163,"lËĮa":3164,"ĠËĮÊĮndÉļÉ¹":3165,"ĠstËĪÉĽdi":3166,"bz":3167,"Ġdáµ»sËĪaÉªd":3168,"ĠtÉ¹ËĪÉªk":3169,"ĠhËĪÉĽn":3170,"áµ»p":3171,"ĠÎ¸ËĪÉªk":3172,"ÉĻsÉĻd":3173,"ĠpËĪÉªÅĭk":3174,"ĠtËĪiËĲtÊĥ":3175,"ÉªtËĮuËĲ":3176,"ĠstËĪoÊĬl":3177,"ËĪÊĮks":3178,"ĠtËĮiËĲvËĪiËĲ":3179,"ÉĻkÉĻ":3180,"ĠpÉ¹ËĪeÉªz":3181,"ĠplËĪÃ¦nz":3182,"ÊĴÉĻnz":3183,"Ã°o":3184,"aÊĬt":3185,"ĠhËĪÊĮnÉªd":3186,"ĠÉ¡ËĪÉªvÉĻn":3187,"sËĪÊĮm":3188,"dËĪÃ¦m":3189,"ĠbËĪÉĳËĲp":3190,"ËĪeÉªkáµ»d":3191,"\",":3192,"ĠmËĪÉªks":3193,"ĠhËĮÃ¦láµ»lËĪuËĲjÉĻ":3194,"ĠdËĪÃ¦d":3195,"ËĮaÉªt":3196,"ĠdËĪuËĲd":3197,"É£ÉĻt":3198,"ĠËĪoÊĬldÉļ":3199,"ĠÉĻÉĻÉĻÉĻÉĻÉĻÉĻÉĻÉĻÉĻÉĻÉĻ":3200,"ĠkËĮÃ¦lÉªfËĪoËĲÉ¹niÉĻ":3201,"lËĪoÊĬ":3202,"ËĪÃ¦ÅĭÉ¡":3203,"ÉªtËĪÉĳËĲÉ¹":3204,"ĠhËĪÉĶËĲÉ¹s":3205,"ĠÊĥËĪÉĽl":3206,"ĠlËĪÉĳËĲÉ¾ÉĻ":3207,"ËĮÉªv":3208,"ĠtÊĥËĪeÉªsÉªÅĭ":3209,"ĠËĪiËĲÃ°Éļ":3210,"ĠdÊĴËĪÉªvÉªn":3211,"dÊĴÉĻ":3212,"ĠpËĪeÉªdÊĴ":3213,"ĠhËĪÉĳËĲli":3214,"ĠbËĪÊĬ":3215,"ĠblËĪÉĳËĲ":3216,"ĠhËĪiËĲ":3217,"ĠtËĪeÉªkÉĻn":3218,"ËĮoÊĬn":3219,"ĠnÉĻz":3220,"ĠËĮÉªnd":3221,"ĠkÉ¹iËĲ":3222,"pÉļÉ¹":3223,"ĠÉ¹ËĪÃ¦pÉļz":3224,"ĠlËĪÉĽÉ¾ÉªÅĭ":3225,"ĠËĮeÉª":3226,"ĠlËĪiËĲvz":3227,"slËĪÃ¦Êĥ":3228,"Ã¦mpËĪeÉªn":3229,"ĠwËĪiËĲ":3230,"sËĪÉĽvÉĻn":3231,"ĠËĪyn":3232,"ËĪuËĲÊĥÉĻn":3233,"bÉĻn":3234,"ĠÉ¡É¾ÉĻ":3235,"ĠnËĪÉĶÉªz":3236,"ĠplÉĻzÉĻ":3237,"ĠËĮÊĮndÉļnËĪiËĲÎ¸":3238,"ĠmÉªstËĪeÉªks":3239,"ĠwËĪeÉªstáµ»d":3240,"ĠdËĪÃ¦t":3241,"ĠlËĪeÉªm":3242,"ĠÉĲs":3243,"ĠwËĪÉĳËĲtÊĥÉªn":3244,"jÉĻz":3245,"ĠÉĲdm":3246,"ĠmËĪÃ¦stÉļ":3247,"aÉªl":3248,"ĠsËĪaÊĬndz":3249,"ĠÉ¾ÉĻtÊĥ":3250,"ĠÉ¹ËĪÉĳËĲks":3251,"Ġdáµ»v":3252,"boËĲÉ¹":3253,"ĠkËĪÊĮv":3254,"ĠÉĲf":3255,"ÉĻmbËĪo":3256,"ÊĥÉĻs":3257,"ËĪÉĶloÊĬ":3258,"ĠÊĥËĪoÊĬz":3259,"ĠnËĪeÉªkáµ»d":3260,"ĠËĪynÉĻf":3261,"ĠnËĪoÊĬÉªÅĭ":3262,"ĠdËĪÃ¦nsÉªn":3263,"ĠhËĪÉªst":3264,"ĠfÉĻm":3265,"ËĪoÊĬv":3266,"wËĪeÉª":3267,"ĠstÉ¹ËĪÉĽÅĭ":3268,"hËĪÉĻnd":3269,"wÉļd":3270,"ĠsmÉĻl":3271,"ĠÉ¹ËĪeÉªzd":3272,"ËĪÃ¦z":3273,"jËĪuËĲzd":3274,"É¡i":3275,"ĠsËĪÊĮf":3276,"ftÉĻ":3277,"ĠkÉ¾ÉĻzÉĻ":3278,"ĠÊĥËĪoÊĬldÉļ":3279,"oÊĬtËĪÉĽl":3280,"ĠvËĪÉªkt":3281,"kËĪoËĲÉ¹ÉĻs":3282,"ĠsËĪÉªlvÉļ":3283,"É¾ËĪa":3284,"ĠÉ¹oÊĬm":3285,"ĠvËĪÉľËĲ":3286,"ËĪÃ¦É¾Éļ":3287,"ĠwËĪiËĲkÉĽnd":3288,"ËĪaÉªÉĻ":3289,"bÉļz":3290,"ĠmËĪÉĶn":3291,"ËĮÉĳËĲÉ¹É¹ËĪÉĳËĲÉ¹":3292,"ĠsËĪiËĲlÉªÅĭ":3293,"ĠÉ¾ËĪap":3294,"ĠklËĪÉĳËĲk":3295,"sÉĽ":3296,"ĠbËĪiËĲÉ¾ÉªÅĭ":3297,"ËĪÃ¦sti":3298,"ĠmËĪÉĳËĲli":3299,"ĠtËĪÉĶËĲt":3300,"ĠÉĻÃ°ÉĻ":3301,"ĠÉĲslËĪiËĲp":3302,"ĠmÉĻd":3303,"ĠlËĪÃ¦m":3304,"ĠklËĪoÊĬzd":3305,"ĠbËĪÉªzi":3306,"ĠjÉĻzÉĻd":3307,"ËĮeÉªÉ¾ÉªÅĭ":3308,"ĠhËĪÉª":3309,"É¹ËĪaÉªt":3310,"ĠwÉĻÃ°ËĪÉĻt":3311,"ĠfËĪÉĶlt":3312,"ĠkÉ¹ËĪaÉªd":3313,"ĠfÉ¹ËĪaÉªd":3314,"ËĪÉĽlvz":3315,"ĠlËĪÉĽvÉĻl":3316,"ĠhËĪÉĶËĲl":3317,"ĠÉ¹áµ»pl":3318,"ĠbÉ¹ËĪÉªdÊĴ":3319,"ĠÉ¡ËĪÉľËĲlfÉ¹ÉĽnd":3320,"ĠlÉĻkÉĻÅĭ":3321,"ĠlËĪoÊĬk":3322,"ĠpËĪÉľËĲpÉĻl":3323,"ĠkÉĻmËĪyÅĭ":3324,"ĠÉ¡ÉªtËĪÉĳËĲÉ¹":3325,"Éļn":3326,"ĠtËĪuËĲn":3327,"bËĮiËĲ":3328,"ĠkwËĪÉĶËĲÉ¹":3329,"ĠËĪeÉªtÊĥ":3330,"ĠkÉĳËĲn":3331,"Î¸i":3332,"sÊĮm":3333,"lËĪÊĬk":3334,"ĠstÉ¹ËĪeÉªndÊĴÉļ":3335,"ĠdËĪeÉªndÊĴÉļÉ¹ÉĻs":3336,"ĠsËĪÉľËĲtÊĥ":3337,"ĠÊĥËĪÃ¦doÊĬz":3338,"ĠhËĪÉªstÉļÉ¹i":3339,"ĠÉ¾ËĪa":3340,"ËĪe":3341,"ÉĻÉ¾ÉĻ":3342,"ĠmËĪÊĮÃ°ÉļfËĮÊĮkÉļz":3343,"ĠpÉ¾ÉĻt":3344,"ĠsËĪiËĲÉªÅĭ":3345,"ĠbËĪÊĮÉ¾Éļ":3346,"ËĮoËĲÉ¹":3347,"ĠbËĪÃ¦É¡z":3348,"ĠÉ¡ËĪÃ¦l":3349,"jËĪoÊĬ":3350,"ĠbËĪaÊĬnd":3351,"ĠswËĪÃ¦É¡":3352,"ĠÉ¡É¹ËĪuËĲ":3353,"ĠvËĪaÉªÉĻl":3354,"ĠstËĪÊĮnt":3355,"ĠwËĪÉĽ":3356,"ĠÉ¾ÉĻs":3357,"ĠÉĲmËĪÉĽÉ¹ÉªkÉĻn":3358,"ĠfÉĻd":3359,"twËĪÉĽnti":3360,"É¹ÉªdÊĴ":3361,"ĠklËĪeÉªm":3362,"ĠfËĪÉªld":3363,"ĠfÉļÉ¡ËĪÉĳËĲt":3364,"ĠfÉĻkÉĻn":3365,"ĠfÉĻkÉĻÅĭ":3366,"ĠstÉ¹ËĪÉĽÅĭÎ¸":3367,"ĠbËĪÊĮm":3368,"ĠfËĪuËĲd":3369,"ËĪÉªÅĭks":3370,"fËĪÉªft":3371,"sËĪÉĽlvz":3372,"ĠtÊĥËĪÉĶÉªs":3373,"ĠÊĥËĪÃ¦doÊĬ":3374,"ĠbÉ¹ËĪeÉªks":3375,"ĠfËĪeÉªdáµ»d":3376,"ĠswËĪÉĶloÊĬ":3377,"ĠlËĪÃ¦fÉªÅĭ":3378,"ĠËĪuËĲuËĲ":3379,"ĠÉ¹áµ»É¡É¹ËĪÉĽt":3380,"ĠdËĪoÊĬnt":3381,"ĠwËĪeÉªvz":3382,"ĠmËĪÉĳËĲÉ¹k":3383,"ĠsÉĻnt":3384,"ĠÉ¡w":3385,"ËĪÃ¦mi":3386,"ĠkÉ¹ËĪaÉªm":3387,"ĠmËĪÉĶËĲÉ¹nÉªn":3388,"ËĮÉĶËĲ":3389,"ĠhËĪand":3390,"wËĮeÉª":3391,"ĠtËĪeÉªbÉĻl":3392,"eÉªs":3393,"ĠÉ¹áµ»tËĪÉľËĲn":3394,"ĠnËĪÃ¦sti":3395,"ĠhËĪoÊĬldÉªn":3396,"ËĪÉĽlÉĻ":3397,"ËĪÉĳËĲÉ¹É¹i":3398,"ĠÎ¸ËĪÊĮndÉļ":3399,"ĠhËĪÊĮsl":3400,"ĠswÉĻt":3401,"ĠkËĪÉĶËĲlz":3402,"Ġdáµ»É¹":3403,"É¾ÉªsfËĮaÉª":3404,"ÉªsËĮaÉªd":3405,"Ġdáµ»p":3406,"ËĮeÉªtÊĥËĪÉĽm":3407,"ĠlËĪÉªsÉĻnÉªÅĭ":3408,"wËĮÊĬd":3409,"ËĪeÉªÉ¾áµ»d":3410,"ËĪÃ¦sÉªn":3411,"áµ»m":3412,"ĠËĮÊĮndo":3413,"ËĮÉĶ":3414,"ĠtÉ¹ËĪÃ¦vÉĻl":3415,"ĠblËĪÊĮnt":3416,"ĠdÉĻf":3417,"ËĪato":3418,"fÉªs":3419,"ĠbÉ¾ÉĻÅĭ":3420,"ÉĻntli":3421,"ĠstÉ¹ËĪÊĮÉ¡":3422,"ĠÉ¹ËĪÉªp":3423,"ĠhËĪÃ¦tÉªn":3424,"ĠÎ¸ËĪÉĳËĲ":3425,"ĠbÉ¹ËĪaÉª":3426,"ĠÉĻs":3427,"ĠkÉ¹ËĪaÊĬn":3428,"ËĮÉĳËĲl":3429,"ĠÉĲmËĪeÉªzÉªÅĭ":3430,"ĠÊĥÃ¦mpËĪeÉªn":3431,"ËĪÉĳËĲlÉĻdÊĴ":3432,"ĠlËĪÉªkÉļ":3433,"ĠwËĪÊĮndÉļfÉĻl":3434,"dËĪaÊĬn":3435,"Ġ?":3436,"ĠdÉ¹ËĪÉĳËĲpt":3437,"ĠËĪÃ¦nÉªm":3438,"ĠhÉĳËĲhËĪÉĳËĲ":3439,"ËĪÉĶËĲks":3440,"ËĪÉªzÉĻn":3441,"ĠbÉ¹ËĪÉªk":3442,"ËĪÊĮndÉĻn":3443,"ĠÉ¹ËĪÉĳËĲkÉªÅĭ":3444,"ĠhËĪaÉªweÉª":3445,"ĠÉ¡ËĪÉĳËĲdÃ¦m":3446,"plÉĻs":3447,"ĠmÉĻÊĥËĪiËĲn":3448,"bÉĻdÉĻ":3449,"ĠfËĪÉĶËĲlz":3450,"ĠblËĪoÊĬÉªÅĭ":3451,"ĠklËĪÉªp":3452,"nËĪÉĽvÉļ":3453,"ĠÎ¸É¹ËĪÉªl":3454,"ĠÉ¡ËĪÉĻtÉĻÅĭ":3455,"ĠwÉĻst":3456,"ĠÉ¹ËĪÉªÅĭz":3457,"áµ»fËĮaÉªd":3458,"ĠÊĮnÉĻÉĻÉĻ":3459,"ĠdËĪam":3460,"ĠbÉĻm":3461,"ĠtËĪoÊĬn":3462,"ĠbËĪÉľËĲÎ¸deÉª":3463,"ĠwËĪÊĮÉ¹id":3464,"ĠmÉªs":3465,"ËĪÃ¦É¹":3466,"ĠblËĪÃ¦st":3467,"ĠhËĪandz":3468,"ĠËĪiËĲvnÉªÅĭ":3469,"ĠpËĪÉªlz":3470,"ĠkËĪÉªlÉļ":3471,"ĠÉĲdmËĪÉªt":3472,"Éļs":3473,"ĠbËĪÉĳËĲÉ¹z":3474,"ËĪÉªktáµ»d":3475,"ĠÊĮnlËĪÉĽs":3476,"ĠtÊĥËĪoÊĬz":3477,"ĠwËĪÉľËĲs":3478,"ĠpÉ¹ÉĻt":3479,"É¡É¹i":3480,"ĠdÉ¾ÉĻnk":3481,"ËĪÃ¦stÉªk":3482,"ĠÉĻlÉ¾ÉĻt":3483,"ĠdÊĴËĪuËĲs":3484,"ĠdÊĴËĪÉĶÉªn":3485,"É¾ËĪi":3486,"ĠÉ¡É¹ËĪÃ¦s":3487,"ĠsmËĪÃ¦Êĥ":3488,"ĠÉĻd":3489,"ËĮiËĲËĪÉĽs":3490,"ËĪaÉªÉ¾áµ»d":3491,"ĠmÉĻÃ°":3492,"ĠkËĪÉªláµ»n":3493,"ĠdÉªzËĪaÉªÉļ":3494,"ĠbÉĻs":3495,"ĠbËĪÉĳËĲdiz":3496,"fÉªn":3497,"ĠÉĳËĲ":3498,"ĠtËĪÊĬÉ¹":3499,"ËĪÊĮdi":3500,"bÉ¹eÉªk":3501,"ĠstËĪeÉªd":3502,"ĠËĮÉĽskËĮeÉªËĪÉĳËĲÉ¹É¹ËĮÉĳËĲÉ¹tËĪiËĲ":3503,"bËĮiËĲËĮÉĳËĲÉ¹É¹":3504,"ĠsËĪeÉªvd":3505,"ĠlËĪÊĮvli":3506,"ĠkÉ¹ËĪÉªst":3507,"ĠÊĥËĪoÊĬd":3508,"ĠhËĪÉľËĲÉ¹i":3509,"ĠpÉĻsËĪi":3510,"ĠswËĪiËĲ":3511,"ĠdËĪÉªp":3512,"ĠspËĪÉĳËĲÉ¹k":3513,"ÉļÉ¹ËĮÉªn":3514,"ĠÉĻÉĻÉĻËĪÉĻ":3515,"ĠdËĪÊĮk":3516,"ĠsËĪÃ¦É¾ÉªsfËĮaÉª":3517,"ĠhËĪÉĳËĲliwËĮÊĬd":3518,"jËĪÉĶnd":3519,"ĠtËĪoÊĬz":3520,"ĠblËĪak":3521,"ĠwËĪaÊĬ":3522,"ĠskÉĻ":3523,"ĠÊĮnf":3524,"ËĪiËĲf":3525,"ĠdËĪÊĮ":3526,"ĠÉ¹ËĪÃ¦t":3527,"ĠdËĪÉªs":3528,"ĠblËĪoÊĬÉªn":3529,"ĠbËĪÉĽntli":3530,"dÊĴÉļ":3531,"É¡ËĪÉľËĲl":3532,"ĠtÊĥËĪeÉªndÊĴÉªÅĭ":3533,"ĠÃ°ËĮÉĻ":3534,"ĠlËĪÊĮndÉĻn":3535,"ĠnËĪoÊĬÉ¾Éªs":3536,"ÉĽs":3537,"vÉļs":3538,"ĠmËĪÊĮÃ°ÉļfËĮÊĮkÉªÅĭ":3539,"ĠbËĪÉĽlz":3540,"ĠfËĪoÊĬks":3541,"ĠpËĪÃ¦ÊĥÉĻn":3542,"ĠsÉĻv":3543,"ËĪÉĽvÉ¹Éª":3544,"ĠkÉĻld":3545,"ĠÊĥÉĻn":3546,"Ġbáµ»jËĪÉĶnd":3547,"ĠhËĪÉĳËĲlÉĻ":3548,"ĠlËĪÉĽdÊĴ":3549,"ĠdÉĻdÉĻn":3550,"kjËĪuËĲs":3551,"ĠhËĪÃ¦vÉªn":3552,"ËĪuËĲËĪuËĲËĪuËĲËĪuËĲ":3553,"ËĪÊĮdÉĻn":3554,"É¡l":3555,"ĠdÉ¹ËĪÉĽst":3556,"ĠsÉĻmbÉĻdÉĻ":3557,"ËĪeÉªdi":3558,"ĠdËĪÉĳËĲÉ¡z":3559,"ĠËĮoÊĬv":3560,"ĠhËĪÊĮÅĭÉ¡É¹i":3561,"ĠËĪÉªÅĭ":3562,"ĠdÉªzËĪaÉªn":3563,"ĠslËĪeÉªv":3564,"ÉªdÉĻnt":3565,"hÉĻm":3566,"ĠwËĪÊĮndÉļÉ¹ÉªÅĭ":3567,"ĠmÉĻÎ²ÉĻ":3568,"ĠpËĪÉĳËĲt":3569,"ĠËĮoÊĬkËĪeÉª":3570,"zdeÉª":3571,"ĠlËĪaÉªÉªn":3572,"ĠbÉ¹ËĪÉªks":3573,"ĠËĪÉªnÉĻs":3574,"ĠsËĪÉĽlÉĻbÉ¹":3575,"ĠmÉĻÃ°ÉĻf":3576,"ĠdËĪÃ¦n":3577,"ËĪÉĳËĲnÉªk":3578,"ĠfÉĻlÉĻn":3579,"ĠjËĪuËĲn":3580,"ĠÉ¹ËĪÉĶËĲ":3581,"ĠkÉ¹ËĪuËĲz":3582,"ËĪÉªÉ¡ÉĻ":3583,"iËĲz":3584,"ĠpËĪÉªstÉĻl":3585,"ĠkËĪaÉª":3586,"ĠËĪÉªnd":3587,"ĠËĪaÉªlÉĻnd":3588,"ÉĻkÉĻl":3589,"ËĪÉĶÉªd":3590,"ËĪiËĲni":3591,"ĠfÉ¹ËĪoÊĬz":3592,"ĠtÊĥËĪÉĽÉ¹":3593,"ĠpÉ¹ËĪÉĽs":3594,"ĠbËĪÉªli":3595,"eÉªt":3596,"ĠwËĪÉªÊĥÉªÅĭ":3597,"ĠhËĪÃ¦pÉĻnz":3598,"ĠpËĪÃ¦nts":3599,"ĠsËĪÊĮdÉĻn":3600,"Êĥáµ»z":3601,"ĠÉ¹ËĪÉĽs":3602,"ĠbÉĻkËĪÉĻz":3603,"ĠdÊĴËĪÉĽlÉĻs":3604,"ĠhoÊĬtËĪÉĽl":3605,"ĠÉ¡ËĪaÅĭ":3606,"ĠsËĪÉĽvÉĻnt":3607,"ËĪÉĶËĲnt":3608,"blÉªÅĭ":3609,"ĠkËĪÃ¦ndi":3610,"ĠnÉĻn":3611,"Ã¦l":3612,"jÊĬlÉļ":3613,"ĠlËĪÉĽts":3614,"ĠtÊĥËĪiËĲp":3615,"hoÊĬ":3616,"ĠlÉĻvÉĻn":3617,"áµ»kjËĪÊĬÉ¹":3618,"ĠÉ¡É¹ËĪeÉªÉ¾Éªst":3619,"ĠbËĪÉĽÉ¹li":3620,"ËĮeÉªÉ¾Éļ":3621,"ËĪÉĳËĲsáµ»bÉĻl":3622,"ĠhËĪÉªts":3623,"ĠsËĪuËĲt":3624,"ĠËĪÉĽnÉĻmiz":3625,"ĠËĪakt":3626,"ĠlËĪÉªvd":3627,"ĠËĪÃ¦lbÉĻm":3628,"ĠsËĪÃ¦v":3629,"ĠnËĪeÉª":3630,"ĠdÉ¹ËĪÉĳËĲmÉĻ":3631,"ĠÉ¾ÉĻmÉĻmbËĪo":3632,"ĠÊĥËĪÉľËĲt":3633,"ĠwÉĻndÉĻ":3634,"ĠsËĪaÉªnz":3635,"ĠbËĪeÉªn":3636,"ĠbËĪiËĲst":3637,"ĠkÉĻÅĭ":3638,"ËĪÃ¦kÊĥÉĻn":3639,"ĠsnËĪeÉªk":3640,"ĠbÉ¹ËĪiËĲÃ°ÉªÅĭ":3641,"ĠbËĮiËĲ":3642,"ËĪÉªlÉĻ":3643,"ĠÉ¾ÉĻp":3644,"ĠËĪÉĳËĲl":3645,"ĠdÉ¹ËĪÉªÅĭkÉªn":3646,"aÉªm":3647,"ĠÉĽÉ¡zËĪÃ¦kt":3648,"ĠÎ¸É¹ËĪoÊĬn":3649,"ĠÉĽkskjËĪuËĲs":3650,"ĠvÉĻ":3651,"ĠfËĪoËĲÉ¹s":3652,"ĠwËĪÉĶËĲÉ¹n":3653,"ÉªnÉĻs":3654,"ĠbËĪÉªldÉªÅĭ":3655,"ĠdËĪÉªn":3656,"ĠÉ¡É¹ËĪoÊĬÉªÅĭ":3657,"ĠÉĽndÊĴ":3658,"ĠdËĪeÉªt":3659,"ĠËĪÉªl":3660,"ÉªndÊĴ":3661,"bÉĶÉª":3662,"ĠsËĪÉĽÉ¾ÉĻl":3663,"ĠlËĪÉĽÉ¾Éļ":3664,"ĠlÉĻzÉĻ":3665,"ĠËĪÉĶËĲÉ¹dÉļ":3666,"ĠdËĪÉªfÉ¹ÉĻns":3667,"ĠfÉ¹ËĪaÉªdeÉª":3668,"ĠswÉĻ":3669,"ĠsÉĻmwÉĻn":3670,"hËĪÉĳËĲhÉĻ":3671,"ËĪÉĽkstËĪuËĲ":3672,"ĠbËĪÊĮz":3673,"ĠpÉ¹ËĪaÉªv":3674,"ËĪÉªts":3675,"ĠblËĪÉĽst":3676,"mËĪÃ¦n":3677,"eÉªn":3678,"ĠtËĪÉĳËĲm":3679,"ĠdÊĴËĪuËĲÉĻl":3680,"Ġbáµ»nËĪiËĲÎ¸":3681,"ĠpÉĻtÉĻ":3682,"ĠdÊĴËĪÉĽntÉĻl":3683,"ËĮÉĳËĲm":3684,"ĠËĪÉĽnÉĻmi":3685,"ĠmËĪÉĶËĲÉ¹":3686,"ĠdÉ¹ËĪÉªft":3687,"ÉĻËĪÉĻÉĻÉĻ":3688,"ÉĻni":3689,"ĠÊĥÉĻk":3690,"ËĮÃ¦É¹":3691,"ËĪeÉªlz":3692,"áµ»kËĮeÉªÉ¾áµ»d":3693,"ĠÉ¡ËĪÉªl":3694,"ĠbËĪÊĬlÉªts":3695,"ĠhËĪÉªd":3696,"ĠÉĽkst":3697,"ĠkÉĳËĲnvÉļs":3698,"ĠsËĪÊĮb":3699,"ĠÉ¹áµ»z":3700,"ĠmËĪÃ¦sk":3701,"ĠËĪÉĽnÉļ":3702,"ÉªtËĮuËĲd":3703,"jÉĻt":3704,"ËĪÉĳËĲlÉĻ":3705,"ĠsËĪoÊĬldÊĴÉļ":3706,"ĠjËĪuËĲz":3707,"ĠfÉĻlz":3708,"ĠmËĪuËĲd":3709,"ĠÉ¹ËĪÃ¦pt":3710,"ĠdËĪÉªstÉĻns":3711,"ĠklËĪaÊĬd":3712,"ĠÎ¸É¹ËĪoÊĬÉªn":3713,"ĠÉĲmËĪÉĽÉ¹ÉªkÉĻ":3714,"tÊĥáµ»z":3715,"ĠÉĲtËĪÃ¦k":3716,"ĠÊĥËĪÉªp":3717,"Éªb":3718,"mÉĻnts":3719,"ĠsÉļÉ¹ËĪaÊĬnd":3720,"ËĪÉĶÉªl":3721,"ÉĽm":3722,"ĠÉ¡ËĪaÉªd":3723,"ÉĲd":3724,"ĠstËĪÉĽÉ¹ÉªÅĭ":3725,"ĠsÉĻns":3726,"ËĪÉĳËĲÉ¾i":3727,"ĠÉ¡ÉĻs":3728,"ĠlËĪÉªp":3729,"ĠpÉ¹ËĪÉªzÉĻn":3730,"ÉªdËĮeÉª":3731,"ĠwËĪÉªndoÊĬz":3732,"ĠËĪÊĮm":3733,"ĠzËĪÃ¦n":3734,"ĠpÉ¹ËĪÉĽÉ¹":3735,"ĠkÉĻnv":3736,"ĠÎ¸ËĪÉªn":3737,"ĠÉ¹ËĪÃ¦pÉļ":3738,"ÉĻÉ¡n":3739,"ĠhËĪÉĳËĲÉ¹tbÉ¹eÉªk":3740,"ĠmËĪÉĳËĲmi":3741,"ĠbËĪÉªlz":3742,"ĠdËĮÉĽ":3743,"ÉĳËĲÉ¹d":3744,"wËĪÉĳËĲ":3745,"ĠÉ¹ËĪoÊĬlz":3746,"ĠÊĮÅĭk":3747,"ĠbÉªÉ¡ËĪÉªnÉªÅĭ":3748,"sËĪÉĻ":3749,"ĠspËĪoÊĬk":3750,"ĠflËĪaÊĬÉļz":3751,"ĠwËĪÉĽÉ¹ÉªÅĭ":3752,"ĠÉĽn":3753,"ĠdÊĴËĪÉĽn":3754,"mËĪÉĻ":3755,"tÊĬ":3756,"ĠpËĪuËĲl":3757,"ĠtËĪÉľËĲ":3758,"ĠÉĲpÉ¹":3759,"ĠlËĪiËĲvÉªn":3760,"ĠlÉĻts":3761,"ĠsnËĪiËĲk":3762,"ĠfËĪeÉªt":3763,"ĠmÉĻmÉĻ":3764,"ĠdËĪÉĽst":3765,"ĠhËĪoËĲÉ¹":3766,"ĠdËĪaÉªm":3767,"ĠfËĪoÊĬld":3768,"ĠspËĪÉªnÉªÅĭ":3769,"ĠstÉĻk":3770,"ĠdÉ¹ËĪÃ¦Åĭk":3771,"Ġbáµ»lËĪoÊĬ":3772,"ĠÉ¹oÊĬmËĪÃ¦ns":3773,"ĠËĪÃ¦m":3774,"ĠnËĪaÉªntiËĲn":3775,"vz":3776,"ĠÉ¹ËĪÉĽp":3777,"bËĪÃ¦k":3778,"hÉĻl":3779,"ĠhËĪÉªlz":3780,"É¡É¹ËĮÃ¦":3781,"ĠkÉ¹ËĪiËĲm":3782,"ĠdÉªst":3783,"ÉĲt":3784,"ĠsËĪaÉªlÉĻnt":3785,"hËĪÃ¦Êĥ":3786,"ĠtËĪÉĽk":3787,"ĠmËĪuËĲvd":3788,"Éªkt":3789,"daÊĬn":3790,"ĠfËĪÃ¦stÉļ":3791,"ĠtÊĥËĪiËĲz":3792,"ĠÉ¹ËĪÊĮ":3793,"eÉªl":3794,"ĠkÉ¹ËĪaÉªÉªn":3795,"ĠhËĪaÉªdÉªÅĭ":3796,"É¡ÉļÉ¹":3797,"ĠhËĪÉĽdz":3798,"ĠnËĪÉĶËĲÉ¹Î¸":3799,"ĠflËĪoÊĬt":3800,"ĠskËĪÉĳËĲÉ¹z":3801,"ĠvËĪÉĶÉªsáµ»z":3802,"ĠsËĮÉªtÊĥuËĲ":3803,"ĠoÊĬ":3804,"ĠsËĪaÉªk":3805,"ĠÉĽÉ¡zËĪÃ¦ktli":3806,"ĠspËĪÉĽl":3807,"ĠsËĪÉĳËĲl":3808,"mËĪÉĳËĲ":3809,"ĠmËĪÉĽ":3810,"ĠpÉĻst":3811,"ĠbËĪÉªÉ¹":3812,"ĠÉ¡ÉĻÊĶn":3813,"ĠÉ¾ÉĻst":3814,"ĠÉ¹áµ»pËĪiËĲt":3815,"ĠkËĪÉªst":3816,"ĠtÉĻt":3817,"ĠÉ¹ËĪoÊĬm":3818,"ĠplËĪeÉªÉļ":3819,"ĠËĪÉĽlËĪeÉª":3820,"ĠÉ¹ÉªËĪÃ¦lÉªÉ¾i":3821,"bÉľËĲ":3822,"biËĲt":3823,"ĠnËĪaÉªf":3824,"ĠsËĪiËĲkÉ¹áµ»":3825,"ĠmËĪÉªz":3826,"ĠtÉĻkÉĻn":3827,"ĠmËĪuËĲnlaÉªt":3828,"ĠskwËĪÉĳËĲd":3829,"ĠkwËĪÉĶËĲÉ¹É¾Éļ":3830,"ĠstËĪÊĬd":3831,"ĠbËĪuËĲts":3832,"ĠÉĽndÊĴËĪÉĶÉª":3833,"ĠtÊĥËĪoÊĬk":3834,"ĠfÉ¾ÉĻndz":3835,"ĠsnËĪÃ¦p":3836,"áµ»nËĪeÉªÊĥÉĻn":3837,"ĠËĪeÉªk":3838,"ËĪiËĲvÉļ":3839,"ĠsÉĻtËĪi":3840,"ĠbËĪÉªÉ¾Éļ":3841,"ĠbÉ¹ËĪiËĲz":3842,"ĠsËĪÉªstÉĻm":3843,"jÉĲ":3844,"fÉĻk":3845,"ĠËĪÉĽnÉļdÊĴi":3846,"pÉļz":3847,"ĠsÉĻs":3848,"ĠhËĪÃ¦pÉªnÉĻs":3849,"ĠÃ°ËĪÃ¦ts":3850,"ĠtÉĻÉ£":3851,"ĠmËĪÉªÊĥÉĻn":3852,"ĠpÉ¹ËĪÉªns":3853,"jÉĻËĲ":3854,"ĠlËĪaÉªks":3855,"ÉĲz":3856,"ĠÉ¹áµ»f":3857,"ĠmËĪÉªsÉªn":3858,"ĠkËĪÉªsáµ»z":3859,"ĠÉĽkspËĪÉĽkt":3860,"ĠÉ¹ËĪÊĮb":3861,"ĠvËĪÃ¦n":3862,"ĠpËĪÉľËĲp":3863,"nÉĻt":3864,"ĠkËĪoËĲÉ¹s":3865,"ĠpÉ¹ËĪaÉªvÉĻt":3866,"ÅĭkÉ¹":3867,"ËĪÉªÉ¹i":3868,"ĠtÊĥËĪÉĳËĲÉ¹dÊĴ":3869,"ĠÉ¹ËĪÉªk":3870,"ĠÎ¸ËĪÃ¦Åĭks":3871,"ĠwËĪÉªz":3872,"ĠÉ¡ËĪÊĮ":3873,"ĠÉĲdËĪÉªktáµ»d":3874,"ĠsËĪÉªÉ¹iÉĻs":3875,"ĠËĪÉĳËĲÉ¹t":3876,"ĠsËĪoÊĬloÊĬ":3877,"stËĪÉĳËĲp":3878,"ĠlËĪaÉªd":3879,"ĠÉ¹ËĪoÊĬli":3880,"ĠdÊĴËĪÉĳËĲ":3881,"ĠplËĪÉĽnti":3882,"oÊĬkËĪeÉªn":3883,"ĠkËĪÉĽÉ¹z":3884,"ÉĻtÉĻd":3885,"ÉĳËĲt":3886,"Ġdáµ»stÉ¹":3887,"ĠaÊĬt":3888,"ĠsËĪÃ¦É¾Éļ":3889,"ĠkÉ¹ËĪoÊĬ":3890,"ĠsËĪÉĶËĲs":3891,"lÉĻn":3892,"ĠwÉĻnd":3893,"fÉļ":3894,"ĠkÉ¹ËĪÊĮÊĥ":3895,"lt":3896,"ËĪuËĲf":3897,"ĠËĪeÉªÉ¾i":3898,"ĠpËĪÉĳËĲm":3899,"ËĪÃ¦tÉªn":3900,"ĠstËĪÉĳËĲÉ¹É¾ÉªÅĭ":3901,"ĠbÉ¹ËĪÉĶËĲd":3902,"ĠkËĪaÊĬntÉªÅĭ":3903,"ÉĲstÉļÉ¹ËĮÉªskÉĲstÉļÉ¹ËĮÉªsk":3904,"ĠsËĪiËĲkÉ¹áµ»ts":3905,"mËĪiËĲ":3906,"ËĪÃ¦pi":3907,"ĠhÉĻlp":3908,"wÉªÃ°":3909,"ĠtÉ¹ËĪÉªÉ¡":3910,"ĠkÉĻmplËĪiËĲt":3911,"ĠbËĪÊĮntÊĥ":3912,"ËĪakÉĻn":3913,"ËĪÉĶËĲÉ¹tÊĥ":3914,"ĠnËĪaÉªnti":3915,"ĠÉ¹áµ»k":3916,"ĠsËĪÃ¦É¾ÉļdËĮeÉª":3917,"lÉĻm":3918,"ËĪÉĽÉ¾i":3919,"ĠsËĪÉĳËĲÉ¹oÊĬ":3920,"ĠlËĪÉĽdÊĴÉĻnd":3921,"ĠËĪÊĮÃ°Éļz":3922,"tËĮaÉªm":3923,"ËĪÉĽbÉĻl":3924,"ĠÎ¸É¹ËĪoÊĬt":3925,"hËĪÉªÉ¹":3926,"ËĮÉĻyn":3927,"mËĪÉĽn":3928,"ĠkËĪoËĲÉ¹ÉĻs":3929,"bËĮÊĮt":3930,"ËĪÉªÉ¾":3931,"ĠpËĪÃ¦Î¸":3932,"ĠkoÊĬkËĪeÉªn":3933,"ËĪÉĻÃ°o":3934,"ĠÎ¸É¹ËĪoÊĬÉªÅĭ":3935,"ĠsÉļÉ¹ËĪÉĽndÉļ":3936,"áµ»f":3937,"ĠskÉ¾ÉĻm":3938,"ĠlÉĻsÉĻn":3939,"ĠlËĪÉĽm":3940,"ĠfËĪÃ¦ntÉĻsi":3941,"Î¸É¹":3942,"ËĪÃ¦kts":3943,"ĠfÉ¹ËĪiËĲz":3944,"ĠtÉĻÉ£ËĪÉĻÃ°o":3945,"ĠfËĪoÊĬkÉĻs":3946,"ĠÉĻpÉĻn":3947,"ĠÊĥËĪiËĲts":3948,"ÉĳËĲx":3949,"ĠdËĪaÉªv":3950,"ĠÉ¹ËĪiËĲzÉĻnz":3951,"ĠhËĪeÉªÉ¾ÉªÅĭ":3952,"ĠkÉ¾ÉĻs":3953,"bËĪÉĶÉª":3954,"ĠÉĲpËĪÉĳËĲlÉĻdÊĴ":3955,"ĠÉ¡ËĮÉĻyn":3956,"ĠstËĪÉĳËĲpt":3957,"ĠspÉĻk":3958,"ĠflËĪÊĮd":3959,"ĠhËĪÉĳËĲpÉªn":3960,"ĠsËĪÉªkstiËĲn":3961,"ĠdËĪÃ¦Êĥ":3962,"ĠfËĮaÉª":3963,"ËĪÊĮmpt":3964,"ĠnËĪeÉªbÉļ":3965,"ĠmËĪÉªkst":3966,"ĠstËĪÃ¦ndÉªn":3967,"ĠmËĪÉªnÉªts":3968,"ĠkËĪÉĳËĲmpl":3969,"ĠnËĪÃ¦tÊĥ":3970,"ËĮeÉªn":3971,"ĠpËĪÊĬlÉªÅĭ":3972,"ĠËĪÉĳËĲntÊĬ":3973,"wËĪÉĻn":3974,"ĠÉ¡ËĪÉªvz":3975,"ĠÉªmpÉ¹":3976,"ĠtËĪÃ¦p":3977,"ĠsnËĪÉªtÊĥ":3978,"ĠpÉ¹ËĪeÉªÉªÅĭ":3979,"hËĪaÉª":3980,"ËĪoÊĬt":3981,"ĠsËĪiËĲzÉĻn":3982,"ĠfËĪÉĽdz":3983,"ËĪuËĲoÊĬ":3984,"ĠËĪoÊĬp":3985,"ĠtÉ¹ËĪeÉªd":3986,"ĠËĪÃ¦kÊĥÉĻn":3987,"ĠspÉ¹ËĪÉªÅĭ":3988,"ĠtÊĥËĪÉĳËĲpÉļ":3989,"sÉĽt":3990,"ÉªnÉĻl":3991,"ĠsmËĪuËĲ":3992,"ĠkjËĪÊĬÉ¹":3993,"ĠtËĪÉĽndÉļ":3994,"ĠkËĪÃ¦s":3995,"ĠÉªmËĪoÊĬÊĥÉĻn":3996,"ĠtÊĥËĪÃ¦mp":3997,"ĠwÉĻtÉĻÅĭ":3998,"ĠËĪÉªÊĥ":3999,"ĠsËĪoËĲÉ¹":4000,"ĠÉ¹ËĪeÉªndÊĴ":4001,"ËĮÉĽmáµ»n":4002,"ĠklËĪÉªk":4003,"É¹Éªs":4004,"ĠvËĪÃ¦l":4005,"ĠtÊĥËĪeÉªndÊĴáµ»z":4006,"ĠÉ¡É¹ËĪÉªp":4007,"ĠbÉĻÎ¸":4008,"ĠlËĪÉªmÉªt":4009,"hËĪoÊĬld":4010,"ËĮÉªst":4011,"ĠÊĮnd":4012,"ĠÊĮntÉĻl":4013,"ĠhËĪÉĽlÉĻ":4014,"ĠhËĪÃ¦ÅĭÉ¡Éªn":4015,"ÊĴÉļz":4016,"ĠskwËĪiËĲz":4017,"ËĮÉĽmáµ»nËĪÉªs":4018,"stÉĻn":4019,"ĠmËĪÊĮd":4020,"wËĪaÉªnd":4021,"ËĮÉĶËĲl":4022,"ËĪÉĻvo":4023,"Ã¦Ã¦":4024,"ËĪeÉªmd":4025,"ĠmËĪaÉªl":4026,"ĠsplËĪÉªt":4027,"ĠÉªÉ¡nËĪoËĲÉ¹":4028,"lÉĻz":4029,"ĠjËĪuËĲÎ¸":4030,"ĠÉĻftÉĻ":4031,"ĠpÉ¹ËĪÉĳËĲmÉªst":4032,"ĠbËĪoËĲÉ¹":4033,"ĠfËĪÃ¦nz":4034,"ĠlÉĻz":4035,"ĠpjËĪÊĬÉ¹":4036,"ĠpËĪÊĬÉ¾ÉªÅĭ":4037,"ĠskËĪoËĲÉ¹":4038,"ĠtÉ¹Ã¦n":4039,"ftaÉªm":4040,"ĠÉ¡ËĪÉĻz":4041,"ĠmËĪÉĳËĲÎ¸ÉĲfËĮÊĮk":4042,"ĠÉ¹ËĪÉĽnt":4043,"haÊĬs":4044,"ĠËĪÉĽ":4045,"ĠËĪÉªÉ¡":4046,"ĠwËĪÉªspÉļ":4047,"ËĪiËĲÊĥ":4048,"ptÉĻn":4049,"ĠÊĥËĪÉĳËĲÉ¹":4050,"ĠvËĪeÉªnz":4051,"ĠmËĪÉĳËĲb":4052,"ĠbËĪÉľËĲnÉªn":4053,"É¡ËĪÉĳËĲt":4054,"ĠstËĪuËĲd":4055,"ĠstÉ¹ËĪÉĽtÊĥ":4056,"ĠÉ¹ËĪuËĲd":4057,"ĠpËĪÉĶÉªz":4058,"ndÊĴÉĻ":4059,"ĠdËĪaÉªn":4060,"ĠmËĪÊĮÅĭk":4061,"ĠdÉĻt":4062,"ĠwËĪeÉªÉ¾áµ»d":4063,"ĠflËĪeÉªmz":4064,"ĠËĪÉĽkstÉ¹ÉĻ":4065,"tËĪaÉªm":4066,"ĠÉ¡ËĪÉªft":4067,"ĠlËĪÉĽsÉĻn":4068,"ĠËĪÊĮÉ¡li":4069,"kËĪiËĲp":4070,"ĠmÉĻnt":4071,"ĠdËĪa":4072,"ĠwËĪeÉªstÉªÅĭ":4073,"É¹ËĪÊĮn":4074,"ĠmÉĻdÉĻ":4075,"ĠmËĪÃ¦É¹id":4076,"ËĪÃ¦dÊĴ":4077,"ĠÊĥËĪuËĲÉ¾ÉªÅĭ":4078,"ÉĻmÉĻndz":4079,"ĠwËĪaÉªz":4080,"ĠnÉĻkst":4081,"ĠkËĪÃ¦l":4082,"ĠbËĪÉľËĲnd":4083,"ĠhËĪÉĶËĲnt":4084,"ÉĲs":4085,"ĠzËĪiÉĻÉ¹oÊĬ":4086,"ĠkËĪÃ¦b":4087,"ĠhËĪiËĲlz":4088,"pÉªt":4089,"ĠtËĪÃ¦":4090,"ĠtËĪÉªÅĭ":4091,"ĠbÉ¹ËĪeÉªv":4092,"bËĪuËĲm":4093,"ËĪÉĽli":4094,"ĠbËĪÉĳËĲÃ°Éļ":4095,"ĠÉªnf":4096,"ĠfËĪÉĶËĲÉ¹m":4097,"ĠlËĪaÊĬdÉļ":4098,"ËĮÃ¦k":4099,"ĠwËĪÉĽÉ¹ÉĽn":4100,"ÉĻps":4101,"ĠtÉĻz":4102,"ĠkËĪatÊĥ":4103,"ĠpËĪÉªs":4104,"ĠsËĪÉĽlÉĻbÉ¹ËĮeÉªt":4105,"ĠmËĪato":4106,"ĠÉ¹áµ»t":4107,"ĠbÉªÉ¡ËĪÊĮn":4108,"ĠÉ¡É¾ÉĻnd":4109,"ĠwËĪÉªtnÉĻs":4110,"ĠÉ¹ËĪoÊĬzáµ»z":4111,"ĠÉ¹ËĮÉĽmáµ»nËĪÉªs":4112,"ĠslÉĻ":4113,"ĠpÉ¹ËĪÉĳËĲdÊĴ":4114,"É¹ÉªÅĭ":4115,"ĠfËĪÉªÉ¹z":4116,"ÊĥÉªp":4117,"ĠflËĪuËĲ":4118,"ĠÉ¡É¹ËĪuËĲp":4119,"ĠbÉ¹ËĪÉªÅĭz":4120,"ĠdÉ¹ËĪÉªÅĭks":4121,"ĠklÉĻ":4122,"ĠtËĪÉªm":4123,"ĠtÊĥËĪÉªláµ»n":4124,"vi":4125,"ĠdÉĻs":4126,"ËĪÉĻti":4127,"ĠËĪÉĳËĲb":4128,"ĠwËĪÉªski":4129,"ĠblËĪeÉªz":4130,"ËĪÃ¦ps":4131,"ĠmËĪaÉªndz":4132,"Ġdáµ»m":4133,"ĠkwËĪÉĽstÊĥÉĻnz":4134,"ĠÉ¹áµ»fl":4135,"ĠmËĪiËĲnÉªÅĭ":4136,"ĠsËĪÉĽlÉªÅĭ":4137,"sËĮiËĲ":4138,"ĠwËĪÉªk":4139,"Ġ[?],":4140,"ĠÉĻkËĪÉĻ":4141,"ĠdÊĴËĪaÉªÉĻl":4142,"ĠtÊĥËĪÉĳËĲ":4143,"ĠhËĪÉĽdáµ»d":4144,"ĠÉªtËĪÉľËĲn":4145,"ĠÊĥËĪÉĽd":4146,"ĠÉ¾ÉĻnÉĻÅĭ":4147,"ËĪeÉªÉ¾i":4148,"ĠÉĽÉ¡zËĪÉªst":4149,"ĠÉ¡ÉĻv":4150,"hËĪÃ¦Êĥj":4151,"sm":4152,"ĠbËĮiËĲËĮÉĳËĲÉ¹É¹":4153,"ĠËĪÉĽnÉªtËĮaÉªm":4154,"ĠfËĪÉĶËĲÉ¹É¾i":4155,"pi":4156,"ĠpËĪeÉªs":4157,"ÉĻÅĭÉ¡":4158,"ĠflËĪÃ¦t":4159,"ËĮaÉªn":4160,"ÉĶËĲlÉ¹":4161,"ËĪÉĽÉ¾Éļ":4162,"ĠwËĪÉĳËĲtÊĥt":4163,"ĠÉ¹ËĪÉĽkÉĻÉ¡n":4164,"ĠstËĪÊĮm":4165,"ËĪeÉªmz":4166,"pÉĻt":4167,"ËĪeÉªÉ¡":4168,"É¾ÉªtËĮuËĲd":4169,"ĠËĪÉĶfÉĻn":4170,"ĠfËĪÃ¦ÊĥÉĻn":4171,"ĠsËĪÊĮni":4172,"ĠdÉĻÉ¡":4173,"ĠbËĪÃ¦kw":4174,"ĠkÉ¹ËĪaÉªst":4175,"ĠdÊĴËĪÉĳËĲni":4176,"fÉªt":4177,"ĠnÉĻÎ¸ÉĻn":4178,"ĠÉĻzÉĻ":4179,"ÉĻfÉĻl":4180,"ĠmÉĻnËĪi":4181,"ÉĻÉĻËĪÉĻ":4182,"ĠlËĪÉĳËĲ":4183,"ĠlËĪÉĽÉ¡":4184,"ĠlËĪÉĶÉªÉĻl":4185,"nËĪaÉªnti":4186,"ĠfËĪÉªftiËĲn":4187,"ĠtËĪÉĻ":4188,"skËĮeÉªËĮÉĳËĲÉ¹tËĪiËĲ":4189,"ĠdÉªsÉ¡":4190,"pÉ¹áµ»z":4191,"ÉĻmÉĻm":4192,"ĠsËĮÉªÉ¡ÉļÉ¹":4193,"ËĮÉĶËĲÉ¹":4194,"ĠtËĪoÊĬst":4195,"ĠsËĪÃ¦Åĭ":4196,"ĠbËĪÊĮbÉĻl":4197,"ĠfËĪuËĲlz":4198,"ĠsËĪeÉªk":4199,"ĠspÉĻt":4200,"juËĲm":4201,"ĠÉ¹áµ»lËĪÃ¦ks":4202,"ĠhËĪÃ¦b":4203,"ĠnËĪeÉªmz":4204,"ĠkËĮÉĳËĲm":4205,"ĠklËĪaÊĬn":4206,"ĠdËĪeÉªndÊĴÉļ":4207,"ĠkËĪoÊĬt":4208,"ĠhËĪÉĳËĲlÉªdËĮeÉª":4209,"ĠhÉĻvÉĻn":4210,"ĠpËĪa":4211,"ĠËĪÉĽk":4212,"ËĪÉªÊĴÉĻnz":4213,"ËĪeÉªnd":4214,"ĠwÉĻmÉĻn":4215,"ĠlÉĻkÉĻn":4216,"ĠdÉ¾ÉĻmz":4217,"ÉĻnsi":4218,"ĠdÉªv":4219,"ĠkËĪuËĲ":4220,"ÊĥËĮÉª":4221,"ĠsÉĻf":4222,"ĠsËĪÃ¦vÉªdÊĴ":4223,"ĠtËĪÉĽlz":4224,"ĠpËĪÊĮf":4225,"ĠskÉ¹ËĪÃ¦tÊĥ":4226,"ĠmËĪÉªzÉļÉ¹i":4227,"É¡ËĪÉªv":4228,"ĠlÉĻnlÉĻ":4229,"ĠdÉ¹ËĪÉĶËĲ":4230,"ĠskÉ¹ËĪiËĲmÉªn":4231,"ĠÉ¡ËĪÃ¦":4232,"É¾ÉĻsk":4233,"ĠlËĪaÉªftaÉªm":4234,"ĠmËĪÉĽlÉĻdi":4235,"ĠÉ¹ËĪÉªÊĶn":4236,"ĠkÉĻmplËĪeÉªn":4237,"Î¸ÉĻ":4238,"ĠsËĪÉľËĲÊĶn":4239,"ĠkËĪeÉªdÊĴ":4240,"ĠtËĪÉªkÉªt":4241,"ĠmÉĻÎ¸":4242,"ĠsËĪÉªÅĭÉ¡Éªn":4243,"jj":4244,"ĠwËĪoËĲÉ¹":4245,"ĠtËĪÉĳËĲ":4246,"ĠpÉ¾ÉĻm":4247,"ĠsËĪiËĲk":4248,"ĠdÊĴËĪÉĶËĲÉ¹":4249,"ĠÉĻls":4250,"ĠnËĪÊĮmbÉļz":4251,"ĠpÉļs":4252,"ĠswËĪÉľËĲv":4253,"ĠÉ¹ËĪeÉªdÊĴ":4254,"ĠtËĪÊĮtÊĥt":4255,"mËĪoËĲÉ¹":4256,"ĠplËĪeÉªt":4257,"ĠËĪÃ¦Åĭ":4258,"ĠpÉ¹ËĪÉĳËĲp":4259,"ËĪiÉĻÉ¹Éª":4260,"ĠdËĪÉĳËĲÉ¹lÉªn":4261,"ĠbËĪÉĽÉ¡ÉªÅĭ":4262,"É£ËĪo":4263,"ĠËĪiËĲÉ¾ÉªÅĭ":4264,"ĠbËĪÉĶÉªfÉ¹ÉĽnd":4265,"ËĪÉĳËĲtÊĥi":4266,"ĠÉ¹áµ»mËĪeÉªn":4267,"ĠfËĪÉĶËĲÉ¹Î¸":4268,"ĠfËĪÉªst":4269,"Éªni":4270,"ĠwËĪaÉªp":4271,"ËĪÉªÊĥÉĻs":4272,"ĠfÉ¹ËĪiËĲki":4273,"ËĮeÉªtÊĥsáµ»É¹ËĮÉªlÉªkjËĪÉĽËĲ":4274,"ĠdËĪÉĽf":4275,"ĠÊĥËĪeÉªkÉªÅĭ":4276,"ĠmËĪÉĶnstÉļ":4277,"ĠkËĪÉľËĲs":4278,"mËĪeÉªk":4279,"ĠwËĪÊĬl":4280,"ĠËĪÃ¦É¹ÉĻn":4281,"ĠhËĪÉĳËĲÉ¹tbiËĲt":4282,"jËĪÉĽËĲËĪÉĳËĲÉ¹":4283,"ĠaÊĬÉļ":4284,"ĠÉ¹ËĮÉĽpÉ¹áµ»z":4285,"ĠfËĪÊĮÅĭki":4286,"ĠsËĮÉªtÊĥuËĲËĪeÉªÊĥÉĻn":4287,"ĠsËĪÉĽláµ»n":4288,"ĠsmËĪuËĲÃ°":4289,"ĠkÉĻmÉĻz":4290,"ĠbÉ¹ËĪÉªÅĭÉªÅĭ":4291,"ĠkËĪÉĳËĲÉ¹dz":4292,"dËĪÊĮm":4293,"ĠfËĪÉĻ":4294,"ĠdÉ¹ËĪÉªpÉªn":4295,"ĠmËĪaÊĬntÉªnz":4296,"vÉĻlËĪuËĲÊĥÉĻn":4297,"ĠhÉĻnd":4298,"ËĪÉªskoÊĬ":4299,"ĠmËĪÊĮnd":4300,"ĠbËĪÉĽdÉ¹uËĲm":4301,"ÉªÉ¾ÉĻl":4302,"ĠlËĪoÊĬdáµ»d":4303,"ËĪÉĽndÊĴ":4304,"ĠhËĪÉľËĲÉ¾ÉªÅĭ":4305,"ĠbÉ¾ÉĻÃ°ÉĻ":4306,"ĠdÊĴËĪÊĮÅĭ":4307,"ĠÊĥËĪÊĬdÉĻ":4308,"aÊĬnd":4309,"ĠÉ¹ËĪaÉªzÉªÅĭ":4310,"ĠwËĪÉĶntÉªÅĭ":4311,"ĠspÉ¹ËĪeÉª":4312,"ĠÉĻtÊĥ":4313,"staÉªl":4314,"ĠmËĪÉĽlt":4315,"ĠsmËĪaÉªlÉªÅĭ":4316,"ĠplËĪÃ¦nÉªt":4317,"ĠjËĮuËĲ":4318,"ĠdËĪÊĮbÉĻljËĮuËĲ":4319,"ĠfËĪÉĶËĲlÉĻn":4320,"ÉĽd":4321,"ĠmËĪÉĶËĲl":4322,"ËĮÉĳËĲs":4323,"ĠdÊĴËĮÉĽn":4324,"ĠsËĪÉĽvÉĻntËĮiËĲn":4325,"ĠlËĪeÉªk":4326,"ĠpËĪÊĮb":4327,"Éªnd":4328,"ĠsËĪÉªli":4329,"ĠlËĪaÉªtnÉªÅĭ":4330,"tÊĥuËĲÉĻli":4331,"ĠtÉ¹ËĪÃ¦Êĥ":4332,"pÉĻni":4333,"ĠkËĪÉªlÉļz":4334,"ĠsËĪeÉªnt":4335,"ĠkËĪÉĳËĲnt":4336,"ĠwËĪiËĲlz":4337,"sËĪÉªkst":4338,"ĠÊĥËĪaÉª":4339,"ĠdËĪÉĽk":4340,"ĠdÉĻv":4341,"ĠpËĪeÉªÊĥ":4342,"ĠpÉ¹ËĪÉĽÊĥÉĻs":4343,"ĠmËĪad":4344,"fËĪÉªfti":4345,"ĠhËĪÉĳËĲm":4346,"ĠstÉ¹ËĪaÉª":4347,"ĠhÉĻÉĻ":4348,"wËĮÉĻt":4349,"ĠlËĪaÉªÉļ":4350,"ËĪÉªzi":4351,"ĠklËĪiËĲk":4352,"ĠdËĪÉªnÉļ":4353,"ĠkÉĻnfjËĪuËĲzd":4354,"ĠbÉ¾":4355,"ĠwËĪÉĻnt":4356,"ĠwÉĻp":4357,"ĠflËĪÃ¦É¡":4358,"dËĪÊĮbÉĻl":4359,"ĠkËĪÃ¦st":4360,"aÉªÉļ":4361,"ĠpËĪÉľËĲk":4362,"ĠsËĪoÊĬlz":4363,"ĠËĪÃ¦nÉªmÉĻl":4364,"É¹áµ»fËĮaÉª":4365,"oÊĬn":4366,"ĠÎ¸ËĪÉªÅĭks":4367,"ĠbËĪeÉªbiz":4368,"ĠsÉĻtÊĥ":4369,"ĠkÉĳËĲnvÉļsËĪeÉªÊĥÉĻn":4370,"ËĪÉĳËĲts":4371,"ËĪÉĳËĲsÉªn":4372,"ĠÉ¹ËĮÉĽpÉ¹áµ»zËĪÉĽnt":4373,"ĠdËĪÉĽs":4374,"ĠaÊĬÉļsËĪÉĽlvz":4375,"ĠËĮÉĽmËĮÉĽm":4376,"ĠtÉĻst":4377,"ÉĶËĲlÉ¹ËĪaÉªt":4378,"ĠÉĶËĲl":4379,"ĠstËĪÉªks":4380,"ĠvÉļs":4381,"ĠvÉļsËĪÉĳËĲtÊĥi":4382,"wËĪÉĶn":4383,"ĠdËĪÉĽn":4384,"ĠfËĪiËĲvÉļ":4385,"stÉĳËĲÉ¹":4386,"ĠhËĪaz":4387,"ĠpËĪÊĬÊĥÉªÅĭ":4388,"ĠdËĪÉĽz":4389,"ÉĻdz":4390,"ĠhËĪÉªtÉªn":4391,"fÉĻli":4392,"Ġáµ»lËĪÉĽkt":4393,"ËĮe":4394,"ĠËĮÉĽlËĪeÉª":4395,"ĠtÉ¾ÉĻÉĻÅĭ":4396,"ĠdËĪÉĽstÉªni":4397,"ĠËĪÉªÊĥuËĲ":4398,"ĠËĪÃ¦skÉªn":4399,"ĠtÊĥËĪÉªkÉªn":4400,"ĠËĪÉªÉ¹z":4401,"fi":4402,"dÊĴÉĻs":4403,"ĠnËĪÉľËĲvÉĻs":4404,"ĠpÉ¹ÉĻtËĪÉĽkt":4405,"fËĪiËĲl":4406,"ĠmËĪoÊĬÊĥÉĻn":4407,"ËĪÉªdÉª":4408,"taÉªm":4409,"ĠÉ¡ËĪÉĳËĲÉ¹dÉĻn":4410,"ËĪÃ¦li":4411,"ĠdÊĴËĪÊĮÅĭÉ¡ÉĻl":4412,"ĠpËĮiËĲ":4413,"ĠdÉ¹ËĪiËĲ":4414,"ĠdÊĴËĪÊĮmpÉªn":4415,"stÉĻÉ¾ÉĻsk":4416,"ĠpËĪÉĶÉªzÉĻn":4417,"mÉĽÉ¹":4418,"sáµ»z":4419,"ĠtÉ¹ËĪÊĮÅĭk":4420,"ĠÉ¡É¹ËĪÃ¦m":4421,"ĠÉĲdvËĪaÉªs":4422,"ĠÉ¹ËĪiËĲp":4423,"ÉĽl":4424,"ĠslËĪeÉª":4425,"ĠËĮÉªns":4426,"ĠsËĪÃ¦É¾ÉªsfËĮaÉªd":4427,"ĠÉ¹ËĪÉĽkÉĻÉ¡nËĮaÉªz":4428,"pËĪÃ¦k":4429,"ĠlËĪÃ¦p":4430,"ĠvËĪeÉªn":4431,"ĠÉ¹ËĪaÉªmz":4432,"ĠsÉĻmËĪa":4433,"ËĪiËĲnoÊĬ":4434,"ĠmËĪeÉªbÉĳËĲx":4435,"ÉĻËĪÉĻ":4436,"ĠÉ¹ËĪÉªsk":4437,"ĠfÉ¹ËĪÃ¦Åĭk":4438,"ËĪÉĶËĲÉ¹dz":4439,"ĠsËĪÊĮdÉĻnli":4440,"É¡ËĪÃ¦Åĭ":4441,"ĠtÊĥÉĻnsÉĻ":4442,"ĠstÉ¹ËĪÊĮÉ¡ÉĻl":4443,"jËĪeÉª":4444,"ĠstËĪoÊĬnz":4445,"ĠtÊĥËĪÉªks":4446,"ĠnËĪeÉªtÊĥÉļ":4447,"ĠlËĪÊĮÅĭ":4448,"ËĪeÉªÊĥÉĻns":4449,"ĠsËĪaÉªz":4450,"ĠËĪÃ¦pÉĻl":4451,"ĠkËĪÊĮmpÉĻni":4452,"ĠpÉ¹ËĪÉĳËĲmÉªsáµ»z":4453,"ĠmËĪÊĮndeÉª":4454,"ĠhËĪÊĮm":4455,"ĠkËĪÃ¦É¹":4456,"ĠÉ¹ËĪÉĽbÉĻl":4457,"ĠflËĪÉĽÊĥ":4458,"ĠÉ¹ËĪÊĮnz":4459,"ĠkËĪÉľËĲt":4460,"ËĪÉªÉ¹d":4461,"ĠnËĪaÉªtmÉĽÉ¹":4462,"ĠpËĪÉĳËĲpÉĻ":4463,"ĠmËĪÃ¦É¾Éļz":4464,"ĠpÉĻnt":4465,"ĠpËĪÊĬÊĶn":4466,"ĠpËĪÃ¦sÉªÅĭ":4467,"ĠpËĪÉĳËĲÉ¹tn":4468,"ĠmËĪaÉªÉ¾i":4469,"ĠkËĪÊĮÊĥ":4470,"ĠÊĥËĪeÉªp":4471,"ĠdÊĴÉĻn":4472,"ĠÉĻndËĪo":4473,"ĠsËĪÃ¦m":4474,"ĠÉĲpl":4475,"ËĪÉªÅĭÉ¡ÉĻl":4476,"ĠmËĪÉªÉ¹ÉĻkÉĻl":4477,"ĠhËĪÃ¦pÉĻnÉªÅĭ":4478,"ĠÉ¡É¹ËĪÃ¦ndm":4479,"ĠsËĮÉľËĲ":4480,"ĠbËĪÊĮt":4481,"Ġáµ»É¹":4482,"ĠvËĮiËĲ":4483,"ĠplËĪeÉªz":4484,"ĠbÉ¾ÉĻt":4485,"ĠwÉĻdz":4486,"ĠÊĮnn":4487,"ĠËĮoÊĬvÉļÉ¹":4488,"ĠpËĪÊĮm":4489,"ĠÎ¸ËĪÉľËĲd":4490,"ĠspËĪiËĲkÉªÅĭ":4491,"ĠtÉ¾ÉĻd":4492,"ĠpËĪÉªn":4493,"ĠblËĪoÊĬz":4494,"ĠkËĪÉªsÉªÅĭ":4495,"ĠtÊĥËĪuËĲ":4496,"ËĪÃ¦nsi":4497,"ĠËĪÉĻÉĻ":4498,"ĠbËĪeÉªl":4499,"ĠÉ¹ËĪÉĽÉ¡":4500,"ĠÉĻÉĻÉĻÉĻÉĻÉĻÉĻÉĻÉĻÉĻÉĻÉĻÉĻ":4501,"ÉĳËĲk":4502,"ĠdÊĴËĪÊĮmpÉªÅĭ":4503,"ÉĻÉĻz":4504,"ĠsÉĻz":4505,"ĠtÉ¹ËĪuËĲli":4506,"ĠjÉĻsËĪÉĻlf":4507,"ĠdÉªzËĪaÉªnÉļ":4508,"Ã¦z":4509,"ĠÉ¹ËĪaÉªÉ¾ÉªÅĭ":4510,"ĠsÉĻÅĭÉ¡":4511,"ĠpËĪÊĬláµ»n":4512,"ĠwÉĻkÉĻÅĭ":4513,"ÉªÉĻs":4514,"ĠtËĪoËĲÉ¹":4515,"ÉĲnËĪÉĽl":4516,"ĠËĪÉĽndÉªÅĭ":4517,"ĠlËĪÉĳËĲts":4518,"ĠwÉĻntÉĻd":4519,"dËĪÃ¦ns":4520,"ĠjËĪuËĲÊĴuËĲ":4521,"ĠhÉĻndÉ¾ÉĻd":4522,"ĠtËĪÉĶËĲÉ¹n":4523,"ĠÉ¹áµ»lËĪÉªdÊĴ":4524,"-,":4525,"ĠËĪÉªnst":4526,"ĠhËĪeÉªz":4527,"ĠtÉ¹ËĪÉªpÉªÅĭ":4528,"ĠkËĪoËĲÉ¹t":4529,"ĠwËĪÉĶl":4530,"ĠhËĪÊĮndÉ¹Éªdz":4531,"ÉĻwËĮeÉª":4532,"ĠÉĻbs":4533,"ĠbËĪÃ¦Î¸":4534,"ĠÉ¹ËĪiËĲk":4535,"ĠtwËĪÉªstáµ»d":4536,"ĠstÉ¹ËĪaÉªk":4537,"ĠÉĻnËĪyÎ¸ÉĻÅĭ":4538,"ĠtÉ¹ËĪÉªÉ¡Éļ":4539,"ĠmËĪÊĮÅĭki":4540,"ĠfÉĻv":4541,"ĠpËĪÊĮÅĭk":4542,"ĠflËĪoÊĬÉ¾ÉªÅĭ":4543,"ĠtÉ¹ËĪÃ¦pt":4544,"ĠkËĪÃ¦ts":4545,"ĠpËĪÉĳËĲpÉªÅĭ":4546,"ĠkËĪÃ¦mÉ¹ÉĻ":4547,"pËĪÉĽkt":4548,"ĠbËĪoÊĬl":4549,"ĠÉ¹ËĪeÉªnboÊĬ":4550,"ĠmËĪaÉªkÉĻl":4551,"ĠbËĪaÉ¡":4552,"ĠdÉªt":4553,"ĠdËĪaÉªs":4554,"ĠmÉĻnÉĻÅĭ":4555,"ËĪaÉ¡":4556,"ĠdÉĻÉĻn":4557,"ĠpËĪeÉªÊĥÉĻns":4558,"ĠpÉĻÊĥ":4559,"ĠmjÉĻz":4560,"ÉĻÉĻÉĻÉĻÉĻÉĻÉĻÉĻÉĻ":4561,"ĠkËĪaÊĬntÉªn":4562,"ĠmËĪÉľËĲd":4563,"ĠwËĪÃ¦n":4564,"ĠÉ¹ËĪoÊĬld":4565,"ĠdËĪÉĻÉĻÅĭ":4566,"ĠkËĪÉªks":4567,"ĠfËĪÉĶËĲÉ¹wÉļd":4568,"ĠlËĪÉĶs":4569,"ĠÉªÅĭk":4570,"É¡ËĪÉĳËĲd":4571,"ĠdÊĴËĪeÉªn":4572,"ĠhËĪapÉĻn":4573,"ĠmaÉªËĪÃ¦mi":4574,"ĠwËĪÉĶËĲks":4575,"ĠnËĪÃ¦s":4576,"ĠËĪÉĽndlÉĻs":4577,"ĠhËĪÊĮnt":4578,"ĠnËĪeÉªÊĥÉĻn":4579,"ĠdÊĴËĪÉľËĲ":4580,"ĠtÉĻdÉĻ":4581,"ĠËĮÉĻni":4582,"ËĮaÊĬ":4583,"É¹Éªd":4584,"ĠfËĪeÉªdÉªÅĭ":4585,"ĠmËĪÊĮÎ¸ÉĲfËĮÊĮk":4586,"ĠsËĪoÊĬbÉļ":4587,"ĠÊĥËĪuËĲtÉªn":4588,"ĠdÉĻfÉ¾ÉĻnt":4589,"hËĪÉĳËĲp":4590,"ĠÉ¾ÉĻnd":4591,"ĠÉ¾ÉĻf":4592,"ĠkÉĻmÉĻn":4593,"lËĪÉªÉ¹Éªks":4594,"ĠdÉĻtÉĻ":4595,"ĠÎ¸ËĪÉľËĲst":4596,"soÊĬ":4597,"ĠmÉĻÃ°ÉĻfÉĻk":4598,"ĠwËĪÉªkáµ»d":4599,"kjuËĲ":4600,"stËĪand":4601,"ĠdÉ¹ËĪoÊĬv":4602,"ĠpËĪÉªkt":4603,"ĠËĮÊĮndÉļÉ¹ÉĻÉĻÉĻÉĻÉĻ":4604,"ĠdËĪÊĮb":4605,"ĠÉ¡É¹ËĪiËĲd":4606,"ĠslËĪiËĲv":4607,"Ã°ËĪoÊĬ":4608,"hËĮÊĬd":4609,"ĠÉĲks":4610,"ĠmÉĻv":4611,"ĠstËĪoËĲÉ¹iz":4612,"ĠpËĪaÉªp":4613,"ĠwÉĻns":4614,"ĠplËĪÉĽÊĴÉļ":4615,"ĠÉĻts":4616,"ËĪÉªkÊĥÉĻn":4617,"ËĮÃ¦É¹ÉĻnt":4618,"stÉļz":4619,"ĠÊĥÉĲnËĪÉĽl":4620,"ĠbÉĻb":4621,"ĠlËĪÉĽÃ°Éļ":4622,"ÉªbÉĻl":4623,"ĠtËĪÊĮk":4624,"ĠnËĪÉĶËĲ":4625,"ĠpÉĻf":4626,"ĠkÉĻdÉĻn":4627,"ĠmËĪÃ¦t":4628,"ĠÊĥËĪoËĲÉ¹":4629,"ĠbÉ¹ËĪeÉªkÉªn":4630,"ĠstËĪeÉªÉªÅĭ":4631,"ĠsÉĻÉ¾ÉĻ":4632,"ËĮuËĲz":4633,"ĠbÉ¾ÉĻkÉĻn":4634,"ËĪÉĳËĲzÉªt":4635,"plËĪiËĲz":4636,"ĠÉ¡ËĮÃ¦É¹ÉĻnt":4637,"ĠËĪÃ¦É¾ÉªtËĮuËĲd":4638,"kÉªn":4639,"áµ»tËĮeÉªt":4640,"ËĪÉªÊĥÉĻnz":4641,"ĠsËĪÉªpÉªÅĭ":4642,"ĠÉªÉ¹":4643,"ĠtËĪÉľËĲnÉªn":4644,"ĠmËĪÉĽnÊĥÉĻn":4645,"ĠtÉ¾ÉĻÎ¸":4646,"bÃ¦":4647,"ĠdÊĴËĪiËĲn":4648,"ĠwÉĽÉ¹ËĪÉĽvÉļÉ¹":4649,"ĠwËĪÃ¦k":4650,"ĠkÉ¹ËĪÉĶst":4651,"ĠÉªmËĪoÊĬÊĥÉĻnz":4652,"ĠsËĪÉªksti":4653,"ĠsËĪÃ¦t":4654,"ĠstÉ¾ÉĻÅĭ":4655,"ÉĻtli":4656,"ÉªdÉĻns":4657,"ĠsËĪÉĻmÎ¸ÉĻn":4658,"hËĪiËĲ":4659,"ĠtÉ¹ËĪÃ¦ks":4660,"ËĮÉľËĲs":4661,"ĠËĪÃ¦ÅĭÉ¡":4662,"ĠpÉ¹Éªp":4663,"ĠtËĪÊĮn":4664,"ËĮeÉªtÊĥËĪeÉªtÊĥ":4665,"ĠÊĥËĪeÉªdz":4666,"ĠbËĪeÉªk":4667,"ĠsnËĪÉªp":4668,"ĠaÊĬÉ¾":4669,"ĠÉ¡É¾ÉĻn":4670,"ĠkÉĻntÉ¾ÉĻl":4671,"ĠtÊĥËĪÉĳËĲpÉĻ":4672,"ĠÊĥÉ¹":4673,"ĠËĮÉĶËĲ":4674,"ĠslËĪÃ¦p":4675,"ËĪÊĮtÊĥÉĻ":4676,"ĠÉ¹ËĪÃ¦pÉªn":4677,"ÅĭkÉĻl":4678,"ĠdÉ¹ËĪaÊĬnÉªÅĭ":4679,"ĠÉ¡ËĪÉªlti":4680,"wÉľËĲ":4681,"Ã¦hËĪÉĳËĲhÉĻ":4682,"ĠdËĪÉĳËĲm":4683,"ĠÉ¹ËĪÉĽÉ¹":4684,"hËĪÉĽl":4685,"ĠnËĪoÊĬt":4686,"ĠvËĪÉªdÉª":4687,"ĠbËĪÉľËĲnz":4688,"ĠtËĪeÉªp":4689,"ĠÉĲfËĪoËĲÉ¹":4690,"ÉĲv":4691,"tËĪeÉªn":4692,"ĠmjÉĻzÉĻk":4693,"ËĪÉªÉ¾ÉªÅĭ":4694,"ĠdÊĴËĮÉĽnÉļÉ¹ËĪeÉªÊĥÉĻn":4695,"ĠfËĪuËĲ":4696,"ĠwËĪÉĶËĲÉ¹nÉªÅĭ":4697,"ĠlËĪÉªÉ¹Éªks":4698,"Ġ(\"":4699,"ĠdÊĴÉĻmp":4700,"ËĪoÊĬnÉĻ":4701,"ĠtÉ¾ÉĻst":4702,"ĠspËĪÉĽndÉªÅĭ":4703,"ĠËĪÉĳËĲÉ¹mi":4704,"ĠwËĪÉªÉ¡":4705,"ĠdËĪaÊĬntaÊĬn":4706,"ĠsËĪuËĲÉªsËĮaÉªd":4707,"ĠmËĪÉĻkÉĻÅĭ":4708,"ĠmËĪÉªliÉĻnz":4709,"ĠstËĪÃ¦ks":4710,"ÉľËĲs":4711,"ĠklÉĻb":4712,"ĠpËĪÉĳËĲpt":4713,"ĠÉĲdËĪoËĲÉ¹":4714,"ÉªlËĮÃ¦":4715,"ĠwËĪÉªpÉªn":4716,"ĠplËĪÃ¦stÉªk":4717,"lÉĻb":4718,"É¾Éªv":4719,"ĠdÉ¹ËĪiËĲmd":4720,"bÉĶËĲl":4721,"ĠÉ¡É¾":4722,"ĠfËĪÃ¦kts":4723,"ĠmËĪÊĮnÎ¸s":4724,"ĠÉĶËĲlÃ°ËĪoÊĬ":4725,"hÉĳËĲhËĪÉĳËĲ":4726,"ĠhËĪoÊĬplÉĻs":4727,"ËĮÃ¦dÊĴ":4728,"ĠpËĪÊĮntÊĥ":4729,"ËĪÃ¦fÉªk":4730,"ĠdÉ¹ËĪÉªvÉªn":4731,"ĠdËĪÃ¦mÉªdÊĴ":4732,"ĠkËĪÊĮvÉļd":4733,"ĠsmËĪÉĳËĲÉ¹t":4734,"ĠÊĥÉĻtÉĻ":4735,"ĠtÉ¹ËĪÊĮbÉĻlz":4736,"ĠblËĪiËĲdÉªÅĭ":4737,"ĠÉĲfËĪoËĲÉ¹d":4738,"ĠpÉļÉ¹":4739,"ĠstÉĻz":4740,"ĠÉĻlÉĻvÉĻ":4741,"Ġdáµ»pËĪÉĽnd":4742,"ĠtÊĥËĪiËĲt":4743,"ĠskÉ¹ËĪiËĲn":4744,"ĠslËĪiËĲpÉªn":4745,"ĠfËĪÉªnÉªÊĥt":4746,"ĠkËĪoÊĬl":4747,"ĠpËĪaÉªn":4748,"ĠÉĽmbÉ¹":4749,"ĠÉ¹ËĪÊĮbÉļ":4750,"ĠdÉªsÉ¡ËĪaÉªz":4751,"ÉĳËĲp":4752,"ĠpËĪoËĲÉ¹ÉªÅĭ":4753,"ĠfËĪiËĲnd":4754,"ĠÊĥËĪoÊĬldÉļz":4755,"ĠbËĪÊĮÉ¾Éļfl":4756,"ĠbÉ¾ÉĻn":4757,"ĠspËĪÉªl":4758,"ĠkÉ¹ËĪoÊĬm":4759,"ĠhËĪÃ¦m":4760,"ĠskËĪiËĲm":4761,"ĠslËĪÃ¦m":4762,"ĠbÉªÉ¡ËĪÃ¦n":4763,"ĠÉ¹ËĪÉĽkÉļdz":4764,"ĠÉĲtl":4765,"ĠdËĪyz":4766,"ĠvËĪÉªl":4767,"ĠÊĥËĪaÉªnz":4768,"hÉĻlËĪoÊĬ":4769,"ĠmËĪÃ¦p":4770,"ĠtËĮiËĲËĮeÉªtÊĥsáµ»É¹ËĮÉªlÉªkjËĪÉĽËĲ":4771,"ĠmÃ¦":4772,"ĠÉĲÊĥ":4773,"ĠÉ¹ËĪeÉªnz":4774,"ĠlËĪeÉªbÉĻl":4775,"ËĪeÉªdz":4776,"ĠhÉĻts":4777,"ĠfËĪaÉªnÉĻl":4778,"ÉĳËĲÉ¹t":4779,"ĠsËĪÃ¦kÉ¹áµ»fËĮaÉª":4780,"ĠËĪÉĽv":4781,"ĠtÊĥËĪÃ¦nsáµ»z":4782,"ĠkËĮÃ¦":4783,"ĠdÊĴËĪÊĮmpt":4784,"ĠdËĪaÉªÉªn":4785,"ĠpÉ¾ÉĻtËĪi":4786,"ĠtËĪÉĳËĲÉ¹":4787,"ĠdÊĴÉĻl":4788,"ĠkwËĪÉĽ":4789,"ĠhËĪÉĳËĲÉ¹dli":4790,"ĠmËĪÊĮnÎ¸":4791,"bÉĳËĲks":4792,"ËĪaks":4793,"eÉªd":4794,"ĠdËĪÉªdÊĴ":4795,"ĠbÉ¹ËĪÉĳËĲ":4796,"ĠfËĪÉĶËĲÉ¹tÊĥ":4797,"ĠhËĪÉĳËĲÉ¹É¾":4798,"ËĪÉĻs":4799,"ĠvËĪeÉªÉ¡":4800,"ĠlËĪeÉªÉªÅĭ":4801,"ĠËĪÉĳËĲÉ¹É¡":4802,"ĠkËĪÉªÅĭdÉĻm":4803,"ĠÉªmpËĪÉĳËĲsáµ»bÉĻl":4804,"ĠpËĪÉªloÊĬ":4805,"boËĲÉ¹d":4806,"ĠbËĪÊĮÉ¡":4807,"ĠsËĪaÉªdz":4808,"ĠmËĪÉĳËĲdÉĻl":4809,"ĠwËĪeÉªkÉªÅĭ":4810,"ĠÉªmpËĪoËĲÉ¹t":4811,"ĠÉ¹áµ»fjËĪuËĲz":4812,"ĠtÃ¦":4813,"ĠÉ¹áµ»wËĪaÉªnd":4814,"fÉļt":4815,"ĠtÊĥËĪÃ¦sÉªn":4816,"ĠsËĪÉľËĲkÉĻl":4817,"ĠlËĪÉªÅĭk":4818,"ĠwËĪÉªnÉªÅĭ":4819,"É¹Éªn":4820,"ĠÉ¡ËĪÃ¦t":4821,"ĠËĪÉĽnt":4822,"ËĪÊĮnts":4823,"ĠhËĪÊĮÉ¡":4824,"ĠÊĥËĪuËĲÉ¾Éļz":4825,"ĠlËĪÊĮÅĭz":4826,"kÉĻn":4827,"ĠnËĪÊĮts":4828,"ĠdËĮÉªsÉ¹Éªs":4829,"ÉĽkts":4830,"Ġdáµ»sp":4831,"ĠstÉ¹ËĪeÉªndÊĴÉļz":4832,"ËĮÉĳËĲp":4833,"laÉª":4834,"ÉĻnËĮÉªn":4835,"ĠtÉ¹ËĪÉĽntÊĥ":4836,"ĠËĪÃ¦nsÉļz":4837,"ĠmËĪÉĽÉ¾ÉĻl":4838,"lÉĻk":4839,"ĠdÊĴËĪuËĲn":4840,"ĠsÉĻÉĻÅĭ":4841,"ËĪiËĲtÊĥ":4842,"ĠkÉĻlÉĻÅĭ":4843,"ĠstÉ¹ËĪÃ¦pt":4844,"ĠhËĪÃ¦mÉļ":4845,"ÉĻndÊĴ":4846,"ĠkÉ¹ËĪaÉªz":4847,"ĠnËĪaÉªntiËĲnhËĪÊĮndÉ¹ÉĻd":4848,"kËĪÉĳËĲ":4849,"ĠËĪÉªntÉļ":4850,"ĠflËĪaÉªÉªn":4851,"ĠdÊĴËĪuËĲÉĻlÉ¹i":4852,"ÉªnËĮÉĽÉ¹i":4853,"ĠÎ¸ÉĻ":4854,"ÉĽÉ¹i":4855,"ĠstÉ¹ËĪÉªÅĭz":4856,"ĠÉ¡ËĪiËĲk":4857,"ĠfËĪa":4858,"ĠpÉ¾ÉĻd":4859,"ĠsËĪeÉªvjÉļ":4860,"ĠmËĪÉĻki":4861,"ĠstËĪuËĲdÉªËĮoÊĬ":4862,"ĠdËĪÉĽzÉļt":4863,"ĠwËĪÉĽd":4864,"ĠdÊĴËĪÃ¦ks":4865,"ĠblÉĻk":4866,"ĠdÉ¹ËĪiËĲmÉªn":4867,"ĠkËĪÉĽÉ¹fÉĻl":4868,"bËĪÉªÉ¡":4869,"ĠfËĪÃ¦nsi":4870,"ĠdÊĴËĮiËĲ":4871,"ĠbËĪÉĳËĲbi":4872,"bËĪuËĲ":4873,"mËĪoÊĬ":4874,"ĠpËĪÃ¦nt":4875,"ĠÊĥËĪeÉªdi":4876,"ËĪeÉªbÉĻlz":4877,"ÉĻÉĻd":4878,"ĠÎ¸ËĪÊĮÉ¡z":4879,"ËĪÉĽksÉªk":4880,"ĠfËĪÃ¦ntÉĻm":4881,"ĠËĪÉªnÉĻsÉĻnt":4882,"ĠpËĪÊĮblÉªk":4883,"ĠËĪaÉªoÊĬ":4884,"ĠkËĪÉĶfi":4885,"ËĮÃ¦d":4886,"ĠhËĪÉĳËĲÉ¾Éļ":4887,"ĠmÉĻlÉĻn":4888,"ĠÉ¡ËĪÉĳËĲÉ¹":4889,"ĠÉ¹áµ»lËĪiËĲs":4890,"ĠmËĪÃ¦nÊĥÉĻn":4891,"jËĪuËĲn":4892,"ĠmËĪÊĮm":4893,"ĠdÊĴËĪÉªmi":4894,"ĠtÊĥÉĻp":4895,"ĠkËĪÊĮmfÉļt":4896,"Ġdáµ»É¡É¹":4897,"ÉªÉ¾iz":4898,"ĠÉ¡ÊĬdnËĪaÉªt":4899,"ÉĻÊĥ":4900,"eÉªdÊĴ":4901,"ĠstËĪeÉªÊĥÉĻn":4902,"ĠËĮÉĽmsËĪiËĲ":4903,"ĠdÉĻmÉĻndz":4904,"ĠhËĪÉªps":4905,"ËĪÉªfÎ¸":4906,"ĠÉ¡É¹ËĪÃ¦ndmÉĳËĲ":4907,"ĠmËĪeÉªl":4908,"ĠsËĪÊĮmÉļtËĮaÉªm":4909,"kËĪÉĶËĲl":4910,"É¹aÉªz":4911,"ËĪÉĳËĲbi":4912,"ĠaÊĬÉļz":4913,"ĠkËĪoÊĬdaÉªn":4914,"ĠpjËĪuËĲ":4915,"ĠsËĪiËĲÉªn":4916,"ĠËĪÉĳËĲÉ¡":4917,"ĠbÉĻhËĪÉĻnd":4918,"ĠaÊĬtÉ¹":4919,"ĠfÉªn":4920,"ËĪÉĳËĲmp":4921,"ĠvËĪÉªktÉªm":4922,"ĠËĪoÊĬpÉĻnd":4923,"báµ»l":4924,"tÊĥÉĻ":4925,"ĠtÊĥËĪiËĲk":4926,"ĠnÉĻs":4927,"ĠpËĪiËĲk":4928,"ĠtÊĥÉĻld":4929,"ĠpËĪÉľËĲpÉĻs":4930,"ĠnËĪÃ¦tÊĥÉļÉ¹ÉĻl":4931,"ĠstËĪÊĮmÉĻk":4932,"ĠkËĮÉĳËĲn":4933,"ĠËĪiËĲtÉªn":4934,"ĠÉ¡ËĪÃ¦Ã°Éļ":4935,"ĠbËĪiËĲm":4936,"ËĪÉĶËĲÉ¹t":4937,"ËĪÉªÉ¾áµ»d":4938,"ĠkÉ¹ËĪÉĽd":4939,"ĠbÉªÉ¡ËĪÉªnz":4940,"ĠkËĪÉªÅĭz":4941,"ĠËĪy":4942,"skÉªt":4943,"ĠÉ¡ÉĻld":4944,"ĠÊĥËĪaÉªnÉªn":4945,"fËĪÉĶËĲÉ¹m":4946,"ĠbËĪÉĻÉĻÅĭ":4947,"ĠËĮÊĮn":4948,"ĠsËĪÊĮnsÉĽt":4949,"ĠpËĪÃ¦É¹Éªs":4950,"ĠjËĪÊĮp":4951,"ÉĻntÉĻ":4952,"ËĪÉĳËĲÉ¹m":4953,"ĠÉ¹ËĪÉĽklÉĻs":4954,"ĠkËĪaÊĥ":4955,"É¡ÉĻn":4956,"ĠskÉĻl":4957,"ĠbÉ¹ËĪeÉªnz":4958,"ĠfÉĻlt":4959,"ĠmËĪÉĽdÉĻsÉĻn":4960,"Ġ(?)":4961,"sËĪiËĲz":4962,"ĠpÉ¹ËĪuËĲf":4963,"ĠfËĪiËĲldz":4964,"ĠlËĪÉĽmi":4965,"??":4966,"ĠËĪÃ¦ks":4967,"ĠhËĪÉªÉ¹ÉªÅĭ":4968,"ĠkËĪÉĳËĲnf":4969,"ĠdËĪaÊĬ":4970,"ĠdÊĴËĪoËĲÉ¹d":4971,"ĠvËĪÉªz":4972,"ĠkËĪÉªkt":4973,"ĠËĪÃ¦stÉļÉ¹ËĮÉªskÉĲstÉļÉ¹ËĮÉªskÉĲstÉļÉ¹ËĮÉªsk":4974,"Ġdáµ»É¹ËĪÉĽkÊĥÉĻn":4975,"ËĪÃ¦ntáµ»d":4976,"\")":4977,"ÉªkËĪeÉªÊĥÉĻn":4978,"ÉªÉļ":4979,"dÊĴËĮiËĲ":4980,"ĠwËĪÉªlÉªÅĭ":4981,"ĠstËĪÉĳËĲps":4982,"ĠfÉĻkÉĻd":4983,"ĠfËĪuËĲlÉªÊĥ":4984,"ĠbÉ¹ËĪaÉªÉ¾Éļ":4985,"ĠËĮÉĽntÉļ":4986,"ĠfËĪoÊĬkÉĻst":4987,"ĠtËĪÉĽks":4988,"ĠpÉ¾ÉĻÎ²":4989,"ĠdËĮÉªsÉ¹ÉªspËĪÉĽkt":4990,"bËĪoÊĬ":4991,"mËĪÊĮni":4992,"ĠdÊĴËĪÊĮÅĭk":4993,"ĠÉ¹ËĪiËĲÉĻlÉªst":4994,"ĠsËĪÉªmp":4995,"ÊĥËĮÉªp":4996,"nËĪÊĮ":4997,"ËĮÊĮbÉĻl":4998,"ÉĻtÊ°":4999,"ËĪÊĮkÊĥÉĻn":5000,"ĠlËĪuËĲp":5001,"ĠkËĪÉĳËĲs":5002,"ĠÉĲksËĪÉĽpt":5003,"ĠblËĪÊĮdi":5004,"ĠtÉ¹ËĪÃ¦pÉªn":5005,"ĠÉļÉ¹ËĪaÉªv":5006,"ĠtËĪiËĲz":5007,"ĠÊĥËĪÉĳËĲk":5008,"ĠsËĪiËĲmd":5009,"fÉĻst":5010,"ĠpËĪÉĳËĲl":5011,"ĠwËĪeÉªn":5012,"ĠskÉĻd":5013,"ĠÉĽksËĪÉĽpt":5014,"wËĪÉĻ":5015,"ĠtËĪÊĮm":5016,"ĠtËĪoÊĬni":5017,"ËĪas":5018,"ĠnËĪeÉªmd":5019,"zËĪiÉĻÉ¹oÊĬzËĪiÉĻÉ¹oÊĬ":5020,"ËĮÊĮbÉĻljËĮuËĲ":5021,"ĠnËĪÃ¦":5022,"ĠspÉĻnd":5023,"ĠkËĪÃ¦ndÉĻl":5024,"ĠlËĪÃ¦k":5025,"ĠËĪÃ¦fÉ¹":5026,"ĠËĪÉĽvÉ¹ÉªtËĮaÉªm":5027,"ËĮÉªliÉĻn":5028,"ĠkÉ¹ËĪuËĲÉĻl":5029,"ĠdÉ¹ËĪeÉªk":5030,"ÉªkÉĻ":5031,"ĠÉ¡É¹ËĪoÊĬz":5032,"ĠÉĽmbÉ¹ËĪeÉªs":5033,"ĠlËĪÉĳËĲÉ¹":5034,"ĠlËĪÉªÅĭ":5035,"ĠfËĪÉªz":5036,"ËĪÉĽndáµ»d":5037,"zËĪiËĲ":5038,"ĠwËĪiËĲp":5039,"ĠjËĪÉĳËĲÉ¹d":5040,"ĠËĪÃ¦v":5041,"dÉĻlz":5042,"É¡É¹ËĪaÊĬnd":5043,"ËĪoÊĬzÉªÅĭ":5044,"ĠÎ¸ÉĻnkÉĻÅĭ":5045,"ĠkËĪÉĳËĲnd":5046,"ĠÉ¡ËĪeÉªts":5047,"É¡ÊĮn":5048,"É¡ÉĲz":5049,"ĠstËĪÉĽps":5050,"ĠtÉ¹ËĪÉªks":5051,"ËĮeÉªd":5052,"ĠÉĲdÉ¹":5053,"ĠÉĲÊĥËĪeÉªmd":5054,"ĠfËĪÉľËĲÃ°Éļ":5055,"pËĮiËĲ":5056,"ÉªËĮeÉªt":5057,"ĠhËĪÉĳËĲloÊĬ":5058,"ĠflËĪaÊĬÉļ":5059,"ĠslËĪÃ¦Åĭ":5060,"ĠkËĪiËĲpÉªn":5061,"ĠhÉĻlÉĻ":5062,"ĠbËĪÊĮÊĶn":5063,"hËĪÉĻndÉ¾ÉĻd":5064,"ĠdÉĻst":5065,"ĠkËĪÉĳËĲmptÉĻn":5066,"ËĪÉĳËĲns":5067,"ĠhËĪÉĳËĲÉ¹dÉªst":5068,"bÉ¹ËĪeÉªk":5069,"ĠpËĪÃ¦t":5070,"ÉĳËĲw":5071,"ĠkËĪÉĳËĲlÉªdÊĴ":5072,"uËĲt":5073,"ĠÉ¾ÉĻnÉĻn":5074,"ĠdËĪÉªÅĭ":5075,"jËĪÉĽËĲÉĲ":5076,"ĠvËĪeÉªÉ¡ÉĻs":5077,"pËĪÉĳËĲ":5078,"ÉĻtËĮÉªv":5079,"ĠhËĪoÊĬlz":5080,"ĠÊĥËĪoÊĬÉªÅĭ":5081,"ĠpËĪÉªmpÉªn":5082,"ĠmËĪÉĽksÉªk":5083,"ÉĻdËĪuËĲs":5084,"ĠkËĪÉĳËĲmÉĻn":5085,"kÉĻm":5086,"ĠËĪÉĳËĲps":5087,"ĠflËĪÉªk":5088,"ĠsËĪÉĽlfÉªÊĥ":5089,"ĠnËĪeÉªbÉļhËĮÊĬd":5090,"ËĪoÊĬp":5091,"ĠsËĪÉªnz":5092,"ĠbËĪÉĽÉ¹id":5093,"ËĪÃ¦ÅĭÉ¡w":5094,"bÃ¦k":5095,"ĠmjËĪuËĲ":5096,"ĠtÉ¹ËĪeÉªs":5097,"ĠslËĪaÉªm":5098,"ĠswËĪÉªmÉªÅĭ":5099,"ĠÉªmpËĪoËĲÉ¹tÉĻnt":5100,"ĠwËĪaÉªÉļ":5101,"ĠdËĪeÉªv":5102,"ĠÉ¹ËĪaÉªdÉļ":5103,"ĠfÉ¹ËĪoÊĬzÉĻn":5104,"ÉªtÊĥ":5105,"ĠlËĪÉĶËĲÉ¹":5106,"ĠfÉ¾ÉĻnt":5107,"áµ»tËĮÉªv":5108,"ĠpËĪÉĽd":5109,"ĠpÉ¹ËĪÉĳËĲpÉļ":5110,"ĠdËĮÉĻ":5111,"ĠlËĪÊĮst":5112,"ĠflËĪoÊĬz":5113,"ĠwËĪÊĮtÊĥÉĻ":5114,"ĠkËĪaÊĬtÊĥ":5115,"ĠpËĪÃ¦kt":5116,"ĠbËĪÉªÉ¡Éªst":5117,"ĠflËĪÉĽksÉªn":5118,"ËĪÃ¦ÅĭÉ¡wÉªdÊĴ":5119,"ĠËĪÊĮÅĭkÉĻl":5120,"ĠhËĪapi":5121,"ĠËĪeÉªbÉĻl":5122,"ĠvËĪÃ¦li":5123,"kÉ¹oÊĬ":5124,"ËĪÃ¦É¾Éļd":5125,"ĠwËĪÉĶ":5126,"ĠfÉ¹ËĪeÉªm":5127,"ĠblËĪÃ¦Åĭk":5128,"ĠÉ¾ÉĻzÉĻn":5129,"ĠvËĪaÉªÉĻlÉĻns":5130,"ĠÉ¹ËĪÉĽskjuËĲ":5131,"ĠpËĪaÊĬ":5132,"ĠwËĪÉľËĲkt":5133,"ĠmËĪÃ¦dnÉĻs":5134,"ĠtwËĪÉĽntifËĪoËĲÉ¹":5135,"ËĪÉĻnÉĻ":5136,"É¹ÉĻz":5137,"ĠwËĪiËĲzi":5138,"ĠpÉĻzËĪÉªÊĥÉĻn":5139,"Ġáµ»lËĪÉĽktÉ¹Éªk":5140,"ĠkÉĻdz":5141,"ĠlËĪÉĳËĲsÉªn":5142,"ĠlÉĻvÉĻz":5143,"ĠâĢĶ":5144,"ĠmËĪeÉªdÊĴÉļ":5145,"ĠtÉ¹ËĪÃ¦fÉªk":5146,"ĠsËĪoÊĬldÊĴÉļz":5147,"bËĪÃ¦d":5148,"iËĲm":5149,"ĠbËĪÃ¦ks":5150,"ĠsËĪÊĮnÉ¹aÉªz":5151,"ĠbÉªkËĪeÉªm":5152,"hÉĻd":5153,"ĠsËĪÊĮ":5154,"ĠÉ¡ËĪÃ¦m":5155,"ËĪÉĳËĲni":5156,"ĠwËĪÉªÊĥÉªn":5157,"ĠzËĪuËĲ":5158,"ĠdÊĴËĪÉĽntÉĻlmÉĻn":5159,"ĠbËĪÊĮstÉªn":5160,"ĠsËĪÉľËĲkÉĻlz":5161,"É¹áµ»k":5162,"ĠdËĪÉĳËĲt":5163,"ĠmËĮÃ¦É¡ÉĲz":5164,"ĠfËĪÉĶl":5165,"ĠtËĪiËĲn":5166,"ĠËĪaÉªÉļn":5167,"ĠlËĪÃ¦ÅĭÉ¡wÉªdÊĴ":5168,"ĠÉ¹ËĪÊĮm":5169,"É¡ËĪÊĬd":5170,"ĠÊĥËĪaÊĬ":5171,"ĠhËĪoÊĬps":5172,"ĠsnËĪÃ¦tÊĥ":5173,"ĠdËĪÉĳËĲÉ¹kÉªst":5174,"stÉ¹ÉĻm":5175,"ĠsÉĻksËĪÉĽs":5176,"dËĪeÉª":5177,"tËĮiËĲ":5178,"ËĪÉĽnÊĥÉĻl":5179,"Ġáµ»É¹ËĪeÉªs":5180,"ĠklËĪÉĳËĲzÉªt":5181,"ĠmËĪÉªstÉļÉ¹i":5182,"ÉĽnt":5183,"ËĪÉªdi":5184,"ĠkwÉĻt":5185,"ÊĮst":5186,"ĠÉ¹ËĪiËĲtÊĥÉªÅĭ":5187,"ËĪÉĳËĲlvd":5188,"ĠsËĪÉĳËĲlÉªd":5189,"ĠËĮÉĽntÉļtËĪeÉªn":5190,"ĠlÉĻm":5191,"ĠsËĪÉªmpli":5192,"ĠsËĮuËĲ":5193,"tËĪÉĶËĲk":5194,"ĠtÊĥËĪÉĽks":5195,"ĠnËĪÊĮt":5196,"ĠstËĪÃ¦ndz":5197,"ĠËĪÉĽlÉªv":5198,"ĠËĮÊĮndÉļÉ¡É¹ËĪaÊĬnd":5199,"ĠpÉ¹ËĪÉĽzÉªdÉĻnt":5200,"ÉĳËĲs":5201,"ĠhËĪÉĳËĲÉ¹m":5202,"ËĪÉĽvÉ¹i":5203,"ĠpÉ¹ËĪoÊĬli":5204,"ĠlËĪÉĽv":5205,"ĠtwËĪÉĻna":5206,"ĠÉ¹ËĪÃ¦m":5207,"Éªkli":5208,"ÉĳËĲnt":5209,"ĠsËĪuËĲpÉļst":5210,"ĠwÉĻdÉĻn":5211,"ËĮÉªt":5212,"ĠÉ¹áµ»lËĪÉªdÊĴÉĻn":5213,"ĠÉĻÉĻÉĻÉĻÉĻÉĻÉĻÉĻÉĻÉĻÉĻÉĻÉĻÉĻÉĻÉĻÉĻÉĻ":5214,"nËĪÉĳËĲt":5215,"ĠÉ¾ÉĻÎ²":5216,"ĠtËĪÉĽláµ»f":5217,"ĠkËĪÉĳËĲli":5218,"ĠtÊĥËĪÃ¦mpiÉĻn":5219,"ĠÉ¹ËĮÉĽvÉĻlËĪuËĲÊĥÉĻn":5220,"an":5221,"ĠpËĪÉĽ":5222,"ĠkÉ¹ËĪÊĬk":5223,"ĠkËĪÉªkÉªn":5224,"ĠsËĪÊĮkÉļ":5225,"ĠjËĪuËĲnÉªv":5226,"nËĪÉªÉ¡ÉĻ":5227,"ĠËĪÃ¦p":5228,"ĠbËĪÉĶËĲlz":5229,"ĠËĪÉĳËĲÉ¹É¡juËĲ":5230,"uËĲËĮuËĲ":5231,"ĠsËĪÉĽm":5232,"ĠdÊĴËĪÉªm":5233,"ĠwÉĻtÉĻ":5234,"ĠwËĪÉĽpÉĻn":5235,"ĠËĪÃ¦Êĥáµ»z":5236,"ĠbËĪÃ¦b":5237,"ĠbËĪuËĲÎ¸":5238,"ĠmËĪÉĳËĲn":5239,"ĠtÉĻw":5240,"ĠsËĪaÉªnd":5241,"ÉļÉ¹ÉĻ":5242,"ĠËĪÉĽÉ¡z":5243,"ËĪiËĲÉ¾ÉĻ":5244,"ĠtËĪÃ¦É¡":5245,"ĠpËĪÉªÉ¡":5246,"ĠmËĪÉĽst":5247,"ĠtÉ¹ËĪÉªpÉĻl":5248,"ĠÉĲtlËĪÃ¦ntÉĻ":5249,"dËĮiËĲ":5250,"ĠdÉĻsÉĻn":5251,"ĠhËĮuËĲz":5252,"ĠsÉĻmËĪo":5253,"ËĪÉĳËĲÊĶn":5254,"ĠblËĪoÊĬn":5255,"ĠpÉ¾ÉĻs":5256,"jÉĳËĲÉ¹d":5257,"sËĪÉªksti":5258,"ĠfËĪÉĶËĲÉ¹tÊĥÊĬ":5259,"ĠËĪaÉªsi":5260,"ĠstÉ¹ËĪiËĲm":5261,"ĠbËĪÉĳËĲb":5262,"ĠkËĪÉĳËĲnst":5263,"ĠkjËĪuËĲt":5264,"ĠmËĪoÊĬmÉĻnts":5265,"ĠkËĪÊĮzÉĻn":5266,"ĠËĮeÉªmËĪÉĽn":5267,"ËĪÉĽÉ¾ÉªÅĭ":5268,"ÉªtËĪeÉªÊĥÉĻn":5269,"ĠÉ¹ËĪÉĳËĲkÉªt":5270,"ĠsËĪÉĽntÉļ":5271,"ĠËĮÉªnsáµ»kjËĪÊĬÉ¹":5272,"ĠjËĪuËĲnÉªvËĮÉľËĲs":5273,"ĠÉĻÉĻËĪÉĻÉĻÉĻ":5274,"ĠÊĥËĪÉªft":5275,"ĠstËĪÉĽÉ¹z":5276,"ĠaÉªdËĪiÉĻ":5277,"pËĪÉĳËĲp":5278,"ĠwÉĻsÉĻn":5279,"Ġso":5280,"É¹ÉĻnËĮÉĶ":5281,"ĠnËĪÉĳËĲkt":5282,"ĠlËĪeÉªzi":5283,"pÉ¹ÉĻt":5284,"ĠÉ¹ËĪuËĲÉªn":5285,"ĠdËĪuËĲdz":5286,"ËĪÃ¦tÉªnÉĻm":5287,"ĠbËĪoÊĬld":5288,"ĠkËĪÉĶËĲÉ¹":5289,"ĠpÉĻkt":5290,"ĠtÊĥËĪÉªÉ¹":5291,"ĠÉ¹ËĪÉªÅĭÉªÅĭ":5292,"ĠsËĪÉªÅĭkÉªÅĭ":5293,"kÉĻmÉĻ":5294,"É¹ËĪÉĳËĲ":5295,"ËĪoÊĬnli":5296,"ĠËĪÉĽndÊĴ":5297,"ĠpËĪÉªÉ¾i":5298,"ĠwËĪÉªnÉļ":5299,"ĠkËĪÉĳËĲns":5300,"ĠlËĪÉªÉ¹":5301,"ĠpËĪoÊĬk":5302,"ĠskËĪÉĽÉ¹i":5303,"ĠbËĪÃ¦dÉªst":5304,"Ġbáµ»lËĪiËĲvÉªÅĭ":5305,"uËĲÉĻl":5306,"Ã¦kt":5307,"ĠdÉ¾ÉĻvÉĻ":5308,"ĠÉ¹áµ»plËĪeÉªs":5309,"ËĪiËĲËĪÉĳËĲÉ¹":5310,"ĠpËĪaÉªl":5311,"ĠfËĪoËĲÉ¹tiËĲn":5312,"tÉ¹ËĪuËĲ":5313,"Ġáµ»v":5314,"ĠhËĪeÉªloÊĬ":5315,"ĠpÉĻfÉĻkt":5316,"ĠdÉ¹ËĪÉĽd":5317,"ÉĻvÉĻÅĭ":5318,"ĠslËĪÉªk":5319,"ĠhËĪÉľËĲÉ¹áµ»k":5320,"ĠbËĪÊĬÉ¡i":5321,"ĠlÉĻs":5322,"ĠtÊĥËĪÉĽÉ¹i":5323,"ĠÉ¹ËĪoÊĬdz":5324,"ĠkËĪaÊĬnti":5325,"ËĪÉĽndÉªÅĭ":5326,"?),":5327,"ĠfÉ¹ËĪaÉª":5328,"ĠstËĪÊĮ":5329,"É¾ÉĻmËĪÃ¦É¾Éªk":5330,"ĠstÉ¾ÉĻts":5331,"ËĪÉĽÉ¾Éªk":5332,"ËĮÉĽt":5333,"ĠÉĲtÉ¹":5334,"ÉĻmÉĻmÉĻ":5335,"ĠfËĪÉªfÎ¸":5336,"ĠÊĥËĪÉĳËĲ":5337,"ĠstËĪeÉªk":5338,"ĠstËĪiËĲv":5339,"ĠlËĪaÉªkt":5340,"ĠtÃ¦tËĪuËĲ":5341,"ĠÉ¡É¾ÉĻt":5342,"ĠfËĪÉĽns":5343,"ĠhËĪiÉĻÉ¹oÊĬz":5344,"ĠkËĪÉĽm":5345,"ĠÊĥËĪaÊĬÉļ":5346,"ĠstËĪÃ¦Êĥ":5347,"ĠbËĪÉĳËĲmz":5348,"ĠkËĪÃ¦d":5349,"ĠËĪÃ¦b":5350,"ËĮÃ¦dÊĴáµ»nËĪeÉªÊĥÉĻn":5351,"jËĪiËĲ":5352,"ma":5353,"ĠlËĪÊĮ":5354,"ĠnËĪoËĲÉ¹":5355,"juËĲt":5356,"ĠÉ¹ËĪÃ¦pÉªÅĭ":5357,"ĠËĪÉĳËĲnÉªstli":5358,"ËĪuËĲËĪuËĲËĪuËĲËĪuËĲhËĪÃ¦Êĥj":5359,"ĠvËĪÉªdÉªoÊĬ":5360,"ĠbjÉĻt":5361,"ËĪÉĽvÉ¹ÉªbËĮÉĳËĲdi":5362,"ĠpËĪÉĶËĲÉ¹tÊĥ":5363,"ĠdÉ¹ËĪÉĳËĲpÉªn":5364,"dËĪÊĮbÉĻljËĮuËĲ":5365,"wËĪeÉªt":5366,"ĠÉ¹ËĪoÊĬlÉļ":5367,"ĠwËĪiËĲks":5368,"ĠËĮÉªntÉ¹":5369,"ÉĻnÉĻd":5370,"ĠstËĪeÉªn":5371,"ĠdÊĴËĪÉªÅĭÉ¡ÉĻl":5372,"ĠplËĪan":5373,"ĠplËĪÃ¦tÉªnÉĻm":5374,"ĠhËĪoÊĬldz":5375,"ĠÃ°ËĪaÊĬ":5376,"ĠhËĪÉĳËĲÉ¹É¾eÉªk":5377,"and":5378,"bÉĽÉ¹i":5379,"jËĪÉĳËĲ":5380,"ĠÉ¹ËĪÃ¦k":5381,"áµ»É¡":5382,"ĠtËĪÊĮtÊĥÉªÅĭ":5383,"ĠbÉ¹ËĪÊĬk":5384,"ĠËĪiËĲÉ¡oÊĬ":5385,"ĠÉªmËĮÃ¦dÊĴáµ»nËĪeÉªÊĥÉĻn":5386,"vËĪÉľËĲs":5387,"Ã¦ÉĻ":5388,"ĠpËĪÉªt":5389,"ĠdËĪeÉªlaÉªt":5390,"ĠstËĪÉĳËĲpÉªÅĭ":5391,"ĠtwËĪÉĽntiwËĪÊĮn":5392,"áµ»kËĮeÉªt":5393,"ĠbËĪuËĲl":5394,"fÉ¹ËĪiËĲ":5395,"ĠdÊĴËĪuËĲÉĻlz":5396,"ĠkËĪÉªkÉªÅĭ":5397,"ËĪÉĳËĲÉ¹É¹ËĪÉĳËĲ":5398,"Î¸ËĪÉľËĲÉ¾i":5399,"fËĪoËĲÉ¹É¾i":5400,"Ġdáµ»pÉ¹":5401,"ĠfÉļÉ¡ËĪÉĳËĲÊĶn":5402,"ĠÊĥËĪÊĬÉ¹li":5403,"ĠpËĪÃ¦É¹ÉĻnËĮÉĶ":5404,"ĠkËĪÃ¦ptÉªn":5405,"ĠkÉĻmpËĪÉĽÉ¹":5406,"ĠbjÉĻtÉĻfÉĻl":5407,"wÉĶËĲ":5408,"ËĪÃ¦ni":5409,"ĠËĪÊĮn":5410,"ĠÎ¸ÉĻz":5411,"bËĪeÉª":5412,"ĠtÊĥÉĻs":5413,"ĠÎ¸É¹ËĪiËĲhËĪÊĮndÉ¹ÉĻd":5414,"É¾ËĪÉĻdi":5415,"ĠpËĪaÊĬndz":5416,"ĠpËĪÉĳËĲn":5417,"ĠsËĪiËĲts":5418,"ĠblËĪÊĮnts":5419,"É¾ÉĻlz":5420,"É¾oÊĬz":5421,"Ġbáµ»lËĪiËĲvd":5422,"ĠnÉĻts":5423,"ĠÉĻlÉ¾ËĪÉĻdi":5424,"ËĪÉĽnsÉªv":5425,"ĠÉ¡ËĪeÉªt":5426,"ĠËĮÉªntÉļ":5427,"Åĭz":5428,"ÉĻsk":5429,"ĠpÉ¹ÉªtËĪÉĽndÉªÅĭ":5430,"hÉĲ":5431,"ĠdËĪaÉªz":5432,"ĠhËĪÉĳËĲlÉļ":5433,"ĠpÉ¹ËĪÃ¦kt":5434,"ĠmÉļÉ¹":5435,"ĠtËĪÃ¦t":5436,"ĠpËĪeÉªv":5437,"ÉĽst":5438,"ĠhËĪeÉªÉ¾Éļ":5439,"ĠÉ¹ËĪoÊĬp":5440,"ĠfËĪeÉªÎ¸fÉĻl":5441,"ĠhËĪÊĮslÉªn":5442,"ĠstËĪÊĮntÉªn":5443,"ĠÉ¹áµ»zËĪÉªst":5444,"ĠËĪÃ¦ÅĭÉ¡É¹i":5445,"ËĪÉªvÉļz":5446,"ĠpËĪÉĽÉ¹ÉĻnts":5447,"ËĪÉĽnÊĥÉĻnz":5448,"ĠflËĪaÉªz":5449,"ĠstÉ¹ËĪÉªÅĭ":5450,"ĠtËĪÉĶËĲkt":5451,"ĠÊĮnnËĪoÊĬn":5452,"ĠtËĪÃ¦l":5453,"ĠdËĪÉªskoÊĬ":5454,"ÊĥÉļ":5455,"ĠslËĪÉªpÉªÅĭ":5456,"ĠnËĪeÉªbÉļz":5457,"ĠÉĲpËĪÉĳËĲlÉĻdÊĴËĮaÉªz":5458,"hËĪÊĬk":5459,"ĠhÉªm":5460,"ĠhËĪaÉªp":5461,"ĠËĮÉĽsËĪeÉªtÊĥ":5462,"ĠstËĪoÊĬ":5463,"ĠÉĲÉ¡É¹ËĪiËĲ":5464,"nÉļÉ¹":5465,"ÉĻÉĻs":5466,"ĠlËĪeÉªs":5467,"ĠsËĪeÉªn":5468,"ĠsËĪÊĮnlaÉªt":5469,"ĠÊĥÉĻts":5470,"ĠÉ¹ËĪÉªtÊĥáµ»z":5471,"stÉ¹ËĪeÉªt":5472,"ĠËĪeÉªtiËĲn":5473,"ĠpËĪÉĶËĲl":5474,"ĠÎ¸ËĪÊĮm":5475,"blÉªn":5476,"ĠÉ¹ËĪeÉªÎ¸":5477,"ĠdÊĴËĪÃ¦ksÉĻn":5478,"ËĪaÉªpËĪiËĲ":5479,"ĠnËĪoÊĬÉªn":5480,"ËĪÉªdÉªn":5481,"ĠfËĪaÉªndÉªÅĭ":5482,"ĠdÊĴËĪÉĶÉªnt":5483,"ĠhËĪÃ¦bÉªt":5484,"ĠwËĪÉĽdÉªÅĭ":5485,"ĠhÉªmsËĪÉĽlf":5486,"ĠlËĮÉĳËĲs":5487,"ĠpÉ¹ËĪÉĽÉ¹z":5488,"ĠdÉĻns":5489,"ĠstËĪÉĳËĲÉ¹v":5490,"nËĪuËĲ":5491,"ĠkËĪeÉªn":5492,"ĠÎ¸ËĪank":5493,"Î²ËĪÉĻ":5494,"zi":5495,"ĠwËĪÉªÉ¹d":5496,"ÊĥËĪoÊĬ":5497,"ËĪaÉªnÉĻ":5498,"ĠmËĪÃ¦s":5499,"jËĪÊĮ":5500,"ĠÉ¡ÉļÉ¹":5501,"ĠkÉ¹ËĪÉªm":5502,"ĠslËĪÉªm":5503,"ĠfËĪÉĶËĲt":5504,"ĠblÉĻnd":5505,"ĠpËĪÉĳËĲÉ¹tnÉļ":5506,"ĠdËĪeÉªli":5507,"viÉĻs":5508,"ĠblËĪÉªÅĭ":5509,"ĠklËĪuËĲ":5510,"ĠÉĻmÉĻ":5511,"Ġbáµ»hËĪeÉªv":5512,"ĠÉĲkËĪaÊĬnt":5513,"ÉĳËĲps":5514,"ĠvËĪaÉªbz":5515,"ĠpÉ¹ËĪÉĳËĲdÊĴÉĽkts":5516,"stÉªk":5517,"skËĮeÉªËĮÉĳËĲÉ¹É¹ËĪÉĳËĲÉ¹":5518,"báµ»":5519,"tËĪÉĽn":5520,"stÉĻk":5521,"ĠÊĥËĪÃ¦kÉªn":5522,"ĠpËĪoÊĬz":5523,"ĠhËĪÊĮs":5524,"ĠlËĪiËĲdz":5525,"ĠklËĪaÊĬs":5526,"ĠhËĪÉªÉ¾ÉªÅĭ":5527,"ĠfËĪÉĶËĲÉ¹tÊĥÊĬn":5528,"ĠbËĪÉĳËĲÉ¹k":5529,"ĠÊĥËĪÊĮv":5530,"ftÉĻbÉĻl":5531,"ĠÊĮnt":5532,"ĠÉ¡ÉĻts":5533,"ËĪÉªnjuËĲ":5534,"ËĮeÉªz":5535,"ËĪÉľËĲtiËĲn":5536,"ĠmËĪÉĳËĲÉ¹tÊĥ":5537,"ĠnËĪiËĲÉĳËĲn":5538,"É¡É¹ËĮÃ¦f":5539,"ĠjËĪuËĲÊĴuËĲÉĻli":5540,"ĠtËĪÃ¦n":5541,"ĠnËĪÉĶËĲÉ¾i":5542,"ĠskËĪÉªp":5543,"ËĪÉľËĲni":5544,"ËĪÉĳËĲÊĴ":5545,"ĠËĪiËĲkw":5546,"ĠslËĪÉªpÉªn":5547,"ÉªlËĪÉĽvÉĻn":5548,"ĠÉ¹ËĪaÉªÉĻt":5549,"ĠsËĪoÊĬdÉĻ":5550,"ĠËĪÉĳËĲÉ¹É¾Éªst":5551,"ĠzËĪÉªp":5552,"É¹ËĪiËĲÉĻl":5553,"ĠtËĪÉĽláµ»fËĮoÊĬn":5554,"mËĪuËĲv":5555,"ĠdËĪÉĽl":5556,"ĠlËĪoÊĬnsÊĮm":5557,"ĠÉĲmËĪÊĮÅĭ":5558,"ĠpËĪeÉªÊĥÉĻnt":5559,"ĠÊĥÉĻz":5560,"ĠdËĪiËĲlÉļ":5561,"ĠsËĪuËĲpÉļstËĮÉĳËĲÉ¹":5562,"tËĪÉĳËĲ":5563,"ĠËĪiËĲziÉļ":5564,"ĠkÉ¹ËĪÃ¦ÊĥÉªÅĭ":5565,"ĠdËĪÉªstÉĻnt":5566,"ËĪaÉªÉĻÉ¾i":5567,"ĠkÉ¹ËĪÉĽdÉªt":5568,"ĠsÉĻÉĻn":5569,"ĠtÊĥËĪÉĳËĲÉ¹m":5570,"ËĮÉªliÉĻnËĪÉĽÉ¹":5571,"ĠlÉĻdÉĻ":5572,"ĠÉ¹áµ»mËĪÉªks":5573,"ĠhËĪÉľËĲÉ¹áµ»kËĮeÉªn":5574,"ĠÊĮp":5575,"ĠswËĪÉªÊĥ":5576,"ĠlËĪÉĽÉ¾Éļz":5577,"ĠplËĪÉĳËĲt":5578,"ĠkwËĪiËĲnz":5579,"ĠÊĥËĪoÊĬÉªn":5580,"ĠpËĪÃ¦nÉªk":5581,"ĠÊĥËĪÊĬk":5582,"ĠskwËĪÉĽÉ¹":5583,"ĠkÉĻnfËĪÉĽs":5584,"ĠsËĪÃ¦kÉ¹áµ»fËĮaÉªs":5585,"ĠhËĪÊĮÊĥ":5586,"ĠkËĪoÊĬldÉļ":5587,"ĠsmËĪaÉªlz":5588,"ËĪad":5589,"ĠÉ¹ËĪÉĶÉª":5590,"ËĪÉľËĲdÊĴ":5591,"ËĪÉĽkÊĥÉĻnz":5592,"fti":5593,"ĠdËĪÃ¦nsÉļ":5594,"ĠkÉĻps":5595,"bËĪÃ¦Åĭ":5596,"Î²ÉĻÎ²lÉĻ":5597,"ĠÉ¡wËĪÉĳËĲp":5598,"ĠsËĪÊĮfÉļ":5599,"ĠsËĪiËĲd":5600,"uËĲËĪÉĽvÉļ":5601,"ĠlËĪaÉªÉĻn":5602,"ËĪuËĲÊĴÉĻn":5603,"ĠfÉĻlÉĻ":5604,"ĠkËĪÉĳËĲÉ¹mÉĻ":5605,"ĠpÉ¾ÉĻÎ²ÉĻÎ²lÉĻ":5606,"ĠsËĪad":5607,"fÉĻn":5608,"ĠËĪÉĶËĲt":5609,"ÉĻÉĻËĮÉĻ":5610,"Ã¦nt":5611,"ĠpÉ¹ËĪeÉªÉªn":5612,"ĠbÉ¾ÉĻd":5613,"ĠveÉªk":5614,"ĠsmËĪÃ¦k":5615,"ĠlËĪeÉªÉªn":5616,"ĠÉ¹ËĪÉĳËĲkstÉĳËĲÉ¹":5617,"ĠwËĪÉĶndÉļ":5618,"ĠkËĪÉľËĲv":5619,"ĠsËĪeÉªvÉªÅĭ":5620,"ĠÎ¸ËĪÉĳËĲt":5621,"ĠÉ¹áµ»dÊĴ":5622,"ËĪÉĽÊĥÉĻli":5623,"ĠbËĪÉĶËĲlÉªÅĭ":5624,"ĠspËĪÉªnÉªn":5625,"ĠstÉĻtÉĻd":5626,"ĠtÉ¹Ã¦ns":5627,"ËĪÉªki":5628,"ĠspÉĻn":5629,"ĠspÉĻs":5630,"ÉĻstÉĻ":5631,"ËĪÉĳËĲlÉļ":5632,"ĠskÉ¹ËĪuËĲ":5633,"ĠfËĪÉªÉ¡Éļd":5634,"báµ»lËĪiËĲv":5635,"ĠdÊĴËĪeÉªmz":5636,"ËĪiËĲÉ¾áµ»d":5637,"ËĪeÉªdiËĲz":5638,"ĠÊĥËĪÃ¦k":5639,"ĠmËĪuËĲvÉªz":5640,"ĠkÉĻntËĪÉªnjuËĲ":5641,"ËĪÉªÉ¾Éªz":5642,"ĠkËĪÊĮts":5643,"ĠsËĪÊĮnz":5644,"ĠËĪÉĽkstÉĻsi":5645,"ĠmËĪÃ¦ks":5646,"ĠsËĪÉªÉ¡":5647,"ËĮÉĽd":5648,"ĠpÉ¹ÉĻv":5649,"ĠkÉĻlËĪaÉªd":5650,"ĠsËĪaÉªkoÊĬ":5651,"ĠaÊĬÉ¾ÉĻÉĻÉĻ":5652,"ĠpÉ¹ËĪÉĳËĲd":5653,"ĠbËĪaÉªbÉĻl":5654,"nÉĻsi":5655,"ĠpËĪÉªkÉªÅĭ":5656,"ĠfÉĻnËĪa":5657,"ĠbËĪÉĽlt":5658,"Ġdáµ»stÉ¹ËĪÉĶÉª":5659,"zÉĻl":5660,"ĠwËĪÉľËĲks":5661,"ĠmËĪÉªsÉªz":5662,"ĠtËĪÉĽksÉĻs":5663,"ĠkËĪÃ¦dÉªlËĮÃ¦":5664,"ĠtÉ¹ËĪÉĽÊĴÉļ":5665,"ĠÉĻÉĻÉĻÉĻÉĻÉĻÉĻÉĻÉĻÉĻÉĻÉĻÉĻÉĻ":5666,"ĠÊĥËĪÉĳËĲpÉªÅĭ":5667,"ĠbËĪÃ¦t":5668,"ĠwËĪÊĬdz":5669,"ËĪÉĳËĲÉ¹dÉĻn":5670,"ĠjËĪÊĮÅĭÉ¡Éªn":5671,"ĠbÉ¹ËĪÉªÅĭÉ¡Éªn":5672,"ĠpËĪeÉªntáµ»d":5673,"ĠtËĪÉĶs":5674,"ĠpÉ¾ÉĻz":5675,"stËĪÃ¦nd":5676,"ĠtËĪiËĲtÊĥÉļ":5677,"ĠwËĪÉªsp":5678,"ĠÎ¸ËĪÊĮÉ¡Éªn":5679,"ĠtËĪÃ¦ks":5680,"ĠhuËĲËĪÉĽvÉļ":5681,"ĠstËĪeÉªz":5682,"ËĪÉĽkfÉĻst":5683,"Ġdáµ»vËĪaÉªn":5684,"ĠlËĪaÉªfstaÉªl":5685,"ĠpÉĻpÉĻ":5686,"ĠdÉ¹ËĪÉĳËĲpÉªÅĭ":5687,"Ġdáµ»sËĪÉĽmbÉļ":5688,"vËĪeÉªÊĥÉĻn":5689,"ĠfÉ¾ÉĻk":5690,"ĠdÊĴËĪoÊĬnz":5691,"ĠËĪÉĶËĲlsoÊĬ":5692,"ydÊĴ":5693,"ĠÉĲv":5694,"ĠÉĲsËĪaÉªd":5695,"ËĪÉªpsi":5696,"klËĪÉĳËĲk":5697,"ËĪÉĳËĲÉ¡oÊĬ":5698,"ĠwÉĻÎ¸":5699,"skÉ¹":5700,"ĠÉ¹áµ»lËĪeÉªÊĥÉĻn":5701,"kÉĻh":5702,"ĠhËĪÉĽni":5703,"jÉĻl":5704,"ĠsËĪuËĲz":5705,"ËĮÉĽst":5706,"ĠbÉ¹ËĪÉĽkfÉĻst":5707,"ÊĥÉĻnÉĻl":5708,"ĠwÉĻtËĪÉĻvo":5709,"ĠlËĪÉªftáµ»d":5710,"ĠbÉ¹ËĪÊĬklÉªn":5711,"leÉª":5712,"ĠÉĻlÉĻÅĭ":5713,"ĠbËĪÉĽli":5714,"ĠÉ¹ËĪiËĲÉĻlaÉªzd":5715,"vÉªl":5716,"ËĪaÉªts":5717,"ĠsuËĲ":5718,"Ġsáµ»kjËĪÊĬÉ¹":5719,"ĠfËĪeÉªz":5720,"ËĪÉĽvÉĻnz":5721,"ĠplÉĻÉĻÅĭ":5722,"ËĪeÉªnt":5723,"ĠtÉ¾ËĪap":5724,"lËĪÃ¦st":5725,"ĠlËĪÉľËĲnÉªÅĭ":5726,"ĠlËĪÉĽd":5727,"ĠbËĪiËĲp":5728,"ĠÉ¡É¹ËĪÃ¦v":5729,"ĠsËĪÉªnÉļ":5730,"ĠdÊĴËĪoËĲÉ¹dÉĻn":5731,"ĠÉĻÉ£":5732,"ĠÉ¡É¹ËĪÉªl":5733,"ĠtËĪÉľËĲnt":5734,"ĠÊĥËĪÉĳËĲtÉ¡ÊĮn":5735,"ĠtwËĪÉľËĲk":5736,"É¾ÉĻtÉĻ":5737,"ĠbËĪÃ¦kwÉļdz":5738,"ËĪÉªÎ¸":5739,"ĠpËĪÃ¦l":5740,"ĠdÊĴËĪÉªÉ¡":5741,"É¹ËĪÉĳËĲk":5742,"ĠÊĥÉĻp":5743,"ĠsËĪiËĲdz":5744,"ĠËĪÃ¦É¡":5745,"ĠswËĪiËĲp":5746,"ĠÉ¹ËĪeÉªnÉªÅĭ":5747,"ĠtÉ¾ÉĻk":5748,"ÉĻlt":5749,"Î¸ËĪÉªÅĭk":5750,"ÉĲÉ¹":5751,"É¾ÉĻbÉĻl":5752,"ĠswËĪoËĲÉ¹":5753,"ĠËĪÉĳËĲbviÉĻs":5754,"ÊĥÉĳËĲt":5755,"Î¸ËĪÃ¦Åĭk":5756,"ËĪÃ¦mÉĻ":5757,"ĠÉĲlËĪÉĳËĲÉ¹m":5758,"ĠhËĪaÅĭ":5759,"ĠsËĪÉªstÉļz":5760,"ĠËĪÉĶËĲÉ¹dÉªnËĮÉĽÉ¹i":5761,"ĠtËĪÉĶÉª":5762,"ĠspËĪaÉª":5763,"ĠstÉĻpÉĻd":5764,"ĠlËĪÉĳËĲÉ¹dÊĴ":5765,"ĠdÊĴËĪÉªn":5766,"ĠËĪÊĮpsaÉªd":5767,"ĠËĮÃ¦ftÉļ":5768,"ĠÉ¹áµ»É¡É¹ËĪÉĽts":5769,"ĠwËĪiËĲv":5770,"ĠwËĪuËĲp":5771,"ĠtËĪÃ¦k":5772,"ĠtËĪÃ¦Åĭk":5773,"ĠtÊĥÉĻn":5774,"liÉĻnz":5775,"ĠflËĪÉĶs":5776,"ÉªÊĥt":5777,"ĠÊĥáµ»k":5778,"ĠlËĪuËĲzÉļ":5779,"ĠÉ¡ÉĻdÎ²ËĪÉĻ":5780,"ĠÉ¹ËĪÉªÉ¹":5781,"ĠjËĪÊĮÅĭÉ¡Éļ":5782,"ĠÉ¹ËĪaÊĬndz":5783,"ĠsËĪÉĽpÉ¹ÉĻt":5784,"ĠdÉ¾ÉĻn":5785,"ĠÉĻËĪo":5786,"dÊĴÉĻk":5787,"ĠtËĪuËĲpËĪÃ¦k":5788,"ĠfÉ¹ËĪÊĮntÉªn":5789,"poËĲÉ¹":5790,"ÉĻfËĮoÊĬn":5791,"Ġ--":5792,"ËĪÉªÊĥÉĻl":5793,"ĠÃ°ËĪiËĲ":5794,"ĠsËĪÉĳËĲks":5795,"ĠbËĪaÊĬ":5796,"stÉªn":5797,"ÉĲk":5798,"ĠmËĪÃ¦nÉªdÊĴ":5799,"ĠkÉĻmËĪÃ¦nd":5800,"ÉľËĲsËĪeÉªdiËĲz":5801,"ËĪÉĶËĲdz":5802,"ËĪÉĳËĲÉ¹tÉªn":5803,"ĠtwËĪÉªn":5804,"ĠkËĪÉĳËĲÅĭk":5805,"ĠÉ¹áµ»sËĪiËĲv":5806,"ĠhËĪÉªdÉĻn":5807,"ĠËĮÉĽmËĮÉĽmËĪeÉªtÊĥ":5808,"ĠÉ¹ËĪÉĽÉ¡jÊĬlÉļ":5809,"ĠtÉ¹ËĪÉĽntÊĥáµ»z":5810,"dËĪaÉª":5811,"ĠbÉ¹ËĪÊĮ":5812,"ÉĲb":5813,"ÉĲÉ¡":5814,"ĠÉ¹ËĪÉĳËĲbÉªn":5815,"ĠËĪÃ¦ÅĭÉ¡Éļ":5816,"pËĪÊĬt":5817,"ĠbÉ¹ËĪÊĮÊĥ":5818,"ÊĴuËĲÉĻl":5819,"ĠsÉĻsp":5820,"ĠËĮÉĶËĲÉ¾ÉĻmËĪÃ¦É¾Éªk":5821,"ĠËĪaÊĬns":5822,"ĠdÉĻlÉĻ":5823,"ËĮÉĽz":5824,"ËĮeÉªl":5825,"ĠkÉĻplÉĻ":5826,"ĠlËĪoÊĬnlinÉĻs":5827,"ĠdÊĴËĪÃ¦kÉªt":5828,"ĠblËĪÉĽsÉªÅĭz":5829,"pÉĻtËĪÉªÊĥÉĻn":5830,"ĠpËĪÃ¦ntiz":5831,"ĠhËĪÉĽz":5832,"ĠdÊĴËĪÉĽlÉĻsi":5833,"ĠpËĪÉľËĲsÉĻnÉĻl":5834,"wËĪÉĶnt":5835,"ĠklËĪoÊĬzÉªÅĭ":5836,"ĠÉĽnd":5837,"ĠwËĪÉĳËĲÊĥt":5838,"bËĮiËĲËĮÉĳËĲÉ¹É¹ËĪÉĳËĲÉ¹":5839,"ĠkÉ¹ËĪÉªstÉĻl":5840,"ĠkÉ¾ÉĻd":5841,"ĠtÊĥÉĻz":5842,"ĠÉĻfÉ¾ÉĻd":5843,"stÉ¹ÉĻmËĪÉĽntÉĻl":5844,"bÊĬ":5845,"tËĪaÊĬn":5846,"Ġ:":5847,"ĠÉĻÉ¡z":5848,"ĠtÊĥÉĻl":5849,"ĠtÊĥËĪoÊĬzÉĻn":5850,"ĠfËĪam":5851,"ĠtÉĻnÉĻd":5852,"ĠwËĪÉªnÉªn":5853,"ĠpËĪoËĲÉ¹Êĥ":5854,"ĠËĪÉĽsk":5855,"ĠlËĪand":5856,"ĠhaÊĬ":5857,"ĠdÉªzËĪiËĲz":5858,"ĠsËĪÉĽkÉĻndz":5859,"ËĮÉªk":5860,"ĠtËĪoÊĬk":5861,"ĠlËĪeÉªnz":5862,"ĠÉ¹ËĪÃ¦tÊĥ":5863,"ËĪÉĳËĲlÉªdÊĴ":5864,"ĠnËĪÉĳËĲkÉªÅĭ":5865,"ĠÊĮndËĪÊĮn":5866,"ĠbÉ¹ËĪÃ¦É¡":5867,"ĠmËĪÉªlk":5868,"ĠlËĪÃ¦ftÉļ":5869,"nËĪuËĲn":5870,"ĠdËĪÃ¦b":5871,"ĠlËĪÊĮntÊĥ":5872,"ĠÉĻmz":5873,"ĠkÉ¾ÉĻm":5874,"ÉĳËĲl":5875,"ĠhËĪÉĽnnÉĻsi":5876,"ĠpËĪak":5877,"ĠÊĥÉĻd":5878,"ĠwÉĻnz":5879,"ĠkËĪÃ¦tÊĥÉªÅĭ":5880,"ĠdËĪadi":5881,"ĠÊĥáµ»kËĪÉĳËĲÉ¡oÊĬ":5882,"ĠwËĪÉªps":5883,"ĠhËĪeÉªl":5884,"ĠpËĪÉĳËĲps":5885,"liÉĻ":5886,"mÉĻni":5887,"ĠsËĪÉĽndÉªÅĭ":5888,"ĠËĮÉĽmËĮeÉªtÊĥËĪÉĽm":5889,"ĠmËĪoÊĬn":5890,"ĠtÊĥÉĻndÊĴ":5891,"ĠjÉĻt":5892,"ĠpÉ¹ËĪÉĽzÉĻns":5893,"ĠËĪÉĽd":5894,"ÊĥÉĻt":5895,"ĠtÊĥËĪÉĳËĲk":5896,"É¾ÉĻf":5897,"ĠfËĪÊĬ":5898,"ĠkËĪÉªlÉĻ":5899,"ĠÎ¸ËĪÉľËĲsti":5900,"ËĪÉªnd":5901,"ĠËĪÉĽkoÊĬ":5902,"lËĪÉªl":5903,"eÉªks":5904,"ĠhÉļÉ¹":5905,"áµ»s":5906,"ĠdÊĴÉĲm":5907,"ĠlÉĻkÉĻd":5908,"ĠpÉĻÉĻ":5909,"ĠbËĪÉªÉ¡i":5910,"ĠhÉĻtËĪo":5911,"ĠsÉļpÉ¹ËĪaÉªzd":5912,"ĠÊĥËĪÉĽltÉļ":5913,"ËĪaz":5914,"ĠtËĪÉªnt":5915,"ËĮÊĮndÉļ":5916,"ĠstËĪÉĳËĲmp":5917,"ËĪÉªlÉªk":5918,"spËĪÉĽÊĥÉĻli":5919,"ĠÉ¹ËĪiËĲtÊĥt":5920,"bËĪÉľËĲ":5921,"ĠlËĪÃ¦d":5922,"ĠËĪÉĽndáµ»d":5923,"ĠfËĪaÉªtÉªn":5924,"ĠhËĪÉĽvÉĻnli":5925,"ĠbÉĻÉĻ":5926,"ĠbËĪeÉªsmÉĻnt":5927,"ĠkÃ¦":5928,"ĠÉ¡ËĪÊĮvÉļ":5929,"ËĪÉĻm":5930,"ËĮÃ¦t":5931,"ĠfËĪoËĲÉ¹Î¸":5932,"kÉĻl":5933,"ËĪÃ¦É¹i":5934,"ĠËĪÉªntÉ¹":5935,"ĠblËĪÉªÅĭk":5936,"ĠÉªnh":5937,"ĠblËĪÉĽsÉªÅĭ":5938,"ĠËĮÃ¦ftÉļnËĪuËĲn":5939,"?!":5940,"wËĪÉĶËĲk":5941,"ĠkÉĻlÉĻn":5942,"mÉĻl":5943,"mËĪeÉªb":5944,"ĠÉ¡ËĪeÉªn":5945,"ĠswËĪeÉª":5946,"ĠhËĪÉĽdÉªÅĭ":5947,"ĠÊĥËĪÉĶËĲn":5948,"ĠwËĪÉªndz":5949,"ĠdÉªstÉ¹":5950,"ĠËĪÉªÊĥuËĲz":5951,"ĠnËĪeÉªlz":5952,"stËĪeÉª":5953,"ËĮÉĽsËĪeÉªtÊĥ":5954,"ĠmÉĻmÉĻnt":5955,"ËĪiËĲks":5956,"ĠtËĪÉªÉ¾Éªz":5957,"ĠstËĪÉĳËĲk":5958,"plÉĻ":5959,"ËĪoÊĬvÉļ":5960,"ËĪÉĽndi":5961,"ĠkÉĻlËĪÉĽkt":5962,"ĠËĪÉĶËĲÉ¾ÉĻ":5963,"ĠpÉ¹ËĪÉĽzÉĻnt":5964,"ĠdËĪÃ¦nst":5965,"ĠsÉļÉ¹ËĪaÊĬndáµ»d":5966,"ĠveÉªkËĪeÉªÊĥÉĻn":5967,"ĠstËĪÉĽpÉªn":5968,"bËĪÉĳËĲp":5969,"ĠpÉ¾":5970,"tËĪuËĲn":5971,"ĠsËĪÃ¦dnÉĻs":5972,"ĠswËĪiËĲÉ¾Éªst":5973,"sËĮÊĮm":5974,"ĠtËĪuËĲzdeÉª":5975,"ËĪÃ¦tÊĥt":5976,"ĠËĮÉĽskËĮeÉªËĮÉĳËĲÉ¹tËĪiËĲ":5977,"ĠËĪÉªmÉªdÊĴ":5978,"ĠÉ¡É¹ËĪaÉªndÉªn":5979,"ĠbÉĻld":5980,"ĠdËĪÊĮmp":5981,"ĠÉ¡É¾ËĪa":5982,"ĠstËĪÃ¦b":5983,"ĠËĪÃ¦Êĥ":5984,"Ġdáµ»sËĪiËĲv":5985,"ĠdËĪÉĽspÉļÉ¹":5986,"ĠÉ¡ËĪÊĮvÉļn":5987,"ĠdÉª":5988,"ĠkËĪÃ¦naÉª":5989,"ĠtËĪuËĲÎ¸":5990,"ËĪÉĽndz":5991,"ĠpÉ¹ËĪÉĳËĲfÉªt":5992,"hÉĽd":5993,"ĠbËĪÉľËĲst":5994,"ĠbËĪÊĮd":5995,"ĠtÉ¾ÉĻt":5996,"ĠlËĪiËĲk":5997,"ĠtËĪoÊĬÉ¾ÉĻl":5998,"ĠbËĪoËĲÉ¹dÉļ":5999,"ÅĭkÉ¹iËĲt":6000,"ĠwËĪÉªzdÉĻm":6001,"ĠkËĪÉĳËĲmpláµ»kËĮeÉªÉ¾áµ»d":6002,"ĠsËĮÉªÉ¡ÉļÉ¹ËĪÉĽt":6003,"ĠmÉľËĲsËĪeÉªdiËĲz":6004,"ĠpËĪÉĳËĲÉ¹dÉĻn":6005,"ĠvËĪÉĽn":6006,"foÊĬ":6007,"wËĪÉľËĲk":6008,"ĠmËĪaÉªkÉ¹":6009,"ÊĥÉĻns":6010,"ĠpÉ¾ÉĻmÉĻsÉĻ":6011,"dËĪÉªd":6012,"ËĪaÉªÉļd":6013,"ĠhËĪÊĮmbÉĻl":6014,"stÉĻz":6015,"ĠtÉĻmÉĻÉ¾ÉĻ":6016,"ÉĻÉĻÉĻtÉĻ":6017,"ĠkËĪÊĮvÉļz":6018,"É¹ËĪoÊĬ":6019,"ĠsËĪÉĳËĲ":6020,"ËĪÉªlÉªÉ¹":6021,"ÉĻsÉĻz":6022,"ÉĻntÉĻn":6023,"ĠÉ¡lËĪÊĮv":6024,"ĠÊĥËĪÉĳËĲÉ¹p":6025,"ĠËĪÉľËĲn":6026,"ĠmËĪaÊĬ":6027,"ĠpÉĻd":6028,"ĠspËĪÃ¦n":6029,"ĠÉ¹ËĪÃ¦ps":6030,"pÉĻÎ¸i":6031,"ĠfËĪÉĶls":6032,"ĠtËĪÉĶÉªz":6033,"ĠÉ¹ËĪÃ¦É¡":6034,"ĠtËĪÉĽÉ¹ÉªÅĭ":6035,"boËĲÉ¹É¡":6036,"ĠsËĪÉĳËĲk":6037,"ĠstËĪÊĮmbÉĻl":6038,"ÉĻsËĪiËĲ":6039,"ËĮÉĽnÉĻsËĪiËĲ":6040,"É¾ÉĻwÉĻn":6041,"ĠsËĪÉĽts":6042,"ÉĽns":6043,"ĠsËĪuËĲpÉļm":6044,"ĠkËĪÃ¦mÉ¹ÉĻz":6045,"ĠdÊĴÉĲmËĪeÉªk":6046,"wÉĻk":6047,"É¹ÉªÉ¾i":6048,"ÊĥËĪÉľËĲt":6049,"ĠplËĪÃ¦nd":6050,"Ìĥ)":6051,"ĠdÉ¹ËĪÉĳËĲps":6052,"ËĪÉĽbÉ¹":6053,"ĠkËĮÉĳËĲmpÉĻtËĪÉªÊĥÉĻn":6054,"ĠsnËĪÉªpÉªt":6055,"záµ»z":6056,"ÊĥËĪeÉªk":6057,"ĠslËĪÊĮm":6058,"ËĪaÊĬdÉļ":6059,"ĠÉĻËĮÉĻÉĻÉĻ":6060,"ĠnËĪÉªki":6061,"Ġdáµ»vËĪaÉªd":6062,"ĠlËĪÉĽn":6063,"ĠÉªÅĭkÉ¹":6064,"ĠpËĪÉĶËĲz":6065,"ĠtÊĥËĪÉªps":6066,"ĠÉªnnËĪÉĳËĲ":6067,"ĠspËĪiËĲkÉļz":6068,"ĠpËĪÊĬÊĥt":6069,"ĠdËĪiËĲmÉĻn":6070,"ĠsnËĪeÉªks":6071,"ĠjËĪuËĲzÉªÅĭ":6072,"ĠsËĪÃ¦l":6073,"ĠlËĪÉªs":6074,"ÊĥËĪÉªt":6075,"ËĪaÊĬnts":6076,"ĠslËĪÉĽpt":6077,"ĠbËĪÉĳËĲÉ¹oÊĬ":6078,"ĠÉ¡ËĪuËĲs":6079,"ĠwËĪÉªsÉĻl":6080,"ĠkËĪÃ¦dÉªlËĮÃ¦k":6081,"vËĮiËĲ":6082,"wËĪÉĳËĲtÊĥ":6083,"ËĪÃ¦É¡Éļ":6084,"tÊĥËĪÉĽk":6085,"ÉĲdÊĴ":6086,"ĠkËĪÊĮmftÉĻbÉĻl":6087,"ĠmËĪÃ¦l":6088,"ĠÊĮns":6089,"ĠlËĪÃ¦fÉªn":6090,"ĠskËĪiËĲ":6091,"ËĪÊĮfÉĻl":6092,"ĠmËĪoÊĬÉ¾Éļ":6093,"ĠËĪÃ¦ktÊĥuËĲÉĻli":6094,"iÉĻnz":6095,"ËĪaÊĬl":6096,"ĠÉĻvÉ¾ÉĻwÉĻn":6097,"laÉªts":6098,"ĠÊĥËĪÉĽlf":6099,"ĠdÊĴËĪÉľËĲni":6100,"ËĪÉĳËĲkÉĻ":6101,"ĠkËĪÊĮf":6102,"ËĪÊĮÃ°Éļn":6103,"ĠfÉ¹ËĪiËĲks":6104,"ĠËĮÊĮndÉļstËĪÊĬd":6105,"ymËĪÉĻ":6106,"Î²ÉĻt":6107,"ĠfÉĻÎ¸":6108,"ĠdÉ¹ËĪaÉªvÉļ":6109,"wÉĶËĲk":6110,"eÉªp":6111,"ĠtËĮÉĽnÉĻsËĪiËĲ":6112,"ĠdjËĪuËĲs":6113,"ĠskËĪÉªni":6114,"mboËĲÉ¹É¡":6115,"ËĪeÉªvÉļ":6116,"ËĪÉĶÅĭk":6117,"ĠÉĽksËĪaÉªÉ¾áµ»d":6118,"ĠsmËĪoÊĬkt":6119,"ĠÉ¡ËĪÃ¦ÅĭstÉļ":6120,"ĠÉ¡lËĪÃ¦sáµ»z":6121,"ĠÎ¸ÉĻzÉĻnd":6122,"ËĪÉĽndÉĻnt":6123,"ÉĽndz":6124,"ĠÉªnvËĪÉĳËĲlvd":6125,"ĠspËĪÉªtÉªn":6126,"ĠÉĲpÉ¹ËĪiËĲÊĥ":6127,"voÊĬ":6128,"ĠskÉĻn":6129,"Î²ÉĻz":6130,"ĠtÉ¾ËĪa":6131,"ĠfËĪÉĳËĲloÊĬÉªÅĭ":6132,"ĠkjËĪuËĲb":6133,"ĠkÉ¾ÉĻsmÉĻs":6134,"ĠtËĪuËĲhËĪÊĮndÉ¹ÉĻd":6135,"ËĮÉªz":6136,"ĠÉ¡ËĪoÊĬsts":6137,"sËĪÉĽvÉĻnt":6138,"ĠÉ¹ËĪoÊĬvÉļ":6139,"plËĪeÉª":6140,"ĠwËĪÊĮÉ¹iz":6141,"ĠËĪÉĳËĲnÉļ":6142,"ĠmËĪÉĳËĲÉ¹tÊĥÉªÅĭ":6143,"Ġhj":6144,"ÉļÉ¹ËĮeÉªt":6145,"ĠswÉĻtÊĥ":6146,"ĠstËĪÉĳËĲpÉªn":6147,"ĠÉĽksplËĪoÊĬd":6148,"ĠswËĪÉªÅĭÉªÅĭ":6149,"ĠpÉ¹ËĪÃ¦ktÉªs":6150,"ĠfËĪÉĽÃ°Éļ":6151,"ĠskËĪÉĽÉ¹":6152,"ĠkËĪÉĳËĲÅĭkÉ¹iËĲt":6153,"ĠpËĪÉľËĲs":6154,"ĠsËĪÉĽntÉĻns":6155,"ÅĭÉ¡ÉĻn":6156,"ËĪeÉªdÊĴÉĻs":6157,"ĠpËĪÉľËĲl":6158,"ĠplËĪaÉªÉĻ":6159,"ÅĭÉ¡ÉĻ":6160,"ĠkËĪaÊĬbÉĶÉª":6161,"ĠpËĪoÊĬstáµ»d":6162,"ÊĮstÉ¹i":6163,"ĠkÉ¹ËĪÉªp":6164,"ĠhËĪÊĮÅĭÉ¡Éļ":6165,"ĠÉªtËĪÉľËĲnÉªÉ¾i":6166,"ĠdÊĴËĮeÉª":6167,"ĠÉ¹ËĪÉªmz":6168,"ĠpÉ¾ÉĻv":6169,"ĠËĪÉªndÊĮstÉ¹i":6170,"ĠdÉ¹ËĪÉªl":6171,"ËĪiËĲdÊĴ":6172,"ĠÉ¡ËĪÉĳËĲÉ¾i":6173,"ĠkËĪÉªsÉªn":6174,"ĠdËĪoÊĬm":6175,"ĠwËĪÉĽstsaÉªd":6176,"ĠbËĪÉĽndÊĴ":6177,"ĠsËĪÊĮÃ°Éļn":6178,"ËĪeÉªpt":6179,"ÊĥËĪÊĬÉ¹":6180,"ĠspËĪaÉªn":6181,"ĠÉ¡É¹ËĪÉªn":6182,"ĠËĪÉĳËĲfÉªs":6183,"ĠspËĪÉĽndÉªn":6184,"ĠhËĪeÉªÉ¾áµ»d":6185,"ĠÉĽkspÉ¹":6186,"ĠfÉªnËĪÉĽs":6187,"ĠmËĪÉĳËĲÉ¹tÉªn":6188,"ĠÊĮps":6189,"ĠtÉ¹ËĪÉªn":6190,"ĠbÉ¹ËĪÉĽ":6191,"ËĪiËĲlÉĻ":6192,"ËĪiËĲlÉªÅĭ":6193,"ĠËĪak":6194,"ĠÉªntËĪÉĽnÊĥÉĻnz":6195,"ĠhËĪiËĲlÉªÅĭ":6196,"ĠÉ¹ËĪiËĲkÉĶËĲl":6197,"keÉªs":6198,"Ã°ËĪat":6199,"ĠbÉĻf":6200,"ĠsËĪÉĶftli":6201,"ĠlËĪÃ¦mboÊĬ":6202,"jÉĻÉĻ":6203,"nËĮÉĽt":6204,"Ã°i":6205,"ĠtËĪaÉªni":6206,"ËĮÃ¦m":6207,"ĠblËĪuËĲm":6208,"ĠsËĪÉĻmz":6209,"!),":6210,"ĠÉ¡ËĪoËĲÉ¹":6211,"ĠdÊĴÉĻk":6212,"ËĪoÊĬni":6213,"ĠpËĪÉĳËĲÉ¹ts":6214,"ĠsËĪiËĲzÉĻnz":6215,"ĠËĪÉĽnvi":6216,"ĠbËĪÃ¦ÅĭÉ¡Éªn":6217,"ĠkÉ¹ËĪÊĬkÉªd":6218,"ĠsËĪÉĶlt":6219,"pÉĻkt":6220,"ĠfËĪÉĳËĲks":6221,"ĠslËĪÃ¦Êĥ":6222,"ĠÉĻlÉĻ":6223,"ĠfÉĻks":6224,"ĠËĮÉĽf":6225,"ĠflËĪÃ¦ÊĥÉªÅĭ":6226,"ĠhËĪÊĬkt":6227,"ĠfÉ¾":6228,"ĠtÊĥËĪÊĮk":6229,"ĠËĪÉĶfÉļ":6230,"ĠsÉĻpËĪoÊĬz":6231,"ĠfÉĻlÉĻÅĭz":6232,"ĠhËĪÉĶËĲÉ¹sáµ»z":6233,"ĠvËĮiËĲv":6234,"wËĪiËĲ":6235,"ĠdÊĴuËĲ":6236,"ËĪÉĳËĲÉ¹É¾áµ»d":6237,"ĠbËĪÊĮdi":6238,"ĠdËĪÉªÉ¡ÉªÅĭ":6239,"ĠvËĪÉªzÉªt":6240,"É¡Éªt":6241,"ĠklÉĻn":6242,"ĠËĪÃ¦ni":6243,"ĠstËĪÉĽpt":6244,"ĠkÉĻndÉĻ":6245,"ĠÉĻnËĪywÉĻ":6246,"ĠlËĪoÊĬkoÊĬ":6247,"ĠËĪÉĽndÊĴÉªn":6248,"ĠwËĪÉĻn":6249,"ĠsÉªn":6250,"ĠÉ¹áµ»d":6251,"ĠmËĪÃ¦Êĥ":6252,"ĠpÉ¹ËĪaÉªm":6253,"ĠstÉ¹ËĪÉĽst":6254,"ĠdÉĻnsÉĻÅĭ":6255,"tËĪÉĳËĲp":6256,"ĠÉ¡ËĪÉĳËĲts":6257,"ĠdÉ¹ËĪÉªftÉªÅĭ":6258,"kÉĻhËĮÉĳËĲl":6259,"ËĪÃ¦É¾i":6260,"ĠpËĪÉªÉ¹":6261,"ĠhËĪÉĽlÎ¸":6262,"ĠkËĪÉĽÉ¹d":6263,"ĠdÉ¹ËĪÉªpÉªÅĭ":6264,"Éªkw":6265,"ĠmËĪÃ¦nz":6266,"ĠhaÊĬËĪÉĽvÉļ":6267,"É¾ÉĽk":6268,"ÉĻtÉĻÅĭ":6269,"ĠkÉĻnfjËĪuËĲ":6270,"ĠwËĪÊĬlf":6271,"ĠhËĪÉĽvÉĻnz":6272,"É¡Éªst":6273,"ĠwÉĻÉ¾ÉĻ":6274,"ĠbËĪÃ¦m":6275,"ĠÉĻpÉĻt":6276,"ËĪÉĳËĲdoÊĬ":6277,"ĠlËĪÃ¦ft":6278,"ĠpËĪÉªtÊĥ":6279,"ĠËĪiËĲÉ¡ÉĻl":6280,"ĠhËĪaÉªÉªst":6281,"ËĪÉľËĲb":6282,"ĠÃ¦mb":6283,"ĠËĪÃ¦nt":6284,"ĠËĪÉªntÉļnËĮÉĽt":6285,"ĠËĪÃ¦vÉ¹ÉªdÊĴ":6286,"ĠÉ¹ËĪaÊĬt":6287,"ĠÉĻpËĪÉªn":6288,"ĠstËĪÉªki":6289,"ĠÉ¹áµ»vËĪÉĽndÊĴ":6290,"ĠsËĪÉĳËĲlv":6291,"ËĪÉªzáµ»bÉĻl":6292,"ĠsËĪÉľËĲf":6293,"ĠvËĪÉªktÉļÉ¹i":6294,"ĠmËĪÉĽksÉªkËĮoÊĬ":6295,"É¾ÉļÉ¹i":6296,"ĠfËĪÉĳËĲÉ¹m":6297,"ËĮaÉªzÉªÅĭ":6298,"ĠdÉ¹ËĪÊĮmz":6299,"noÊĬ":6300,"ÉĻÎ¸":6301,"ĠÉ¹ËĪoËĲÉ¹":6302,"ĠhËĪaf":6303,"É¡É¹aÊĬnd":6304,"ĠbËĪÃ¦lÉĻns":6305,"lÉª":6306,"ĠbÃ¦":6307,"ĠstÉĻm":6308,"ĠfËĪeÉªvÉļ":6309,"ĠlËĪiËĲdÉļ":6310,"ĠsÊĮ":6311,"ĠhÉĻnÉĻ":6312,"ËĪÉĻl":6313,"ĠtËĪaÉªz":6314,"ĠzËĪuËĲm":6315,"ĠËĪiËĲzili":6316,"ĠfÉļÉ¡ËĪÉªvnÉĻs":6317,"mboËĲÉ¹É¡ËĪiËĲni":6318,"ĠbÉ¹ËĪÉĶËĲdz":6319,"ĠblÉĻz":6320,"ĠvËĪÉĽst":6321,"ĠÊĥËĪÉªts":6322,"ĠÉ¾ÉĻdÉĻn":6323,"ĠÉĽkspËĪÉĽnsÉªv":6324,"jËĪÊĮÅĭ":6325,"ĠjuËĲn":6326,"ĠtÊĥËĪÃ¦n":6327,"ĠwËĪeÉªl":6328,"ĠdËĪeÉªdÉ¹":6329,"ĠstËĪeÉªÉªn":6330,"ĠaÊĬtsÉĻd":6331,"ĠËĪÃ¦lkÉĻhËĮÉĳËĲl":6332,"ĠstËĪoÊĬlÉĻn":6333,"ĠwËĪÉªli":6334,"ĠpËĪÉªkÉªn":6335,"ĠÉ¹ËĪÉĽstlÉĻs":6336,"ĠfËĪÉªzÉªkÉĻl":6337,"lËĪÉªÅĭ":6338,"ĠwËĪÉªÅĭ":6339,"ÊĥËĪÉĳËĲ":6340,"ĠÉªnd":6341,"ĠbËĪÉĽÉ¡Éªn":6342,"ĠwËĪuËĲnd":6343,"ĠbËĪÉªliÉĻn":6344,"ËĪiËĲst":6345,"ĠkËĪÉĶËĲ":6346,"ĠfËĪÉĽlÉĻz":6347,"mËĪeÉªÊĥÉĻn":6348,"ĠkËĪÉĳËĲpt":6349,"ĠËĪÉªnÉĻsÉĻns":6350,"ĠtÉĻwËĪÉĶËĲÉ¹dz":6351,"ĠmËĪÉĽntÉĻl":6352,"ĠdËĮÊĮbÉĻljËĮuËĲ":6353,"ÉĲf":6354,"ĠklËĪÊĮtÊĥ":6355,"ĠÉ¡ËĪÉĳËĲs":6356,"lËĪaÉªf":6357,"ĠËĪÉĶËĲÉ¹liÉĻnz":6358,"ĠfÉĻmËĪÉªlÉªÉ¹":6359,"ĠtÉ¹ËĪÃ¦vÉĻlÉªÅĭ":6360,"ĠswËĪiËĲÉ¾Éļ":6361,"ĠkËĪÉĳËĲnfÉªdÉĻns":6362,"ËĪÃ¦nÉªÉ¾i":6363,"ËĪanz":6364,"ĠbËĪÉĳËĲnd":6365,"ËĪÉªfÉªk":6366,"ĠbËĪÃ¦Î¸É¹uËĲm":6367,"ĠwËĪÉĳËĲp":6368,"ĠtËĪÉĳËĲk":6369,"ËĮÉĽks":6370,"ĠtÉ¹ËĪeÉªl":6371,"ĠÉĲpËĪÉªÉ¹":6372,"ĠnËĪÉĳËĲkÉªn":6373,"bËĪÉĳËĲm":6374,"ĠhÃ¦hËĪÉĳËĲhÉĻ":6375,"ĠpËĪÃ¦pi":6376,"ËĮÊĮlt":6377,"ĠwËĪÉľËĲldz":6378,"ĠstËĪÉĳËĲÉ¹tÉªn":6379,"ĠdËĪÉªdi":6380,"ĠmËĪÉĳËĲdÉĻlz":6381,"ĠbËĪÊĮn":6382,"ĠbËĪoËĲÉ¹ÉªÅĭ":6383,"wËĪÉĳËĲnÉĻ":6384,"ĠmÉĳËĲnt":6385,"ĠwËĮÊĮts":6386,"ĠpÉ¹ËĪeÉªd":6387,"ĠlËĪÃ¦sts":6388,"ĠbÉĻtÉĻ":6389,"ĠmËĮÃ¦É¹Éª":6390,"ĠstËĪÃ¦":6391,"ËĪÉĽnÊĥ":6392,"ËĮÃ¦tÉªn":6393,"ĠblËĪÉĳËĲks":6394,"ËĪoÊĬkÉĻn":6395,"ĠkËĪÊĮps":6396,"ĠÉªnvËĪÉªzáµ»bÉĻl":6397,"ĠkËĪÃ¦sÉĻl":6398,"ĠÉ¹áµ»flËĪÉĽkÊĥÉĻn":6399,"ĠbËĪÃ¦n":6400,"ĠÉ¡ËĪÉĳËĲdz":6401,"ĠsÉĻpËĪoËĲÉ¹t":6402,"É¡É¹ËĮÃ¦m":6403,"ĠblÉĻm":6404,"ËĪanÉĻ":6405,"ĠvËĪaÉªÉĻlÉĻnt":6406,"fËĪÉªftiËĲn":6407,"ËĪaÉªp":6408,"ĠdÉ¾ÉĻs":6409,"ĠfËĪÊĮks":6410,"ĠdÊĴÉĻm":6411,"ËĪeÉªsÉĻn":6412,"ËĪÃ¦ntÉªk":6413,"ĠpËĪÉĳËĲÉ¹kÉªÅĭ":6414,"ĠbÉ¹ËĪÉĽÎ¸Éªn":6415,"ĠstËĪiËĲm":6416,"ĠÎ¸ËĪaÉªz":6417,"oÊĬt":6418,"ĠlËĪiËĲs":6419,"ÉĻnst":6420,"ĠzËĪiËĲ":6421,"lÉªt":6422,"wËĪaÉªt":6423,"stÉļd":6424,"ĠstËĪoÊĬnd":6425,"ĠbËĪÊĬks":6426,"ËĪÉĳËĲÉ¡":6427,"ĠlËĪaÊĬ":6428,"ĠvËĪÉªÊĴÉĻnz":6429,"ĠÉĻnymËĪÉĻ":6430,"ĠstËĪÉĳËĲÉ¹É¹Éªn":6431,"ĠsËĪÊĮmtaÉªm":6432,"ĠkËĪÉĳËĲpi":6433,"ĠËĮÉªndáµ»p":6434,"ĠpÉ¾ÉĻtÉĻnd":6435,"É¹ÉĻnz":6436,"ĠsËĮÉĽn":6437,"ĠdËĪÉĽt":6438,"ĠhÉĻdÉĻ":6439,"ĠmÉĻÃ°ÉĻ":6440,"ĠËĪÉĳËĲd":6441,"ĠfËĪiËĲndz":6442,"sËĪÊĮn":6443,"ĠblËĪeÉªd":6444,"áµ»vËĮÉª":6445,"ĠÉ¹áµ»mËĪeÉªnz":6446,"ĠËĪÉĶËĲd":6447,"ĠÉªnvËĪÉĽst":6448,"ÉĲmËĮaÉªt":6449,"ËĪÉĽvÉ¹ÉªÎ¸ËĮÉªÅĭ":6450,"ĠlÉĻdÊĴ":6451,"ĠÉ¹ËĪeÉªni":6452,"ÊĮt":6453,"ĠÃ°ÉĽm":6454,"ĠsËĪÉªs":6455,"áµ»b":6456,"ĠÉĻtÉĻ":6457,"Ġbáµ»lËĪiËĲvÉļ":6458,"ĠpËĪeÉªÉªÅĭ":6459,"ĠdÊĴËĪuËĲd":6460,"ĠkËĪÃ¦É¹id":6461,"ĠtÊĥËĪÉĳËĲÉ¹li":6462,"ĠÊĮpsËĪÉĽt":6463,"jÉļz":6464,"ËĮÊĬ":6465,"ĠtËĪÉĶËĲks":6466,"ĠstÉĻn":6467,"ĠbÉ¹ËĪoÊĬz":6468,"ÉĲÉĲ":6469,"ĠbÉĻtwËĪÉĻn":6470,"ĠfËĪÉĶËĲÉ¹Éªst":6471,"âĢĶ,":6472,"ĠkËĪÉĳËĲnÊĥÉĻns":6473,"ĠsÉĻlËĪuËĲt":6474,"ĠmËĪÃ¦tÉ¹ÉĻs":6475,"poËĲÉ¹t":6476,"ĠkÉĻnfjËĪuËĲÊĴÉĻn":6477,"lËĪeÉª":6478,"ĠdËĪÃ¦md":6479,"ĠvÉĻl":6480,"ĠdËĪaÉªÉĻl":6481,"ĠwÉĻnts":6482,"ĠmËĪÉĳËĲÉ¹z":6483,"ĠmËĪak":6484,"ĠpËĪÃ¦d":6485,"ĠklËĪÉªps":6486,"ĠflËĪeÉªvÉļ":6487,"ĠÉĲlËĪaÊĬ":6488,"ĠÉªspËĪÉĽÊĥÉĻli":6489,"ĠÉĲtÊĥ":6490,"ĠËĪÊĮptaÊĬn":6491,"ĠdÊĴËĪÉĶËĲÉ¹dÊĴÉĻ":6492,"ÉĻÉ¡":6493,"ĠkËĪeÉªv":6494,"ĠkÉ¹ËĪÃ¦ks":6495,"ĠÊĥËĪuËĲÉ¾Éļ":6496,"ĠtÊĥËĪÉĳËĲklÉĻt":6497,"ĠbÉĲn":6498,"ĠwËĪÉĽÉ¹z":6499,"ĠhËĪÉĳËĲpt":6500,"ĠstÉĻÉ¾ËĪi":6501,"ĠsËĪÉªÉ¹ÊĮp":6502,"ĠÉªÅĭkÉ¹ËĪÉĽd":6503,"'-":6504,"ĠÉ¹ËĪÉĽm":6505,"ĠvËĮaÉª":6506,"ĠÉĲlËĪaÊĬd":6507,"ĠÉªnsp":6508,"ĠsËĪÉªÅĭz":6509,"ĠvÉĻÉ¾ËĪi":6510,"ĠfÉĽÉ¹":6511,"ĠÊĥËĪÉĽvi":6512,"ÉĻÉĻÉĻÉĻÉĻÉĻÉĻÉĻÉĻÉĻ":6513,"ĠsËĪÉľËĲvÉªs":6514,"ĠÉĻndÊĴÉĻ":6515,"Ġbáµ»tÉ¹":6516,"ËĪÃ¦Åĭks":6517,"ĠbËĪuËĲt":6518,"ĠÉĲpÉ¹ËĪoÊĬ":6519,"ĠtËĪÉĳËĲks":6520,"stÉĽ":6521,"ĠplËĪiËĲd":6522,"spÉļÉ¹ËĪeÉªÊĥÉĻn":6523,"ĠwËĪiËĲknÉĻs":6524,"ĠÉ¡ËĪÊĮvÉļnmÉĻnt":6525,"yti":6526,"ĠwËĪÉĶnd":6527,"ĠtËĪÉĽnd":6528,"ĠËĪeÉªs":6529,"ËĮiËĲz":6530,"ĠËĪaÊĬtl":6531,"ĠÉ¹ËĪeÉªnd":6532,"ĠtÊĥËĪÉĳËĲpÉļz":6533,"ĠpËĪÉĽni":6534,"ĠmËĪaÉªkÉ¹ÉĻfËĮoÊĬn":6535,"É¹ËĪÉĳËĲÉ¹É¹i":6536,"ĠÉ¡É¹ËĪÃ¦ntáµ»d":6537,"ĠbÉªkËĪÊĮmz":6538,"ĠfËĪoËĲÉ¹É¾ifËĪaÉªv":6539,"ĠlËĪÉĶÉªÉļ":6540,"ĠstËĪandÉĻÅĭ":6541,"ĠvËĮaÉªbÉ¹":6542,"ĠbËĪaÉªÉªÅĭ":6543,"ĠpËĪÃ¦É¹ÉĻnËĮÉĶÉªd":6544,"ĠfËĪamÉĻli":6545,"ĠbÉĻnd":6546,"ĠwËĪÉľËĲÃ°i":6547,"ĠÉ¡É¹ËĪeÉªd":6548,"ĠbËĪÊĮmpÉªn":6549,"ËĪoÊĬÊĥÉĻn":6550,"ĠlËĪÉªn":6551,"É¡ËĪÉĻt":6552,"ĠkÉ¹ËĪÉª":6553,"ĠÉ¡lËĪÉªÉ¾Éļ":6554,"ĠbËĪÊĮks":6555,"ĠbËĪaÅĭ":6556,"ĠÉ¹áµ»lËĪeÉªt":6557,"Ġdáµ»sËĪÉªÊĴÉĻnz":6558,"ĠstÉ¹ËĪÉĽsÉªn":6559,"ĠmËĪÉĳËĲÎ¸ÉĲfËĮÊĮkÉªn":6560,"ĠsÃ¦l":6561,"ĠstËĪÃ¦É¾Éªk":6562,"ĠplÉĻÉĻn":6563,"ĠÉ¹ËĪÊĮnÉĻwËĮeÉª":6564,"ËĪiÉĻÉ¹ÉĻ":6565,"ĠËĪÉªntÉ¹Éªst":6566,"fËĪÉĶËĲl":6567,"ĠkËĪÉĽli":6568,"ĠÉ¹áµ»É¡":6569,"ĠÉ¡ËĪÊĬdnÉĻs":6570,"ĠbÉĻÉ£ÉĻn":6571,"ĠsÉĻkÉĻnd":6572,"ĠÉ¾ËĪapo":6573,"ĠÉĲplËĪÉĶËĲz":6574,"ĠÉ¹ËĪÃ¦tÊĥÉªt":6575,"ĠmÉĳËĲntËĪÃ¦nÉĻ":6576,"ĠtÉ¹ËĪÉªl":6577,"ĠkÉ¹ËĪiËĲ":6578,"ĠÉ¡lËĪÉĳËĲks":6579,"ĠpËĪoËĲÉ¹Éªn":6580,"ĠÉ¾ÉĻlÉĻn":6581,"ĠspËĪÃ¦nÉªÊĥ":6582,"Ġbáµ»lËĪÉĶÅĭz":6583,"ĠmËĮÉªliÉĻnËĪÉĽÉ¹":6584,"ĠnËĪÉĳËĲn":6585,"ĠËĪÉªntÊĥ":6586,"ĠmÉĻÉ¾ÉĻ":6587,"ĠbËĪaÉªk":6588,"ĠvËĮiËĲvËĮiËĲËĪÉĽs":6589,"ĠsËĪoËĲÉ¹d":6590,"ĠÎ¸ËĪÉľËĲ":6591,"ÉĻdËĮeÉªz":6592,"ĠpÉ¹ÉĻf":6593,"ĠklËĪÉªÉ¹li":6594,"É¹ËĪuËĲm":6595,"ĠmËĪÊĮÃ°Éļz":6596,"ĠbËĪÉľËĲnt":6597,"nËĪoÊĬbÉĳËĲdi":6598,"ĠsËĪÉĽkÊĥÉĻn":6599,"ĠlËĪiËĲÉ¡":6600,"ĠpËĪÉĳËĲÉ¾ÉĽk":6601,"mËĪaÉªnd":6602,"ĠÉĻsÉĻn":6603,"ËĮÉĽvÉļ":6604,"ĠfÉ¹ËĪaÊĬn":6605,"ËĮÉªl":6606,"ĠkËĪÉªlz":6607,"ĠpËĪÊĬÊĥÉªn":6608,"ĠfËĪeÉªdz":6609,"hËĪÃ¦v":6610,"ĠhÉĻv":6611,"ĠhËĪÉĶËĲÉ¹n":6612,"stËĪeÉªt":6613,"ËĪÃ¦ÅĭÉ¡Éªn":6614,"ĠlËĮÃ¦mboËĲÉ¹É¡ËĪiËĲni":6615,"ĠÃ°ÉĽmsËĪÉĽlvz":6616,"sËĪuËĲ":6617,"sks":6618,"ĠkÉĻnËĪÉĽkt":6619,"ĠwËĪÉĶËĲÉ¾Éļz":6620,"ĠtÊĥËĪÉªlÉªÅĭ":6621,"ĠÉ¡É¹ËĪeÉªvi":6622,"ĠtËĪeÉªlÉļ":6623,"É¹ËĪaÉªb":6624,"nËĪÊĮÎ¸ÉªÅĭ":6625,"ĠdÊĴuËĲlËĪaÉª":6626,"ËĪÃ¦sk":6627,"ĠÉ¹ËĪÉªvÉļz":6628,"Ġdáµ»sËĪaÉªdáµ»d":6629,"ĠlËĪÊĮlÉĻb":6630,"ĠnËĪaÊĬÉĻdËĮeÉªz":6631,"ĠËĪÃ¦vÉĻn":6632,"ËĪÃ¦ndÉĻ":6633,"ĠdÉĻÎ¸":6634,"ĠdÉ¹ËĪaÉªvz":6635,"ĠdËĪiËĲlÉªÅĭ":6636,"ËĪÉĳËĲÉ¾Éªk":6637,"ĠpËĪÉĳËĲsáµ»bÉĻl":6638,"ÉĻmpl":6639,"pleÉª":6640,"ĠÉ¹ËĪuËĲts":6641,"ĠnËĪiËĲÃ°Éļ":6642,"ĠpÉ¹ËĪiËĲtÊĥÉļ":6643,"poÊĬ":6644,"ĠkËĪÉĽl":6645,"liz":6646,"ĠflËĪÉĳËĲp":6647,"ĠsplËĪÃ¦Êĥ":6648,"ĠÉ¹ËĪeÉªsÉªÅĭ":6649,"ĠfËĪÊĬli":6650,"am":6651,"ĠËĮÉĳËĲÉ¹":6652,"ĠÉ¡ËĪÉĽtÊĥÉĻ":6653,"ĠslÉĻd":6654,"ĠhËĪÉĽlplÉĻs":6655,"áµ»nËĮeÉªt":6656,"ĠwÉĻkÉĻn":6657,"ĠsÉĻÅĭz":6658,"ĠkÉ¹ËĪiËĲpÉªÅĭ":6659,"ĠhËĪÊĮslÉļ":6660,"ĠhÉľËĲsËĪÉĽlf":6661,"ĠhËĪoÊĬmz":6662,"ĠÉĽnt":6663,"Ġdáµ»kl":6664,"Ġdáµ»sËĪÉªÊĴÉĻn":6665,"ĠÉĲbjËĪuËĲs":6666,"ĠwËĪÉĽn":6667,"Ì©,":6668,"ĠmËĪÉĽsÉªÅĭ":6669,"hÉĳËĲÉ¹t":6670,"ĠkËĪÊĮst":6671,"ĠmËĪiËĲd":6672,"twËĪÉĽntiwËĪÊĮn":6673,"ËĮÉĽf":6674,"ËĮÉĽskËĮeÉªËĮÉĳËĲÉ¹tËĪiËĲ":6675,"ĠtÉ¹ËĪÊĮmp":6676,"ÉĽmpt":6677,"ËĪÉĽÉ¾":6678,"ĠtÊĥËĪÃ¦t":6679,"ĠtËĪoÊĬt":6680,"ĠdËĪaÉªnÉĲmËĮaÉªt":6681,"ĠklÉĻÃ°z":6682,"ĠÉĲpÉ¹ËĪiËĲÊĥÉªËĮeÉªt":6683,"huËĲ":6684,"ĠdÊĴËĪiËĲp":6685,"ĠdÊĴÉĻp":6686,"ËĮÉªks":6687,"ĠblËĪaÉªndáµ»d":6688,"Ġdáµ»lËĪÉªvÉļ":6689,"ĠbÉ¹ËĪÉªdÊĴáµ»z":6690,"ĠÉ¡ËĮÃ¦É¹ÉĻntËĪiËĲ":6691,"ĠtËĪÉªn":6692,"ĠstËĪÊĮdi":6693,"ĠhËĪÃ¦Êĥ":6694,"ĠnËĪiËĲdÉĻl":6695,"ĠlËĪÉĽÊĶn":6696,"ĠÉ¡ËĪuËĲnz":6697,"ĠhËĪÉªpnÉĻt":6698,"ĠklËĪÃ¦sÉªk":6699,"ĠnËĪÉĽt":6700,"É¡ÊĬd":6701,"É¡ËĪÉĳËĲÉ¾ÉĻ":6702,"tÊĥÉĻs":6703,"ĠhËĪÃ¦l":6704,"vËĪiËĲjËĪÉĽËĲ":6705,"ËĮÉĽsËĪeÉª":6706,"ĠkËĪÉĶfÉªn":6707,"ÊĮk":6708,"ĠmËĮÊĮlt":6709,"ĠsËĮÃ¦":6710,"ĠÎ¸ËĪÉľËĲtiËĲn":6711,"ĠwËĪÉĽÉ¹Éªn":6712,"ĠdËĪÊĮtÊĥ":6713,"ĠdËĪÉªks":6714,"ĠÉªv":6715,"ĠfÉ¹ËĪÉĽntÊĥ":6716,"ĠpÉĻpÉĻn":6717,"ĠkÉ¹ËĪÉĶËĲlÉªÅĭ":6718,"ĠlÉĻps":6719,"ĠkÉ¹ËĪeÉªv":6720,"ĠtËĪuËĲl":6721,"ĠÉ¹áµ»mËĪÉĽm":6722,"ĠÎ¸ËĪÃ¦ÅĭkfÉĻl":6723,"dÉļn":6724,"ĠkËĪaÉ¾i":6725,"ĠÉļÉ¹ËĪÉªdÊĴ":6726,"ĠsËĮÉªÉ¡ÉļÉ¹ËĪÉĽts":6727,"kËĪoÊĬ":6728,"sËĪÉªÅĭ":6729,"ĠtËĪeÉªbÉĻlz":6730,"ĠÉ¹ËĪeÉªl":6731,"ĠtÉ¹ËĪeÉª":6732,"ËĪÉĽkts":6733,"ĠÉ¹ËĪaÉªts":6734,"ĠstÉ¹ËĪÉĶËĲ":6735,"ĠtÉ¾ÉĻn":6736,"vÉªn":6737,"ĠdÊĴËĪeÉªk":6738,"ĠwËĪeÉªts":6739,"ĠÉ¾ÉĻv":6740,"ĠmËĪÃ¦É¡n":6741,"ÉļÉ¹ËĮÉªsks":6742,"ĠpËĪoËĲÉ¹d":6743,"ĠÉ¡É¹ËĪeÉªtfÉĻl":6744,"bÉĻÎ²ÉĻ":6745,"Ġdáµ»mËĪÃ¦nd":6746,"tËĪÉªk":6747,"ËĪÉľËĲts":6748,"ĠkËĪaÊĬntÉļ":6749,"jÊĬlÉĻs":6750,"ĠsËĪÉªÉ¡n":6751,"ÉĻmi":6752,"ĠÉ¾ËĪaks":6753,"ĠwËĪÉĶlÉªt":6754,"ĠbËĪÉª":6755,"ËĪÃ¦dÊĴÉªk":6756,"ĠplËĪeÉªnz":6757,"ĠdËĪÉĳËĲdÊĴ":6758,"ĠpËĪeÉªpÉļz":6759,"ĠkËĪoÊĬb":6760,"ĠpËĪÉľËĲfjuËĲm":6761,"ĠËĪÉĶËĲÉ¹ÉªndÊĴ":6762,"ĠbÉĻznÉĻs":6763,"ĠÉ¡ËĪÊĮÉ¾Éļ":6764,"uËĲk":6765,"ĠtÉĽmpt":6766,"ĠkÉ¹ËĪÉĳËĲnÉªk":6767,"ĠwÉĻv":6768,"ĠtÉ¹ËĪÃ¦pÉªÅĭ":6769,"ĠbËĪeÉªsÉªk":6770,"hËĪÃ¦nd":6771,"ĠÉ¹ËĪÉªs":6772,"ĠstÉ¹ËĪÊĮk":6773,"ËĮÉĳËĲÉ¹d":6774,"hoÊĬl":6775,"ĠlËĪÉªpstÉªk":6776,"fÉļÉ¹":6777,"ĠbËĪÉĳËĲn":6778,"Î¸ËĪÉĻz":6779,"ĠÉ¡ËĪoÊĬl":6780,"ĠfÉ¹ËĪuËĲt":6781,"ËĪÉªstÉªk":6782,"ĠsËĪÉľËĲfÉªs":6783,"ĠpÉ¹ËĪÉĳËĲdÉĻ":6784,"ĠvËĪÉľËĲsáµ»z":6785,"Ġáµ»vËĪÉĽn":6786,"ĠsÃ¦lvËĪeÉªÊĥÉĻn":6787,"ĠlËĪeÉªz":6788,"ÉĻlËĮÉªn":6789,"ÉĻntËĮaÉªn":6790,"ĠÉ¾ÉĻÉ£":6791,"ĠdÊĴËĪÉĶËĲÉ¹dÊĴ":6792,"tÉĻk":6793,"wËĪaÊĬ":6794,"ĠlÉĻnz":6795,"ÉĻnËĪeÉªd":6796,"ĠpËĪeÉªt":6797,"ĠblËĪÉªs":6798,"ĠkËĪÃ¦skÉªt":6799,"ĠpÉ¹ËĪiËĲtÊĥ":6800,"ĠmËĮÃ¦É¡ÉĲzËĪiËĲn":6801,"fËĮÉĶËĲl":6802,"kËĪÉĳËĲm":6803,"sËĪÉªÉ¹":6804,"ĠÃ°ËĮaÉª":6805,"ĠsËĪÉĽntÊĥ":6806,"ĠkËĮeÉª":6807,"ĠpËĪÉªks":6808,"ËĪÉľËĲm":6809,"ĠÊĮm":6810,"ĠwËĪÊĬdÉĻ":6811,"ĠmËĪÉĳËĲdÉļn":6812,"ĠÎ¸ÉĻnkÉĻn":6813,"ĠhËĪÃ¦fweÉª":6814,"ÉĶÉªz":6815,"ËĪÉªfts":6816,"ĠdËĪÉĶËĲÉ¡z":6817,"ĠÉĻmÉĻÉ¾ÉĻk":6818,"nÉªv":6819,"É¹Éªt":6820,"É¡ËĪÉĻ":6821,"ĠÉ¹áµ»b":6822,"ĠmÉĻnÉĻt":6823,"ĠwËĪaÉªldÉªn":6824,"ĠkËĪÉĳËĲÊĶn":6825,"ĠpËĪeÉªdÊĴáµ»z":6826,"ÊĮkt":6827,"ĠskËĪeÉªt":6828,"ËĮoÊĬm":6829,"ĠkËĪÉĳËĲÉ¹pÉªt":6830,"ĠstËĪÉĽpÉªÅĭ":6831,"ĠhËĪÉĽzáµ»tËĮeÉªt":6832,"pjuËĲt":6833,"yt":6834,"Î¸ÉĻm":6835,"ĠspËĪÉĽÉ¹":6836,"ĠplËĪeÉªÉļz":6837,"ĠfËĪaÉªts":6838,"ĠlÉĻvÉĻd":6839,"ĠËĮÉĽmsáµ»É¹ËĮÉªlÉªkjËĪÉĽËĲ":6840,"ĠnËĪÉĽklÉĻs":6841,"ĠÉĻkst":6842,"ĠmÉªsËĮÊĮndÉļ":6843,"ĠbËĪÊĮÉ¾ÉļflËĮaÉªz":6844,"ĠÉ¡É¹ËĪÃ¦vÉªÉ¾i":6845,"Î¸ËĪÉĻzÉĻnd":6846,"Ã¦ks":6847,"ĠpËĪÊĮn":6848,"ÉĻlËĮiËĲn":6849,"ĠslËĪÉªpt":6850,"ËĪÃ¦ndÉĻm":6851,"ĠmÉĻÃ°ÉĻfÉĻkÉĻ":6852,"ĠmËĮÃ¦É¹ÉªwËĪÉĳËĲnÉĻ":6853,"mi":6854,"ĠËĪaÉªd":6855,"sti":6856,"ĠÉ¹ËĪÉĶÉªs":6857,"ĠhÉĻmÉĻ":6858,"ĠkËĪÉĳËĲÅĭ":6859,"ĠlËĪÉªstÉĻnËĮÉªn":6860,"ĠËĪÉªÅĭk":6861,"ĠbaÉª":6862,"ĠÉ¡É¾ÉĻs":6863,"ĠfËĪÊĮs":6864,"ĠsËĪÉĽÉ¾ÉªÅĭ":6865,"ĠflËĪÉĽksÉªÅĭ":6866,"ĠkËĪÊĬkÉªÅĭ":6867,"ĠÉĽmb":6868,"mËĪeÉªd":6869,"ĠsËĪeÉªtÉĻn":6870,"ĠkËĪÉĳËĲÉ¹É¾Éļ":6871,"ĠÉĻmÉĻmÉĻm":6872,"ĠbËĪÊĮkÉªt":6873,"jËĪÊĮp":6874,"ĠfËĪiËĲm":6875,"ĠstÉ¹ËĪoÊĬk":6876,"ĠkÉĻlËĪe":6877,"ĠËĪiËĲkwÉĻl":6878,"wËĪÉªl":6879,"ĠËĪÉĶÉª":6880,"ĠÉ¹ËĪÉĳËĲki":6881,"ĠkËĪÃ¦ndÉĻlz":6882,"ĠaÉªdËĪi":6883,"ĠËĪan":6884,"ĠkËĪÉĽn":6885,"ĠkÉĻst":6886,"ĠfjÉĻt":6887,"ËĪÉĽmjËĪÉĽËĲ":6888,"ĠdÊĴËĪÉĽnt":6889,"ĠsnËĪuËĲp":6890,"sËĮiËĲËĪeÉªtÊĥ":6891,"ĠdËĪÉĽfÉªn":6892,"ĠwÉĻlz":6893,"ĠmËĪeÉªt":6894,"ĠÉ¹ËĪÊĮÉ¡":6895,"ĠÊĥÉĻm":6896,"ËĮÃ¦nd":6897,"ĠspËĪaÉªd":6898,"ĠswËĪÉªtÊĥÉªn":6899,"ĠpÉļf":6900,"ĠkËĪÉľËĲtÉĻnz":6901,"ĠtËĪÉĳËĲksÉªk":6902,"ĠbÉ¹ËĪeÉªs":6903,"ËĪÊĮkt":6904,"ËĪeÉªtÊĥjËĪÉĽËĲ":6905,"ĠfËĪÉªlm":6906,"ĠbÉ¾ÉĻÎ¸":6907,"ĠsËĪÉľËĲkÉĻs":6908,"ĠkÉļÉ¹ËĪÉªÉ¹":6909,"ĠwËĪÉªÉ¹i":6910,"ĠÊĥËĪÉĽÉ¹d":6911,"ĠdËĪuËĲm":6912,"ĠbÉĻÉ£":6913,"Ġdáµ»fËĪÉĽns":6914,"ÉĻltËĮoÊĬ":6915,"ĠwËĪÉªd":6916,"ËĪÃ¦É¾":6917,"ĠfËĮÉĻ":6918,"ĠtÊĥËĪÃ¦p":6919,"ĠdÉ¹ËĪÉĶËĲÉ¹":6920,"ĠfÉ¹ËĪÉĽndli":6921,"ĠhËĪÉĳËĲv":6922,"!!!":6923,"ĠpÉ¹ÉĻvËĪaÉªd":6924,"ÉĻmÉĻnt":6925,"ĠpÉ¹ÉĻm":6926,"ĠÉĲwËĪÉĽÉ¹":6927,"ĠdÉ¾ÉĻÉ¡z":6928,"ĠpÉ¹ÉªpËĪÉĽÉ¹d":6929,"ĠÉªÅĭkÉ¹ËĪÉĽdÉªbÉĻl":6930,"stËĪÉĳËĲÉ¹":6931,"ĠdÊĴËĪÃ¦z":6932,"ĠtÉ¹ËĪoÊĬ":6933,"ĠËĪÃ¦t":6934,"ËĪÉªliÉĻn":6935,"ĠkËĪÊĮltÊĥÉļ":6936,"ĠkËĪÉľËĲb":6937,"sÉļ":6938,"ĠdÊĴËĪÃ¦É¡":6939,"ĠhËĪÉĳËĲÉ¹tlÉĻs":6940,"ĠfjÉĻtjÉĻ":6941,"mÉĽn":6942,"Ã¦st":6943,"ĠËĪeÉªliÉĻn":6944,"ËĮÉªnstÉ¹ÉĻmËĪÉĽntÉĻl":6945,"ĠwÉĻkÉĻd":6946,"ĠtÉ¾ÉĻÉĻn":6947,"É¹ËĪaÉªd":6948,"ĠbÉĻlz":6949,"ĠnËĪÉĳËĲlÉªdÊĴ":6950,"ĠÉ¾ÉĻvÉĻ":6951,"ĠlËĪeÉªÉ¾Éªst":6952,"ĠmËĪÉªsÉĻltËĮoÊĬ":6953,"ĠsËĪÊĮkÉªn":6954,"ĠzËĪÃ¦nz":6955,"É¡ÉĻlz":6956,"ËĪÉªpi":6957,"kËĪÊĮmÉªÅĭ":6958,"ËĪÃ¦ÅĭÉ¡ÉĻld":6959,"Ã¦Åĭ":6960,"ËĮÉĳËĲk":6961,"ĠkÉĻmËĪÉªt":6962,"pÉ¹ËĮuËĲ":6963,"ĠnËĪÉªÉ¹li":6964,"ĠklËĪaÉªmÉªÅĭ":6965,"ĠÉĲfËĪÉĽkÊĥÉĻn":6966,"ĠÎ¸É¾":6967,"É¾ÉĻÉ¡É¹ËĮÃ¦f":6968,"ĠmËĪeÉªkÊĮp":6969,"ĠkËĪÊĬdÉĻ":6970,"ĠhËĪÉĽlpt":6971,"ĠtËĪÉĳËĲÉ¹É¡Éªt":6972,"iËĲÉĻl":6973,"ĠdËĪÉªm":6974,"ĠstËĪoÊĬv":6975,"ĠplËĪÃ¦nt":6976,"ÉĻbËĪÉªl":6977,"fËĪÉľËĲst":6978,"ĠtÊĥËĪÉĽkÉªÅĭ":6979,"ĠÉ¹áµ»kËĪoËĲÉ¹d":6980,"ĠÉ¡É¹ËĪÃ¦mz":6981,"ĠmËĮÉªs":6982,"ĠkÉĻvËĪo":6983,"ĠdÊĴËĪÉªpsi":6984,"ĠsËĪoÊĬk":6985,"ĠpËĪeÉªl":6986,"ĠÉĲtËĪÃ¦tÊĥt":6987,"ĠËĪÃ¦vÉĻnËĮuËĲ":6988,"ĠsÉĽ":6989,"ĠzËĪoÊĬ":6990,"ĠwËĪuËĲndz":6991,"ĠbËĪÉĳËĲÉ¹b":6992,"kËĪÉªl":6993,"wÉĻl":6994,"ĠÉĻsÉĻ":6995,"ËĪuËĲuËĲ":6996,"ĠpËĪaÊĬdÉļ":6997,"tÊĥaÉª":6998,"ĠÉ¹ËĪuËĲmÉļz":6999,"ĠtËĪÉĳËĲmi":7000,"ĠwÉĻm":7001,"ĠbËĪÃ¦ÅĭkÉ¹oÊĬ":7002,"ĠfËĪÉĳËĲloÊĬd":7003,"ĠkÉĻnsËĪÉªd":7004,"ĠËĮoÊĬvo":7005,"ĠËĪÉªÉ¡nÉļÉ¹":7006,"ÊĮv":7007,"ÉĻpÉĻ":7008,"ĠfËĪÉªÉ¡jÉļz":7009,"ĠÉ¾ËĪaÃ°o":7010,"ĠhjÉĻmÉĻn":7011,"É¹áµ»m":7012,"ĠdÊĴËĪÉĶËĲ":7013,"É¾iz":7014,"ÉĻntlÉĻ":7015,"ÉĽz":7016,"ĠdËĪaÉªmz":7017,"ĠnËĪaÉªnhËĪÊĮndÉ¹ÉĻd":7018,"ĠjËĪÉĽp":7019,"Ã¦s":7020,"ĠbËĪank":7021,"ĠÉ¹ËĪeÉªp":7022,"ËĪÉľËĲÉ¹i":7023,"ĠtÉ¹ËĪÃ¦dÊĴ":7024,"ĠkwÉĻk":7025,"ĠËĪÉĳËĲks":7026,"pÉ¹ËĮuËĲf":7027,"ĠdËĪÉªtÊĥ":7028,"fÉ¹ÊĮm":7029,"ĠwËĪÉªÊĥáµ»z":7030,"ĠbÉĻts":7031,"ĠÉļÉ¹ËĪÉĽst":7032,"ĠÉĽkstÉ¹":7033,"ĠhËĪÉĳËĲmÉªsËĮaÉªd":7034,"nÉļÉ¹ÉĻl":7035,"ĠdÊĴÉĻnÉĻ":7036,"ËĪÉĳËĲÉ¹ks":7037,"ĠskËĪeÉªl":7038,"ĠpËĪÃ¦É¹ÉĻ":7039,"ĠËĪeÉªkÉªÅĭ":7040,"ĠÉªmpÉ¹ËĪÉĽs":7041,"tÉªm":7042,"É¡oÊĬz":7043,"Ã°ÉªÅĭ":7044,"ĠtÉ¹ËĪÉĽm":7045,"ĠpÉ¹ËĪÉĳËĲs":7046,"ĠÉ¹ËĪÃ¦É¾ÉĻl":7047,"ĠfËĪoÊĬÉ¾ÉĻÉ¡É¹ËĮÃ¦f":7048,"ĠnÉĻmbËĪo":7049,"ĠkÉ¹ËĪiËĲpÉªn":7050,"ĠbËĮiËĲËĮÉĳËĲÉ¹É¹ËĪÉĳËĲÉ¹":7051,"ĠtËĪakÉĻn":7052,"ĠstËĪÉªtÊĥ":7053,"ĠbËĪÃ¦ÅĭÉªÅĭ":7054,"ĠbÉ¾ËĪand":7055,"ĠÉ¡É¹ËĪiËĲdi":7056,"ĠÉ¡ËĪiËĲkt":7057,"sÉĻns":7058,"ËĮiÉĻ":7059,"ĠstÉĻf":7060,"ËĪatÉĻn":7061,"ĠfjËĪuËĲnÉļÉ¹ÉĻl":7062,"ĠkÉĻnfjËĪuËĲz":7063,"ĠsËĪÉľËĲtÊĥÉªn":7064,"sÉĻz":7065,"ĠsËĮÃ¦n":7066,"ĠkËĪam":7067,"ĠstËĪÊĮn":7068,"ĠtÉĻkËĪiËĲlÉĻ":7069,"ĠtÉ¾ËĪak":7070,"ĠstËĪÉĽÉ¹ÉªËĮoÊĬ":7071,"tÉļz":7072,"ËĮÊĬÉ¹":7073,"tÊĥËĪÉĳËĲ":7074,"ËĮoÊĬz":7075,"É¹oÊĬz":7076,"twËĪÉĽlv":7077,"ĠdÉĻvÉĻl":7078,"ĠpÉļÉ¹ËĪeÉªd":7079,"ĠËĪaÉªst":7080,"ĠÉĻÎ¸":7081,"ĠvËĪÊĮl":7082,"ĠËĪÉĳËĲdz":7083,"ĠsËĪeÉªkÉ¹Éªd":7084,"ĠËĪÃ¦fÉ¹ÉªkÉĻ":7085,"ĠÉĲwËĪaÉªl":7086,"ĠfËĪoËĲÉ¹hËĪÊĮndÉ¹ÉĻd":7087,"ĠÉĲfËĪÉĽÉ¹":7088,"pËĪoÊĬzd":7089,"ĠvËĪaÊĬ":7090,"ĠbËĪÃ¦É¹ÉĻl":7091,"tÉ¹ËĪaÉª":7092,"ĠskÉ¹ËĪiËĲmz":7093,"ĠÉªmËĪoÊĬÊĥÉĻnÉĻl":7094,"ĠsÉĻÅĭÉ¡lÉĻ":7095,"ĠsÉĻdÊĴ":7096,"ĠbËĪÊĮb":7097,"ĠÉ¹ËĪÊĮst":7098,"ĠmËĪiËĲts":7099,"ĠpËĪÊĬs":7100,"ĠnËĪÊĮtÉªn":7101,"ĠsÉĻkÉ¾ÉĻt":7102,"ËĪÉªÉ¹iÉĻl":7103,"ĠdËĪÉĳËĲmÉªn":7104,"pjËĪuËĲ":7105,"ĠpËĪiËĲl":7106,"ËĪÉĻÊĥÉĻn":7107,"ĠflËĪÉªpÉªn":7108,"ĠvËĪeÉªk":7109,"ĠhËĪÉĳËĲÉ¾Éªst":7110,"ÉĻktËĪyÉĻn":7111,"ĠsËĪÉľËĲvÉªn":7112,"ĠsËĪaÉªÉ¹ÉĻnz":7113,"lËĪÉĽs":7114,"ĠsÉĽns":7115,"ÉĻÅĭz":7116,"ĠËĮoÊĬvÉļsËĪiËĲz":7117,"ĠËĪÉĽntÉļ":7118,"ĠtËĪiËĲneÉªdÊĴ":7119,"ĠÉªtsËĪÉĽlf":7120,"ĠstËĪÉªÅĭ":7121,"ĠËĪÃ¦li":7122,"ĠwËĪÉľËĲÊĥÉªp":7123,"ĠsËĪÉªÉ¾iz":7124,"ËĪÉĳËĲÉ¹É¹ÉĻ":7125,"ĠÉĽkspËĪiÉĻÉ¹Éª":7126,"ĠtÉ¹ËĪÉªps":7127,"ËĪÃ¦ndoÊĬ":7128,"ĠsmËĪÉªÎ¸":7129,"ĠmËĪoÊĬd":7130,"blËĪÃ¦k":7131,"ĠtËĪeÉªsts":7132,"ĠvËĪÉľËĲdÊĴÉªn":7133,"ĠËĪaÊĬtlÉĶËĲ":7134,"ĠÊĮmbÉ¹":7135,"-)":7136,"kËĪÊĮz":7137,"uËĲl":7138,"Ã¦p":7139,"ĠÉ¡ËĪÉªÉ¹":7140,"dÊĴËĮiËĲËĮÉĳËĲÉ¹É¹":7141,"ĠvËĪÉªp":7142,"ĠspËĪoÊĬkÉĻn":7143,"ĠÉ¹ËĪiËĲpleÉª":7144,"ĠËĮÉªntÉ¹ÉĻdËĪuËĲs":7145,"Ġ!":7146,"ÉªÉ¾Éļ":7147,"ĠpËĪÊĮp":7148,"ĠÎ¸ËĪiËĲf":7149,"ĠËĮÉĽmËĪÉĽs":7150,"É¾ÉªkÉĻl":7151,"ĠkËĪÃ¦mp":7152,"ĠtËĪÉĽmpt":7153,"ËĪÃ¦zÉªn":7154,"bËĪiËĲt":7155,"ÉªtÊĥÉļ":7156,"ËĪiËĲÉĻ":7157,"ĠsËĪÊĮÅĭ":7158,"ĠkËĪÊĬkÉªn":7159,"ĠpÉ¹ËĪaÉªz":7160,"ĠtwËĪiËĲk":7161,"ËĪÉĽpÊĥÉĻn":7162,"ĠËĪaÊĬÉ¾Éļ":7163,"ĠbËĪÉĳËĲÉ¾ÉĻmz":7164,"ĠkÉ¹iËĲËĪeÉªt":7165,"ĠmËĮÊĮltÉª":7166,"ĠdËĪÊĮv":7167,"ĠÉ¡ËĪÉľËĲ":7168,"ĠspËĪÉĳËĲtlaÉªt":7169,"bËĪÉĳËĲdi":7170,"ĠsËĪÉĽmaÉª":7171,"ĠhÉļÉ¹ËĪaÉªz":7172,"ÊĬlf":7173,"ĠmËĪakÉĻn":7174,"ĠtËĪaÉªÉ¡Éļ":7175,"ÉªndÊĴÉļ":7176,"ĠÉĲvËĪÉĶÉªd":7177,"ĠÉ¹áµ»É¡ËĪÉĳËĲÉ¹d":7178,"kËĮeÉª":7179,"ĠdÉ¹ËĪiËĲmÉļ":7180,"É¾Éªsf":7181,"ĠpÉ¹ËĪÉĳËĲdÊĴÉĽkt":7182,"ĠfËĪuËĲld":7183,"ĠfËĪÃ¦É¡":7184,"Éªnt":7185,"ĠdÊĴËĪÃ¦n":7186,"ĠklËĪaÊĬt":7187,"ËĮoÊĬp":7188,"ĠlËĪuËĲt":7189,"ÉĻsÉĻËĪal":7190,"ĠstÉ¾ÉĻndÊĴÉĻ":7191,"ĠtËĪeÉªlz":7192,"ĠpËĪoÊĬloÊĬ":7193,"ĠbËĪÊĬlÉªtpÉ¹ËĮuËĲf":7194,"ĠÉ¡ËĪÊĮts":7195,"ĠtËĪoÊĬl":7196,"Ġpi":7197,"ĠsËĪiËĲl":7198,"ĠdÉ¹ËĪuËĲ":7199,"ĠÉ¹áµ»vËĪiËĲl":7200,"ĠËĪÉªz":7201,"ĠmeÉª":7202,"ËĪeÉªdáµ»d":7203,"ĠmËĪuËĲvmÉĻnt":7204,"ĠkÉ¹ËĪÉªmÉªnÉĻl":7205,"ĠÉ¹ËĪÉĶÉªÉĻl":7206,"pjuËĲtËĪeÉªÊĥÉĻn":7207,"dËĪÊĮn":7208,"ÉĻnÉĻt":7209,"É¾aÊĬt":7210,"ĠbÉ¹ËĪuËĲz":7211,"ĠËĪÉĶËĲsÊĮm":7212,"dÉ¹ËĪÉĳËĲp":7213,"ĠhËĪaÊĬzáµ»z":7214,"ËĪÉĽksÎ¸É¹ËĪiËĲ":7215,"ĠkÉ¹iËĲËĪeÉªÉ¾áµ»d":7216,"ĠdËĪeÉªvÉªd":7217,"lËĪiËĲv":7218,"ËĪiËĲjËĪÉĽËĲ":7219,"ĠsÉĻlÉĻ":7220,"ĠdÊĴËĪÊĮstÉªs":7221,"ĠskËĪÉľËĲt":7222,"ĠpËĪoÊĬÉªt":7223,"ĠÉ¹áµ»plËĪaÉª":7224,"fÉļmËĪeÉªÊĥÉĻn":7225,"ĠfÉ¹ËĪaÉªÊĶn":7226,"ĠjËĪÉĶËĲl":7227,"ËĪÊĮndÉļ":7228,"tÊĥËĪeÉªndÊĴ":7229,"ËĪÉĻtÉĻ":7230,"ĠÉ¹áµ»h":7231,"ĠtËĪÉĽnÊĥÉĻn":7232,"ÉĲÉĲËĮÃ¦":7233,"ĠpËĪÊĮl":7234,"ĠspËĪiËĲtÊĥ":7235,"juËĲÉ¡":7236,"ÉªmÉĻnt":7237,"ĠsÉĻmwÉĻ":7238,"ĠstËĪiËĲlÉªÅĭ":7239,"swËĪiËĲt":7240,"ĠdËĪÉĽspÉļÉ¹ÉĻt":7241,"ĠÉ¹ËĪÉĽmÉĻdi":7242,"ĠÉļÉ¹ËĪÉªdÊĴÉªnÉĻl":7243,"ĠkÉ¹ËĪÊĮm":7244,"dÊĴÉĻn":7245,"ĠÉ¹ËĪiËĲdÉªÅĭ":7246,"ĠfËĪeÉªvÉ¹Éªt":7247,"ĠdËĪÉªdÊĴÉªts":7248,"ĠbËĪÃ¦ksiËĲt":7249,"lÉĻmz":7250,"ĠkËĪiËĲl":7251,"ĠÉ¡ËĪÉĽst":7252,"ĠfËĪÉªli":7253,"ËĮÉªÉ¹":7254,"ĠzËĪÉĳËĲm":7255,"pÉªd":7256,"ĠsËĪaÊĬÉļ":7257,"ĠdËĪÉªzi":7258,"ÉĲÉ¡É¹ËĮÃ¦m":7259,"ĠblËĪÊĮf":7260,"ĠtÉĻkËĪi":7261,"stÉ¹ËĪeÉª":7262,"ĠÉ¡É¹ËĪÃ¦bd":7263,"ĠsËĪÃ¦É¾ÉĻl":7264,"ĠkÉĻmplËĪiËĲtli":7265,"[?]":7266,"ËĮal":7267,"ĠsËĪÉªmpÉĻÎ¸i":7268,"tÉĻnËĪaÉªt":7269,"ĠsËĪÊĮfÉļÉ¹ÉªÅĭ":7270,"bËĮÉªn":7271,"ĠËĪÉĶÉªl":7272,"ĠÉĻdÊĴÉĻ":7273,"ĠstËĪÉľËĲ":7274,"ËĮoÊĬs":7275,"skÉ¹ËĪaÉªb":7276,"ĠhËĪoÊĬmtaÊĬn":7277,"ĠÉ¹ËĪoÊĬlÉĽks":7278,"ĠkËĪÃ¦tÊĥÉªn":7279,"ĠwËĪÊĮndÉļÉ¹ËĮÉªn":7280,"ĠÉ¹ËĪÃ¦ts":7281,"ĠwËĪÉĽnzdeÉª":7282,"ËĪÃ¦ft":7283,"ĠpËĪÉĽnt":7284,"ĠklÉĻm":7285,"ĠflÉĻp":7286,"ĠsmËĪÉªl":7287,"ĠmËĪÃ¦Î¸":7288,"ĠfËĪaÉªnÉªst":7289,"ĠtÊĥËĪÉĽkÉªn":7290,"ĠhËĪÊĮnÉªdz":7291,"ĠbËĪuËĲlÉªv":7292,"ĠËĪÃ¦É¡aÉª":7293,"ĠbËĪÉªd":7294,"ËĪÃ¦É¡z":7295,"ĠlËĪÉĳËĲks":7296,"ÊĥËĪaÉªn":7297,"ĠdÊĴËĪak":7298,"ĠmËĪeÉªkÉļ":7299,"ĠpËĪÊĬts":7300,"ĠslËĪÉĶËĲÉ¾Éļ":7301,"ĠËĪÃ¦nÉªmÉĻlz":7302,"bËĮiËĲËĮÉĳËĲÉ¹É¹ËĮÉĳËĲÉ¹tËĪiËĲ":7303,"ĠwÉĻs":7304,"ĠbËĪaÉªÉªn":7305,"ĠtÉ¾ÉĻÎ²lÉĻ":7306,"ĠkËĪeÉªsáµ»z":7307,"ĠpÉļsËĪÉĽnt":7308,"ĠdËĪÉĽfÉªnÉĻtli":7309,"ĠmÉĲ":7310,"ËĪeÉªÉ¾Éļ":7311,"ĠÉ¡ÉĻst":7312,"ĠÉ¹ËĪÉĶs":7313,"ĠdÊĴËĪÉĳËĲÉ¹":7314,"ËĮeÉªts":7315,"ĠÉ¡ËĪÊĬdb":7316,"ĠËĮÉĽks":7317,"ĠnËĪaÉªk":7318,"ĠklËĪÉĽvÉļ":7319,"kËĪeÉªjËĪÉĽËĲ":7320,"ĠkËĪuËĲlÉļ":7321,"ĠspËĪiËĲkÉªn":7322,"ĠÉ¡É¹ËĪaÉªndÉªÅĭ":7323,"ĠwËĪÉĳËĲÊĥÉªÅĭ":7324,"ĠdËĪeÉªdÉ¹iËĲm":7325,"hËĪÉĳËĲl":7326,"ĠmËĪiËĲl":7327,"Ã°ÉľËĲ":7328,"ĠbÉ¹ËĪuËĲ":7329,"ĠdÊĴËĪuËĲk":7330,"ËĪÉĳËĲÉ¹É¹ËĮÉĳËĲÉ¹É¹":7331,"ĠÉ¹ËĪeÉªzÉļ":7332,"ĠkËĪÉĶËĲÉ¹nÉļz":7333,"ĠbÉĻnÉĻÅĭ":7334,"ĠmÉĻstËĪo":7335,"bÉľËĲd":7336,"ĠlËĪÉĶÉªÉĻlÉ¾i":7337,"ĠpËĪÉĽpÉļ":7338,"ĠpÉĻktjÉĻ":7339,"bÉĶÉªz":7340,"ĠdaÉª":7341,"ĠlÉĻÉĻÅĭ":7342,"Ġkan":7343,"pÉ¹ÉĻm":7344,"ĠwÉĻÊĥËĪÊĮp":7345,"ĠkËĪÉĳËĲlÉļ":7346,"ĠmÉĻvÉĻÅĭ":7347,"ĠpÉ¹ËĪÉĳËĲdÊĮkt":7348,"uËĲm":7349,"ĠdÊĴËĪÊĮÉ¡":7350,"ĠkÉĻnËĪÉĽkÊĥÉĻn":7351,"ĠhËĪÉľËĲtÉªn":7352,"ĠÉ¡ÉĻmËĪi":7353,"boÊĬz":7354,"wÉĻd":7355,"ĠlËĪÉĶËĲn":7356,"ĠlËĪaÉªÉ¾Éļ":7357,"ËĪÉªtÉªn":7358,"É¾ÉļÉ¹":7359,"bÉ¹ÉĻ":7360,"ĠsmÉĻkÉĻn":7361,"hÉĲhËĪÉĳËĲhÉĻ":7362,"ĠtÉ¹ËĪÃ¦dÊĴÉĻdi":7363,"ĠtËĪÉĳËĲn":7364,"ĠkËĪeÉªp":7365,"ÊĥÉª":7366,"ĠtÉ¾ÉĻp":7367,"ĠdÊĴËĪÊĮdÊĴmÉĻnt":7368,"ĠsÉĻsËĪaÉªÉĻÉ¾i":7369,"bÉĻnd":7370,"pËĪoÊĬ":7371,"wËĪÉĽst":7372,"Ġsáµ»d":7373,"ĠÉ¹ËĪÉªpt":7374,"ĠdÊĴËĪÉªÉ¡ÉĻ":7375,"ĠdÉ¹ËĪoÊĬ":7376,"ĠklËĪÉªÅĭ":7377,"ĠÉĲÉ¡É¹":7378,"ĠkËĪÊĮs":7379,"ĠÉĻÎ²ËĪÉĻv":7380,"ĠÉ¡É¹ËĪoÊĬÉªn":7381,"ĠlËĪiËĲdÉªÅĭ":7382,"ĠÉ¹ËĪaÉªtÊĥÉĻs":7383,"ĠËĪymÉĻ":7384,"ĠdÉĻdÊĴÉĻ":7385,"ĠnËĪoÊĬts":7386,"ĠdÉ¹ËĪÉĶËĲn":7387,"Ìĥ?":7388,"ËĪÉľËĲnÉªÅĭ":7389,"ĠtËĪÊĮtÊĥÉªn":7390,"ĠtwËĪÉĽntifËĪaÉªv":7391,"ĠsËĪuËĲnÉļ":7392,"É¡lÉªÊĥ":7393,"tËĪaÉª":7394,"ÊĥËĪo":7395,"ËĪiËĲzÉĻ":7396,"ĠfËĪaÉªÉļd":7397,"ĠbËĪand":7398,"ĠsËĪuËĲpÉļmËĮÃ¦n":7399,"ĠmËĮoÊĬ":7400,"ĠÉ¡ËĪÊĮm":7401,"ĠstÉĻlÉĻ":7402,"ËĪÉĳËĲÉ¹ts":7403,"ĠslËĪÉªdÉªn":7404,"ĠmËĪÉĳËĲmz":7405,"ĠflËĪoÊĬÉªÅĭ":7406,"ĠkÉĻtÊĥ":7407,"ĠÉ¡ËĪeÉªz":7408,"ĠtÊĥËĪÃ¦l":7409,"ĠswËĪÉĽl":7410,"ndÊĴÉĻz":7411,"ĠlÉĻks":7412,"É¹iÉĻs":7413,"ĠsnËĪÉªf":7414,"ĠwËĪÊĮndÉļlÉĻnd":7415,"ĠÉ¾ÉĻdÉĻÅĭ":7416,"ĠdÉªstËĪÉľËĲb":7417,"ĠlËĪÉªsÉĻnd":7418,"mËĪÉĳËĲm":7419,"ÉĻlÉĻs":7420,"ĠstËĪuËĲ":7421,"ĠtÊĥÉĻ":7422,"ĠhÉĻtÉĻÅĭ":7423,"ËĪÉĽktÉªv":7424,"ĠÊĥËĪaÉªni":7425,"ËĮaÉªzÉļ":7426,"ĠspÉ¹ËĪaÉªt":7427,"ĠpÉ¹ËĪÉªnsÉĽs":7428,"ĠsÉĽnsËĪeÉªÊĥÉĻn":7429,"ĠmËĮÉĳËĲÉ¹":7430,"ĠtËĪaÊĬ":7431,"ĠtÃ¦t":7432,"ËĮÉĽskËĮeÉªËĮÉĳËĲÉ¹É¹ËĪÉĳËĲÉ¹":7433,"ĠnÉĻwÉĻ":7434,"ĠÉĻnst":7435,"ÉĻnsáµ»z":7436,"ĠflËĪaÉªÉļ":7437,"ĠbÉĻlÉĻÅĭ":7438,"ĠÉ¡ËĪÃ¦sÉĻlËĮiËĲn":7439,"ĠnËĪoËĲÉ¹mÉĻl":7440,"ĠfÉ¹ËĪÉĶst":7441,"ËĪaÉªdÊĴ":7442,"ĠvËĪaÉªn":7443,"ĠtÉ¹ËĪÊĮbÉĻld":7444,"ĠblËĪÉĳËĲnd":7445,"ĠÉ¡ËĪÊĬdbaÉªz":7446,"ĠÉ¹ËĪÉĽn":7447,"ĠËĪÊĮps":7448,"ĠsËĪoÊĬÊĥÉĻl":7449,"ĠbÉ¹ËĪiËĲd":7450,"ĠpËĪÃ¦sÉªn":7451,"ĠbËĪandz":7452,"ĠpËĪiËĲÉ¾Éļ":7453,"ĠÉªlËĪÉĽvÉĻn":7454,"ĠvËĪÃ¦lÉĻntËĮaÉªn":7455,"ĠËĪÉªnstÉĲÉ¡É¹ËĮÃ¦m":7456,"wÉľËĲk":7457,"lËĪÉĶËĲÉ¹d":7458,"ĠdËĪÉĽv":7459,"ĠÉ¡ËĪoÊĬlz":7460,"áµ»mÉĻt":7461,"ĠÉ¹ËĪÉĽpÉªn":7462,"ĠstÉ¹ËĪaÉªps":7463,"ĠdÉ¹ËĪeÉªn":7464,"ĠskËĪÉĽl":7465,"ĠkÉ¾ËĪak":7466,"pËĪÊĬ":7467,"ĠsËĪÉĽn":7468,"É¡ËĪÊĮn":7469,"ĠÊĥËĪiËĲp":7470,"ĠËĪÉªnÉļ":7471,"taÉªmz":7472,"ĠËĪÉªÅĭÉ¡lÉªÊĥ":7473,"ĠwËĪoËĲÉ¹n":7474,"ĠbËĪÊĮÉ¾ÉļflËĮaÉª":7475,"ĠstËĪÉªÉ¹":7476,"ĠlËĪÉªf":7477,"ĠÉĻnt":7478,"ĠslËĪiËĲps":7479,"ĠÊĥËĪÉĽlz":7480,"ĠtÃ¦tËĪuËĲz":7481,"wËĪÊĬd":7482,"ĠkËĪand":7483,"ĠÊĥËĪÃ¦É¾Éļd":7484,"ĠtËĪÉĽláµ»vËĮÉª":7485,"ĠpÉ¾ÉĻÎ²lÉĻm":7486,"ĠkËĪÉªÉ¾i":7487,"stËĪÉªl":7488,"É¹ËĮiËĲn":7489,"ĠËĪÉĳËĲÉ¹ËĪaÉªpËĪiËĲ":7490,"ĠwËĪÉĶËĲÉ¹z":7491,"ĠÉ¡ËĪoËĲÉ¹dÊĴÉĻs":7492,"ĠËĮÉªndáµ»pËĪÉĽndÉĻnt":7493,"al":7494,"ĠfËĪÉĽÉ¹i":7495,"ÉĻlÉĻt":7496,"ÉĻpi":7497,"ËĪÉªstÉļ":7498,"ĠkËĪÊĮÉ¾ÉªÅĭ":7499,"ĠlËĪoÊĬÉļ":7500,"ĠËĪÉĶËĲfÉĻl":7501,"ĠklËĪaÊĬdi":7502,"ĠkËĪÉľËĲÉ¹":7503,"bÉľËĲÉ¡":7504,"ĠkanËĪÉĻt":7505,"ĠtËĪeÉªm":7506,"ĠlËĪÉĳËĲbi":7507,"ĠpËĪiËĲn":7508,"ĠËĪoÊĬl":7509,"ËĮÉĽlÉĻbÉ¹":7510,"ĠÃ¦nt":7511,"ĠfËĪoÊĬni":7512,"ĠtwËĪÉĽntitËĪuËĲ":7513,"Ġdáµ»lËĪÉªv":7514,"Î¸É¹ËĪoÊĬ":7515,"ĠpÉ¹ÉªpËĪÉĽÉ¹":7516,"ĠjËĪaÊĬ":7517,"ĠtÊĥËĪÉªn":7518,"ĠÎ¸É¹ËĪÉĽt":7519,"ËĪÉĽstÉĻ":7520,"ĠÉĲwËĪÃ¦":7521,"ĠmËĪÊĮsÉĻl":7522,"ĠsmËĪaÉªld":7523,"ĠlÉĻkÉĻ":7524,"ĠËĮÉĽvÉļ":7525,"ĠfËĪÉªlÉªÅĭ":7526,"ĠkËĪÉªn":7527,"Êĥi":7528,"ĠmËĪÉĽmfÉªs":7529,"baÉª":7530,"ĠËĮeÉªtÊĥËĪÉĽm":7531,"ĠfÉªl":7532,"ĠpËĪÃ¦ks":7533,"ĠkËĪÃ¦nÉĻn":7534,"dÊĴoÊĬ":7535,"ĠÉªlËĪuËĲÊĴÉĻn":7536,"ËĪÉĽft":7537,"ĠdËĪiËĲv":7538,"ËĪÉĶËĲlÉĻs":7539,"ÉĶËĲÉ¹n":7540,"ĠvÉĻs":7541,"ÉªdÉĻ":7542,"ĠfÉļÉ¹ËĪÉĳËĲÉ¹É¹i":7543,"ĠjËĮuËĲËĮÉĽsËĪeÉª":7544,"kËĪiËĲ":7545,"lËĪoÊĬd":7546,"ĠjÉĻn":7547,"stËĪÊĬd":7548,"ĠmËĪiËĲÉ¾ÉªÅĭ":7549,"ĠÉĲst":7550,"ĠtÉ¹ËĪaÉªÉĻl":7551,"ĠÉ¹ËĪaÉªdz":7552,"ĠkwËĪÉªkli":7553,"Ġdáµ»fËĪiËĲt":7554,"Ġáµ»vËĪÉĽntÊĥuËĲÉĻli":7555,"wËĪÉľËĲd":7556,"ĠtÉ¹ËĪÉªnÉĻ":7557,"ĠpÉĻmp":7558,"ĠsËĪeÉªlÉªÅĭ":7559,"ĠtÉĻp":7560,"ĠtÉ¹ËĪaÉªz":7561,"ĠsËĪÉĻlÉĻ":7562,"ĠËĪÉĽmp":7563,"ĠfËĪoÊĬnz":7564,"ĠbËĪuËĲlÉªvËĮÉĳËĲÉ¹d":7565,"kËĪÃ¦Êĥ":7566,"ĠsËĮÉĽlÉĻbÉ¹":7567,"ĠtËĪÉĶËĲÉ¹tÊĥ":7568,"É¡ËĮÉĻnÉĻ":7569,"ĠËĪÃ¦ndÊĴ":7570,"ĠflËĪiËĲ":7571,"ËĪÉĳËĲÉ¹dáµ»d":7572,"ĠÉĲmËĪaÊĬnt":7573,"ËĪÃ¦stÉļÉ¹ËĮÉªskÉĲstÉļÉ¹ËĮÉªskÉĲstÉļÉ¹ËĮÉªsk":7574,"ĠkÉ¹ËĪaÊĬdáµ»d":7575,"ĠtÊĥËĪiËĲÉ¾ÉªÅĭ":7576,"ĠtËĪÊĮkt":7577,"Ġdáµ»É¡É¹ËĪiËĲz":7578,"koÊĬ":7579,"wËĪÉĶËĲÉ¾Éļ":7580,"ĠnËĪoÊĬÉ¾Éªst":7581,"ĠwËĪÉľËĲl":7582,"ĠnËĪiËĲdÉªÅĭ":7583,"Ġáµ»lËĪÉĽvÉĻn":7584,"stÉĻÉ¾ÉĻskËĮa":7585,"ĠÎ¸ËĪÉľËĲzdeÉª":7586,"ËĮo":7587,"ĠtËĪÉĶËĲÉ¹":7588,"Ġkj":7589,"ĠÉ¡ÉĻnz":7590,"ĠËĪeÉªpÉ¹":7591,"ĠdÊĴËĪÉĽf":7592,"ĠÉĲpËĪÉĳËĲÉ¹tmÉĻnt":7593,"ĠdÊĴËĪÉľËĲsi":7594,"ĠlËĪaÊĬb":7595,"ĠdÊĴËĪÉĽntli":7596,"hËĪÉĳËĲt":7597,"ĠËĪÉĽp":7598,"ĠfËĪat":7599,"ËĪÉĽmpt":7600,"ĠkËĪÉĳËĲmpÉ¹ÉĻm":7601,"ĠsËĪÉĽkÊĥ":7602,"ĠfËĪÉĳËĲÉ¡":7603,"ËĪÃ¦stÉļÉ¹ËĮÉªskÉĲstÉļÉ¹ËĮÉªsk":7604,"ĠÉªÉ¡nËĪaÉªt":7605,"ĠlËĪoÊĬkÉĻl":7606,"mËĪeÉªbiËĲ":7607,"ĠnËĪÉĽÉ¡":7608,"ĠmËĪÉľËĲk":7609,"ĠlËĪÉĽsÉĻnz":7610,"ĠswËĪÉªtÊĥÉªÅĭ":7611,"ĠkËĪoÊĬdÃ¦k":7612,"sËĪÊĮmtaÉªmz":7613,"ĠËĪuËĲuËĲËĮuËĲ":7614,"ĠbÉĻnz":7615,"ĠbÉĻks":7616,"ĠskËĪuËĲ":7617,"ËĮÉªps":7618,"ĠhËĪÃ¦ndsÊĮm":7619,"ĠÉĻfËĪÉªÊĥÉĻl":7620,"ĠwËĪÉªpÉªÅĭ":7621,"ĠkÉ¹ËĪuËĲs":7622,"ĠpÉ¾ÉĻÎ²lÉĻmz":7623,"lËĪÉªsÉĻn":7624,"ËĪÉĽÉ¾ÉĻ":7625,"ĠwËĪÉĳËĲn":7626,"ĠpËĪÉĳËĲÉ¹É¾iz":7627,"ĠkÉĻpÉĻ":7628,"ĠÉ¹ËĮÉĽpjuËĲtËĪeÉªÊĥÉĻn":7629,"ĠwÉĻtÊĥÉĻÅĭ":7630,"ËĪÃ¦É¹ÉªÉ¾i":7631,"ËĮeÉªk":7632,"ĠkËĪaÉªndnÉĻs":7633,"ĠËĮÉªndËĪiËĲd":7634,"ĠkÉ¹ËĪuËĲzÉªn":7635,"ĠmÉĻÃ°ÉĻfÉĻkÉĻn":7636,"sËĪÉĽnt":7637,"wËĪeÉªk":7638,"ĠÉ¹ËĪÃ¦b":7639,"ËĪÉĻp":7640,"ĠsÉĻb":7641,"ĠfËĪeÉªsÉªÅĭ":7642,"ËĪÉªmps":7643,"ĠjËĪuËĲËĪÉĽs":7644,"ĠkwËĪÉªkÉļ":7645,"----":7646,"mËĪÉªÊĥÉĻn":7647,"ËĪeÉªps":7648,"tÊĥÉļd":7649,"ĠtÊĥËĪaÉªnÉĻ":7650,"flËĪaÉª":7651,"ĠfËĪakt":7652,"ĠfËĪÉĽndi":7653,"ĠtÊĥËĪÃ¦ÅĭÉ¡Éªn":7654,"ĠÉ¾ËĪan":7655,"ĠdÉĻÎ²lÉĻ":7656,"É¾ÉĻks":7657,"ĠdÉªzËĪÃ¦stÉļ":7658,"ĠkËĪÉĳËĲntÉ¹":7659,"ĠkjËĪuËĲbÉĻn":7660,"ĠtËĪÉĻÎ¸ËĪÉĻzÉĻnd":7661,"ËĮÉĽstËĪiËĲ":7662,"ĠtÉĽmptËĪeÉªÊĥÉĻn":7663,"kËĪÉĳËĲs":7664,"wËĪÉĽt":7665,"ĠtÉ¹ËĪiËĲÉ¾áµ»d":7666,"ĠkÉ¾ÉĻÉĻÅĭ":7667,"ĠtËĪÃ¦É¡z":7668,"ĠÉ¡ËĮÃ¦É¹ÉĻntËĪiËĲd":7669,"ÉĻlËĮaÉªzd":7670,"Ã°ËĪÉĻs":7671,"ĠstËĪÃ¦kÉªn":7672,"ĠdÊĴËĪÉľËĲk":7673,"ĠsËĪeÉªlz":7674,"ĠlÉĻtËĪo":7675,"ĠfËĪÉªlÎ¸i":7676,"ĠswËĪÉªtÊĥt":7677,"ĠsÉĻÅĭÉ¡ÉĻÅĭ":7678,"ĠËĪaÉªk":7679,"ÉªnÉĻ":7680,"É¾ËĪap":7681,"ËĪÉľËĲf":7682,"ĠÎ¸ËĪÉĽÉ¹":7683,"ĠkÉ¹ËĪÊĮmbÉĻl":7684,"ĠswËĪÃ¦É¡Éļ":7685,"ĠhËĪaÉªz":7686,"ĠfjËĪuËĲÉĻl":7687,"ĠsËĪÊĮkÉļz":7688,"ĠÉ¹ËĪÊĮÊĥÉªÅĭ":7689,"ĠfÉ¾ÉĻÊĥ":7690,"ĠtËĪÉĽláµ»vËĮÉªÊĴÉĻn":7691,"ji":7692,"ĠpËĪuËĲ":7693,"ĠbÉ¹ËĪÉĽst":7694,"ĠpÉ¹ÉĻs":7695,"ĠnÉĻkÉĻd":7696,"ĠmËĪadÊĴÉĻk":7697,"ĠkËĪÉĳËĲndoÊĬ":7698,"É¹ËĪÉĶÉª":7699,"ĠsËĪÉĶËĲÉ¹t":7700,"ĠpÉªk":7701,"ĠflÉĻt":7702,"ĠÎ¸É¹ËĪÉĽd":7703,"ĠÉ¹ËĪÊĮnweÉª":7704,"ĠËĪoÊĬvÉļd":7705,"ĠkËĪÃ¦É¾":7706,"ĠtËĪÃ¦É¾áµ»d":7707,"ĠËĪÉĽÉ¡":7708,"É¹áµ»p":7709,"ĠswËĪÉĽÉ¾Éļ":7710,"É¾ÉĻkt":7711,"ĠÉ¹ËĪuËĲmz":7712,"ĠfÉĻnËĪi":7713,"ĠhËĪÉĳËĲÉ¹lÉĻm":7714,"ĠÉ¡É¹ËĪeÉªÉ¾Éļ":7715,"ĠÉ¹áµ»lËĪeÉªÊĥÉĻnÊĥËĮÉªp":7716,"ÉªÎ¸":7717,"ĠÉ¡ËĪÉªdi":7718,"ĠbËĪiËĲn":7719,"ĠwËĪÉªÊĥt":7720,"ĠËĮÊĮndÉļk":7721,"ĠmÉĻmËĪa":7722,"ĠhËĪÉĶËĲntáµ»d":7723,"ËĪÉªÉ¾ÉĻl":7724,"tÊĥÉĻnt":7725,"ËĪÉĳËĲkt":7726,"ĠslËĪÃ¦t":7727,"ËĮaÉªl":7728,"ĠfÉ¹ËĪiËĲweÉª":7729,"ĠkËĪÉĳËĲÉ¹É¾i":7730,"ĠwÉĻtÉĻn":7731,"ĠlÉĻÅĭÉ¡ÉĻ":7732,"ĠsËĮiËĲdËĪiËĲ":7733,"ĠlËĪÊĮlÉĻbËĮaÉª":7734,"ĠÊĮmbÉ¹ËĪÉĽlÉĻ":7735,"ĠmËĪy":7736,"ËĪÊĮpt":7737,"ĠfÉĻz":7738,"ĠwËĪÊĮnÎ¸ËĪaÊĬzÉĻnd":7739,"ĠsÉĻnÉĻ":7740,"niÉĻn":7741,"ĠtËĪÉªkÉªÅĭ":7742,"ĠspËĪÉªÉ¹Éªts":7743,"ĠÉ¹ÉªËĪÃ¦kÊĥÉĻn":7744,"ĠkËĪÉĳËĲkt":7745,"Î¸É¹ËĪuËĲ":7746,"wÊĮ":7747,"iËĲÉĻ":7748,"ĠtËĪaÊĬÉļ":7749,"ĠflËĪÉĶËĲz":7750,"ĠfËĪoËĲÉ¹d":7751,"ĠwËĪÉĶËĲÉ¾ÉļfËĮÉĶËĲl":7752,"ËĮÉªzÉĻm":7753,"ĠbËĪÃ¦ÅĭkÉ¹oÊĬl":7754,"É¾ÉªsfËĪÃ¦kÊĥÉĻn":7755,"ÉĻÉĻtÊĥ":7756,"ËĪÃ¦noÊĬ":7757,"ĠËĪÊĮpÉļ":7758,"ĠpËĪÉĳËĲz":7759,"fËĪÉĳËĲ":7760,"hËĪÃ¦pi":7761,"É¹ËĪeÉª":7762,"ĠdÊĴÉĻz":7763,"ÉĻmÉĻz":7764,"ĠdËĪuËĲz":7765,"ĠfËĪoÊĬÉ¾oÊĬ":7766,"ĠsËĪeÉªnts":7767,"ĠdÉªËĪoËĲÉ¹":7768,"ĠstËĪÃ¦É¾ÉĻs":7769,"ĠsmËĪÉªlÉªn":7770,"ĠmËĪÉĽk":7771,"ĠÉ¡ÉĻz":7772,"ĠpËĮÉĳËĲ":7773,"ĠËĪÉªnt":7774,"bÉ¹ËĪÉªÅĭ":7775,"ĠÉĻvÉ¾ËĪywÉĻ":7776,"jÊĬlËĮeÉªt":7777,"ĠÉĽkspÉ¹ËĪÉĽs":7778,"fËĪeÉªs":7779,"lËĪÃ¦Êĥ":7780,"ĠdËĪÃ¦Åĭ":7781,"ÉļÉ¹ËĮeÉªÉ¾áµ»d":7782,"ĠlËĪÉªks":7783,"ĠsÉĻmplÉĻ":7784,"ĠÉ¹ËĪÉªtÊĥÉļd":7785,"ËĪuËĲËĪuËĲËĪuËĲ":7786,"ĠstÉ¹ËĪaÉªks":7787,"ĠsËĮÉĽlÉĻbÉ¹ËĪeÉªÊĥÉĻn":7788,"ĠÉĶËĲ":7789,"ĠËĪaÉªdÉĻl":7790,"ĠluËĲ":7791,"ĠÉĻst":7792,"ĠËĪÃ¦pÉªt":7793,"ĠklËĪap":7794,"ĠoÊĬb":7795,"ĠtËĪÊĮnÉĻl":7796,"ĠfÉĽÉ¹wËĪÉĽl":7797,"ËĪÉĽnjËĪÉĽËĲ":7798,"ËĪÉªnÉªÉ¾i":7799,"Éªdz":7800,"ĠÉ¾ÉĻtÉĻn":7801,"ĠpÉ¾ÉĻÊĥËĪo":7802,"ĠÉ¹ËĪeÉªdÉĳËĲÉ¹":7803,"ĠswËĪÉªÅĭÉ¡Éªn":7804,"ĠdËĮÉĽstÉªn":7805,"bËĪaÊĬns":7806,"hËĪÉªt":7807,"ĠlËĪaÉªm":7808,"ĠdÊĴÉĻvÉĻÅĭ":7809,"ptËĪÉĽmbÉļ":7810,"ĠdËĪÉªf":7811,"ĠhÉĻldÉĻÅĭ":7812,"ĠkËĪÊĬki":7813,"ĠwËĪaÉªfi":7814,"'\"":7815,"?âĢĿ":7816,"faÉªÉļ":7817,"lËĪaÉªv":7818,"É¹ËĪuËĲ":7819,"ĠstËĪÃ¦Åĭk":7820,"ĠvËĪÉĳËĲ":7821,"ĠsÉĻtÉĻÅĭ":7822,"ĠpËĪÉªstÉĻlz":7823,"ĠÉĻkspl":7824,"ĠpËĪÉľËĲkÉĳËĲs":7825,"ĠËĪÉĽÉ¡zÉªt":7826,"Ġsáµ»kjËĪÊĬÉ¹É¹ÉªÉ¾i":7827,"mÉĲ":7828,"É¹ËĪÉªtÊĥ":7829,"ĠmÉĻnz":7830,"ĠtÉ¹ËĪÃ¦dÊĴÉªk":7831,"ĠfÉ¹ÊĮ":7832,"ĠsËĪÉľËĲfÉªn":7833,"ĠsÉĻpÉĻsÉĻd":7834,"ĠwËĪÉªspÉļz":7835,"ĠsmÉĻkÉĻÅĭ":7836,"aÊĬtËĮÉªn":7837,"ĠbÉ¹ËĪÉĶËĲdweÉª":7838,"ĠÉĲdÉ¹ËĪÉĽs":7839,"ĠtÊĥÉĻndÊĴÉĻd":7840,"ËĪaÉªÉ¾ÉªÅĭ":7841,"dÊĴÉĻst":7842,"ĠkwËĪaÉªÉļ":7843,"ĠÉ¡lËĪÃ¦m":7844,"ĠkËĪÉĳËĲld":7845,"ËĪuËĲduËĲ":7846,"ĠhËĪÊĮsbÉĻnd":7847,"bËĮÉĶËĲl":7848,"mÉĻt":7849,"ĠfËĪÉªlz":7850,"Ã°ËĪiËĲz":7851,"ĠbËĪÃ¦stÉļd":7852,"ĠpËĪeÉªÉªn":7853,"pÉļtËĪuËĲn":7854,"ĠdÊĴËĪiËĲnÉªÉĻs":7855,"ĠpËĪeÉªvmÉĻnt":7856,"ĠsuËĲpÉ¹":7857,"ĠlËĪaÊĬbaÊĬtËĮÉªn":7858,"Î¸Éļ":7859,"ĠtÉĻÅĭ":7860,"ĠspÉĻnt":7861,"ĠflËĪoÊĬtÉªn":7862,"ĠbËĪaÊĬnsÉªn":7863,"ĠsËĪÉľËĲvÉªÅĭ":7864,"ĠbËĪÉľËĲdÉĻn":7865,"Ġdáµ»nËĪaÉªÉĻl":7866,"ĠÉĻdÉĻ":7867,"Ġbáµ»wËĪÉĽÉ¹":7868,"ĠlÉĻtËĪa":7869,"Ġdáµ»skÉ¹ËĪaÉªb":7870,"ĠdËĪiËĲpÉªst":7871,"ĠflËĪÊĮdáµ»d":7872,"ĠmËĪÉªksteÉªp":7873,"ĠaÊĬtÉ¹ËĪeÉªdÊĴÉĻs":7874,"ĠfÉĻnËĪali":7875,"po":7876,"ĠÉ¡ËĪas":7877,"Î¸ËĮÉªn":7878,"ĠpÉ¹ËĪÉĽst":7879,"ĠÉĻnÉĻst":7880,"ĠfËĪaÉªndz":7881,"ËĪyn":7882,"ËĪaÉªlaÉªt":7883,"ĠdËĪÊĮmi":7884,"ĠÎ¸ËĪÊĮÉ¡Éļ":7885,"fjËĪuËĲ":7886,"sn":7887,"Éªh":7888,"eÉªm":7889,"ĠmËĪÉĽnd":7890,"ĠpËĪÉĽt":7891,"É¾áµ»v":7892,"ËĪÉĽdÉļ":7893,"ĠpÉ¹ËĪÉĳËĲf":7894,"ĠdÉ¹ËĪÃ¦É¡ÉĻn":7895,"ĠkÉļÉ¹ËĪÉĽs":7896,"ĠkÉ¹iËĲËĪeÉªÊĥÉĻn":7897,"ĠÉ¡ÉļÉ¹ËĪÉĳËĲÊĴ":7898,"ĠdÊĴÉĲmËĪeÉªkÉĻ":7899,"ĠpÉĻnk":7900,"É¾ÊĮm":7901,"ĠspÉĻ":7902,"ÉĻpt":7903,"ĠÉĻnsÉĻ":7904,"ĠpËĪÉľËĲks":7905,"ĠtËĪÉĳËĲps":7906,"ĠpÉĻsÉĻz":7907,"Ġdáµ»É¡É¹ËĪiËĲ":7908,"ĠbËĪÉĽndÊĴÉĻm":7909,"ĠsÉĽptËĪÉĽmbÉļ":7910,"bËĪÊĮst":7911,"fÉĶËĲl":7912,"ĠhÉĻn":7913,"ĠÉĻÉ£ÉĻ":7914,"ÉĻndÉĻ":7915,"ĠbÉ¾ÉĻkÉĻÅĭ":7916,"ĠbËĪÊĬÊĥ":7917,"ĠdËĪyzÉĻv":7918,"ĠpËĪÉĽdÉĻl":7919,"ĠkËĪÉĳËĲnsÉªkw":7920,"ĠsËĪÉĽntÊĥÉļÉ¹i":7921,"lËĪÉªv":7922,"ĠdËĪÉĽp":7923,"ĠÉ¡ËĪÉªfts":7924,"ĠmËĪiËĲk":7925,"ËĮÃ¦Î¸":7926,"ĠËĪÃ¦Åĭk":7927,"ÉªlËĮÉªn":7928,"Ġdáµ»nËĪaÉªd":7929,"ĠÉĳËĲpÉļtËĪuËĲn":7930,"bËĪÊĮm":7931,"feÉªs":7932,"ĠbËĪiËĲz":7933,"ĠswËĪaÉ¡":7934,"ĠkwÉĻst":7935,"ĠstËĪÉĳËĲÉ¹laÉªt":7936,"ĠbËĪÃ¦Åĭks":7937,"ĠÉ¹ËĪÉĳËĲÊĶn":7938,"ĠÉĻnËĪyÎ²ÉĻdi":7939,"ĠÉĲtÊĥËĪiËĲv":7940,"ĠbËĪÉĽk":7941,"ËĪeÉªÊĥ":7942,"ndi":7943,"ĠÊĮndÉ¹":7944,"É¾ÉĻp":7945,"ĠblÉĻs":7946,"ĠpËĪÉľËĲfÉĽktli":7947,"ĠdÊĴËĪÉĽli":7948,"ĠdÉĻlÉĻÅĭ":7949,"ĠstÉ¹ËĪÉªpÉļ":7950,"ĠkÉ¹ËĪÉªstÊĥÉĻn":7951,"ĠmÉªsËĮÊĮndÉļstËĪÊĬd":7952,"ĠËĪÉĳËĲÉ¹k":7953,"Ã¦d":7954,"ĠsaÉª":7955,"ĠlËĪiËĲp":7956,"ĠfËĪaÊĬl":7957,"É¾Éªn":7958,"ĠdÊĴËĪÉª":7959,"ĠwËĪÉĽlÎ¸":7960,"ĠdÊĴÉĻËĪal":7961,"ĠlËĪeÉªmz":7962,"ĠÊĮnfËĪoÊĬld":7963,"zËĪiÉĻÉ¹oÊĬzËĪiÉĻÉ¹oÊĬzËĪiÉĻÉ¹oÊĬ":7964,"ĠmËĪÉĳËĲp":7965,"ĠbËĪeÉªt":7966,"ÉľËĲl":7967,"ĠtwËĪÉªÉ¾Éļ":7968,"ĠmÉĻlËĪi":7969,"lËĪÉĶÅĭ":7970,"lÉĽ":7971,"nËĪÉĳËĲm":7972,"ĠsÉĻnsÉĻ":7973,"ĠpÉ¹ËĪÉĽ":7974,"dÊĴÉĽkt":7975,"ĠbËĪÉĶËĲlÉļ":7976,"ĠhjËĪuËĲstÉĻn":7977,"ĠpÉļfËĪÉĶËĲÉ¹m":7978,"ĠËĪÉĽkstËĪuËĲ":7979,"ĠÉĲdvËĪÃ¦ns":7980,"ĠhËĪoËĲÉ¹ni":7981,"ĠnËĪaÉªtmÉĽÉ¹z":7982,"Ġmj":7983,"ËĪaÉªdÉĻl":7984,"ËĪÉĶÅĭki":7985,"ÉªkÉĻn":7986,"ËĪÉĽksfËĪoËĲÉ¹":7987,"ÉĻfi":7988,"ĠdËĪÉĽdáµ»kËĮeÉªÉ¾áµ»d":7989,"ĠlËĪiËĲf":7990,"ĠËĪÉªtÊĥ":7991,"ĠmËĪÃ¦mÉĻ":7992,"ĠlËĪÉĽnd":7993,"ÊĥÉĻz":7994,"É¾a":7995,"ËĮiËĲËĮÉĽstËĪiËĲ":7996,"ĠstÉ¹ËĪeÉª":7997,"ĠËĪuËĲps":7998,"ĠÉªmËĪÉľËĲdÊĴ":7999,"ĠËĪÃ¦nÎ¸ÉĻm":8000,"ĠfËĪeÉªld":8001,"ĠjËĪuËĲslÉĻs":8002,"ĠkËĪÉľËĲÉ¹ÉªdÊĴ":8003,"ĠsËĮÃ¦É¾ÉªsfËĪÃ¦kÊĥÉĻn":8004,"nËĪiËĲd":8005,"tËĪoÊĬ":8006,"ËĪÉĽÊĶn":8007,"ĠhÉĻlz":8008,"ĠkËĪÉľËĲl":8009,"ĠÉ¹ËĪÉĳËĲd":8010,"ÉĻkÉĻlz":8011,"ĠkÉ¹ËĪÃ¦kt":8012,"ËĪÃ¦stÉļÉ¹ËĮÉªsks":8013,"fÉ¹ÉĽndz":8014,"ĠpËĪÉĳËĲzáµ»tËĮÉªv":8015,"ĠdËĮÉĽstÉªnËĪeÉªÊĥÉĻn":8016,"hËĪÉĳËĲÉ¹t":8017,"sÉĻd":8018,"ĠdÉĻÉĻÅĭ":8019,"ĠnËĪiËĲnÉĻ":8020,"ËĮÉĳËĲÊĴ":8021,"ÉªÉ¡ÉĻn":8022,"ĠËĪÉĶËĲÉ¾ÊĮm":8023,"ĠËĪÉĳËĲpÉĻz":8024,"ĠpÉļfËĪÉĽkÊĥÉĻn":8025,"ËĪÉĽÊĥÉĻnz":8026,"ĠsËĪiËĲs":8027,"ĠmÉĻÊĥÉĻn":8028,"ĠhËĪeÉªts":8029,"ĠjËĪuËĲbÉļ":8030,"fluËĲ":8031,"ĠmËĪÉĽsÉªn":8032,"ĠvËĮaÉªbÉ¹ËĪeÉªÊĥÉĻnz":8033,"wÉĻt":8034,"ËĪaÉªÉļz":8035,"ĠkÉĻf":8036,"ËĪuËĲÉ¾oÊĬ":8037,"ÉĻdiz":8038,"É¾ÉĻÅĭ":8039,"ĠvËĪuËĲduËĲ":8040,"ÉªdËĪÉĽnÊĥÉĻl":8041,"ĠwËĪÉĶËĲÉ¹ÉªÉļ":8042,"ĠÉĻvÉ¾ËĪydÉĻ":8043,"ĠËĮoÊĬvÉļkËĪÊĮm":8044,"ĠmÉĻtËĪÉªÉ¹iÉĻl":8045,"ËĪÉªnsáµ»bÉĻl":8046,"fÉĻm":8047,"ĠÉ¡ËĪÉªt":8048,"ĠfËĪÉªkst":8049,"ËĪÉĳËĲnt":8050,"ĠhËĪÃ¦sÉĻn":8051,"ĠtÊĥËĪÉªlz":8052,"ĠtËĪaÉªmÉªÅĭ":8053,"ÉĳËĲm":8054,"ÉĻdÊĴÉĻz":8055,"ĠhËĪÉĳËĲÉ¹mÉĻni":8056,"ĠdÊĴËĪoÊĬks":8057,"ĠhÉļÉ¹ËĪaÉªzÉĻn":8058,"ËĮyn":8059,"ĠwËĪÉĽp":8060,"Ġpo":8061,"ĠfËĪÉªts":8062,"ĠÉ¹áµ»mËĪaÉªndz":8063,"ĠfËĪÊĬtstÉĽ":8064,"ĠdËĪÊĮkÉªn":8065,"wËĪÉĶnÉĻ":8066,"ĠdËĪÉªdÊĴÉªÉ¾ÉĻl":8067,"ĠhËĪÉĳËĲs":8068,"dÊĴÉĻnt":8069,"ĠwËĪÉĳËĲtÊĥáµ»z":8070,"ËĪiÉĻÉ¹i":8071,"ĠkjËĪuËĲpÉªd":8072,"ĠwËĪÉĽÉ¾Éļ":8073,"ĠmËĪÉĳËĲÎ¸ÉĲfËĮÊĮkÉĻ":8074,"ĠfÉĻvo":8075,"ĠpÉĻsÉĻn":8076,"ËĪÉĻk":8077,"ËĪiËĲpÉĻl":8078,"ĠvËĪÉĳËĲl":8079,"ĠÉ¡ËĪÃ¦ÅĭstÉĻz":8080,"ĠËĮÊĮndÉļstËĪÃ¦ndÉªÅĭ":8081,"ĠÉĲbËĪÃ¦nd":8082,"):":8083,"iwËĪÉĻn":8084,"ĠpËĪÉĽÉ¾i":8085,"ĠbËĪiËĲÉ¾Éªn":8086,"ĠÉ¡É¹ËĪaÉªm":8087,"ĠÉ¹ËĪÃ¦É¡z":8088,"ĠÉ¡lËĪoÊĬb":8089,"ĠhËĪÉªdÉªn":8090,"bjÊĬl":8091,"ĠpÉĻnd":8092,"stËĪÉĽp":8093,"ĠÉ¹ËĪeÉªt":8094,"Ã°ÉĻz":8095,"ĠstËĪeÉªnz":8096,"ÉĻkÉĻn":8097,"ËĪiËĲdÉĻ":8098,"ËĪiËĲtËĪiËĲ":8099,"ĠfÉĻÃ°ÉĻ":8100,"ĠÉ¹ËĪÉĳËĲbd":8101,"ĠfÊĬlf":8102,"ĠÉ¹áµ»mËĪaÉª":8103,"ĠtÉĻlÉĻÅĭ":8104,"ĠsËĪÊĮkÉªÅĭ":8105,"ĠlËĪiËĲnÉªn":8106,"ĠËĪÉĽmptinÉĻs":8107,"ĠÉ¹áµ»vËĪÉľËĲs":8108,"ĠÉĽkskjËĪuËĲsáµ»z":8109,"ĠhËĪÃ¦bÉªts":8110,"ĠpËĪÉĳËĲlÉĻt":8111,"lËĪeÉªdi":8112,"mËĪan":8113,"ĠsËĪÃ¦ks":8114,"ĠÉĻÉ¡":8115,"ĠÉĻhÉĻd":8116,"ĠhËĪÉªÉ¹Éªn":8117,"ĠvËĪÉªÊĥÉĻs":8118,"ĠËĪal":8119,"ĠwËĪÊĮt":8120,"ĠbÉĻtÉĻm":8121,"ĠspËĪeÉªsÊĥÉªp":8122,"ĠsËĪÊĮbst":8123,"ĠÉ¹áµ»tËĪÉĳËĲÉ¹dáµ»d":8124,"ĠtËĪÉªntáµ»d":8125,"ĠsÉĻdÊĴËĪÉĽst":8126,"ĠkÉĲ":8127,"ÉĻnÉªÅĭ":8128,"ski":8129,"ĠjËĪÉĽlÉªÅĭ":8130,"ĠËĪÉĳËĲÉ¹mÉļ":8131,"Ġdáµ»lËĪaÉªt":8132,"ĠslÉĻpÉĻÅĭ":8133,"ĠvËĪÉľËĲÊĴÉĻn":8134,"ĠtÊĥËĪÉĽÉ¹ÉªÊĥ":8135,"ĠskÉ¾ÉĻmÉĻÅĭ":8136,"ĠlËĪÉªÅĭÉ¡Éļ":8137,"ĠnËĪÉĽÉ¡ÉĻtËĮÉªv":8138,"mÉĻst":8139,"ĠpÉ¹Éªd":8140,"ĠkÉĻlËĪo":8141,"ĠsËĪÉĽnsáµ»z":8142,"ĠdËĪÉĶËĲÉ¾Éļz":8143,"ĠÉ¹ËĪÉªki":8144,"ĠÉ¡É¹ËĪuËĲpi":8145,"ĠdËĪiËĲs":8146,"ĠvËĪoÊĬ":8147,"ÉªdÉĻnts":8148,"ĠkËĪoÊĬtÊĥ":8149,"ĠÉĻmp":8150,"tËĪuËĲËĪÉĽks":8151,"ĠfËĪeÉªkÉªÅĭ":8152,"ĠdËĮiËĲËĪÉĽm":8153,"ĠdËĮÉªsÉĲpËĪÉĶÉªnt":8154,"ĠdÉªskËĪÊĮvÉļ":8155,"É¾ÉªvËĪeÉªÊĥÉĻn":8156,"pËĪÊĬl":8157,"sËĪÉĽd":8158,"ÉªmÉĻn":8159,"ÉªÉ¡É¹":8160,"ËĪatÊĥ":8161,"ĠstÉĻd":8162,"ĠkËĪÉĳËĲnstÉĻntli":8163,"fÉļÉ¹ËĪÉĽvÉļ":8164,"ĠpËĪeÉªtÉ¹ÉĻn":8165,"ĠpiËĪÃ¦noÊĬ":8166,"ËĪaÉ£":8167,"ĠdÊĴÉĻnz":8168,"ĠfËĪaÉªÉļz":8169,"ĠnËĪÉĳËĲd":8170,"ĠklËĪÊĮbz":8171,"ĠsÉĻksÉĻ":8172,"ĠÉªnvËĪÉªnsáµ»bÉĻl":8173,"ĠÉĲtÉ¹ËĪÃ¦kt":8174,"ĠÉĲpÉ¹ËĪoÊĬtÊĥ":8175,"hËĪÃ¦":8176,"haÉª":8177,"kÉĻt":8178,"ÉªËĪÉĳËĲ":8179,"ĠmËĪÊĮdi":8180,"ĠËĮÉªnfÉļmËĪeÉªÊĥÉĻn":8181,"ĠkËĪÉĳËĲmÉĻz":8182,"ĠjËĪÉĽláµ»n":8183,"ĠÊĮnfÉļÉ¡":8184,"ĠÉ¹ËĪeÉªndÉªÉ¹":8185,"ĠtËĪÉĳËĲnaÉª":8186,"ĠwËĪÉĽpÉĻnz":8187,"kweÉª":8188,"veÉª":8189,"ĠÉ¡É¹ËĪÃ¦mi":8190,"ĠËĮÉªnspÉļÉ¹ËĪeÉªÊĥÉĻn":8191,"ĠkÉĻlÉĻd":8192,"ĠhËĪÉĽlpÉªÅĭ":8193,"ĠkÉĻnËĪo":8194,"twËĪÉĻna":8195,"ĠmËĪÉĽloÊĬ":8196,"ĠdËĪaÊĬts":8197,"ĠsËĪuËĲtkeÉªs":8198,"ĠjËĪuËĲzi":8199,"ĠmeÉªnt":8200,"fÉĻni":8201,"tËĪÊĮtÊĥ":8202,"ËĪÉĽsi":8203,"ĠstËĪÉĶËĲl":8204,"ĠfÉ¹ËĪÃ¦ns":8205,"ĠplÉĻn":8206,"ĠtÉĻkst":8207,"hÃ¦hËĪÉĳËĲhÉĻ":8208,"oÊĬv":8209,"ĠkËĪÉªm":8210,"ĠkËĪap":8211,"ĠÉ¹ËĪiËĲl":8212,"ĠnËĪoÊĬl":8213,"kÉ¹ËĪÉĶs":8214,"ĠÉĽÉ¡zËĪÉĳËĲÉ¾Éªk":8215,"ĠsËĮÉªl":8216,"ĠkËĪÉĳËĲki":8217,"fËĮÉªÉ¹":8218,"ËĪÉĽntáµ»d":8219,"ĠlËĪÉĶÅĭÉªÅĭ":8220,"ĠtwËĪaÉªlaÉªt":8221,"ĠdËĪÉĽdli":8222,"dËĪÉĳËĲÉ¡":8223,"ĠpËĪaÉªÉ¹":8224,"ĠdÉ¹ËĪeÉªkoÊĬ":8225,"ÉªÉĻt":8226,"ĠbÃ¦nd":8227,"ĠwËĪÉĶntÉªn":8228,"ËĪeÉªtiËĲn":8229,"ĠwËĪÊĬlvz":8230,"ĠkËĪÉĳËĲnstÉĻnt":8231,"lÉĻvÉĻ":8232,"tËĪÃ¦t":8233,"ĠÊĥËĪoÊĬn":8234,"ĠÎ¸ÉĻts":8235,"ĠtÊĥËĪÉĽdÉļ":8236,"ĠkÉ¹ËĪiËĲk":8237,"ËĪÃ¦ndi":8238,"É£ÉĻz":8239,"juËĲz":8240,"fËĪÉĻv":8241,"ĠkËĪoÊĬkoÊĬ":8242,"ĠÉĽkstÊĥ":8243,"ĠmËĪÃ¦st":8244,"ĠdËĪÊĮÉ¡":8245,"ĠfÉĻnt":8246,"ĠfËĪÉªÉ¾áµ»d":8247,"ĠnÉĻdz":8248,"biËĲ":8249,"mËĪÉľËĲ":8250,"ĠËĪoËĲÉ¹":8251,"ĠfjÉĻ":8252,"ËĮÉĽnËĪeÉª":8253,"ĠpÉ¹Éªf":8254,"ÉļÉ¹Éļ":8255,"ĠflËĪÉľËĲt":8256,"ĠkËĪÉĶËĲzd":8257,"ĠtwÉĻst":8258,"ĠsËĪuËĲts":8259,"ĠsËĪÊĮkt":8260,"Ġdáµ»fËĪaÉªn":8261,"ĠÉĲdÉ¹ËĪÉĽn":8262,"ĠËĪÉĽlÉªvËĮeÉªÉ¾Éļ":8263,"lÉĻd":8264,"ĠdËĪeÉªm":8265,"ĠloÊĬk":8266,"ĠfËĪÃ¦kÉªn":8267,"ËĪÃ¦nz":8268,"ĠtËĪaÉªÉļz":8269,"ĠÉĻvÉĻ":8270,"juËĲËĮÉĽÉ¹i":8271,"ĠbËĪÃ¦ndoÊĬ":8272,"ĠÉªtËĪÉľËĲnÉĻl":8273,"ĠwËĪÃ¦É¡":8274,"ĠhËĪÉĽh":8275,"ĠÉ¡ÉĻtÊĥ":8276,"ËĪÉªpÊĥÉĻn":8277,"ĠÉ¡ËĪÉĳËĲÊĶn":8278,"ĠÉ¡lËĪuËĲ":8279,"ËĪyÉĻnz":8280,"ĠsÉĻtÉĻn":8281,"ĠhËĪÃ¦pÉĻnËĮÉªn":8282,"ĠtÊĥËĪÉªkÉªnz":8283,"Ġ)":8284,"ËĪakt":8285,"ĠmÉĻks":8286,"ĠpËĮÉĽn":8287,"ĠstËĪÉĶËĲk":8288,"ĠstÉĻdÉĻ":8289,"ĠhËĪÃ¦dÉĻn":8290,"ĠskËĪÊĮm":8291,"ĠËĪand":8292,"ĠbÉĻkËĪÉĻm":8293,"ĠstÉ¹ËĪÉªpÉļz":8294,"ĠlËĪÃ¦dÉļ":8295,"ĠËĪÉĽmpaÉªÉļ":8296,"ĠËĪÃ¦pÉªtËĮaÉªt":8297,"mËĪÉĽmbÉļ":8298,"sÉĻnt":8299,"wËĪÉľËĲ":8300,"ÉªÉĻn":8301,"ËĪÊĮdz":8302,"ËĪÉĳËĲÅĭ":8303,"ĠfËĪaÊĬntÉªn":8304,"ĠvËĪoÊĬt":8305,"ËĮÉªts":8306,"ĠslËĪÉĳËĲp":8307,"ĠsËĪÉªmfÉĻni":8308,"ĠËĪÉľËĲÎ¸kweÉª":8309,"ĠpÉĻkÉĻt":8310,"ĠfËĪÊĬtstÉĽps":8311,"mËĪÉªs":8312,"ËĪoÊĬks":8313,"ĠnËĪÉĻz":8314,"stÉĻl":8315,"ËĪÉĳËĲtsi":8316,"ĠtËĪaÉªÉ¾ÉĻl":8317,"ĠslËĪaÉªs":8318,"ĠÉªnsÉĻn":8319,"ĠkËĪaÉªndz":8320,"ĠdÉ¾ÉĻv":8321,"ĠÉ¾ÉĻlÉĻÅĭ":8322,"ĠtËĪuËĲÎ¸ËĪaÊĬzÉĻndfËĪÉªftiËĲn":8323,"ĠfËĪeÉªlÉªÉ¹":8324,"pÉļÉ¹ËĪÉĳËĲtsi":8325,"É¹ËĪÉĶÉªt":8326,"ĠmËĪystÉĻk":8327,"kÉĻnt":8328,"ĠtËĪÉªps":8329,"ĠhËĮÃ¦loÊĬ":8330,"ĠlËĪÉĽks":8331,"ËĪys":8332,"ĠpËĪÊĬlz":8333,"ĠËĪeÉªthËĪÊĮndÉ¹ÉĻd":8334,"jËĪuËĲnÉªt":8335,"ĠwËĪÉªspÉļÉ¹ÉªÅĭ":8336,"ĠpËĪÉĽnthaÊĬs":8337,"ĠhËĮÃ¦loÊĬËĪiËĲn":8338,"jÉĻs":8339,"ĠdÉĻnt":8340,"ĠlËĪÉĶËĲz":8341,"ĠÉĻÉ¡n":8342,"ĠstÉ¹ËĪÃ¦nd":8343,"ĠÉĽkspËĪiÉĻÉ¹ÉªÉĻns":8344,"wÉªn":8345,"ĠËĮeÉªtÊĥ":8346,"ĠtÉ¾ÉĻl":8347,"ĠnËĪiËĲl":8348,"ĠstÉ¹ËĪoÊĬl":8349,"ÉªsÉĻn":8350,"É¡É¹ËĪiËĲ":8351,"spËĪoÊĬkÉĻn":8352,"ĠÉ¡ÉĻlf":8353,"ĠdÊĴÉĻpËĪÃ¦n":8354,"ĠnËĪaÉªnhËĪÊĮndÉ¹ÉĻdÉªlËĪÉĽvÉĻn":8355,"É¹Éªks":8356,"ĠjËĪÉĳËĲt":8357,"ĠjËĪÊĬÉ¹":8358,"ĠtËĪÉĶÉªl":8359,"ËĪÉĽnÉª":8360,"ĠflËĪÉĶËĲÉ¹":8361,"ptÉĻ":8362,"ĠklËĪÉªÉ¹Éļ":8363,"ÉĻktÉĻd":8364,"ĠpËĪÉªÅĭki":8365,"ĠkÉĳËĲnvÉļsËĪeÉªÊĥÉĻnz":8366,"ĠswËĪÉľËĲvÉªn":8367,"ĠÉ¡ËĪÉĳËĲsÉªp":8368,"ĠdÉ¹ËĪÉĶËĲÉ¹z":8369,"ĠkËĪÉĳËĲÉ¹É¾iÉļ":8370,"ĠmËĪÉĽÎ¸":8371,"ĠhËĪÊĮmp":8372,"ĠsËĪoÊĬp":8373,"ĠvËĪÉĽlv":8374,"ĠbÉĻÉ£ËĪo":8375,"ĠsÉĻkÉĻ":8376,"ĠdËĪiËĲlÉļz":8377,"ĠfÉ¹ËĪiËĲkÉªÅĭ":8378,"ĠÎ¸ËĪÃ¦Åĭz":8379,"ĠÉ¡É¾ËĪand":8380,"ĠbËĪÊĮÉ¡Éªn":8381,"ĠÉ¡ËĪÉĳËĲÉ¹b":8382,"ĠmeÉªntËĪeÉªn":8383,"ĠtËĪÃ¦b":8384,"ĠkËĪÃ¦nsÉļ":8385,"ĠtÊĥËĪÉªm":8386,"ËĪÉªvÉĻn":8387,"ĠÉ¡É¹ËĪeÉªn":8388,"ĠtwÉĻntÉĻ":8389,"ĠÉ¹ËĪuËĲt":8390,"ĠsËĪÉĽvÉĻnti":8391,"juËĲÉ¡ËĪÃ¦É¾i":8392,"ĠÉĽkstÊĥËĪeÉªndÊĴ":8393,"tËĪÉĻ":8394,"eÉªz":8395,"ĠkÉĶËĲÉ¹":8396,"ĠsËĪoÊĬfÉĻ":8397,"ËĮiËĲld":8398,"ĠtÉĻf":8399,"ĠbËĪÃ¦kst":8400,"ĠkÉĻlo":8401,"ĠpËĪÃ¦sáµ»z":8402,"ĠËĪÉĶËĲwÉĻ":8403,"ĠËĪÉĳËĲpÊĥÉĻnz":8404,"ĠnËĪÉªkÉĻl":8405,"ĠtÊĥËĪiËĲks":8406,"áµ»pËĮiËĲ":8407,"ĠkËĪÊĮstÉĻm":8408,"ĠpÉ¹ÉĻsËĪiËĲd":8409,"ĠËĮÊĮndÉļkËĪÊĮvÉļ":8410,"ĠËĮaÉª":8411,"ĠËĪÉĶl":8412,"ËĪaÉªiËĲ":8413,"ĠÉ¹ËĪÉĳËĲt":8414,"ĠÉ¹ËĪeÉªv":8415,"ĠdÊĴÉĻt":8416,"ĠÉĲfl":8417,"ĠkËĪÃ¦nz":8418,"ÉļÉ¹ÉĻli":8419,"ĠspÉĻd":8420,"ĠswËĪoÊĬl":8421,"ĠÉ¾ÉĻdÉĻÉĻ":8422,"ĠdËĪiËĲlz":8423,"sËĪÊĮmÎ¸ÉªÅĭ":8424,"Ã¦Ã¦Ã¦":8425,"ĠdÊĴËĪÊĮÅĭki":8426,"ĠÉĲdÉ¹ËĪÉĽnÉĻlËĮÉªn":8427,"blÉĻ":8428,"ÅĭÉ¡É¹":8429,"stoÊĬn":8430,"ĠÉ¹ËĮoÊĬ":8431,"ĠËĪÉªns":8432,"ĠdÊĴËĪam":8433,"ĠblËĪÃ¦zÉªn":8434,"ĠdËĪiËĲlÉªn":8435,"ĠbËĪÉªldÉªn":8436,"ĠjuËĲnËĪaÉªÉ¾áµ»d":8437,"ĠsuËĲpÉ¹ËĪiËĲm":8438,"iÉĻm":8439,"wÊĬd":8440,"ËĪÉĻlÉĻ":8441,"ĠpÉ¹ËĮÉĽz":8442,"ËĮÉĽmÉĻnËĪeÉªd":8443,"ÉļÉ¹ËĪeÉªndÊĴ":8444,"ĠlÉĻdÉĻz":8445,"ĠtÉ¹ËĪÃ¦vÉĻld":8446,"laÉªnz":8447,"ĠtËĪoÊĬkÉªËĮoÊĬ":8448,"ĠfËĪiËĲmeÉªl":8449,"sËĪeÉªk":8450,"ĠsËĮÉĽ":8451,"Ġbáµ»lËĪiËĲf":8452,"ĠÉ¡lÉĻ":8453,"ĠpËĪÉľËĲmÉĻn":8454,"ĠmÉĻsÉĻÅĭ":8455,"ĠÉ¾ÉĻÉĻlÉĻz":8456,"ĠlËĪÉľËĲk":8457,"ĠdÊĴÉĻdÊĴÉĻ":8458,"ĠÎ¸ËĪÉĻti":8459,"ĠbËĪÃ¦kÉ¡É¹aÊĬnd":8460,"ËĪÃ¦mpÉĻl":8461,"ĠÉ¹ËĪaÉªdÉļz":8462,"ĠÉ¹ËĪoÊĬdÉªËĮoÊĬ":8463,"ĠÉ¹ËĪÉªtÊĥÉļ":8464,"ËĪÃ¦dÊĴÉĻl":8465,"ĠpÉ¾ÉĻsÉĻ":8466,"ĠmËĪiËĲdiËĲÉĻ":8467,"ĠfÉ¹ÊĮstÉ¹":8468,"fs":8469,"ĠtÊĥËĪÉªp":8470,"ĠspËĪÉªÉ¾ÉªÅĭ":8471,"ĠdËĪÉªÊĥáµ»z":8472,"É¡É¹ËĪÃ¦m":8473,"ĠbËĪÉĳËĲÉ¹bi":8474,"ÉªkÉĻlt":8475,"ĠÊĥËĪÃ¦loÊĬ":8476,"ĠhËĪÉĶËĲntÉªÅĭ":8477,"ĠkËĪÉľËĲtÉĻn":8478,"ĠdÉªtÉ¹ËĪÉĶÉªt":8479,"ĠvËĪÉªlÉĻn":8480,"ĠtËĪÃ¦lÉĻnt":8481,"ĠstÉ¹ËĪÉĶËĲbÉĽÉ¹i":8482,"ĠaÉªdËĪiÉĻz":8483,"ËĪiËĲld":8484,"ĠsÉĻnz":8485,"ĠtÉĻlÉĻ":8486,"ĠnËĪÉĽv":8487,"ĠÉ¡É¹ËĪiËĲv":8488,"ËĪiÉĻn":8489,"ÉªtËĪeÉªÊĥÉĻnz":8490,"ĠsÉĻplËĪaÉª":8491,"ĠpÉ¹ËĪÉĽzÉĻnts":8492,"ĠsnËĪiËĲkÉļz":8493,"ĠlËĪÉĳËĲdÊĴÉªk":8494,"ĠbÉĲnËĪÃ¦nÉĻ":8495,"fËĪoÊĬn":8496,"ĠbjuËĲÉ¡ËĪÃ¦É¾i":8497,"ĠdÊĴËĪÉĳËĲk":8498,"ĠwËĪeÉªdÊĴ":8499,"ĠzÉĻn":8500,"ĠÉ¡ËĪÊĮnÉĻ":8501,"ĠmËĪÉªÉ¹Éļz":8502,"dÉ¹ËĪiËĲm":8503,"ĠdËĪÉªfÉªkÉĻlt":8504,"ĠhËĪÉĳËĲsp":8505,"bËĪÉĶËĲÉ¹n":8506,"bsÉĻl":8507,"ĠÃ°ËĪoÊĬ":8508,"ĠsÉĻvÉĻn":8509,"ĠlËĮÉĽmÉĻnËĪeÉªd":8510,"ĠËĪeÉªËĪÉĽm":8511,"ĠdÉ¹ËĪaÊĬt":8512,"ĠpÉ¹Éªsk":8513,"ËĪÊĬki":8514,"ËĪÃ¦ÅĭÉ¡oÊĬ":8515,"ĠËĪÉĽlËĪaÉª":8516,"ĠkËĪÃ¦É¹ÉĻl":8517,"ĠËĮÊĮndÉļstËĪÃ¦ndz":8518,"ĠtÉĻlÉĻn":8519,"ĠmËĪÉĳËĲÉ¹ks":8520,"ĠmËĪÊĮÎ¸ÉĲfËĮÊĮkÉĻ":8521,"ĠmËĮoÊĬÉ¾ÉªvËĪeÉªÊĥÉĻn":8522,"vÉªs":8523,"É¹ËĮÉĽ":8524,"ĠtËĪÃ¦ÅĭÉ¡ÉĻld":8525,"ĠlËĪoÊĬz":8526,"ËĪaÊĬdi":8527,"ĠÊĥËĪÉªmi":8528,"ĠfËĪÊĮkÉļ":8529,"ĠspÉĻl":8530,"ĠËĪÉĳËĲli":8531,"kÉ¹ËĪaÉª":8532,"É¡nÉĻnt":8533,"ĠÉĲbs":8534,"lËĪuËĲ":8535,"sÉĻm":8536,"ĠwËĪÃ¦ks":8537,"Ã¦Êĥ":8538,"ĠËĪeÉªntÊĥÉĻnt":8539,"ĠslÉĻm":8540,"ĠmËĪÉªni":8541,"ĠsÉĻpËĪo":8542,"ĠbÉ¾ÉĻks":8543,"ĠtËĪÉĽÉ¹áµ»bÉĻl":8544,"ĠÉ¡ËĪÉĳËĲÉ¹bÉªdÊĴ":8545,"É¹ÉĻns":8546,"Ã¦ÉĲÉĲËĮÃ¦":8547,"ËĪÉªÉ¹iÉĻs":8548,"ËĮÉĽmËĮeÉªtÊĥËĪÉĽm":8549,"ĠvËĪÉĶÉªd":8550,"ĠÉ¹áµ»st":8551,"ĠpËĪÃ¦sÉªndÊĴÉļ":8552,"ĠsËĪÊĮkÉĻ":8553,"ĠswËĪÉªmÉªn":8554,"ĠÊĥËĪaÊĬÉ¾aÊĬt":8555,"zÉļÉ¹":8556,"ĠËĪiÉĻ":8557,"ËĪÉĶnt":8558,"ĠËĪoÊĬÊĥÉĻnz":8559,"ĠpÉ¹ÉĻdËĪuËĲs":8560,"ĠflËĪÉĶËĲlÉĻs":8561,"É¹oÊĬd":8562,"ĠtËĪiËĲtÊĥÉļz":8563,"ĠflËĪoËĲÉ¹z":8564,"ĠkËĪÉĳËĲz":8565,"ĠtËĪÉĽmpÉ¹":8566,"ĠÉĻpËĪÉªniÉĻn":8567,"fËĪoÊĬ":8568,"ĠpËĪaÊĬÉļz":8569,"ĠstËĪaÉª":8570,"ĠbËĪÃ¦kjÉĳËĲÉ¹d":8571,"ĠÉ¹áµ»fÉ¹":8572,"ĠÉ¡lÉĻs":8573,"ËĪÊĬÉ¹É¹i":8574,"ĠsËĪaÉªdweÉªz":8575,"ĠsnÉĻ":8576,"ĠpËĪÉĳËĲÉ¹kt":8577,"ĠbËĪÉĽntÊĥ":8578,"ĠfËĪoËĲÉ¹É¾ifËĪoËĲÉ¹":8579,"ĠsÉªnsËĪÉªÉ¹":8580,"É¹Éªst":8581,"ĠpÉĻlz":8582,"ĠÉ¹Éªz":8583,"ĠÉ¹ËĪaÉªs":8584,"ĠsËĪeÉªfti":8585,"ĠstËĪeÉªts":8586,"ĠwËĪeÉªvÉªÅĭ":8587,"ĠlËĪÉĽdÊĴÉĻndÉļÉ¹i":8588,"bËĪÉĽÉ¾Éļ":8589,"wÉĻp":8590,"É¹Éļ":8591,"ĠÉ¡ÉĻmz":8592,"áµ»É¾i":8593,"ËĮiËĲt":8594,"ĠspËĪaÉªt":8595,"ĠvËĪoÊĬk":8596,"ĠvËĪiËĲdÉĻ":8597,"ËĪÊĮÅĭks":8598,"ÉªsËĪaÉªdÉĻl":8599,"ĠÉ¹áµ»mËĪuËĲv":8600,"ĠfËĪaÉªvhËĪÊĮndÉ¹ÉĻd":8601,"ĠÉ¹áµ»lËĪaÉª":8602,"ĠsËĪaÊĬÎ¸saÉªd":8603,"ĠÉ¹áµ»plËĪeÉªst":8604,"ĠmËĪÊĮÎ¸ÉĲfËĮÊĮkÉªn":8605,"ĠÉ¹áµ»É¡ËĪÉĳËĲÉ¹dlÉĻs":8606,"ĠmËĪÉĽÊĴÉļ":8607,"ËĪÃ¦di":8608,"É¡ÉĻst":8609,"ĠfÉ¹ËĪÃ¦dÊĴÉĻl":8610,"ËĪani":8611,"bÉĻlz":8612,"pÉ¹ËĪoÊĬ":8613,"ĠkÉĻnËĪÉĽktáµ»d":8614,"ÉĻÉĻÉĻÉĻÉĻÉĻÉĻÉĻÉĻÉĻÉĻÉĻ":8615,"ĠlËĪÉªmp":8616,"ĠbËĪÊĮsÉªn":8617,"ĠpËĪÊĮmpÉªn":8618,"Ġbáµ»hËĪeÉªvjÉļ":8619,"ĠsËĪÃ¦É¾ÉĻlËĮaÉªt":8620,"ĠËĪeÉªpÉ¹ÉĻl":8621,"ĠhËĪÉĳËĲspÉªÉ¾ÉĻl":8622,"hËĪÉĳËĲÉ¹d":8623,"pÉĻz":8624,"ĠÉ¹ËĪÉĽl":8625,"ĠmÉĻvÉĻn":8626,"ĠpÉ¹Éªv":8627,"ËĪÉĽndoÊĬ":8628,"ÉĻvÉĻd":8629,"ĠÉĻmÉĻm":8630,"ĠbÉĻlt":8631,"ĠÉ¾ÉĻkÉĻn":8632,"ĠjËĪÉĳËĲndÉļ":8633,"ĠdÉªskËĪÊĮv":8634,"ĠÉ¡É¾ËĪab":8635,"ĠmËĮÊĮltÉªpl":8636,"ÉĻËĪ":8637,"ÉªËĮÉª":8638,"ĠdËĪÊĬÉ¹":8639,"ËĪuËĲnz":8640,"ĠËĪeÉªp":8641,"ĠÊĥÉĻld":8642,"ĠÊĥËĪÉªps":8643,"ĠdÊĴÉĻb":8644,"ĠskÉĻz":8645,"ĠÊĥËĪÉĳËĲpÉªn":8646,"stËĪÉĳËĲpÉĻbÉĻl":8647,"ĠlÉĻzÉĻÅĭ":8648,"ĠaÊĬtÉ¹ËĪoÊĬ":8649,"ĠpËĪÊĮls":8650,"ĠdÊĴÉĻzÉĻs":8651,"ĠpËĪÉĳËĲlÉĻtËĮÉªks":8652,"vËĪaÉª":8653,"ËĮeÉªs":8654,"ĠfÉĻÉ£":8655,"ĠÉ¡ËĪÉĽÉ¾ÉĻ":8656,"ĠkÉĻlÉĻ":8657,"ĠhËĪeÉªtÉ¹Éªd":8658,"jËĪÉĽËĲtËĪiËĲ":8659,"ĠpËĪoËĲÉ¹z":8660,"ĠfÉļÉ¡ËĪÉªvÉĻn":8661,"tÊĥuËĲÉĻl":8662,"ĠpËĪÃ¦lÉªs":8663,"ĠtÊĥËĪÃ¦nÉĻl":8664,"ĠvËĪÉĽlvÉªt":8665,"ËĪoÊĬÉ¾ÉĻ":8666,"ĠnaÉª":8667,"ĠpÉĻm":8668,"É¡ËĪÉĶn":8669,"ĠbËĪÃ¦skÉªt":8670,"ĠwËĪÉĻtÊĥ":8671,"ĠdËĪÉªÉ¡Éªn":8672,"fËĪÊĮkÉªn":8673,"ĠklÉĻsËĪo":8674,"ĠÃ¦mbËĪÉªÊĥÉĻn":8675,"ĠsËĪÉĽkÊĥuËĲÉĻl":8676,"ËĪÃ¦É¹oÊĬ":8677,"ĠdËĪÃ¦p":8678,"ĠkoÊĬ":8679,"ÉĻsiz":8680,"ĠbÉ¹ËĪaÉªd":8681,"ĠÉ¡É¹ËĪÃ¦ni":8682,"ĠlËĪeÉªst":8683,"ĠÉ¹ËĪuËĲmÉļ":8684,"ÉĻdÊĴÉĻn":8685,"ĠhËĪÊĬdi":8686,"ĠdËĮÉªsÉĲ":8687,"ĠÉĽksplËĪoËĲÉ¹":8688,"ĠnËĪÃ¦É¹oÊĬ":8689,"ĠËĮÉĽvÉļlËĪÃ¦st":8690,"É¹ÉĻp":8691,"ÊĬdz":8692,"ËĪeÉªÉĳËĲw":8693,"ĠlËĪeÉªb":8694,"ĠlÉĻp":8695,"ËĪÉĶÉªÉĻ":8696,"ĠslËĪaÉª":8697,"ĠkwÉĻn":8698,"ĠfËĪoËĲÉ¹st":8699,"ĠkËĪÉªdn":8700,"ĠbËĪÊĮstÉªÅĭ":8701,"ĠlËĪiËĲnÉªÅĭ":8702,"ĠkÉĻmpjËĪuËĲ":8703,"ĠmËĪÉĳËĲÉ¹kÉªt":8704,"ĠÉ¹áµ»mËĪÉĽmb":8705,"ĠÉ¹ËĪÃ¦bÉªt":8706,"ĠhÉĻk":8707,"ĠnËĪÉľËĲs":8708,"ĠfÉĶËĲÉ¹sËĪeÉªk":8709,"ĠstÉ¹ËĪÊĮÅĭ":8710,"ËĮÉĳËĲÉ¡":8711,"ĠÉ¡lËĪÃ¦ns":8712,"kÉ¹ËĪeÉªzi":8713,"ĠÉ¹ËĪuËĲÎ¸":8714,"ĠÉ¡lËĪoËĲÉ¹iÉĻs":8715,"ĠÉ¹áµ»pËĪÉĽnt":8716,"ĠlËĪÉªmÉªts":8717,"ĠmËĪÉĶnstÉļz":8718,"ĠwËĪÉªÉ¡ÉĻl":8719,"ËĪÉªlÉªkÉĻÉĻÉĻ":8720,"ĠmËĮÉĽd":8721,"ĠnËĮÉĳËĲn":8722,"ĠËĪÉªnfluËĲ":8723,"ĠdÊĴËĪÉĽÉ¹":8724,"ĠbËĪÊĮdÊĴ":8725,"ĠfËĪiËĲtÊĥÉļ":8726,"waÉªd":8727,"ÉªÉ¾áµ»d":8728,"eÉªlz":8729,"ËĪÊĬlÉĻ":8730,"bÉļt":8731,"ĠÉĻmËĪa":8732,"ĠstËĪÉªkÉªn":8733,"ĠÉĻnÉĻwÉĻn":8734,"ËĮÉĳËĲlÉªt":8735,"ÉĻÅĭÉ¡lÉĻ":8736,"sËĪÉĽvÉĻnti":8737,"ĠvËĪuËĲ":8738,"ÉªsËĪÉªpi":8739,"ĠwËĪÉªspÉļd":8740,"ĠdËĪiËĲvÉĻ":8741,"biz":8742,"Ġji":8743,"ĠdËĪiËĲd":8744,"ĠfÉ¾ÉĻd":8745,"É¾ËĪak":8746,"ËĪÉĽsjËĪÉĽËĲ":8747,"ĠÊĥËĪÉĳËĲÉ¾ÉĻ":8748,"ËĪÉĳËĲÉ¹jËĪÉĽËĲ":8749,"ĠdËĪaÊĬnz":8750,"ĠkÉ¹ËĪÃ¦kÉªn":8751,"ĠtËĪuËĲm":8752,"ĠklÉĻk":8753,"ĠspËĪÉĳËĲÉ¹ks":8754,"ĠbÉ¹ËĪeÉªkdaÊĬn":8755,"ĠswËĪiËĲthÉĳËĲÉ¹t":8756,"ĠsÉĻmdÉĻ":8757,"ĠÉĲdËĪÉªkÊĥÉĻn":8758,"ĠÉĻmptÉĻ":8759,"ĠÉ¹ÉªËĪÃ¦kt":8760,"ĠÉĻbsËĪÉĽst":8761,"ĠmËĪÉľËĲdÉļd":8762,"bÊĬk":8763,"ĠsËĮÉªlÊĬ":8764,"vÉĻs":8765,"ËĪeÉªdÊĴ":8766,"ĠstÉ¾ÉĻs":8767,"ĠtÉ¹ËĪÃ¦ns":8768,"ĠbÉ¹ËĪeÉªzi":8769,"ĠkËĪÉĳËĲnÊĥÉĻs":8770,"ĠlËĪÃ¦fz":8771,"ĠkËĪeÉªÉĳËĲs":8772,"ĠsËĪÉĽvÉĻnÎ¸":8773,"ĠkÉ¾ËĪaÊĥ":8774,"ĠflËĪaÉªts":8775,"ĠmËĪÉĽÉ¹":8776,"ËĪÃ¦stÉªn":8777,"ĠÉ¡lÉĻk":8778,"ĠÉ¹ËĪÉĳËĲkt":8779,"ĠmËĪÉĽnÉªs":8780,"ĠlÉĻvz":8781,"ĠpÉĻlÉĻd":8782,"ĠpËĪÃ¦kÉªdÊĴ":8783,"ĠspËĪÉĳËĲts":8784,"ĠkÉĻnsËĪuËĲm":8785,"ĠkÉĻkÉĻn":8786,"ĠsËĪaÉªÉĻns":8787,"ĠmËĮÉªsÉªsËĪÉªpi":8788,"hËĮÃ¦":8789,"kËĪÉĳËĲÉ¹":8790,"ĠmËĪoÊĬs":8791,"ĠdËĪÉĻ":8792,"ÉĻtÉĻn":8793,"ĠÉªfËĪÉĽkt":8794,"ĠfËĪaÉªÉ¾Éļ":8795,"ĠwÉĻzÉĻ":8796,"ËĪÃ¦ntÉªdÊĴ":8797,"ĠfÉĻstÉĻ":8798,"ĠÉ¹ËĮiËĲÉļÉ¹ËĪeÉªndÊĴ":8799,"ĠbËĮiËĲËĮÉĳËĲÉ¹É¹ËĮÉĳËĲÉ¹tËĪiËĲ":8800,"pËĪaÊĬÉļ":8801,"pÃ¦k":8802,"wËĮÉĻn":8803,"É¹áµ»":8804,"É¹ËĪÉĽd":8805,"ĠfiËĲ":8806,"ĠfjËĪuËĲz":8807,"ĠstÉ¾ËĪap":8808,"ĠnÉĻstÉĻ":8809,"ÉĳËĲks":8810,"ĠfÉĻÉ¾ÉĻn":8811,"juËĲn":8812,"ĠfËĪÉĶËĲÉ¹k":8813,"ĠlÉĻsÉĻ":8814,"ĠjÉĻk":8815,"vËĪiËĲjËĪÉĽËĲËĪÉĳËĲÉ¹":8816,"ĠÉ¹ËĪÉĶÅĭz":8817,"âĢĶ)":8818,"ĠÉĲpËĪiËĲl":8819,"ĠÉ¡lËĪoÊĬÉªÅĭ":8820,"ĠÉ¹oÊĬmËĪÃ¦ntÉªk":8821,"ĠÉĲpËĪÉĳËĲlÉĻdÊĴiz":8822,"ĠblËĪeÉªzÉªÅĭ":8823,"ĠmÉĻÎ¸ËĪa":8824,"ĠhËĪapÉĻnËĮe":8825,"ĠkËĪÉĳËĲmpÉ¹ÉĻmËĮaÉªz":8826,"bÉªn":8827,"ĠËĪÉĶËĲk":8828,"É¹aÉª":8829,"ĠlËĪÃ¦v":8830,"ĠhËĪÉªtÊĥ":8831,"ĠÎ¸ËĪÉĶËĲÉ¹n":8832,"ĠtÉ¹ËĪÊĮks":8833,"ĠkÉ¹ËĪÃ¦Åĭk":8834,"ĠdËĪÉĳËĲÉ¹kÉļ":8835,"ĠËĪÉľËĲnd":8836,"ĠtËĪÉªÉ¹dÉ¹":8837,"ĠkËĪÉĶËĲÊĥÉĻn":8838,"ĠhËĪÉªpnÉĻtËĮaÉªzd":8839,"fËĪaÉªÉļ":8840,"hËĪÉĳËĲÉ¹É¾áµ»d":8841,"nËĪÉªÉ¡":8842,"nËĪÊĮÃ°Éļ":8843,"ĠsËĪÉĽÉ¹":8844,"ĠtËĪÉªts":8845,"ĠnËĪÃ¦p":8846,"ÉĻvÉ¾ËĪy":8847,"ĠÉ¡lËĪiËĲm":8848,"ĠÉ¹ËĪuËĲft":8849,"ĠËĪÉĳËĲnÉªsti":8850,"ĠpËĪeÉªÊĥÉĻntli":8851,"ĠtÊĥÉĻldÉ¾ÉĻn":8852,"ĠlËĪÉªÉ¹ÉªkÉĻl":8853,"ĠplËĪÉĳËĲtÉªn":8854,"É¹áµ»pËĪiËĲt":8855,"hÊĬd":8856,"pËĪiËĲs":8857,"ĠmËĪoÊĬld":8858,"ĠstËĪÉªÅĭk":8859,"ĠÉ¡ËĪoÊĬt":8860,"ĠËĪÃ¦É¹oÊĬ":8861,"ĠpÉ¹Éªs":8862,"ĠslËĪaÉªt":8863,"ËĪatÉĻ":8864,"ĠwËĪÉľËĲldwaÉªd":8865,"ĠkËĪÊĮtÉªn":8866,"ĠstËĪÉªkÉªÅĭ":8867,"ĠmÉĻmÉĻÉĻz":8868,"ĠÉ¡É¹ËĪuËĲvi":8869,"ĠÉ¹áµ»flËĪÉĽkt":8870,"ĠÊĥËĪaÊĬÉ¾ÉªÅĭ":8871,"ĠkÉĻnsËĪÉªdÉļ":8872,"ltÉ¹":8873,"É¹ËĮeÉªt":8874,"ĠnËĪÉĽli":8875,"ĠkËĪÉľËĲst":8876,"ĠfËĪÉĻti":8877,"ĠÉªndÊĴ":8878,"ËĮÉĽk":8879,"ËĪoËĲÉ¹s":8880,"dÊĴËĪÊĮmp":8881,"ĠtËĪuËĲlz":8882,"ĠspËĪiËĲks":8883,"ĠskËĪÃ¦nd":8884,"ÉĽt":8885,"Î²ÉĻn":8886,"Î²ÉĻl":8887,"ĠbËĪÉľËĲkÉªn":8888,"ĠtÉ¾ÉĻz":8889,"ĠbËĪalÉĻn":8890,"ĠÉĻÉ£ÉĻnst":8891,"ĠËĪÃ¦dÉªkt":8892,"Ġdáµ»É¹ËĪÉĽkt":8893,"ĠdËĪÊĮÉ¾i":8894,"ĠÎ¸ËĪÉĽÉ¹ÉĻpi":8895,"ĠmÉĻlz":8896,"É¾Éªz":8897,"ËĪÉĶËĲlweÉªz":8898,"ĠdÊĴËĪÉĳËĲkÉªn":8899,"ĠÎ¸ËĪÊĮmp":8900,"ĠtÊĥËĪÉĶËĲk":8901,"ĠlËĪuËĲsi":8902,"ĠlËĪÉªkÉªn":8903,"ĠbÉĻnËĪiËĲÉ¾ÉĻ":8904,"ĠÊĥËĪÉĽÉ¹ÉªÅĭ":8905,"ĠfËĪÉªÅĭÉ¡Éļt":8906,"ĠwËĪÊĮndÉļz":8907,"ĠkÉļÉ¹ËĪÉĽkt":8908,"tËĪÉĶËĲkÉªn":8909,"ĠkËĪÉĳËĲÅĭkÉļ":8910,"ĠlËĪiËĲsÉĻ":8911,"ĠsËĪat":8912,"ĠhËĪaÉªts":8913,"ĠnËĪeÉªl":8914,"ĠkjÉĻ":8915,"ĠfËĪÉĻv":8916,"ËĪÉĳËĲmÉĻz":8917,"ĠÊĮnÉĻÉĻÉĻÉĻÉĻ":8918,"ĠwËĪeÉªvi":8919,"ĠwËĪÉĶndÉļÉ¹ÉªÅĭ":8920,"ĠflËĪÉĶËĲÉ¹ÉªdÉĻ":8921,"kËĪeÉªn":8922,"ËĪaÉªvÉļ":8923,"ÊĮts":8924,"ĠdiËĲ":8925,"ĠdÉ¾ËĪÉĻ":8926,"ĠlËĪÉĳËĲb":8927,"ĠkÉĳËĲÉ¹":8928,"Î¸É¾ËĪÉĻ":8929,"ĠtÊĥËĪÉªli":8930,"ĠnËĪÉĳËĲts":8931,"ËĪÉªÅĭkÉĻl":8932,"ĠwÉĻks":8933,"ĠlËĪiËĲÊĥ":8934,"ĠdÉªsÉ¡É¹":8935,"ĠkÉ¾ÉĻb":8936,"ĠÉĲsËĪuËĲm":8937,"ĠkËĪÉĽlz":8938,"ĠËĪÉĳËĲpÉĻzËĮÉªt":8939,"ĠsÉĻst":8940,"ĠsËĪÊĮks":8941,"ĠbËĪÉĶst":8942,"ĠbËĪÉªÉ¾i":8943,"Éļb":8944,"ĠmËĪÊĮl":8945,"ĠmËĪaÉªnz":8946,"ËĪÉĻtyÉĻnz":8947,"ĠpÉ¹ÉĻtËĪÉĽkÊĥÉĻn":8948,"ĠsËĮÉĽntÉªm":8949,"ĠhÉĻvËĪi":8950,"wÉĳËĲ":8951,"ĠsÉĻld":8952,"ĠfËĪoÊĬz":8953,"ĠskÉĻt":8954,"ĠskËĪoÊĬp":8955,"ĠwËĪÉªlj":8956,"ĠbËĪÉĳËĲd":8957,"ĠÉ¡lËĪaÉªd":8958,"ĠhËĪÉĶËĲlz":8959,"ĠÎ¸ËĪÉĳËĲÅĭ":8960,"ĠpËĮÉĳËĲpÉļÉ¹ËĪÉĳËĲtsi":8961,"aÊĥ":8962,"pÉªÅĭ":8963,"oÊĬb":8964,"ËĪÉªÊĶn":8965,"ÊĥËĪuËĲ":8966,"ĠÊĥËĪÉĽf":8967,"ĠkÉĻmjËĪuËĲn":8968,"ËĪÃ¦tÊĥuËĲ":8969,"ĠdÉ¹ËĪaÉªvweÉª":8970,"hËĪoÊĬli":8971,"ĠwËĪÉĽb":8972,"ĠhËĪÊĮslÉļz":8973,"ĠtËĪÃ¦ksi":8974,"wËĪÉĳËĲp":8975,"ĠËĪÉĳËĲt":8976,"ĠwËĪÃ¦stÉªn":8977,"ĠmËĪeÉªz":8978,"Ã¦b":8979,"ĠtËĪÉª":8980,"ĠdiËĲt":8981,"ĠfÉĻÅĭÉ¡":8982,"ĠÉ¹ËĪÉĽz":8983,"ĠÊĮnstËĪÉĳËĲpÉĻbÉĻl":8984,"nËĪoÊĬp":8985,"ĠsËĪÃ¦li":8986,"ĠdÉĻlÉĻz":8987,"ĠstËĪÃ¦kÉªÅĭ":8988,"ĠtËĪÉĽmpÉĻl":8989,"ĠdÊĴËĪaÉªÉĻnt":8990,"ĠnËĪÉľËĲvz":8991,"ĠstËĪÉĳËĲÉ¹vÉªÅĭ":8992,"ĠpÉ¹ËĪÉĽÉ¡nÉĻnt":8993,"uËĲd":8994,"ĠstËĪÃ¦kt":8995,"ĠtÊĥËĪÉĽkt":8996,"ÉĻntËĪyÉĻn":8997,"ĠbËĪÃ¦p":8998,"ĠkËĪÉĽÉ¹lÉĻs":8999,"ĠsËĪÉĽndÉªn":9000,"ÉĳËĲnz":9001,"ĠdÉ¾ÉĻmÉĻÅĭ":9002,"ĠbËĪÃ¦É¾ÉĻlz":9003,"ĠËĪuËĲuËĲËĮoÊĬ":9004,"Ġdáµ»spËĪÉĽÉ¹":9005,"ĠmËĮÃ¦É¡ÉĲzËĪiËĲnz":9006,"ĠstËĪÊĮft":9007,"ĠdÉ¾ËĪÉĻma":9008,"wËĪuËĲp":9009,"ĠnËĪÉĳËĲnÉĻ":9010,"ËĪuËĲst":9011,"ËĮÃ¦Åĭ":9012,"ĠvÉľËĲ":9013,"ĠsÉĻft":9014,"ËĪÉĽÉ¹iÉĻ":9015,"ĠfËĪuËĲlÉªÅĭ":9016,"ÉĻktÉĻ":9017,"ĠdËĮiËĲËĮÉĽnËĪeÉª":9018,"ĠÉ¹áµ»sÉļÉ¹":9019,"ĠdÊĴËĪÉĽnÉļÉ¹ÉĻl":9020,"ĠtÉ¹ËĪoÊĬfi":9021,"ÉªËĮÃ¦k":9022,"ĠtÊĥËĪeÉªst":9023,"ËĪÉªstÉĻns":9024,"ĠËĪÉªsÉĻl":9025,"ËĮoËĲÉ¹i":9026,"ĠlËĪÉĽmÉĻn":9027,"ĠkËĪÉĽmÉªst":9028,"ĠtËĪoÊĬÉ¾ÉĻli":9029,"ËĪÉĽsÉªv":9030,"ĠstËĪÃ¦m":9031,"ĠskÉĻp":9032,"ĠswËĪÉªft":9033,"ĠkËĪuËĲlÉªn":9034,"ĠkËĪÃ¦pÉªÉ¾ÉĻl":9035,"ĠËĪÉĳËĲpÊĥÉĻn":9036,"ĠsËĪuËĲzÉĻn":9037,"ĠÉªnhËĪeÉªl":9038,"ĠspËĪaÉªdÉļ":9039,"bÉĻtÊĥ":9040,"ĠmËĪÉªÅĭk":9041,"ĠsËĪÊĮmÉļz":9042,"ĠspËĪuËĲn":9043,"ĠvaÉª":9044,"slËĪoÊĬ":9045,"É¾ËĪÉĻs":9046,"ĠjËĪeÉªoÊĬ":9047,"ĠlËĪiËĲÉ¡ÉĻl":9048,"ĠÊĥÉĻnÉĻÅĭ":9049,"ĠkËĪÉĳËĲntÃ¦kt":9050,"ĠtÉ¹Ã¦nsfËĪÉĶËĲÉ¹m":9051,"ĠdÉĻndÊĴÉĻ":9052,"É¾Éªf":9053,"ĠbÉ¹ËĪuËĲs":9054,"ĠspËĪoËĲÉ¹":9055,"ĠbËĪÃ¦É¾ÉļÉ¹i":9056,"flËĪoÊĬ":9057,"ĠsplËĪÉªf":9058,"ĠkËĪaÊĬÉļd":9059,"ĠsnËĪÉªpÉªts":9060,"ĠpÉĻktjÉĻz":9061,"Ġbáµ»tÉ¹ËĪeÉª":9062,"ĠÃ¦ntËĪÉªs":9063,"nËĪÉªÉ¡ÉĻz":9064,"ËĪÉĳËĲnoÊĬ":9065,"ĠtÊĥÉĻst":9066,"ËĪÉĶËĲÉ¹m":9067,"ĠsËĪÉĻpo":9068,"ĠpËĪiËĲsfÉĻl":9069,"mÉĻsfËĮÉªÉ¹":9070,"ĠÉ¹ËĪÉªÅĭÉ¡Éªn":9071,"ĠsÉĻlÉĻÅĭ":9072,"ĠmËĪÉªÉ¹ÉĻkÉĻlz":9073,"ĠkÉ¹ËĪÃ¦Êĥt":9074,"ĠÉ¹ËĪÉĽsáµ»pËĮiËĲ":9075,"ĠpËĪÉľËĲlz":9076,"ĠtËĪÃ¦m":9077,"ĠlÉĻÉĻn":9078,"ĠkËĪaÉªt":9079,"ËĪÉĽmp":9080,"É¡ËĪÉªmi":9081,"ĠlËĪaÉªÉ¾ÉªÅĭ":9082,"áµ»É¾":9083,"ĠÉ¡É¹ËĪoÊĬs":9084,"ÉªsËĮÉªn":9085,"ĠkwËĪÉĶl":9086,"ĠËĪÃ¦shoÊĬl":9087,"ÉĽntÊĥi":9088,"ĠkËĪÃ¦pÉªn":9089,"ĠËĮoÊĬvÉļnËĪaÉªt":9090,"ĠÉ¾ÉĻÊĥ":9091,"ĠbÉĻdz":9092,"ĠfÉĻdÉĻd":9093,"ĠkËĮÉĳËĲntÉ¹":9094,"ĠËĪiÉĻÉ¹ÉĻ":9095,"ÉĻÉĻt":9096,"Ã¦ts":9097,"ĠÉ¹ËĪÉªÉ¡":9098,"ËĪatÉĻk":9099,"ĠplËĪeÉªts":9100,"nËĪaÉªntiËĲn":9101,"ËĪÊĮlt":9102,"ĠËĪÃ¦tmÉĻsfËĮÉªÉ¹":9103,"ĠËĪÉĽst":9104,"ĠwËĪÉĶËĲÉ¹d":9105,"ËĪÃ¦ftÉļ":9106,"ËĪÊĮÊĥÉĻn":9107,"ĠplËĪuËĲÉ¾oÊĬ":9108,"ĠhËĪÉªÉ¹z":9109,"ĠËĪÉĽvÉ¹ÉªÎ¸ËĮÉªn":9110,"ĠsËĪÉĻlf":9111,"ĠkËĪoÊĬldÉªst":9112,"É¾ÉĻkÉĻ":9113,"É¡ËĪoÊĬÉªÅĭ":9114,"ĠpÉ¹ËĪÉĽzÉªdÉĻnts":9115,"ĠËĪaktÉĻn":9116,"áµ»É¡ËĪÉĳËĲÉ¹":9117,"ĠÉĽntËĪaÉªÉļ":9118,"lËĪaÉªt":9119,"ĠbËĪiËĲnz":9120,"ËĪoËĲÉ¹iÉĻ":9121,"ĠflËĪaÊĥ":9122,"ĠvjËĪuËĲz":9123,"ĠslËĪiËĲplÉĻs":9124,"ÉªlÉĻn":9125,"ĠdÊĴËĪÉĳËĲbz":9126,"ĠÉĲdvËĪÃ¦ntÉªdÊĴ":9127,"ĠËĪÉªndiÉĻn":9128,"wÉľËĲks":9129,"ĠËĪÃ¦ksÉªdÉĻnt":9130,"ĠtÊĥËĪÃ¦lÉªndÊĴ":9131,"mËĮÃ¦Î¸":9132,"pÉĻs":9133,"uËĲËĮÉĽÉ¹i":9134,"oÊĬËĮÉªn":9135,"ĠjÉĻlÉĻ":9136,"Ġsáµ»É¡ËĪÉĳËĲÉ¹":9137,"ËĪÃ¦ÊĥÉĻnÉĻl":9138,"ĠdÉ¹ËĪaÊĬnd":9139,"ËĮeÉªÉ¾Éļz":9140,"jËĪuËĲl":9141,"ĠmËĪÃ¦É¡":9142,"ĠbËĪÉľËĲnÉļ":9143,"ĠkÉĻpÉĻÅĭ":9144,"Ã¦lËĪeÉª":9145,"ĠÉ¡É¹ËĪuËĲpiz":9146,"É¹áµ»mËĪÉĽmbÉļ":9147,"ĠoÊĬbËĪÉĳËĲmÉĻ":9148,"ĠnËĪÉĽvÉĻ":9149,"kËĪÉªs":9150,"pËĪiËĲpÉĻl":9151,"ĠsËĪÉªv":9152,"ĠÉĻÊĥÉĻn":9153,"ĠspÉĻsÉĻËĪal":9154,"ËĪiËĲvz":9155,"ĠÉ¹ËĪoÊĬps":9156,"ĠsmËĪÉĳËĲÉ¹":9157,"ĠstËĪoËĲÉ¹mz":9158,"ĠËĪÃ¦ntaÉª":9159,"ÉĳËĲÉ¹k":9160,"ĠËĮoÊĬvÉļlËĪoÊĬd":9161,"ĠÉĻkÉ¾ËĪÉĻs":9162,"ĠfËĪiËĲdÉªÅĭ":9163,"ĠËĮÉĽsËĮeÉªtÊĥËĪeÉªtÊĥ":9164,"ĠnËĪÃ¦tÊĥÉļÉ¹ÉĻli":9165,"ĠdËĪÉĽnÉªm":9166,"ĠmÉĻvÉĻz":9167,"ĠÉļÉ¹ËĪaÉªvd":9168,"kËĪan":9169,"sÉªs":9170,"É¹ËĪÃ¦ks":9171,"ĠfÉĻtÉĻ":9172,"ĠlËĪaÉªsÉĻns":9173,"ËĪiËĲdËĪiËĲ":9174,"ÉĳËĲlf":9175,"ĠsËĪÉªÅĭÉļ":9176,"pleÉªs":9177,"ĠËĪÉĽlËĪoÊĬ":9178,"ĠstËĪoËĲÉ¹z":9179,"ĠlËĪÃ¦ndáµ»d":9180,"ĠËĮÃ¦bsÉĻl":9181,"ĠaÉªdËĪiËĲ":9182,"jËĪo":9183,"ĠbËĪÉĳËĲni":9184,"ĠÉĻps":9185,"ĠfËĪÉĳËĲl":9186,"ĠfÃ¦nt":9187,"ÉĻdÉĻd":9188,"dÊĴÃ¦":9189,"ÉĳËĲts":9190,"tÉ¹ËĪiËĲnÉĻ":9191,"ĠslËĪaÉªdÉªÅĭ":9192,"ĠlÉĻdÊĴËĪÉªt":9193,"ĠfÊĬlfËĪÉªl":9194,"ĠsËĮÉĽntÉªmËĪÉĽntÉĻl":9195,"bÉĻz":9196,"mËĪÉĽÉ¹i":9197,"ĠmËĮa":9198,"ĠlËĪÉĶ":9199,"ĠfËĪÉªd":9200,"Î¸ËĪÉĽÉ¾Éªk":9201,"ĠwÉĻÅĭz":9202,"ĠhËĪÉĽdlaÉªts":9203,"ĠËĮÉªntÉļÉ¹":9204,"ĠÉĻpËĮÉĻn":9205,"ĠtËĪÉªkÉªts":9206,"ĠkËĪÊĮlÉļd":9207,"ĠhËĪÊĮsÉĻlÉªÅĭ":9208,"fÉªnËĪÉªÊĥÉĻn":9209,"ĠlËĪÉĽÉ¡ÉĻsi":9210,"nËĪÉĳËĲk":9211,"ËĪÉĳËĲnd":9212,"ĠtÊĥÉĻks":9213,"ĠbÉ¹ËĪÃ¦n":9214,"ĠÉ¹áµ»lËĪiËĲf":9215,"ĠsÉĻlËĪÉĽbÉ¹":9216,"ĠbËĪuËĲmÉªn":9217,"ĠÉ¡É¾ÉĻp":9218,"ĠsÉĻlÉĻÎ²":9219,"fËĮiËĲld":9220,"ĠhÉĻst":9221,"áµ»stÉ¹":9222,"ËĮÉªd":9223,"ĠÉ¡ËĪÉªvÉĽntÊĥi":9224,"ĠsÉĻpÉĻn":9225,"ĠwÉĻlkÉĻmÉĻ":9226,"mËĪÉĳËĲmÉĲ":9227,"ĠbÉĻlÉĻ":9228,"ĠdwËĪÉĽl":9229,"É¾áµ»fËĮaÉªd":9230,"É¡d":9231,"ĠdÊĴÉĻÅĭÉ¡lÉĻ":9232,"ĠbÉ¹ËĪÉªt":9233,"ÉĻÅĭÉ¡ÉĻ":9234,"bÉļÉ¾i":9235,"ĠËĪÃ¦sÉªd":9236,"ĠmËĪÉªsi":9237,"ĠmËĪÉĽtÉ¹oÊĬ":9238,"ĠmËĪÃ¦dÊĴÉªkÉĻl":9239,"É¡ËĪÉĽts":9240,"ĠâĢ¦":9241,"ĠdËĮÉªsÉĲpËĪÉªÉ¹d":9242,"ĠkÉ¹iËĲËĪeÉª":9243,"ĠÉĳËĲhËĪÉĳËĲ":9244,"ĠËĪoÊĬvÉļdËĮoÊĬs":9245,"ĠnËĮÉĽvÉļ":9246,"ĠkËĪÉªt":9247,"ËĪÉªvÉªÉ¾i":9248,"ĠËĪoÊĬvÉļtËĮaÉªm":9249,"ĠËĪÉĳËĲveÉª":9250,"ËĪÃ¦dÉªn":9251,"ÉªÉ¡n":9252,"ĠkËĪoÊĬstÉļ":9253,"ĠstÉ¹ËĪÉĽsÉªÅĭ":9254,"lËĪÃ¦Åĭ":9255,"ÉªÉĻ":9256,"ĠdËĪÉªpÉªn":9257,"stËĪÉĽÉ¹z":9258,"Î¸ÉĻl":9259,"ĠËĪÉªnf":9260,"ĠdÊĴËĪÉĽts":9261,"ĠÉ¡ËĪÉľËĲlfÉ¹ÉĽndz":9262,"ĠhËĪuËĲm":9263,"ĠsËĪÉªts":9264,"ĠhËĪavÉĻÅĭ":9265,"ĠkËĪÃ¦É¹iÉªÅĭ":9266,"ĠkËĪÃ¦ps":9267,"ĠËĪeÉªdÊĴáµ»z":9268,"ËĪuËĲsÉªv":9269,"ĠsËĮuËĲpÉļ":9270,"ĠpÉ¹ÉªfËĪÉľËĲ":9271,"zÉļÉ¹ËĪÉĳËĲÉ¾i":9272,"ĠdËĮÉªsÉĲÉ¡É¹ËĪiËĲ":9273,"nÉĽk":9274,"wËĮÉĽÉ¹":9275,"ĠpËĪÉĶÉªn":9276,"ĠslËĪÉªps":9277,"ĠfÉļÉ¡ËĪÉĽÉ¾ÉªÅĭ":9278,"ĠslËĪiËĲpi":9279,"ĠpÉ¹ËĪoÊĬÉ¡É¹":9280,"ĠstËĪoËĲÉ¹mi":9281,"ĠÉªÅĭkl":9282,"ĠdËĪÉĽlt":9283,"ĠfËĪÉªÅĭÉ¡ÉļtËĮÉªps":9284,"kËĪuËĲ":9285,"ÉĻkÉ¹":9286,"ĠtÊĥÉĻnz":9287,"ĠspËĪÉĶÉªl":9288,"ĠflÉĻks":9289,"ĠskËĪuËĲp":9290,"ĠpËĪaÊĬÉļfÉĻl":9291,"ĠpÉļmËĪÉªÊĥÉĻn":9292,"ĠdÉªvËĪoÊĬÊĥÉĻn":9293,"ĠsËĮuËĲÉªsËĪaÉªdÉĻl":9294,"ĠÉĲtÉ¹ËĪÃ¦kÊĥÉĻn":9295,"ĠdÊĴËĪÉªÉ¡i":9296,"bËĮÉľËĲ":9297,"ĠlËĪeÉªbÉĻlz":9298,"ĠhËĪaÊĬnd":9299,"ĠfÉĻld":9300,"ĠÉ¹Éªd":9301,"ĠhËĪandÉĻ":9302,"kÉ¹ËĪÉªs":9303,"ĠlÉĻnÉĻd":9304,"ĠfÉĻsz":9305,"ĠtÊĥËĪiËĲf":9306,"ĠpËĪaÉªlÉĻt":9307,"ĠËĮÉªntÉ¹ÉĻd":9308,"ĠslËĪÉĳËĲpi":9309,"pËĪÉªk":9310,"ĠnËĪÉĽs":9311,"ËĪÉĶËĲs":9312,"Ã°ËĪÉĽn":9313,"ĠÎ¸É¾ÉĻt":9314,"ĠflËĪÉªpt":9315,"ĠvËĪaÉªs":9316,"ĠlÉĻtlÉĻ":9317,"ĠhËĪÃ¦pÉªÉļ":9318,"tÉ¹ËĪÃ¦p":9319,"ÉĻÉĻÉĻÉĻÉĻÉĻÉĻÉĻÉĻÉĻÉĻ":9320,"ĠËĪeÉªtÎ¸":9321,"ĠtÊĥËĪÉĶÉªsáµ»z":9322,"ĠÉĻbsËĪÉĽÊĥÉĻn":9323,"oÊĬvËĪÉĽmbÉļ":9324,"ĠhÉªp":9325,"ĠslËĪÉªÅĭ":9326,"ĠswËĪÉĳËĲp":9327,"ĠËĪad":9328,"ĠkËĪÉĳËĲÉ¹v":9329,"ĠkËĪÉªdÉªÅĭ":9330,"dËĪÉĳËĲdÉĻ":9331,"ĠsËĪÉĽlz":9332,"ĠbËĪÉĶËĲld":9333,"ĠbËĪÊĮstáµ»d":9334,"ĠfÉ¹ËĪiËĲkÉªn":9335,"ĠplÉĻÉ¡":9336,"ĠplÉĻËĪe":9337,"sáµ»É¹ËĪÉªlÉªkÉĻÉĻÉĻ":9338,"ĠpËĪÉĳËĲmz":9339,"ËĪiÉĻÉ¹ÉªÉĻd":9340,"joÊĬ":9341,"ÊĬl":9342,"ĠbËĪÃ¦tÊĥ":9343,"Ġts":9344,"ËĪÉªkjÊĬlÉĻs":9345,"ĠvÉªkt":9346,"ËĪaÉªvz":9347,"ĠtËĪÉĽnÉªs":9348,"ĠsËĪÉĽntÉ¹ÉĻl":9349,"ËĪÉĳËĲlÉĻdÊĴi":9350,"Ġdáµ»pÉ¹ËĪÉĽÊĥÉĻn":9351,"ĠÉĲstËĪÉĳËĲn":9352,"ĠtËĪÉĶËĲÉ¹tÊĥÉļ":9353,"ĠpËĪÉľËĲmÉĻnÉĻnt":9354,"kËĪaÉª":9355,"Ġáµ»":9356,"ËĪali":9357,"ĠlËĪÃ¦b":9358,"ĠÉ¡ËĪa":9359,"ÉĲks":9360,"ĠÊĮnÉ¹":9361,"ĠËĪÉĽlvÉªs":9362,"ËĮuËĲt":9363,"ĠnÉĻdÉĻd":9364,"ĠËĮÉĽskËĮeÉªËĮÉĳËĲÉ¹É¹ËĪÉĳËĲÉ¹":9365,"ĠfËĪiËĲtÊĥÉļz":9366,"ĠkÉĻnsËĪÉľËĲn":9367,"ĠËĪÉĽfÉļt":9368,"ĠkjËĪÊĬÉ¹É¹iÉĻs":9369,"ĠstËĪiËĲvi":9370,"ĠvËĪÉĳËĲljuËĲm":9371,"lÉĳËĲk":9372,"ĠwËĪan":9373,"ĠtËĪÉĶst":9374,"É¡lÉĻnd":9375,"ĠÉĲstÉ¹ËĪeÉª":9376,"ĠfÉ¹ËĪÉĶËĲd":9377,"ĠnÉĻf":9378,"dÊĴËĪÉªn":9379,"ĠnËĪÊĮf":9380,"ĠhÉĻhËĪÉĻ":9381,"kËĪeÉªÊĴÉĻn":9382,"ĠsnÉĻk":9383,"ĠskÉ¹ËĪuËĲd":9384,"aÊĬts":9385,"Ġbáµ»hËĪoÊĬld":9386,"ĠtwËĪÉĽntiÎ¸É¹ËĪiËĲ":9387,"ĠÉ¹áµ»lËĪoÊĬd":9388,"ĠÉ¹ËĪeÉªndÉ¹":9389,"ĠmËĮÃ¦zÉļÉ¹ËĪÉĳËĲÉ¾i":9390,"ĠdËĮÉĽfÉªnËĪÉªÊĥÉĻn":9391,"ĠÉ¹ËĪiËĲkoÊĬ":9392,"áµ»sÉļÉ¹i":9393,"'),":9394,"pÉ¹i":9395,"sËĪoÊĬl":9396,"ËĪasi":9397,"ftÉĻn":9398,"ÉĻnsÉĻz":9399,"ĠsnËĪaÉª":9400,"ĠhËĪÉĳËĲndÉĻ":9401,"ĠÉ¹ËĪuËĲbi":9402,"ĠhËĪÉĽÉ¹oÊĬËĮÉªn":9403,"ĠÉ¹ËĪÉªsts":9404,"ĠpÉ¹ËĪiËĲst":9405,"ĠsËĪÃ¦vÉªn":9406,"ĠklËĪaÊĬnz":9407,"ĠËĪÉĽvÉªdÉĻns":9408,"kËĪoÊĬld":9409,"Éªmz":9410,"ĠtÉļÉ¹":9411,"ËĪÊĮÉ¾Éļ":9412,"ĠnËĪÊĮk":9413,"ÉĻlÉªs":9414,"ĠÊĮnÉĻÉĻÉĻÉĻ":9415,"ĠËĪÉĽmËĪoÊĬ":9416,"ĠklËĪoÊĬsÉªst":9417,"ĠÊĥËĪÉĽÉ¹Éªf":9418,"ĠkÉĻmpËĪÉĽÉ¹z":9419,"wËĪÉĽÉ¹É¾oÊĬ":9420,"ĠsËĪoËĲÉ¹s":9421,"ĠpËĪaÉªnt":9422,"ËĪÉªlÉªkjÉĻËĲ":9423,"ĠÉ¾ÉĻÉ£É¾ÉĻt":9424,"ĠwËĪÊĮttÊĥuËĲ":9425,"ĠËĪÉľËĲÎ¸kweÉªk":9426,"ĠtËĪÉĽmpÉ¹ÉªtÊĥÉļ":9427,"áµ»É¾ËĪÉªlÉªkjÉĻËĲ":9428,"hËĪÃ¦ps":9429,"ĠmËĪÉªki":9430,"ÉĻlËĪÉĻ":9431,"tÊĥËĪÉªÅĭ":9432,"É¾ÉĻst":9433,"ÉªkÉĻlz":9434,"ËĪÉªzÉĻl":9435,"ĠfÉ¹ËĪiËĲstaÉªl":9436,"ĠhËĪÉĽlps":9437,"ĠÉ¡ËĪÉĽsÉªÅĭ":9438,"ÉªlÉļ":9439,"ĠfÉĻnÉĻÊĥ":9440,"ĠwËĪÉĶËĲÉ¹mÎ¸":9441,"ĠkÉĻndËĪÉªÊĥÉĻn":9442,"ĠswËĪÉĶloÊĬd":9443,"ĠlËĪeÉªzÉļ":9444,"ĠËĮÉĽvÉļlËĪÃ¦stÉªÅĭ":9445,"bÉªt":9446,"hÉĻt":9447,"mÉļÉ¹":9448,"waÉªl":9449,"ĠjËĪÉĽËĲ":9450,"Ġnáµ»":9451,"ĠfËĪan":9452,"ĠpËĪÃ¦tÊĥ":9453,"ĠflËĪÉªpÉªÅĭ":9454,"ËĪaÉªvÉĻl":9455,"ĠÊĮnwËĪaÉªnd":9456,"ĠsËĪiËĲnz":9457,"ĠÉªnvËĪaÉªÉ¾áµ»d":9458,"ĠfËĪÉĳËĲÃ°Éļz":9459,"ĠÉ¹áµ»spËĪÉĳËĲns":9460,"ĠsÉļvËĪaÉªvÉļ":9461,"ĠdÊĴËĪoÊĬkÉļ":9462,"ĠjËĪuËĲÊĴuËĲÉĻl":9463,"ĠtËĪÊĮmblÉªÅĭ":9464,"ĠsËĪuËĲzi":9465,"ĠÉªnspËĪaÉªÉļd":9466,"ĠloÊĬkËĪeÉªÊĥÉĻn":9467,"ĠpÉ¹ËĮÉĽzÉªdËĪÉĽnÊĥÉĻl":9468,"ĠdÉªsÉ¡É¹ËĪeÉªs":9469,"hËĪa":9470,"Ã¦É¡":9471,"ĠdËĪÉªl":9472,"ĠdÊĴËĪÉĽm":9473,"ĠvÉĻb":9474,"ĠhËĪÉľËĲs":9475,"ĠfËĪaÉªÉļwÉľËĲks":9476,"ĠsËĪÉªknÉĻs":9477,"boÊĬn":9478,"ĠpËĪeÉªntÉªÅĭ":9479,"ĠtËĪuËĲntÊĥaÉª":9480,"ĠmÉĻÃ°ÉĻfÉĻkÉĻÅĭ":9481,"ĠÉªmËĪÉľËĲdÊĴÉĻnsi":9482,"ĠÉ¡ËĪÉĽÉ¾ÉĻwËĮeÉª":9483,"dËĪÉªÅĭ":9484,"ËĪiËĲÉ¡ÉĻl":9485,"ĠËĪaÉªv":9486,"ĠnoÊĬvËĪÉĽmbÉļ":9487,"ĠfËĪÃ¦s":9488,"É¡ËĪoÊĬld":9489,"ËĪÉĽljËĪÉĽËĲ":9490,"ĠÉ¹áµ»tÉ¹":9491,"ËĮaÊĬÉļ":9492,"ËĮÉĳËĲpt":9493,"ĠspËĪiËĲkÉļ":9494,"ÉĶf":9495,"ĠblËĪiËĲdÉªn":9496,"ĠÉ¾ÉĻÅĭz":9497,"Ġdáµ»stÉ¹ËĪÊĮkÊĥÉĻn":9498,"ĠÉĲplËĪaÉª":9499,"fiÉĻ":9500,"eÉªts":9501,"ËĪÃ¦nÉªk":9502,"ĠskËĪÉĳËĲÉ¹d":9503,"Î²a":9504,"ĠfËĪeÉªvÉļz":9505,"ĠkÉĻnvËĪÉªns":9506,"ĠtÊĥËĪoÊĬkÉªÅĭ":9507,"ĠlËĪaÊĬbaÊĬtËĮÉªnz":9508,"jÉĻn":9509,"ĠÉĻkÉĻ":9510,"ĠÉ¹ËĪÉĽv":9511,"ĠdÊĴËĪÉĽÉ¹i":9512,"ĠdÊĴËĪeÉªsÉĻn":9513,"diÉĻns":9514,"ĠklËĪÃ¦n":9515,"ĠÉ¾ÉĻb":9516,"ptËĪaÉªt":9517,"ĠËĪÃ¦sks":9518,"ĠskÉ¹ËĪÊĮb":9519,"ĠwËĪÉĶËĲÉ¹nd":9520,"ĠkËĪÉĳËĲnv":9521,"ĠfÉĻtÉĻÅĭ":9522,"ĠtËĪÊĮÅĭz":9523,"ĠbËĪÃ¦kwÊĬdz":9524,"ĠÊĮpstËĪÉĽÉ¹z":9525,"ĠÉ¹áµ»dÊĴËĪÉĶÉªs":9526,"ĠtËĪaÊĬÉĻl":9527,"ĠÉ¹ÉªdËĪÉªkjÊĬlÉĻs":9528,"'?)":9529,"bËĪÉľËĲn":9530,"fÉĻt":9531,"mÉªk":9532,"uËĲËĮoÊĬ":9533,"ĠfËĪÉľËĲn":9534,"ĠfËĪiËĲn":9535,"ĠfjËĪÊĬÉ¹":9536,"ËĪiËĲdoÊĬ":9537,"ĠsËĪuËĲp":9538,"ĠËĪÉĽlÉĻ":9539,"ĠkÉĻlËĪoÊĬn":9540,"ĠpÉĻlÉĻs":9541,"ĠpÉĻtËĪÉĽnÊĥÉĻl":9542,"ĠfËĪÃ¦ntÉĻsiz":9543,"ĠfËĪÊĬtbÉĶËĲl":9544,"ĠsËĮiËĲËĪeÉªtÊĥ":9545,"Ġdáµ»pËĪÉĽndz":9546,"ĠzËĪÉĳËĲmbi":9547,"foËĲÉ¹":9548,"É¹ËĪÉĽdi":9549,"ĠbÉĻnsÉĻ":9550,"Ã°ËĪÉĻ":9551,"ĠbËĪiËĲmÉļ":9552,"ĠjÉĻst":9553,"ĠsËĪiËĲld":9554,"ËĮeÉªmËĪÉĽn":9555,"ĠÉªnsËĪÃ¦nÉªÉ¾i":9556,"ĠwËĪaÉªldÉªst":9557,"bÉĻÉĻ":9558,"dËĪiËĲp":9559,"sËĪeÉªv":9560,"ĠdÉĻmÉĻnd":9561,"ÊĥËĪÊĮt":9562,"ĠÉ¹ËĪaÊĬdi":9563,"ĠÎ¸ËĪaÉª":9564,"ldÊĴ":9565,"ËĪÉªntÉļ":9566,"ĠskËĪÉªlz":9567,"ĠÉ¡É¹ËĪeÉªp":9568,"ĠbËĪÃ¦pt":9569,"ĠstÉ¹ËĪÉªpt":9570,"ĠÉĽkspÉªkt":9571,"ĠsËĪaÉªts":9572,"ÉªtËĮuËĲt":9573,"sËĪÊĮmbÉĳËĲdi":9574,"ĠsnËĪÉªtÊĥáµ»z":9575,"ĠmÃ¦É¡n":9576,"meÉªd":9577,"ËĮn":9578,"ĠsËĪÃ¦É¡":9579,"ĠÉ¹ËĪÉĳËĲn":9580,"ĠÊĥËĪÃ¦É¾Éļ":9581,"ĠtÉ¹ËĪÉĽd":9582,"ĠnËĪÉĳËĲtÊĥ":9583,"ĠskËĪÊĮl":9584,"ĠÉ¡lËĪÉªsÉĻn":9585,"ÊĶËĮn":9586,"ĠwËĪÉªnz":9587,"ĠmËĪÉľËĲdÉĻ":9588,"Ġbáµ»sËĪaÉªdz":9589,"ĠÉ¾ÉĻspÉĻkt":9590,"ĠdÊĴËĪuËĲÉĻlÉļ":9591,"ĠËĪÉĽkoÊĬz":9592,"bjËĪuËĲ":9593,"ËĪastÉĻÉ¾ÉĻsk":9594,"ĠmÉªl":9595,"ĠjËĪoËĲÉ¹":9596,"ĠdÊĴËĪiËĲni":9597,"ÉļÉ¹ËĮeÉªÉ¾Éļ":9598,"ĠvËĪÉĳËĲm":9599,"bÉ¹ËĪiËĲ":9600,"ĠfËĪÉĽlÉĻ":9601,"ĠÊĥËĪeÉªks":9602,"ĠdÉ¾ÉĻpÉĻn":9603,"ĠsÉĻndÉĻ":9604,"ĠkËĪÉĳËĲntÉĻmpl":9605,"ĠhËĪÊĮmÉªÅĭ":9606,"ĠpËĪÉĳËĲÉ¹tnÉļz":9607,"ËĪiËĲËĪÉĳËĲÉ¹jËĪÉĽËĲ":9608,"ĠstÉ¹ËĪÃ¦ndáµ»d":9609,"jËĪuËĲlÉªÉ¹":9610,"pÉ¹ih":9611,"ÉĻÉĻm":9612,"ĠkËĪaÊĬnts":9613,"ĠÉ¡ËĪÊĮt":9614,"ĠpÉĲ":9615,"ĠpwËĪÉĽÉ¹É¾oÊĬ":9616,"tÊĥÉĻz":9617,"ĠplËĪÉĳËĲ":9618,"ËĪÃ¦ndÉļ":9619,"ËĪÉĳËĲlÉļÉ¹":9620,"ĠkwËĪÉªÉ¹":9621,"ĠkËĪoÊĬm":9622,"dÉ¹ËĪÉªp":9623,"ĠstËĪiËĲlÉªn":9624,"ĠËĪÉĽsËĪoÊĬ":9625,"jÊĬlËĪeÉªÊĥÉĻn":9626,"ĠoÊĬpÉĻn":9627,"hËĮÃ¦l":9628,"kËĪÉĳËĲn":9629,"kËĮoÊĬ":9630,"ĠmËĪÉĽÉ¡":9631,"ĠkËĪat":9632,"ĠblËĪÉĶs":9633,"ĠflÉĻk":9634,"ËĪeÉªvi":9635,"ĠmËĪoÊĬÉ¾áµ»v":9636,"ĠskÉ¹ËĪÉªpt":9637,"ÉĻnkÉĻ":9638,"ĠdÉ¾ÉĻÉ¡":9639,"jÊĬlÉĻ":9640,"ĠpÉļhËĪÃ¦ps":9641,"ĠsËĪÊĮfÉĻk":9642,"Ġ???":9643,"ĠbËĪÃ¦bÉªlÉĻn":9644,"ĠÉ¹áµ»mËĪÉĽmbÉļÉ¹ÉªÅĭ":9645,"jËĪÉĻ":9646,"lËĪÉªÉ¾ÉĻl":9647,"ĠbËĪÉĳËĲÉ¹t":9648,"ĠdËĪiËĲz":9649,"ĠpÉĻtÊĥ":9650,"ĠÊĥËĪÉªvÉļ":9651,"ĠtÊĥËĪa":9652,"ĠkÉ¹ËĪÉĳËĲk":9653,"ĠÉ¹ËĪiËĲÉĻlÉļ":9654,"ĠdËĪÊĮzÉĻn":9655,"mËĪaÉªÉ¾i":9656,"ĠfËĪÃ¦ntÉĲs":9657,"ĠbÉĻdÉĻz":9658,"ĠhËĪÉĳËĲÉ¹tbÉ¹eÉªkÉļ":9659,"madÊĴ":9660,"Ġdáµ»pÉ¹ËĪÉĽst":9661,"ĠbËĪaÊĬdÊĴi":9662,"ĠkÉ¹ËĪiËĲtÊĥÉļ":9663,"lÉªst":9664,"ĠmÃ¦n":9665,"ĠsËĮÊĮ":9666,"ĠtËĪÉĻn":9667,"ĠtÉ¹ËĪÉĽnd":9668,"ĠhËĪoÊĬst":9669,"ĠspËĪaÉªs":9670,"ĠlËĪÉªbÉļÉ¾i":9671,"ĠbËĪÉĽÉ¾ÉĻ":9672,"ĠsËĪaÉªdwÉĶËĲk":9673,"ĠÉĽksËĪaÉªt":9674,"ĠkÉĻpt":9675,"ĠËĪÉľËĲb":9676,"ĠÉ¡lËĪoËĲÉ¹iÉĻ":9677,"ĠstÉ¾ÉĻÅĭÉ¡ÉĻ":9678,"ĠÉĳËĲpÉļtËĪuËĲnÉªÉ¾i":9679,"bÉªk":9680,"mËĪÊĮÃ°Éļ":9681,"ĠsËĪak":9682,"ĠtËĪÊĮmbÉĻl":9683,"ĠkËĪÉĶÉªn":9684,"ËĪÉĽsÉªÅĭ":9685,"ÉĻmËĪÃ¦É¾Éªk":9686,"ËĮÃ¦s":9687,"ĠËĪÃ¦lf":9688,"ĠÉĻlmÉĻst":9689,"ĠËĮÉªntÉļn":9690,"blËĪuËĲ":9691,"ĠsËĪiËĲlÉªÅĭz":9692,"fÉĻkËĮÉªn":9693,"ĠsËĪÃ¦Åĭkt":9694,"sËĪÉªkstiËĲn":9695,"ĠpÉ¹ËĪoÊĬÉ¡É¹Ã¦m":9696,"ĠkËĪaÊĬÉļ":9697,"ĠstËĪÉªf":9698,"ÉĻtËĮiËĲn":9699,"ĠËĪaÊĬtfÉªt":9700,"ĠtÉĻÎ¸":9701,"ĠvËĪÉªk":9702,"ĠswËĪÉĽpt":9703,"ËĪÉĽntiz":9704,"ËĪÉªmÉļ":9705,"ĠfËĪiËĲst":9706,"ĠtÊĥËĪaÉªldhÊĬd":9707,"ĠÉªnvËĪaÉªt":9708,"ĠÉ¡É¹ËĪÃ¦bÉªÅĭ":9709,"ĠpËĪÃ¦É¹ÉĻlËĮaÉªzd":9710,"ĠpÉ¹ËĪaÉªslÉĻs":9711,"ĠÉĻskÉĻp":9712,"ĠbËĪÊĮmpÉªÅĭ":9713,"ĠskËĪÉĽláµ»t":9714,"ĠtËĪÉĶÉªlÉªt":9715,"ĠsËĪÉĶl":9716,"ĠdÊĴËĮiËĲËĪÉĽs":9717,"ĠÉ¹ËĪiËĲfÉļ":9718,"ĠÊĥÉĻÉ£ËĪo":9719,"É¡É¹ÉĽs":9720,"ĠÉ¹ËĪuËĲÉªnd":9721,"ĠÉ¹ËĪeÉªzÉªÅĭ":9722,"ĠpËĪÉĳËĲsi":9723,"ĠÉĲmËĪeÉªzÉªn":9724,"ĠpÉļsËĪuËĲ":9725,"ĠlËĪÉĶËĲÉ¹ÉĻnt":9726,"madÊĴËĮyn":9727,"pËĪÉĳËĲÉ¹":9728,"ĠpËĪÉĶËĲn":9729,"ËĮÊĮnd":9730,"ĠÊĥËĪÉĳËĲÉ¹k":9731,"ĠtËĪuËĲt":9732,"ĠÉªnÉĻÉĻÉĻÉĻÉĻÉĻ":9733,"ĠtËĪiËĲËĪaÉª":9734,"ÉªÉ¡ËĮoÊĬ":9735,"ĠÉ¹áµ»lËĪiËĲst":9736,"ĠfËĪÉªÉ¹lÉĻs":9737,"jÊĬp":9738,"Ġdáµ»fËĪÉĽnd":9739,"ĠskÉ¾ÉĻmÉĻn":9740,"ĠvËĪÉĽnÉĻm":9741,"ĠËĪÃ¦ndÊĴÉĻlÉªs":9742,"ĠbÃ¦k":9743,"ĠÉĶ":9744,"ĠÉªkw":9745,"ĠdÊĴËĪaÉªv":9746,"ĠÉ¡ËĪÉĳËĲÊĥ":9747,"ĠfÉ¹ËĪÊĮntÉªÅĭ":9748,"ĠhËĪÃ¦fi":9749,"ĠbËĪÉªldÉªÅĭz":9750,"ĠpÉ¹ËĪÉĳËĲÉ¡É¹ÉĽs":9751,"ĠtÊĥËĪiËĲÉ¾áµ»d":9752,"ĠmÉĻÊĥËĪiËĲnz":9753,"ĠdËĪÉĽstÉªnd":9754,"ĠÉªnfËĪÉªnÉªÉ¾i":9755,"ĠlËĪÉĽvÉĻlz":9756,"ĠdËĪÉĳËĲmÉªnËĮoÊĬ":9757,"ĠtÊĥËĪÉªmni":9758,"nËĪaÉª":9759,"ĠpÃ¦":9760,"ĠpËĪÃ¦m":9761,"ËĪÊĮki":9762,"ĠmÉĻstÉĻ":9763,"ĠklÉĻdz":9764,"ĠflËĪÉĳËĲk":9765,"ĠvËĪÉĳËĲd":9766,"ÉĻvÉĻz":9767,"ĠmËĪoËĲÉ¹n":9768,"ĠdËĪÉĳËĲdÉĻ":9769,"ÉªdÊĴÉĻn":9770,"ËĮÉĽmËĮÉĽmËĪeÉªtÊĥ":9771,"ĠbËĪoÊĬts":9772,"ĠËĪÃ¦ftÉļmËĮÃ¦Î¸":9773,"ĠmËĪÉĳËĲd":9774,"ĠdËĮiËĲËĮÉĽm":9775,"ĠplÉĻsÉĻz":9776,"ĠdÉ¾ÉĻnkÉĻn":9777,"ĠsËĪaÉªkÉĻl":9778,"ĠdÊĴËĮiËĲËĪÉĳËĲÉ¹É¹ËĪÉĳËĲ":9779,"ĠÊĮntËĪÊĮtÊĥ":9780,"ËĪeÉªntáµ»d":9781,"ĠnËĪÉĻnt":9782,"ĠpËĪÃ¦kÉªn":9783,"ĠÉ¹uËĲt":9784,"ĠstËĪak":9785,"ËĪÉªsÉªÉ¾i":9786,"Ġbáµ»kËĪÊĮmÉªÅĭ":9787,"áµ»nËĮeÉªÉ¾áµ»d":9788,"ĠlËĪiËĲÎ¸ÉĻl":9789,"ĠtËĪÉľËĲm":9790,"ĠËĮÉĽmËĮÉĽmËĮÉĽmËĪÉĽm":9791,"ĠdÊĴÉĻlÉĻz":9792,"ĠmËĮÉĳËĲÉ¹dÊĴi":9793,"ĠpÉªkjËĪuËĲlÉªÉ¹":9794,"ĠpÉ¹ÉªskÉ¹":9795,"hËĮÃ¦láµ»lËĪuËĲjÉĻ":9796,"dËĪoÊĬ":9797,"pÉªn":9798,"ĠËĪÉĽÉ¹iÉĻ":9799,"ËĪaÉªÉĻn":9800,"ĠdËĪÊĮÅĭk":9801,"ĠdËĪÊĮfÉĻl":9802,"ÊĥËĪaÊĬt":9803,"ËĪuËĲÊĴÉĻnz":9804,"ĠÉ¹ËĪÉªtÉªn":9805,"ĠËĪÊĮÊĥÉļ":9806,"ĠhËĪoÊĬmbÉĶÉª":9807,"ĠÉĻnËĪo":9808,"ÉªstÉļ":9809,"Ġdáµ»kËĪeÉª":9810,"ĠtwÉĻs":9811,"ÉªÉ¡ËĪeÉªÊĥÉĻn":9812,"ĠËĮÉĽvÉĻlËĪuËĲÊĥÉĻn":9813,"ËĮÉĽsËĮeÉªtÊĥËĪeÉªtÊĥ":9814,"ĠspËĪiËĲdÉªn":9815,"ĠÉ¡ËĪÉªlt":9816,"ĠkËĪÉľËĲvz":9817,"ĠsÊĮbl":9818,"ĠpÉ¹ÉĻfËĪÉĽÊĥÉĻn":9819,"ÉĻbËĪÉªlÉªÉ¾i":9820,"dËĪÉĽd":9821,"pÉ¾ÉĻz":9822,"ĠtËĪaÉªÉļ":9823,"ĠÉĲlËĪÉľËĲt":9824,"slËĪÃ¦t":9825,"ĠkËĪÃ¦pt":9826,"ĠmÉªstËĪeÉªkÉĻn":9827,"ĠfiËĲËĪÉĽstÉĻ":9828,"fËĪÃ¦kts":9829,"ÊĥÉĻp":9830,"ĠÉ¹ËĪÉĽvÉļ":9831,"ĠdÉ¹ËĪÉªvÉĻn":9832,"ĠblËĪÉľËĲ":9833,"ĠËĪÃ¦lÉĻ":9834,"ĠÉĻtÉĻntËĪyÉĻn":9835,"ĠspËĪoËĲÉ¹t":9836,"ĠslËĪat":9837,"ËĪÉĳËĲmpl":9838,"ĠkËĪÉĳËĲÉ¹di":9839,"ĠÉĻmb":9840,"ĠÉ¡É¹ËĪeÉªtnÉĻs":9841,"ĠtÉ¹ËĪÉªpi":9842,"ĠpËĪÃ¦kÉªÅĭ":9843,"ĠmËĪÉĽlÉĻdiz":9844,"ĠdÉ¹ËĪaÊĬnÉªn":9845,"ĠsÉĻksËĪiËĲd":9846,"ĠÉªÉ¡nËĪoËĲÉ¹d":9847,"ĠËĪÉĳËĲksÉªdÊĴÉĻn":9848,"ĠbËĪÊĮni":9849,"ĠÉ¡ËĪÃ¦n":9850,"ĠfËĪÉĽbÉ¹":9851,"ĠstÉĻdÊĴÉĻ":9852,"ĠÊĮptËĪaÉªt":9853,"ĠslËĪÊĮt":9854,"ĠslËĪÊĮÉ¡z":9855,"ĠdÉĻÉ¡z":9856,"ĠtÉĻnz":9857,"ĠdËĪÉĳËĲÅĭ":9858,"ĠdËĮiËĲsËĪiËĲ":9859,"ĠstËĪÊĮntÉªÅĭ":9860,"ĠËĪÉªÅĭÉ¡lÉĻnd":9861,"ĠkËĪuËĲtÊĥi":9862,"ĠÉ¡ËĪÃ¦mbÉĻl":9863,"Ã¦ntËĪÉĳËĲnÉĻ":9864,"ĠlËĪÉĳËĲl":9865,"ĠÉĻndz":9866,"ĠfÉ¾ÉĻz":9867,"ĠËĪÃ¦É¾Éªk":9868,"ËĪÉĶËĲÉ¹ÉªÉ¾i":9869,"ĠtËĪÊĮtÊĥdaÊĬn":9870,"ĠfËĪÉĳËĲÉ¹Ã°Éļ":9871,"ĠflËĪoÊĬÉªn":9872,"ĠÉĲdmËĪaÉª":9873,"sÉĻlËĪeÉªÊĥÉĻn":9874,"ĠhËĪÉĶËĲlweÉª":9875,"ĠlËĪoÊĬkÉĻ":9876,"ĠËĪymadÊĴËĮyn":9877,"pËĮiËĲs":9878,"ĠÉ¹ËĪÉªsÉªn":9879,"bËĪiËĲp":9880,"wo":9881,"ËĪiËĲÉ¾oÊĬ":9882,"ĠpËĪÊĮz":9883,"ĠblËĪÊĮÊĥ":9884,"ĠklËĪiËĲv":9885,"ĠskËĪÃ¦m":9886,"ĠskËĪaÉªl":9887,"ĠÉ¡É¹ËĪiËĲt":9888,"ĠvÉĻn":9889,"ĠbËĪÉĳËĲÅĭ":9890,"ĠËĪÉĽmËĪaÉª":9891,"ĠÉ¡ÉĻdËĪam":9892,"ĠtÉ¾ÉĻpÉĻn":9893,"ĠdÉªzËĪaÉªÉļz":9894,"ĠspÉ¹ËĪÊĮÅĭ":9895,"ĠmjËĪÊĬlÉĻ":9896,"ĠÉ¡ÉĻlfÉ¾ÉĻnd":9897,"ĠvaÉªÉĻl":9898,"sÉªn":9899,"ËĪÉĻÉĻ":9900,"ĠtËĪÊĮ":9901,"ĠspËĪÃ¦z":9902,"ËĮaÉªk":9903,"ĠfËĪeÉªsd":9904,"ĠlËĪuËĲzÉļz":9905,"ĠÉĽkskl":9906,"ĠÎ¸ËĪaÊĬzÉĻndz":9907,"ĠËĮÃ¦lÉĻb":9908,"ĠsÉļvËĪaÉªvd":9909,"ĠtwËĪÉªstÉªÅĭ":9910,"loÊĬd":9911,"nÉªvËĪÉľËĲs":9912,"lËĪiËĲn":9913,"sÉĻt":9914,"wËĪaÉªl":9915,"ËĪeÉªÉ¾oÊĬ":9916,"ĠhÉĻÅĭÉ¡":9917,"ĠkÉ¹ËĪÃ¦p":9918,"dÊĴËĪiËĲzÉĻs":9919,"ĠÉ¡É¹ËĪiËĲs":9920,"ĠÉĽÅĭk":9921,"bÉļn":9922,"ĠpËĪeÉªnz":9923,"ĠwËĪÊĮndÉļd":9924,"ĠËĪÉĳËĲnlaÉªn":9925,"ĠaÉªdËĪÉĽnt":9926,"pÉļÉ¹ËĮÉĽÉ¹i":9927,"ĠsnËĪÉªtÊĥÉªn":9928,"áµ»bli":9929,"pËĪoÊĬz":9930,"sËĪÉĽks":9931,"ĠhËĪÉĶ":9932,"ĠÉĻÃ°ËĪo":9933,"ĠdÊĴËĮiËĲËĮÉĳËĲÉ¹É¹":9934,"ĠplËĪiËĲ":9935,"ÉļÉ¹ËĪÉĳËĲdoÊĬ":9936,"ĠflÉĻm":9937,"ĠflÉĻz":9938,"ĠÎ¸É¹ËĪÉªlz":9939,"ĠnËĪuËĲs":9940,"ĠhËĪaÉªk":9941,"ĠnËĪÉĳËĲks":9942,"ĠkËĪoÊĬp":9943,"wËĪÊĮns":9944,"ĠÉ¹ËĪÉªb":9945,"ĠdÊĴËĪÃ¦ki":9946,"!!!!":9947,"ĠfËĪoËĲÉ¹sáµ»z":9948,"ĠbÉĻfÉ¾ÉĻnd":9949,"É¡ÊĬdbËĪaÉª":9950,"ĠsËĮÉªlÊĬwËĪÉĽt":9951,"ĠvËĪÉĳËĲdkÉĻ":9952,"\"?":9953,"ĠhËĪÉĶÅĭki":9954,"ÊĴi":9955,"ÉĲwËĪeÉª":9956,"ĠblËĪÊĮdz":9957,"ĠtÉĻnÉĻÅĭ":9958,"ĠpËĪÉĳËĲpjÊĬlÉļ":9959,"É¾ÉĻdÉĻs":9960,"ĠÉªlËĪiËĲÉ¡ÉĻl":9961,"ĠÊĮÅĭkËĪaÉªnd":9962,"bÃ¦É¡":9963,"ĠfËĪaÊĥÉĻn":9964,"ĠblËĪÃ¦ÅĭkÉªt":9965,"ĠdËĪÉĽvÉĻlz":9966,"ĠwËĪÉªÅĭk":9967,"ĠËĪaÉªÉ¹":9968,"ĠÉĻndÊĴÉĻz":9969,"Éªnv":9970,"ĠpËĪÉĳËĲs":9971,"ĠpÉĻnts":9972,"ĠpËĮÉĳËĲlÉªt":9973,"ÉĻtËĮÉĽÉ¹i":9974,"ĠwÉĻf":9975,"ĠklËĪeÉª":9976,"ĠfÉ¹ËĪÉĽndÊĥÉªp":9977,"ĠjÉĻstÉĻdÉĻ":9978,"az":9979,"pËĪaÊĬ":9980,"É¹ÉĻf":9981,"ĠkËĪÉĽv":9982,"ĠpËĪiÉĻÉ¹ÉªÉĻd":9983,"ËĪÃ¦ts":9984,"ĠËĪÉªnfÉªn":9985,"ĠdÊĴÉĻnt":9986,"tÊĥËĪiËĲ":9987,"ËĪoËĲÉ¹iÉĻs":9988,"ĠlËĪÉªÉ¾ÉļÉ¹":9989,"ĠhËĪÃ¦ndáµ»d":9990,"tËĪÉªldÉĻ":9991,"lÉĻfÉĻn":9992,"ĠdÊĴËĪuËĲsi":9993,"ĠpËĪÊĮmpÉªÅĭ":9994,"lËĪÊĬkÉªÅĭ":9995,"hËĪÉĽlp":9996,"Ġdáµ»spËĪaÉªt":9997,"ĠÉ¹ËĪeÉªlÉ¹oÊĬd":9998,"ĠnËĪÃ¦Êĥ":9999},"merges":["Ë Ī","É Ļ","É ª","Ë Ĳ","ÉĻ ÉĻ","ËĪ É","ËĪ a","É ¹","ËĪa Éª","Ê Ĭ","i ËĲ","ËĪÉ Ľ","Ġ Ã","Ê Į","u ËĲ","Ġ ËĪ","e Éª","ËĪ iËĲ","Ë Į","Ġ ÉĻÉĻ","Ġ w","ĠÃ °","Ġ m","o ÊĬ","Ġ j","ËĪ Éª","Ã ¦","Ġ s","Ġ b","ĳ ËĲ","Ġ t","Ġ É","Ġ ËĪaÉª","ËĪ Ã¦","ËĪ ÊĮ","ËĪÉ ĳËĲ","ËĪ eÉª","Ġ d","ËĪ oÊĬ","ËĪÉ Ķ","Ġ l","Ġ h","Ġ n","n d","Ġ ÉĻ","Ġ k","ĠÃ° ÉĻ","Å ĭ","ĠÉ ¡","Ġ f","Ġj uËĲ","Ê ĥ","Ġ Éª","ĠÉĻÉĻ ÉĻÉĻ","É ļ","ÉĻ n","Éª n","ËĪ uËĲ","ĠÃ ¦","ËĪa ÊĬ","ĠËĪ eÉª","ËĪÉĶ ËĲ","Éª Åĭ","ËĮ ÉĻ","Ġ p","ĠÉĻÉĻ ÉĻ","s t","ĠÉª t","É ¾","Ġ É¹","ĠÃ¦ nd","Ġt uËĲ","' t","Ġm ËĪaÉª","ËĪ ÉĻ","Ġm ËĪiËĲ","Ġ (","ÉĻ l","ËĪÉĶ n","ľ ËĲ","Î ¸","ËĪÉĽ s","Ê Ĵ","ĠÉĻ ËĮÉĻ","ËĮ ÊĮ","ËĮ É","ËĪÉĽ m","É ¡","ËĲ É¹","ÉĻÉĻ ÉĻ","Ġ Êĥ","ËĪÃ¦ t","ĠËĪ ÉĻ","Ġn ËĪoÊĬ","ËĪ ÊĬ","ËĮÉ Ľ","ĠËĪ Éªn","ËĪÉ ľËĲ","Ã °","Ġl ËĪaÉª","ËĪÉĶËĲ l","ĠÃ° ËĪÃ¦t","ËĪÉĽ l","µ »","á µ»","ËĪÃ¦ n","ËĪÊĮ n","Ġs t","ËĮÊĮ t","ËĪÉĳËĲ t","ËĪÉĽ t","Ġ ËĪÉĶn","Ġd ÊĴ","ËĪÉĳËĲ É¹","ĠËĪ oÊĬ","ËĪÉĳËĲ n","ËĪÉĽ v","Ġ ÊĮ","t Êĥ","ĠËĪ ÊĮ","ÊĬ É¹","Ġw iËĲ","Ġ Î¸","Ġj ÊĬÉ¹","ĠÉ Ĳ","Ġ ËĪÉĶËĲl","ËĪeÉª k","ËĪÉĽ É¹","ĠÊĮ v","Ķ ËĲÉ¹","Ġb ËĪiËĲ","ËĪÊĮ m","ĠÉĻÉĻÉĻÉĻ ÉĻ","ËĪÉª l","ÉĻ m","ËĪ o","ËĪÉª s","ĠlËĪaÉª k","ËĪÉĽ n","ËĪÊĮ v","Ġd ËĪÉĳËĲn","ËĪaÊĬ t","Éª Ã°","ËĪaÉª t","Ġw ÉªÃ°","ËĪÉĽ h","ĠËĪÊĮ p","Ġk ËĪÃ¦n","ËĪÉª Åĭ","Ġl ËĪÊĮv","ÉĻ s","É ĶËĲÉ¹","ËĪÊĮ st","Ġj ÉĻ","Ġf ÉĶËĲÉ¹","ÉĻ t","Ġs ËĪoÊĬ","ĠÉª z","Ġ '","ËĪo ËĲÉ¹","ËĪÊĬ d","Ġw ËĪÉĶn","ËĮ iËĲ","ËĪÃ¦ k","Ġb ËĮÊĮt","l d","ĠÉ¡ ËĪÉĳËĲt","ÉĻ d","Ġj ËĪÉĽh","ĠÉĻÉĻÉĻÉĻ ÉĻÉĻ","ĠdÊĴ ËĪÊĮst","ËĪÉª É¡","ËĮÉĽ n","ĠÉ¡ ËĪoÊĬ","Ġt É¹","ÉĻ k","ĠÃ° ËĪÉªs","ĠËĪ ÉĻÉĻÉĻ","Ġd ËĪuËĲ","Ġh ËĪÃ¦","ËĪÉĽ d","ËĪÉª É¹","ÉĻ z","ĠÉ¡ ËĪÉĽt","Ġw ËĪÊĮn","Ġw ËĮÊĮt","Ġf É¹","ËĪÉĽv Éļ","Ġs ËĪiËĲ","ËĪaÊĬ n","ĠÉĻ ËĪ","Ġw ËĮÉĽn","É¹ ËĮiËĲ","ËĪeÉª b","Ġt Êĥ","Ġs ËĪeÉª","ĠÃ° eÉª","Ġh ËĪoÊĬ","ËĪÉª t","l i","Ġn ËĪaÊĬ","ĠÊĥ iËĲ","Ġb É¹","Ġw ËĪeÉª","Ġ ËĪaÊĬt","Ġn ËĪÉªÉ¡","ËĪiËĲ l","ĠÉĻËĪ ÉĻÉĻÉĻ","Ġt ËĪaÉª","ËĮÉĽ l","ËĪiËĲ p","ĠÉª f","ËĮÉĽl ËĪÉĽl","k s","Ġb ËĪeÉªb","ËĮ Ã¦","ËĪÊĮ k","É Ĳ","Ġp l","É¾ ÉĻ","ËĪÉĳËĲ p","Ġd É¹","É ľËĲ","ËĪaÉª d","ËĪiËĲ d","Ġb l","ĠÎ¸ ËĪÉªÅĭ","Ġl ËĪÉĽt","Ġd ËĪaÊĬn","ĠbËĪeÉªb i","Ġk ËĪÊĮm","Ġn ÉĻ","ĠËĪ Ã¦","ĠwËĪÉĶn t","É¾ i","Ġw ÊĮ","ĠtËĪaÉª m","Ġ a","Ġk É¹","Ì ĥ","ĠËĪeÉª n","Ġf ËĪiËĲl","ËĪÉĽv É¹","ËĮ Éªn","ĠÉĻÉĻ ËĪÉĻ","d i","ĳËĲ É¹","Ġt ÉĻ","Ġ ËĪÉĽvÉ¹","ÉĻn t","É¾ Éļ","ËĪiËĲ z","ĠÉĻ ËĪÉĻ","ËĪÉĶËĲ É¹","Ġm ËĪeÉªk","Ġm ÉĻ","ËĪÉĶËĲ z","a Éª","ĠwÊĮ z","ĠÉĻ t","Ã° Éļ","ËĪÉª tÊĥ","ĠÉĻÉĻ ËĮÉĻ","Ġw ËĪaÉª","Ġp É¹","ËĪaÊĬ nd","Ġw ÉĻ","ÉĻÉĻ ÉĻÉĻ","ËĪÉª v","Ġb ËĪÃ¦k","ËĪÉª k","Ġn ËĪÉĽvÉļ","ËĪÉĶ Åĭ","ËĪÊĬ k","ËĪÉĳËĲÉ¹ t","Ġw ËĪÉľËĲ","d ÊĴ","Ê °","ËĮÉĽ m","Ġt ËĪeÉªk","ÉĻ Åĭ","v ËĪiËĲ","Ġt ËĪuËĲ","ËĪeÉª n","Éļ É¹","Êĥ ÉĻn","ĠËĪ ÉĻn","ËĮ ÉĻn","ËĪeÉª m","Ġs ËĪÊĮm","Ġk l","Ġn ËĪÉĳËĲt","ÊĮ m","Ġh ËĪÉªÉ¹","ËĪÉĽ nd","ĠÃ° ËĪÉĽÉ¹","ĠwËĪÉĶn ÉĻ","t s","Ġh ËĪaÊĬ","Ġf ËĪÊĮk","Ġs p","Ġf l","ĠÃ¦ t","Ġh ÉľËĲ","Ġp ËĪÊĬ","Éª k","ËĪÉª n","Ġm ËĪÉĻ","Ġh iËĲ","ĠÉĻt Ê°","ĠfÉ¹ ÊĮm","Ġs k","ĠÎ¸ É¹","ËĪÉľËĲ l","ËĪeÉª s","Ġn ËĪiËĲd","ËĪÉĽ k","ĠÉ ¾","Ġb áµ»","ĠÉ ĳËĲÉ¹","ËĪÉª p","áµ» d","ĠhËĪÃ¦ v","ËĪÉĻ t","ĠÉ¡ ËĪÉľËĲl","Ġf ËĪaÉª","ĠÉ¡ É¹","ĠËĪ iËĲ","ËĪÉª d","ĠnËĪÉªÉ¡ ÉĻ","ËĪoÊĬ n","ĠÉ¹ ËĪaÉªt","Ġb ËĪÉªtÊĥ","Ġa nd","Ġ v","Ġt ËĪÉĽl","Ġb ËĪÃ¦","Ġd ËĪeÉª","ËĪÉĶËĲ k","ËĪÉĳËĲ k","b ËĪaÊĬt","ĠÉĻÉĻÉĻÉĻ ÉĻÉĻÉĻ","k ËĪÉĶËĲz","ËĪ i","ËĪÉĶ Éª","Ġl ËĪÊĬk","ËĪiËĲ v","É Ľ","ËĪuËĲ z","ĠÉ¡ ËĪÉĳËĲ","ËĮ Éª","ËĪeÉª d","ÉĻ v","Éļ z","Éª t","Ġw ËĪÉªl","f t","Ġst É¹","áµ» z","Ġb ËĮÉªn","Ġk ËĪÊĬd","ĠÉª n","ÉĻ nd","Ġs l","ËĪÉľËĲ n","ËĪiËĲ n","ËĪÉĳËĲ m","ĠÎ¸ËĪÉªÅĭ k","ĠÊĥ ËĪÉªt","ĠËĪÉĽvÉ¹ Éª","ĠlËĪaÉª f","Ġ ËĮÊĮ","Ġm ËĪÃ¦n","Ġh ËĪeÉª","É¾ ÉĻl","ĠÉ¹ áµ»","ĠËĪoÊĬ n","Ġk ËĪiËĲp","Ġw ËĪÉĽÉ¹","ĠÉ¡ ËĪÉªv","ËĪÃ¦ nd","ËĮÉĻn ÉĻ","Ġ \"","É¾ ÉªÅĭ","ĠÉ¡ ËĮÉĻnÉĻ","ÉĻ p","Ġn ËĪaÉªt","ËĪa t","Î¸ ÉªÅĭ","ĠnËĪÉªÉ¡ ÉĻz","ËĪÃ¦ st","ËĮ eÉª","Ġs w","É ĳËĲ","ËĪÉĽ st","ĠÃ¦ z","Ġh ËĪÉĳËĲÉ¹t","Ġb ËĪaÉª","v Éļ","ĠÉĻ v","Ġh ËĪuËĲ","ËĮ oÊĬ","ĠËĪ uËĲ","ËĮÊĮ m","ĠÉĲ w","nd ÊĴ","ËĪiËĲ m","Ġs ËĮÊĮm","ËĪÊĮn i","Ġm ËĪÊĮ","ËĪÉĽn t","ËĮ a","ĠÃ° ËĮÉĽm","Ġm ËĪoËĲÉ¹","ËĪÉĶ f","ĠÉ¹ ËĪoÊĬ","ĠÃ° ËĪÉĽn","Ġl ËĪÉª","s k","ĠÉĲ bËĪaÊĬt","ÉĻ st","ËĪÉª z","ĠÃ° ËĪat","É¹ ËĪaÊĬnd","ËĪoÊĬ k","ËĪiËĲ t","Ġ ËĪÉĶf","ĠÉĲw ËĪeÉª","ĠÉ¡ ËĪÊĬd","ËĪÃ¦ m","ÉĻl i","ĠÉ¹ ËĪÊĮn","Ġb ÉĻ","Ġk ËĪÉĶËĲl","Ġs m","ËĪÃ¦ p","Î ²","ËĪeÉª t","ĠÎ¸É¹ ËĪuËĲ","ËĪÊĮ Åĭ","Ġn ËĪuËĲ","Ġh ËĮÃ¦","ĠÉ¡ ËĪÉĻt","ĠÉ¹ ËĪiËĲ","j ËĪuËĲ","Ġw ËĪÊĬd","ĠÃ° ËĪiËĲz","ËĪoÊĬ ld","ĠÉĻ l","Ġst ËĪÉªl","Ġs ËĪÉĽd","Ġl ÉĻk","ĠÉ ļ","Ġn ËĪÊĮ","ĠËĪoÊĬn li","ËĪa n","Ġh ÉĻ","ĠÉĲ É¡","ĠÉ ĶËĲÉ¹","Ġb ËĪÉĳËĲ","ËĮÉĻ t","ĠhËĮÃ¦ d","ËĪaÉª n","ĠÉĲ l","ĠtÉ¹ ËĪaÉª","Ġd ËĪÉªd","' d","ĠhËĪoÊĬ m","nd Éļ","Ġm ËĪuËĲ","ËĪÃ¦n s","ËĪÃ¦ Åĭ","j ËĪÉĽh","ĠwËĪÉľËĲ ld","ËĮÉ ĳËĲ","ĠÉļ É¹ËĪaÊĬnd","Éª s","ĠËĪÉĽvÉ¹ i","ĠËĪoÊĬ vÉļ","Ġd ËĪaÉª","ĠËĮÊĮ s","Ġb ËĪÉĽ","w eÉª","ËĪÉĳËĲÉ¹ d","ĠpËĪÊĬ t","Ġm ËĪÊĮni","ĠÉĲÉ¡ ËĪÉĽn","ĠlËĪÉª É¾ÉĻl","' ,","É¹ i","ËĮ ÉªÅĭ","ËĪÉĳËĲ l","Ġt ËĪÉĶËĲk","Î¸ ËĮÉªÅĭ","ĠÉ¡ËĪÉĳËĲ É¾ÉĻ","ÉĻv ÉĻ","ËĪaÉª nd","Ġb ËĪÉĶÉª","Ġd ÉĻ","ËĪÉª st","ËĪeÉª z","É £","ĠÉĻ n","Ġd ÉĻn","ĠÃ° ËĪÉĻ","ÊĬ Éļ","v ÉĻn","ĠmËĪaÉª nd","b ÉĻl","ĠhËĪoÊĬ ld","ĠhËĪÃ¦ nd","Ġt ÉĻn","Ġl ËĪÉĶÅĭ","ËĪÉĶËĲ t","Ġm ËĪÃ¦","ĠÉ¹ËĪiËĲ ÉĻl","ËĮ aÉª","Ġ ËĮa","Ġw ËĪÉª","Ġh ËĪaÉª","ĠËĮa ÊĬÉļ","ËĪoÊĬ z","ËĪÉĽl f","ËĪi ÉĻli","ĠbËĪÉĽ É¾Éļ","ËĪeÉª ndÊĴ","Ġw ËĪÉĽl","Ġl ËĪiËĲv","Ġpl ËĪeÉª","ĠÉĻÉĻÉĻÉĻÉĻÉĻ ÉĻÉĻ","ĠÉ¹ ËĪiÉĻli","Ġ ËĪÉĽvÉļ","Éª st","Ġf ÉĻ","Ġj ÉĲ","Ġst ËĪeÉª","ËĪiËĲ k","f ËĪoËĲÉ¹","ËĪuËĲ l","m z","weÉª z","Ġk ËĪÊĮ","ÉĻn s","ËĪaÉª v","Ġf ËĪÉĶËĲl","Ġh ËĪÉªz","Ġh ËĪÉĽd","Éª d","b ÉĳËĲ","ĠÃ¦ m","ÉĲ n","Ķ ËĲ","Ġst ËĪÉĳËĲp","ĠËĪÉĶËĲl weÉªz","Ġt ËĪÉľËĲn","Ġ ËĪÉĽn","Ġl ËĮÃ¦","Ġl ËĪÉĽ","Ġw ÉĻn","Ġh ËĪÉĽl","bÉĳËĲ di","Ġbáµ» l","ĠÉ Ľ","ĠÉ¡ ËĪÉĳËĲn","ĠËĪiËĲ vÉĻn","ĠÊĮ n","ËĪÊĮ Ã°Éļ","Ġk w","Ġh ËĪÉĳËĲÉ¹d","ĠmËĪuËĲ v","ËĪÃ¦ s","ĠnËĪÊĮ Î¸ÉªÅĭ","s ËĪÉĽlf","Ġs ÉĻ","d z","Ġb ËĪÉĻ","Ġh ËĪÉľËĲ","Ġ ËĪÉĳËĲ","Ġ ËĮÉªn","ĠdÉ¹ ËĪiËĲm","ĠfËĪaÉª nd","ËĮÉª m","áµ» n","Ġn ËĪÉĳËĲ","ĠËĪaÉª z","ĠÃ¦ n","b Éļ","ĠÊĥ ËĪoÊĬ","Ġs ËĪÉª","ĠÉ¡ ËĪÉĽ","ËĪÊĮ f","Ġs ËĪÉĻ","Ġw ËĪÉĶËĲk","Ġk ËĪÉĶËĲz","Ġh ËĮÉªm","j uËĲ","ĠËĪÉĽvÉ¹Éª Î¸ËĮÉªÅĭ","ĠËĪÉĻ p","ĠbËĪÃ¦ d","k t","' m","ĠÃ° ÉĲn","ÉĽ É¹","Ġk ÉĻm","ĠlËĪaÉª v","ËĪÉĶËĲÉ¹ n","t ËĪÉªl","ĠwÉĻ Ã°",") ,","ÉĻn z","ĶËĲ l","Ġh ËĪÉªt","ĠÉĻ z","Ġm ËĪeÉªd","ĠËĮÉªn t","ËĪÉĳËĲt Êĥ","Ġw ÉľËĲ","ĠÊĥ ËĪÊĬd","ËĪeÉª ÊĥÉĻn","ËĪ ÉĻn","Ġs ËĪÊĮn","ĠÉ¡ËĪoÊĬ ÉªÅĭ","Ġb ËĪÉªÉ¡","ĠbÉ¹ ËĪeÉªk","ËĪÃ¦ Êĥ","Ġf ËĪeÉªs","ĠÉªn s","Ġh ËĪÊĮ","Ġd ËĪÃ¦ns","ĠÎ¸ËĪÉªÅĭ z","Ġk ËĪan","ĠfÉ¹ ËĪÉĽnd","ĠmËĪÊĮ tÊĥ","Ġl ÉĻt","ĠtÉĻn ËĪaÉªt","Éļ d","Ġst ËĪÉĳËĲÉ¹","Ġs ËĪÉªÅĭ","ĠsËĪÊĮm Î¸ÉªÅĭ","ÉĻl z","É¾ áµ»d","ĠÉ¡ËĪÉĳËĲ d","ĠÉ¡ l","ËĪÊĮ tÊĥ","Ġd áµ»","ĠtÊĥ ËĪeÉªndÊĴ","ËĪÊĮ z","Ġl ÉĻvÉĻ","ËĪeÉª v","ĠÉ¡ ËĪÉĶn","ĠÉĻ f","f É¹","ËĪoÊĬ s","Ġw ËĪÉĳËĲtÊĥ","ĠÉ¹ ËĪÉĽd","Ê Ķ","p ÉĻn","ËĪÉĽ ks","Ġ ËĪa","Ġt w","ĠÉ¹ËĪoÊĬ l","Ġbáµ»l ËĪiËĲv","ĠËĮÉªnt ÊĬ","ĠÊĥ ÉĻ","ËĪ y","ÊĶ n","l ÉĻ","ĠlËĪaÉª t","É¾ ÉĻm","ĠtÉ¹ ËĪuËĲ","Ġbáµ» fËĪoËĲÉ¹","Ġw ËĪoÊĬ","ĠjÉĻ h","Ġn ËĪeÉªm","p t","Ġp ËĪiËĲp","b ËĮÉĳËĲ","Ġw ËĪÉĻ","ËĪÉĳËĲÉ¹ k","ĠÉ¹áµ» m","ĠkÉ¹ ËĪaÉª","! )","bËĮÉĳËĲ di","ËĪaÉª l","Ġl ËĪeÉª","ÉĻl d","É¡ z","p l","ĶËĲl É¹","ĠfËĪiËĲl ÉªÅĭ","Ġ ËĪÉĽnd","ËĪÉĶ st","Ġb ËĮÉĻt","ÉĻ f","ĠdÊĴ ÉĻst","ËĪÉĳËĲ b","ĠsËĪeÉª m","ĠÉ¹ ËĪaÉªd","Ġd ËĪÉĳËĲ","ËĪÊĬ É¹","ĠwËĪÉľËĲ k","ËĪÃ¦ d","Ġw ËĪÊĮ","ËĪÉª m","ĠÉĲ n","ĠpËĪiËĲp ÉĻl","ĠËĪÉĽn Éª","ĠËĪoÊĬ ld","ĠÉ¹ ËĪÉĳËĲk","ËĪiËĲn ÉĻ","Ġk ËĪÉªl","ĠÉ ĶËĲlÉ¹","ĠÉĲl ËĪoÊĬn","Ġj ËĪÊĮÅĭ","Ġd ËĪÊĮn","Ġf ÉĻl","Ġt ËĪoÊĬld","m ÉĻn","ĠÉĲn ËĪÊĮÃ°Éļ","ĠÃ°ËĪÉĻ s","ĠlËĪÉĽ ft","ËĪuËĲ m","â Ģ","ĠbËĪÉĳËĲ di","ËĪa k","Î² ÉĻ","ĠwËĪeÉª t","Ġst ËĪÃ¦nd","Ġl ËĪÃ¦st","ËĪaÉª z","n ÉĻs","s i","Éª m","Ġm ËĪoÊĬ","ĠmËĪiËĲ n","Ġj ËĪoÊĬ","ËĪÃ¦t Êĥ","f ÉĻl","? )","Ġt ÉĻk","Ġm ËĪÉĳËĲm","ËĪiËĲ s","Ġk ËĪÉĽÉ¹","Ġb Éªk","Ġpl ËĪeÉªs","Ġl ËĪÉªv","Ġm ËĪÉĽn","ĠtÉ¹ ËĪiËĲnÉĻ","ËĪÉªÉ¹ z","Ġs ËĪuËĲ","Ġ [","ÉĻÉĻ ÉĻÉĻÉĻ","k ËĪeÉª","Ġs ËĪaÉªd","ĠmËĪaÉª t","Ġ ËĪÉĽl","ĠfÉ¹ ËĪiËĲ","ĠËĪÃ¦ s","ĠÉªns ËĪaÉªd","ËĪeÉªz i","ËĮÉ ĳËĲÉ¹","ËĪuËĲz d","ËĪoÊĬ l","Ġp ËĪeÉª","Éļ É¡","Ġs ËĪÉĶÅĭ","nd É¹","Ġw ËĮÉĻt","ĠhËĪoÊĬ l","Ġm aÉª","ĠbÉ¹ ËĪÉªÅĭ","ĠsËĪÊĮm w","ĠwËĪÉª Êĥ","ĠËĪÉĽvÉ¹Éª bËĮÉĳËĲdi","É£ ËĪa","ĠÉ¹ ËĪÉĶÅĭ","ËĪÉĽk st","ĠmËĪaÉª n","i z","o ËĲÉ¹","ËĪÉľËĲ st","ËĪÉªÅĭ k","Ġh ËĪÉĻ","Éª z","ËĪÉĽÉ¹ i","ĠmËĪÊĮ Ã°Éļ","Ġpl ËĪiËĲz","ĠÉ¡ ËĪeÉªm","ĠËĪÊĮ Ã°Éļ","ĠnÉĻ É£ËĪa","ĠwÉªÃ° ËĪaÊĬt","ËĮÉĻ m","ĠhËĪoÊĬ p","j ÉĻ","Ġk ËĪeÉªm","h ËĪÊĮ","ËĪÉĽv ÉĻn","Ġf ÉļÉ¡","ËĪÊĬ l","ËĪÉĽm bÉļ","Ġh ËĪa","Ġ ËĪÉĽm","Ġm ËĪÉªs","ĠbËĪÉªtÊĥ áµ»z","ËĪÉĽ Ã°Éļ","Ġp ËĪÉĳËĲp","ĠsËĪoÊĬ l","ĠmaÉª sËĪÉĽlf","Ġ ËĮÉĽn","É¡ Éļ","Ġfl ËĪaÉª","Ġl ËĪoÊĬ","Ġs n","ĠpËĪÊĬ l","ËĪÊĮm p","ĠkÉ¹ ËĪeÉªzi","Ġbl ËĪÃ¦k","ĠwËĪaÉª l","Ġp ËĪÉľËĲ","ĠfËĪaÉª Éļ","Ġl ËĪÉĶst","ĠÎ¸ ËĪÉĶËĲt","ËĪÊĮn t","Ġp ËĪeÉªn","ËĪÉĳËĲ s","Ġw ËĮÉĻn","ËĮ uËĲ","Ġst ËĪÉĳËĲÉ¹t","Ġf ËĪoËĲÉ¹","Ġp ËĪÉªk","É¾ ËĮÉĻ","Ġ ËĪÉĳËĲÉ¹","Ġl ËĪuËĲz","Î¸ Éªn","Ġk ËĪÉĳËĲÉ¹","Ġh ÉĻt","Ġm ÉĻn","ĠÉªn ËĪÊĮf","Ġj ËĪuËĲzd","ÊĮ n","ËĪÉª ks","ĠkËĪÊĮm ÉªÅĭ","p Éļ","ĠnËĪoÊĬ bÉĳËĲdi","Ġb ËĪÉľËĲn","ĠhËĪÃ¦nd z","ĠÉ¡ ËĪÉĻ","m ÉĻnt","ĠËĪÃ¦ sk","Ġkl ËĪoÊĬs","ËĪÉĶËĲÉ¹ d","Ġsl ËĪiËĲp","p É¹","ĠËĪaÉª i","ËĪaÊĬ d","ËĪÉĽk t","ĠsËĪiËĲ n","Éª dÊĴ","ĠbÉ¹ ËĪoÊĬk","ĠËĮÊĮ ndÉļ","ĠfËĪaÉª n","Ġj ËĪuËĲ","Ġt ËĪÊĮtÊĥ","Ġf ÉĻk","ËĪÊĮ b","Ġb ËĪÉĽst","ËĪaÉª s","ĠÉĻËĪ ÉĻÉĻÉĻÉĻ","Ġm ËĪeÉªb","Ġf ÉļÉ¹","w ÉĻ","ĠhËĪÃ¦ p","l ËĮÃ¦","v ÉĻ","Ġf ËĪÉľËĲst","ĠÉ¹ ËĪeÉªn","Ġd ËĪÃ¦m","k É¹","ĠlËĪÊĬk ÉªÅĭ","ĠdËĪÉªd ÉĻn","ĠÉ¹ ËĪÃ¦p","ĠÉ¹áµ»m ËĪÉĽmbÉļ","tÊĥ Éļ","ĠÉ¡ËĪÉĽ É¾ÉªÅĭ","ËĪaÊĬn t","ËĪeÉª l","ĠÉª m","ĠdÉ¹ ËĪÉĳËĲp","ĠfÉļÉ¹ ËĪÉĽvÉļ","ËĪÊĮ É¡","ĠÎ¸É¹ ËĪoÊĬ","Ġs ËĪÉľËĲ","Ġs ËĪÉªn","ĠbÉªk ËĪÊĮz","Ġk ËĪÉªs","ĠÊĥ ÉĻt","Ġp ËĪÉĳËĲÉ¹","ËĮÊĮ k","ËĪÃ¦Åĭ k","ĠdËĪeÉª z","Ġk ËĪÉĳËĲm","Ġt ËĪÉĳËĲp","Ġ -","f ËĮÊĮk","Ġk ÉĻl","ĠmËĪeÉªb iËĲ","ËĪÊĮ bÉĻl","ËĪÃ¦ l","ft Éļ","Ġsk É¹","ËĪÊĮ d","Ġd ËĪoËĲÉ¹","Ġf ËĪÉĳËĲÉ¹","n ËĪÉĳËĲ","ÉĻd ÉĻ","a ÊĬ","ĠÉĶËĲlÉ¹ ËĪaÉªt","ËĪÉĽ p","ĠsËĪÊĮmw ÊĮn","É¾ ÉĻt","ĠfÉ¹ËĪÉĽnd z","Ġj ËĪÉĽs","ĠbÉĻ Î²ÉĻ","Ġk ËĪoÊĬld","ĠÉĽ ks","ĠhËĪeÉª t","Ġl ËĪÉĳËĲt","Ġd ËĪÉĳËĲÉ¹k","l ÉĻs","Ġb ÉĻt","ĠÉĻÉĻÉĻÉĻÉĻÉĻ ÉĻÉĻÉĻ","ËĪÉĽ Êĥ","ĠÊĥ ËĪaÉªn","Ġ z","ĠbËĪiËĲ t","b É¹","Ġh ËĪÉĳËĲ","ĠhËĪÃ¦ z","j ËĪuËĲz","p ÉĻl","ĠÃ° ÉĽÉ¹","É¡ ËĪÉĽÃ°Éļ","ËĮÉĽm ËĮÉĽm","ĠÉ¹ËĪÉĽd i","ĠhËĪÉĽl p","ĠÃ° ËĮoÊĬ","ËĪÉĶËĲ É¾Éļ","ËĪÉªl i","ĠsËĪÊĮm bÉĳËĲdi","ĠtÉĻ É¡ËĪÉĽÃ°Éļ","ĠpËĪÉĳËĲÉ¹ É¾i","ĠmËĪÉĻ k","Ġw ÉĻnt","ÉļÉ¹ i","Ġb ËĪoÊĬ","Ġbl ËĪuËĲ","ÉĻl ÉĻl","Ġd ËĪiËĲp","ĠÉ¡ËĪÉľËĲl z","Ġw ÉĻz","ĠlËĪaÉª n","ËĪÉĶ s","ĠsËĪÉª É¾i","ĠmËĪÉĽn i","ÉĻÉĻ Åĭ","t aÉª","Ġf ËĪÉĽl","Ġsk ËĪaÉª","Ġsw ËĪiËĲt","É¹ oÊĬ","ÊĬ d","Ġd ËĪÉª","Ġsm ËĪoÊĬk","ĠwËĪÉª nd","ĠfËĪÊĮk Éªn","Ġbl ËĪoÊĬ","oÊĬ kËĪeÉª","ËĪuËĲ p","ĠÎ¸É¹ ËĪiËĲ","Ġd ËĪÉĽd","É¡ É¹","Ġk ËĪaÉªnd","Ġl ËĪÉªl","Ġt ËĪÊĬk","ĠsËĪeÉª v","Ġsl ËĪoÊĬ","Ġt ËĪiËĲ","Ġd ËĪÉĻn","Ġw ËĪÉĶËĲÉ¹","ËĪÉªs ÉĻn","? ]","Ġp ËĪiËĲs","ËĪÃ¦k s","n ËĪoÊĬ","ĠbÉĻ tÊĥ","ĠËĪÃ¦ ftÉļ","Ġl ËĪoÊĬn","ĠÉĻÉĻÉĻÉĻÉĻÉĻ ÉĻÉĻÉĻÉĻ","Ġs ËĪaÊĬnd","Ġf ËĪÉĶËĲÉ¹","ĠwËĪeÉª É¾ÉªÅĭ","ĠÊĥ ËĪuËĲ","Ġk ËĪÉªd","ĠËĪiËĲ z","Ġm ËĪÊĮst","Ġf ËĪaÊĬnd","ËĪÉĽnt i","Ġl ËĪeÉªt","Ġst ËĪoËĲÉ¹","É¾ ËĪy","Éª É¾i","Éª Êĥ","Ġh ÉĻl","ĠÉ¡ ËĪÃ¦Åĭ","Ġh ËĪÉĳËĲt","Ġk ÉĻnt","ĠÉ¡ ËĪÊĮn","ĠmËĪÊĮÃ°Éļ fËĮÊĮk","Ġf ËĪaÉªt","É¾ÉĻ nd","ËĪÉª É¾i","Éª É¡","Ġm ËĪÉĶËĲÉ¹n","ËĪaÊĬ Éļ","ËĪÉª ft","ĠtËĪaÉªm z","Ã° ÉĻ","ËĪÉªl d","ËĮoÊĬ Éªn","ËĪÉĽ ËĲ","Åĭ k","ĠnËĪoÊĬ z","ÉĻm ÉĻnd","ĠÃ° ËĪoÊĬz","ËĪÃ¦ É¡","ĠËĪoÊĬ pÉĻn","ĠpÉ¹ ËĪÉĳËĲb","ĠÊĥ ËĪÉĳËĲt","ĠhËĪaÊĬ s","ĠÉ¡ ËĮoÊĬÉªn","Ġ[ ?]","ĠmËĪÉĳËĲm ÉĲ","ĠËĪÃ¦ kt","Ġb ËĪak","ËĪÃ¦n t","Ġl ËĪÉĶËĲÉ¹d","ĠkËĪÊĮm z","Ġl ËĪÉªsÉĻn","ĠhËĪÉľËĲ d","âĢ Ķ","ËĪÉĽ z","Ġk ËĪÃ¦","ĠmËĪÃ¦ É¾Éļ","Éª ts","j ËĪÉĽËĲ","ĠÉ¡ËĪÉĽ ÊĶn","ËĪÉĽ Î¸","ĠËĪÉĽl s","Ġn ËĪÉĽkst","ĠËĮÊĮndÉļ st","ĠlËĪÉªv ÉªÅĭ","t É¹","ĠÊĮn tËĪÉªl","ĠnÉĻ v","Ġa ÊĬ","ĠÊĥ ËĪÊĬÉ¹","ËĪÉªp s","l ÉªÅĭ","d ÉĻ","d ËĪuËĲ","Ġw ËĪaÉªt","Ġb jËĪuËĲ","ĠtÊĥ ËĪÉĽk","ËĪÊĮÅĭ k","ĠÊĥ ËĪeÉªk","Ġb ËĪÉľËĲ","Ġsm ËĪaÉªl","ĠÉĻv É¾ËĪy","t ËĪiËĲ","ÉĻn k","ĠtÉ¹ËĪaÉª ÉªÅĭ","ĠdÉ¹ ËĪÉªÅĭk","Î¸ ÉĻÅĭ","d ËĪÉĳËĲ","h ËĪeÉª","ÉĻl ÉĻ","ĠnÉĻv ËĪo","ĠdÉ¹ ËĪaÉªv","ÉļÉ¹ ËĮÉª","ĠÉ¹ËĪoÊĬ d","ĠwËĪÊĮ ndÉļ","ĠÉ¡ËĪoÊĬ z","ĠfÉļÉ¡ ËĪÉĽt","Éª v","Ġk ÉĻn","ĠwÉĻn ËĪa","Ġt ÉĻd","ĠÉ¡ ËĪÉĽs","Ġw ËĪÉªn","Ġ oÊĬkËĪeÉª","Ġk ÉĻp","ĠlËĪoÊĬn li","ĠfËĪÊĮk ÉªÅĭ","ĠsËĪÊĮm taÉª","ËĪÃ¦k t","ĠËĮÊĮndÉļst ËĪÃ¦nd","ËĪi ÉĻ","ËĪÃ¦k Éªn","ËĪiËĲ ts","ĠhËĪoÊĬ z","ĠËĪÉĽvÉ¹Éª w","É¾ ÉĻk","jËĪuËĲz Éªk","ËĪÉľËĲ É¾i","ËĪÉĽd i","Ġf ËĪÃ¦st","ĠbjËĪuËĲ É¾i","ËĪÉªp Éªn","Ġt ÉĻl","ĠÉ¹ËĪÊĮn ÉªÅĭ","Ġt ËĪaÊĬn","Ġj oËĲÉ¹","Ġs ÉĻm","p s","ĠËĪÃ¦ n","h ËĪÉĳËĲ","ĠÉ¹ ËĪuËĲm","s p","ĠjoËĲÉ¹ sËĪÉĽlf","Ġm jËĪuËĲzÉªk","Ġm ËĪeÉª","Ġw ËĪÉĽnt","ĠËĪiËĲz i","ĠhËĪÉľËĲ t","ĠwËĪÊĮn s","ĠwËĪÉľËĲ dz","Ġn ËĪÉĻt","Ġl ÉĻ","ĠÉ¡ ÉĻd","Ġm ËĪÉĳËĲ","Ġs ËĪÉĽl","ĠdÉ¹ËĪiËĲm z","Ġb ËĪÉĽd","Ġh ÉĻd","Ġw ËĪÉĶËĲÉ¾Éļ","Ġk ËĪoÊĬ","ĠÉ¹ ËĪÉªtÊĥ","Ġ ËĪÉĽÉ¹","ĠÉ¾ ÉĻt","ĠdËĪuËĲ ÉªÅĭ","Ġs ËĪÉĽt","ĠpËĪÊĬ si","ĠÉĲ p","Ġd ËĪoÊĬ","Ġw ËĪeÉªk","ËĪÉĻ d","Ġs ËĪÉªk","ÉļÉ¹ËĮÉª sk","ĠsËĪÊĮmtaÉª mz","t Ê°","ĠËĮÉĽn i","Ġfl ËĪoËĲÉ¹","Ġk ËĪÃ¦tÊĥ","ÉĻ b","ËĪaÊĬ Î¸","É¾ ÉĻd","nd z","Ġa tÊ°","ËĮÊĮ n","ĠmËĪÃ¦ d","ĠlËĪaÉª ts","Ġb ËĪÊĮ","w ËĮÊĮt","ĠsËĪÉªn s","iËĲ n","m ÉĻs","Ġbáµ» h","oÊĬ z","ĠÉ¡ËĪoÊĬ ld","t Éļ","ĠdËĪaÉª ÉĻmÉĻnd","ĠfËĪiËĲl z","ĠdËĪÉª fÉ¹","Ġs ËĪÉĶËĲ","Ġfl ËĪoÊĬ","ĠÉ¡ ËĪeÉªv","Ġt ËĪÉªl","ĠmËĪÉĶËĲÉ¹n ÉªÅĭ","s l","Ġw ËĪuËĲ","ËĪÃ¦ b","Ġf ËĪoÊĬn","Ì ©","ĠÉĲ d","ĠstÉ¹ ËĪeÉªt","ËĮaÉª z","ĠstÉ¹ ËĪÉĶÅĭ","ĠnËĪÊĮ Î¸Éªn","ËĪaÉª m","b ËĪaÉª","Ġl ÉĻv","ÊĥÉĻn z","ËĪaÊĬ z","ĠËĪÉĽnÉª Î¸ËĮÉªÅĭ","Ġk ËĪuËĲl","ËĮeÉª t","Ġf É¾ÉĻm","ÉĻm z","Ġf jËĪuËĲ","Ġw ÉĻk","Ġh ËĪÉĽvÉĻn","Ġbl ËĪÊĮd","Ġp ËĪÃ¦","ĠËĪÊĮ ndÉļ","k ÉĻz","t w","Ġf ËĪuËĲl","ĠÉ¹ ËĪuËĲ","ĠtÉĻd ËĪeÉª","Ġh ËĪaÉªd","ĠkËĪÊĬd ÉĻn","Ġ ËĪÉľËĲ","Ġn ÉĻd","Ġs ËĪÉªt","ĠÉĻÉĻÉĻ ËĮÉĻ","ËĪÉľËĲ t","ĠÃ°ÉĻ n","ĠkÉ¹ ËĪÉªs","ËĪÊĬ mÉĻn","ËĪÃ¦ f","Ġs ËĪÉĳËĲÉ¹","ĠhËĪÃ¦p i","Ġk ËĪÉªÅĭ","Ġp ËĪÃ¦s","ĠtËĪÉĶËĲk ÉªÅĭ","Ġp ËĪÉĳËĲÉ¹t","Ġk ËĪaÊĬnt","hËĪÊĮ ndÉ¹","ĠÎ¸ËĪÉªÅĭk ÉªÅĭ","ĠkÉĻm ÉĻ","ĠÉĲl ËĪaÉªv","Ġw ËĪÊĬmÉĻn","Ġw ËĪiËĲk","ĠÉ¹ ËĪaÊĬnd","aÉª t","Éª l","ĠtËĪÉĶËĲk Éªn","Ġl ËĪuËĲ","É¡ ÉĻl","Ã¦ n","Ġt ÉĻm","ĠpÉ¹ ËĪÉªÉ¾i","ĠtÉ¹ËĪuËĲ Î¸","hËĪÊĮndÉ¹ ÉĻd","Ġf ËĪÊĬl","Ġw ÉĻt","ĠÉ¹ ËĪiËĲz","ĠpÉ¹ ËĪÉĳËĲm","Ġd ËĪÉªk","ĠwËĪeÉª st","Ġb ËĪuËĲ","ËĪÉĳËĲl oÊĬ","ĠdÊĴ ËĪÊĮmp","ĠmËĪeÉªk s","ËĪÉľËĲ nd","ĠhËĪÃ¦ Åĭ","ĠÉ¹ ËĪÉªÅĭ","st É¹","Ġp ËĪÃ¦st","Ġt É¾ÉĻ","w ËĪoÊĬ","ĠËĪÉĽnÉª w","ËĪaÊĬz ÉĻnd","ÉĻd ÊĴ","ËĪÉĶÉª s","ĠÉĲ m","ĠstÉ¹ ËĪiËĲt","ĠkËĪÊĮ t","Ġm ËĪÉªst","ĠlËĪÊĬk Éªn","Ġtw ËĪÉĽnti","áµ» t","Ġst ËĪÉĽp","ËĪÉĶ l","ĠwËĪÉĶnt áµ»d","Ġt ËĪÉĽn","Ġd Éªz","ĠdÊĴ ËĪuËĲ","ĠbËĪÃ¦ Åĭ","Ġm ËĪÉªn","ĠbjËĪuËĲÉ¾i fÉĻl","Ġbáµ»h ËĪaÉªnd","Ġkl ËĪÊĮb","Ġt É¾","Ġn ÉĻt","ĠtÉ¹ ËĪaÉªd","a Éªn","ĠbËĪÉĶÉª z","É ĳËĲÉ¹","ĠwËĪaÉª ld","Ġn ËĪaÉªn","ĠlËĪeÉª di","ĠbÉ¹ ËĪiËĲ","ĠtÊĥ ËĪÃ¦ns","É¹ ËĪoÊĬl","Ġ ËĮÉĽ","Ġl ÉĻf","ĠÉĻv ËĪo","ĠpÉ¹ ËĪeÉª","ËĪÉĶ Éªn","ĠhËĪÊĮ ndÉ¹","ÉĽ kt","ĠhËĪÊĮndÉ¹ Éªd","Ġn ËĪÊĮm","ĠÉ¡ ÊĬd","h ÉĻ","ĠskÉ¹ ËĪiËĲm","ĠtÉ¹ ËĪÊĮst","É¡ Éªn","É¾ ËĪÉĻ","Éª ËĮoÊĬ","Ġf ËĪiËĲt","ĠfËĪÉĶËĲl ÉªÅĭ","É¾ ÉĻs","Ġ ËĮoÊĬ","ËĪeÉª tÊĥ","Ġj ËĪÉªÉ¹z","Ġw ËĪÉĶËĲl","ĠdËĪÉªfÉ¹ ÉĻnt","Ġb ËĪÉĶËĲl","Ġsp ËĪÉĽnd","ËĪeÉªn z","É¾Éļ z","ĠmËĪuËĲ n","Ġm ËĪÉªli","ÉĻz ÉĻ","Ġsw ËĪÉĽÉ¹","ËĪeÉª st","w ËĪÊĮn","ÊĴ ÉĻn","Ġb ËĪa","? \"","ĠdÊĴ ËĪiËĲ","É¹ ÉĻn","Ġm ËĪÉľËĲ","ËĮÉĳËĲÉ¹ É¹","Ġp ËĪoËĲÉ¹","ĠfËĪaÉª v","ĠwËĪÉĻ l","Ġ ËĪaÊĬ","ËĪÉĽÉ¹ d","ĠÉ¡É¹ ËĪaÊĬnd","ĠfÉ¹ ËĪÊĮnt","f l","ĠsËĪuËĲ n","ĠhËĪa v","Ġs ÉĻp","ĠbÉ¹ËĪoÊĬk ÉĻn","ĠbÉ¹ËĪiËĲ Ã°","ËĪÉľËĲ v","ĠkÉ¹ËĪÉªs mÉĻs","Ġsp ËĪiËĲk","w ËĪuËĲ","ĠstËĪÉĳËĲÉ¹ z","Ġb ËĪÉªt","ĠwËĪÊĮ É¹i","ĠstÉ¹ ËĪiËĲts","Ġs ÉĻk","Ġs ËĪÉĽks","ĠÉ¡ ÉĻl","Ġb ËĮÉĻn","ËĪÉĽ pt","áµ» l","Ġt ËĪÉªÉ¹z","Ġp ÉĻl","ĠbÉ¹ ËĪÊĮÃ°Éļ","ĠÉĻËĪ ÉĻÉĻÉĻÉĻÉĻ","ĠmËĪiËĲ t","l z","Ġd ËĪÉĳËĲl","ĠmËĪeÉªk ÉªÅĭ","Ġs ÉĻd","ĠÉªt s","ĠtÉ¹ ËĪÃ¦p","ËĪÉª ÊĥÉĻn","Ġh ËĪÉĽÉ¹","ĠÃ° ËĮÉĻm","ĠÉĻ m","Ġk ËĪÉªk","s ÉĻn","ĠsËĪÊĮm Éļ","ĠËĪiËĲ t","Ġh ÉĻm","ÉĻt ÉĻ","ĠÉĻ Î²","ĠÉ¹ËĪiËĲz ÉĻn","ËĪÉĳËĲÉ¹ É¹","ËĪÉĽn s","ĠÊĥËĪuËĲ t","Ġm ËĪÉĽs","Ã¦ nd","ĠwËĪÉľËĲ d","Ġf ËĪÉĳËĲloÊĬ","ĠsËĪÉĳËĲÉ¹ i","w ËĪaÉª","ĠbËĪÃ¦ É¡","Ġb ÉªÉ¡","ĠÉ¹ ËĪÉĽst","ËĮÉĽ É¹","ĠbËĪiËĲ ÉªÅĭ","Ġd ËĪÊĮz","ÉĽ n","ĠnÉĻÉ£ËĪa z","s ËĪiËĲ","t ËĪuËĲ","Ġk ËĪÃ¦Êĥ","Ġb ËĪÉĽt","Ġh ËĪÊĬd","Ġb ËĪÉĳËĲÉ¹","Ġpl ËĪÃ¦n","ĠpÉ¹ËĪÉĳËĲm Éªs","ĠÉ¹áµ» l","ĠfËĪiËĲl Éªn","ĠkÉĻnt É¹ËĪoÊĬl","ËĪÉĶËĲ É¾i","ĠÉĻ b","Ġw ËĪÉªt","ĠwËĪÊĬd ÉĻn","ĠÉ¾ ÉĻn","Ġf ËĪÊĮn","ĠÉ¡ÊĬd bËĪaÉª","ĠpËĪÊĬ Êĥ","d eÉª","ËĮÉª s","ËĪoËĲÉ¹ z","Ġd ÉĻd","ĠËĪÉĳËĲÉ¹ mz","ËĪaÉª k","ĠÉĻ p","Ġf ËĪeÉªd","Ġm ËĪÉªd","ËĪÃ¦ v","Ġb ÉĻl","ĠÎ¸ ÉĻnk","Ġk ËĪÉĳËĲn","ËĪÉĳËĲ ks","Éª f","ĠlËĪÊĮv ÉªÅĭ","ĠÉĶËĲlÉ¹ ËĪÉĽdi","Ġbl ËĪÉĳËĲk","ËĪÉĽ f","Ġk ËĪÉĳËĲp","ĠmËĪoÊĬ mÉĻnt","ĠkËĪÉĳËĲm Éªn","ĠÃ°ËĪÉĻ z","Ġp ÉĻp","ĠÉ¡É¹ ËĪoÊĬ","ĠpËĪÉľËĲ f","ËĮÉĳËĲ n","Ġm ËĪan","ËĪÉªl z","Ġs ËĪÉĽnd","ĠsËĪeÉª ÉªÅĭ","ĠÉ¹ ËĪÉĽk","Ġf ËĪÉªÉ¹","ËĪÉª Êĥ","ĠËĪaÉª s","ĠdËĪaÉªÉĻmÉĻnd z","Ġb ËĪÊĬl","ĠbËĪoÊĬ Î¸","Ġb ËĪÊĮst","Ġ ËĮÉĽm","ĠstËĪÉĳËĲÉ¹ É¾áµ»d","Ġw ËĪÉĳËĲs","ËĪeÉª p","ĠÉ¡ ÉĻvÉĻ","ĠÉĲl ËĪÉĶÅĭ","ĠËĪiËĲ tÊĥ","Ġs ËĪÃ¦d","ËĪÉªm i","ĠtËĪeÉªk ÉªÅĭ","ËĪÉĶËĲ n","Éª É¹","É¾ oÊĬ","ÉĳËĲ n","Ġs ËĪÉĽk","ĠÉ¾ ÉĻd","Ġm ËĪÉĽm","ĠwËĪÉĳËĲs ÉĻn","ĠhËĪÃ¦ f","ËĪoËĲÉ¹ d","Ġsp É¹","Ġl ËĪÃ¦f","st ÉĻ","ÉĻÉĻÉĻÉĻ ÉĻÉĻÉĻÉĻ","s ÉĻ","ĠÉĲ t","Ġs ËĮÉĻm","ĠaÊĬ ts","ËĮÉĳËĲÉ¹ tËĪiËĲ","Ġk ËĪÉĳËĲ","ĠdËĪÉĳËĲ É¡","Ġb ËĪÉĶËĲÉ¹n","sk ËĮeÉª","Ġl ËĪaÊĬd","Ġk ËĪÉĶËĲt","w iËĲ","ĠÎ¸ ËĪÃ¦Åĭk","ËĪa nd","Ġd ËĪÃ¦","ËĪuËĲ v","Ã¦ m","f ËĮaÉª","Ġw ËĪÉĳËĲ","Ġf ËĪeÉª","É¹ ÉĻ","ËĪaÉª ld","Ġs ÉĻn","t ËĪÉĽvÉļ","Ġ ËĪÉĳËĲn","ĠÉ¹ËĪiËĲ tÊĥ","b l","ĠpÉ¹ËĪÉĳËĲb l","ÉĻÉĻ n","ĠÉ¹ ËĪÃ¦","ËĪoÊĬz d","ËĪÊĮ Êĥ","ĠlËĪaÉª z","Ġm ÉĻs","Ġd ËĪÉĳËĲÉ¹","Ġd ËĪiËĲl","i ÉĻ","áµ» k","ĠÉ¡ ÉĻt","Ġh ËĪÊĮni","Ġd ËĪiËĲ","Ġv ËĪaÉª","Ġj ËĪeÉª","ËĪÉĳËĲÉ¹ oÊĬ","ËĪa m","Ġm ËĪÉĽt","ĠÉĻÎ² ËĪÉĻt","Ġb ËĪÉªz","ĠÉ¡ËĪÉĽt s","ĠsËĪÉª ks","ËĪaÉª i","ĠpËĪÉľËĲf ÉĽkt","Ġs ËĪÊĮk","ĠsËĪiËĲ mz","Ġm ËĪaÊĬÎ¸","Ġk ËĪÉĻd","Ġv ËĪÉĽÉ¹i","ËĪiÉĻ É¹oÊĬ","ĠwÊĮ tËĪÉĽvÉļ","É¡ n","ĠtÉĻm ËĪÉĳËĲÉ¹oÊĬ","ÉĻ tÊĥ","ĠsËĪiËĲ m","ĠËĪÉĽvÉ¹Éªw ËĮÊĮn","ĠËĪeÉª ndÊĴ","ĠdËĪuËĲ Éªn","ËĮÉĽmËĮÉĽm ËĪÉĽm","Ġl ËĪiËĲ","Ġj ËĪÉªÉ¹","ĠÊĥ ËĪÉĶËĲÉ¾i","ĠmËĪoÊĬ st","Ġf ËĪÉªl","Ġ ËĪÉĶËĲ","ĠjËĪuËĲ s","ĠsËĪÊĮm Î¸Éªn","ÉĻ ËĮÉĻ","Ġl ËĪÉľËĲn","ËĪÉĽv ÉĻl","ĠkËĪÉªd z","Ġa z","ĠtËĪaÉª Éļd","d ËĪÉĳËĲn","s ËĪaÉªd","Ġl ËĪÉĳËĲk","Ġd ËĪoÊĬs","Ġj ËĪoËĲÉ¹z","Ã° z","ĠfËĪÊĮk t","ĠÉ¡ ÉĻn","ĠfÉ¹ ËĪiËĲk","ËĪÊĮ t","ĠmËĪÉªli ÉĻn","ĠÉĲp ËĪÉĳËĲÉ¹t","ËĪÉĳËĲ d","ĠÉ¹ ËĪeÉªz","É¾ ÉĻn","Ġf ËĪÃ¦m","Ġs ÉĻl","ĠwËĪeÉª v","ĠstÉ¹ ËĪeÉªndÊĴ","ĠlËĪÊĮv d","ĠËĪeÉª t","Ġs Éļ","Ġst ÉĻl","Ġn ËĪÉĳËĲk","n ÉĻ","ËĪÉľËĲ s","ĠfËĪÉĽl t","l Éļ","Éªm ËĪoËĲÉ¹","Ġs ËĪÊĮtÊĥ","Ġf ËĪiËĲ","ĠdËĪÃ¦ di","ËĪaÊĬn s","Ġst ËĪÉªk","ĠaÊĬts ËĪaÉªd","Ġkl ËĪoÊĬ","Ġt ËĪaÉªt","Ġh ËĪÉĳËĲp","ĠmÉĻn ÉĻ","Ġt ËĪeÉªst","Ġl ËĪÃ¦nd","ĠlËĪÉªv Éªn","ĠËĮÉĽn ÉªmËĪoËĲÉ¹","Ġf ËĪÉĳËĲ","ĠsËĪÉª m","ĠÉ¡É¹ ËĪeÉªt","Ġl ËĪiËĲd","ĠtÉ¹ ËĪÊĮbÉĻl","ĠtÊĥ ËĪaÉªld","Éª ks","Ġn ËĪaÉªs","Ġf ËĪeÉªk","ĠÉ¹ËĪÊĮn Éªn","Ġsk ËĪÉĽÉ¹d","ËĪÊĮ p","ËĪÉĶÉªn t","dÊĴ Éªk","ĠwËĪÉĶËĲk ÉªÅĭ","ĠkËĪÉĶËĲl ÉªÅĭ","jÉĻ h","Ġsk ËĪÉªn","ĠÎ¸ ÉĻÅĭ","ĠdËĪoÊĬs ÉĻn","Ġv ËĪÉĶÉªs","ĠdËĪoÊĬ p","Ġl ËĪÉĽs","st ÉļÉ¹ËĮÉªsk","ËĪÉĽd ÊĴ","ÉļÉ¹ ÉªÅĭ","ĠwËĪÉľËĲ Î¸","Ġkl ËĪÉªÉ¹","Ġd ËĪÉĽÎ¸","Ġl ËĪÊĮk","aÉª z","m ËĪaÉª","Ġw ËĪÉªp","ĠbËĪÉĳËĲ É¾ÉĻl","ËĮeÉª tÊĥ","Ġd ËĮÉªs","Ġsk ËĪuËĲl","ËĪuËĲ ËĪuËĲ","Ġh ËĮa","ĠÉĻ wÉĻ","Ġw ÉĻld","Éª li","É¹ ËĪiËĲ","ËĪ ÉĻÉĻÉĻ","Ġd ËĪÊĮbÉĻl","fÉ¹ ËĪeÉªd","ĠÉ¹ ËĪaÉªz","t i","ÉĻd i","Ġp ËĪaÊĬÉļ","É¾ Éªk","l f","Ġm ËĪÉĽnt","ĠnËĪaÉªt s","Ġl ËĪÉªk","Ġh ËĪÉĳËĲl","ĠtÉ¹ ËĪÉªp","ĠÉ¡ ËĪuËĲ","s ÉĻl","Ġs ËĪaÉªn","É£ ÉĻn","l ËĪÉĽt","ĠdËĪÃ¦ns ÉªÅĭ","ÉĽ nd","ĠkËĪÊĮ pÉĻl","tw ËĪiËĲn","ÉĻÉĻ l","Ġd É¾ÉĻ","ÉĻs ÉĻ","Ġst ÉĻ","Ġt ËĪÉľËĲnd","ĠtËĪeÉªk s","ÉĻs ÉĻn","ĠÊĥ ËĪÉĶËĲÉ¹","Ġsk w","ÉĻnt s","ĠÉ¹ ËĪÉª","k l","ËĪÊĮ É¡z","É¾ Éªst","ĠsËĪÉĽk ÉĻnd","Ġb É¾ÉĻk","Ġf ËĪÉªft","ĠÉĲ fÉ¹ËĪeÉªd","Ġbl ËĪaÉªnd","ĠhËĮa d","ĠwËĪÉĶnt s","ĠplËĪeÉª ÉªÅĭ","Ġf ËĪeÉªm","ËĪÉªv Éļ","Ġs ÉĻt","ĠÉ¡É¹ ËĪiËĲn","ĠstËĪÃ¦nd ÉªÅĭ","k ËĪÊĮm","ĠÉĻn l","j ËĪÊĬÉ¹","Ġd ËĪÉľËĲÉ¾i","ĠnËĪÊĮm bÉļ","d ËĪiËĲ","ËĪ ÉĻÉĻÅĭ","ËĪa p","' )","Ġf ËĪÉªÅĭ","Ġp É¾ÉĻ","ĠÉ¹ ËĪiËĲd","ËĪÉĽl v","ĠÉĻ É¾ÉĻnd","ÉĻk t","ĠÉ¹ ËĪaÉª","É¡ oÊĬ","Ġm ËĪÉªÉ¹","ĠÎ¸ É¾ËĪÉĻ","ËĪuËĲ d","Ġm ËĪÉĳËĲÉ¹","Ìĥ ,","Ġd ËĪÊĮm","ĠÉĻb ËĪÊĮv","ĠtÊĥ ËĪeÉªn","ĠmËĪÉªn Éªt","Ġs ËĪa","ĠtÉ¹ËĪaÉª Éªn","Ġbáµ» twËĪiËĲn","ÉĻb li","f ËĪaÉªv","Ġl ÉĻst","Ġb ËĪÉĶËĲt","ĠsËĪuËĲ pÉļ","Ġst ËĪÉĽÉ¹","Ġj ËĪÉĽt","ËĪiËĲz ÉĻs","ĠwËĪÊĮn z","ĠsËĪeÉª Éªn","ĠklËĪoÊĬ Ã°z","ĠÎ¸ ËĪaÊĬzÉĻnd","Ġ ËĮÉĻ","ĠkÉĻn f","Ġb É¾ÉĻ","ĠÉ¹ ËĪeÉª","Ġs ËĪÉĽnt","ĠstËĪoËĲÉ¹ i","Ġp ËĪoÊĬ","ĠhËĪoÊĬld ÉªÅĭ","Ġf ÉĻn","Ġsp ËĪeÉªs","ĠtÊĥ ËĪÉĳËĲp","Ġbl ËĪeÉªm","ÉĻÉĻÉĻÉĻ ÉĻÉĻ","Ġp ËĪÉĳËĲk","ĠÉĻnl ËĪi","ĠËĪÃ¦ l","Ġl ËĪÉªps","b ËĪiËĲ","j ÊĬ","j ËĮuËĲ","ĠsËĪoÊĬ ld","ĠbÉªÉ¡ ËĪÉªn","ĠbÉ¹ ËĪeÉªn","ËĪÊĮ s","ËĪÉª dÊĴ","ĠkËĪÃ¦ É¹i","Ġb ËĪÉĽl","Ġd ËĮiËĲ","Ġn ËĪÉĽk","Ġf ËĪÉªn","ĠhËĪÃ¦ pÉĻn","ËĪÊĮ nd","ËĮÉĽmËĮÉĽm ËĪeÉª","Ġw ÉĻl","ËĪÉªk t","Ġst ËĪÊĮk","ĠÉ¡ÉĻt ËĪa","l aÉªt","ĠÉ¹ ËĪÉªd","Ġl ÉĻn","Ġs ËĪÉĽz","ĠtÊĥ ËĪeÉªs","Ġsp ËĪÉªn","ĠËĪ Éªs","Ġk ÉĻ","ĠfËĪÃ¦m Éªli","ĠÉ¾ ÉĻk","Ġb ËĪÉªld","ĠpÉ¹ËĪÉĳËĲb ÉĻbli","ĠhËĪaÉª Éļ","d ËĮeÉª","m ÉĻ","ĠÉ¾ ÉĻlÉĻ","ĠfËĪeÉª Î¸","Ġ ËĪÉĽks","ĠpËĪeÉª pÉļ","ĠsËĪÉĻ m","ĠbÉ¹ ËĪÉĽÎ¸","Ġk ËĪoËĲÉ¹","ĠkËĪÉĶËĲl d","ËĪa l","ĠÉ¡ ËĪÉªmi","ÉĻ bÉĻl","Ġb ËĪeÉªs","ÉĻm ÉĻ","Ġp ÉĻ","ĠËĮÉĻ s","ĠdÊĴ ËĪiËĲzÉĻs","Ġh ËĪÉĳËĲÉ¹","h ËĪÉĽd","ĠËĪiËĲ v","m Éªn","Ġs ÉĻÅĭ","ĠpËĪÉªk tÊĥÉļ","Ġsw ËĪÉªtÊĥ","Ġk ÉĻz","Ġt ËĪoÊĬ","ĠÉªn v","ĠÉªm ËĪÃ¦","pt i","st Éļ","É¾ Éªs","ĠdËĪÉĳËĲÉ¹ lÉªÅĭ","ËĪoÊĬn z","Ġm ËĪÉĽÉ¹i","ĠÉ¡É¹ ËĪeÉª","É¾ ÉĻz","ĠlËĪÊĮv Éļ","d Éļ","Ġf ËĪoÊĬ","Ã° ËĪÃ¦t","Ġkw ËĪÉªk","Ġw ËĪÉªs","ËĪÉªÅĭ z","ĠÉ¡ËĪÉªv ÉªÅĭ","ĠmËĪÉªst Éļ","Ġb ËĪaÊĬt","ĠÉ¾ ÉĻÉĻl","Ġp ÉĻs","Ġl ËĪiËĲn","ĠbÉ¹ ËĪaÉªt","w ÉĽÉ¹","ĠpÉ¹ Éªt","ËĪÉĽk ÊĥÉĻn","ĠÎ¸ËĪÉªÅĭk Éªn","h ËĪuËĲ","d É¹","Ġd ËĪÉªÉ¡","Ġb ËĪÉĽÉ¹","ĠËĪÃ¦n s","Ġk Ã¦n","ËĪÊĬ ks","ĠÉ¹ ËĪuËĲl","Ġf ÉĻnd","ĠÊĥ ËĪaÊĬt","ĠtËĪaÉª p","ĠmÉĻ nd","ĠÉ¹ËĪÃ¦ Ã°Éļ","ËĮeÉª É¾áµ»d","ĠËĪÉľËĲ Î¸","ĠpÉ¹Éªt ËĪÉĽnd","Ġp ËĪÉĻt","ĠfËĪaÉªn ÉĻli","ÉĻt s","ËĪÉĻn a","É Ķ","Ġk ËĪÉĶËĲÉ¹n","Åĭ É¡","ĠwËĪÉĳËĲtÊĥ ÉªÅĭ","ÊĴ Éļ","ËĪÉª f","m oÊĬ","Ġb ÉĻn","dÊĴ ËĪeÉª","ĠËĮÊĮ nd","ĠkÃ¦n ËĪÉĳËĲt","ĠbËĪÉľËĲn ÉªÅĭ","ĠËĪ Éªm","ĠtÊĥ ËĪÉªl","ĠkÉ¹ ËĪÃ¦k","Ġw ËĪÉĽst","ËĪiËĲn z","Ġm Éªst","ĠmËĪuËĲv ÉªÅĭ","ĠËĪÉĽm pti","Ġw ËĪiËĲd","ËĪÊĮv Éļ","ĠbÉĻt ËĪo","ĠÉ¹ ËĪÉªst","Ġs ËĪÉªst","aÊĬ n","áµ» fËĮaÉª","ĠlËĪÊĮv Éªn","Ġp ËĪÃ¦k","ĠmËĪÃ¦ dÊĴÉªk","ĠsËĪÊĮmw ÉĽÉ¹","l Éªn","Ġ ËĮÉĽmËĮÉĽmËĪÉĽm","! \"","ĠÉ¡É¹ ËĪÃ¦b","ĠtÊĥ ËĪÉªk","Ġs ËĪÃ¦","Ġst ËĪiËĲl","ĠsËĪÉªÅĭ ÉªÅĭ","eÉª k","Ġt ËĮiËĲ","ĠtÉ¹ ËĪiËĲt","ĠÉ¹ ËĪeÉªd","ĠÉ¾ ÉĻl","ËĪaÉª Éļ","Ġn ËĪiËĲz","ËĪÉĶÉª z","Ġkl ËĪiËĲn","ĠhËĪÉĳËĲÉ¹t s","Ġb ËĪuËĲm","ĠmËĪÉªd ÉĻl","Ġk ËĪeÉª","Ġt ËĪÉªÉ¹","Ġk ËĪÃ¦p","n ËĪiËĲ","Ġb ËĪaÊĬns","ĠmËĪaÉª k","ĠtÉ¹ ËĪeÉªn","ĠtÊĥËĪeÉªndÊĴ d","ĠÉĽ É¡z","Ġw ÉĻd","ĠÊĥ ËĪuËĲz","Ġp ËĪeÉªd","ĠÉĽks p","Ġh ÉĻld","Ġsp ËĪÉĳËĲt","ĠwËĪeÉª z","ĠsËĪiËĲ kÉ¹","ĠÉ¹ ËĪÉªvÉļ","ËĪÉĽv i","ĠkÉ¹ ËĪÉĶs","ĠËĮoÊĬ vÉļ","ĠËĪÃ¦ k","ĠÉ¾ ÉĻ","ËĪÉª b","Ġp ËĪiËĲ","É¡ ËĪoÊĬ","tÊĥ i","Ġbáµ»l ËĪÉĶÅĭ","Ġkw ËĪÉĽst","ĠfËĪiËĲlÉªÅĭ z","ĠhËĪoÊĬm i","ĠnËĪoÊĬ n","ĠfËĪÉĳËĲ Ã°Éļ","ĠmËĪÊĮÃ°ÉļfËĮÊĮk Éļ","Ġb ËĪÉªl","ÉĻns ÉĻ","ËĪÃ¦st ÉļÉ¹ËĮÉªsk","ĠËĪÉªs ÉĻn","t ËĪÉĽl","Ġ ËĮÃ¦","ĠsËĪeÉª f","Ġb ËĪÉĳËĲm","ËĮaÉª m","Ġs ËĪaÉªl","ĠkËĪÊĮ z","b ËĪÉĳËĲ","ĠkÉ¹ ËĪuËĲ","l ÉĻnd","ĠsËĪiËĲ z","ĠÉĻ ËĮ","ĠlËĪiËĲv ÉªÅĭ","ĠËĪÉĽvÉ¹Éªw ËĮÉĽÉ¹","skËĮeÉª ËĪÉĳËĲÉ¹É¹","Ġn ËĪÉªÉ¹","Ġd Éªs","Ġs ËĪÉĽvÉĻn","ÉļÉ¹ iz","ĠËĪaÊĬ É¾ÉĻ","Ġst ËĪaÉªl","ĠÉ¡ ËĪaÉª","aÉª d","Ġd ËĪÉĽm","ĠÉ¾ ÉĻm","Ġl ÉĻÅĭ","Ġh ÉĻp","Ġp ËĪÉĶÉªnt","ĠlÉĻt ÉĻ","ĠhÉĻl ËĪoÊĬ","Ġn ËĪÊĮn","ĠÊĥ ËĪÊĮt","ĠnËĪoÊĬ wÉĽÉ¹","ÉĻs i","Ġh jËĪuËĲ","Ã¦ k","Ġd ËĪÉĽvÉĻl","ĠÊĥ ËĪÉĽÉ¹","ËĪeÉªÊĥÉĻn z","p ËĪiËĲ","Éª p","ËĪÉĽÉ¹ Éªk","ÊĴ ÉĻ","b ÉĻ","j Éļ","áµ» É¹","ĠÉĲÉ¡ËĪÉĽn st","tÊĥ ÉªÅĭ","Ġk jËĪuËĲ","ÉĻk s","f ËĪÉĻ","f ËĪÊĮk","t ÉĻl","Ġk ËĪa","ËĪaÊĬnt Éªn","Ġw ËĪÉªtÊĥ","ĠkËĪiËĲp s","ĠfÉ¹ ËĪÉĽÊĥ","ĠÉĻp ËĮÉĳËĲn","ĠÉ¡ËĪoÊĬ st","Ġk ËĪeÉªs","skËĮeÉªËĪÉĳËĲÉ¹É¹ ËĮÉĳËĲÉ¹tËĪiËĲ","ĠÉ¹ËĪoÊĬ z","h aÊĬ","áµ» bÉĻl","Ġd ËĪÉªÉ¹","ĠÎ¸ ËĪÉľËĲÉ¾i","Ġkl ËĪaÊĬ","ĠÉĻ É£ÉĻn","ĠmÉªst ËĪeÉªk","ĠtÉ¹ ËĪiËĲ","ĠfjËĪuËĲ tÊĥÉļ","ËĪÉĳËĲk Éªn","ĠdÊĴ ËĪÃ¦k","Ġb ËĪÉĶs","ĠwËĪÉĻ d","ĠÉ¡É¹ ËĪaÉªnd","s ËĪoÊĬ","ĠwËĪÉªnd oÊĬ","tÊĥ Éļz","ĠpËĪÃ¦ É¹","n ËĪaÉªn","ËĪÉªp ÉªÅĭ","Ġp Éļ","Ġf ÉĻs","ĠbËĪÃ¦ l","ËĮiËĲ ËĮÉĳËĲÉ¹É¹","ĠÉ¹ËĪoÊĬl áµ»n","b i","Ġb ËĪÉĽn","ĠbËĪÃ¦ ndz","Ġp ËĪÉĳËĲ","ĠbËĪÉªz nÉĻs","w ÉĻz","ĠdËĪÉĳËĲl Éļ","' ?","Ġsn ËĪoÊĬ","n i","ĠÉĽks pl","Ġm ËĪÉĽl","ĠbÉ¹ ËĪÃ¦nd","Ġm ËĪeÉªn","ĠplËĪeÉª Éªn","ĠbËĪÉĳËĲ É¾ÉĻm","ĠÉ¹áµ» sp","ĠÉ¹ ËĮÉĽ","Ġ ËĪÉĳËĲp","Ġfl ÉĻ","ĠtËĪÉĽl ÉªÅĭ","Êĥ iËĲ","n z","k ÉĻ","b oÊĬ","ĠkËĪaÉªnd ÉĻ","Ġn ÉĻm","Ġ ËĮÉĻn","Ġpl ÉĻ","t Éªn","ĠlËĪÊĮv z","Ġh ËĪiËĲt","Ġj ËĪÉĽl","ĠwËĪÉĶËĲÉ¹ m","ĠÊĥ ËĪÃ¦d","b ËĪeÉªb","ĠËĪuËĲ oÊĬ","Ġf ËĪÉªÉ¡","ĠtÊĥ ËĪÉªld","Ġst ËĪuËĲp","Ġf o","l ËĪÊĮv","Ġk É¾ÉĻ","Ġh ËĪiËĲl","ĠÉ¡l ËĪÃ¦s","Ġm ËĪÃ¦kÉªn","ĠklËĪoÊĬs Éļ","l Éªk","É¡ ËĪÉĽt","ĠËĪÉĳËĲÉ¹ m","Ġk ËĪÊĮnt","ĠfËĪÉªft i","ËĮÉ ľËĲ","Ġk É¾","nËĪiËĲ Î¸","Ġbl ËĪiËĲd","y n","ĠfÉļÉ¡ ËĪÉªv","ĠlËĪaÉªv z","ĠtÉ¹ ËĪÃ¦k","ĠÉĻv ÉĻn","tÊĥ uËĲ","h ËĪÉĻ","k i","ĠdÉ¹ ËĪÊĮÉ¡z","ĠÎ¸ ËĪÃ¦Åĭ","Ġf ËĪÊĮni","Ġt ËĪÉªk","ĠsËĪÉĶÅĭ z","ĠtÊĥ ËĪÉĳËĲÉ¹","Ġ ËĪÉĽs","ĠËĪeÉªndÊĴ ÉĻl","Ġfl ËĪeÉªm","Éªk ÉĻl","Ġsp l","ĠÉĻ nd","Ġn ÉĻk","ËĪÉĶËĲÉ¹ k","ĠtÊĥËĪÉªld É¹ÉĻn","ËĪÊĮn tÊĥ","Ġs ËĪÉĽns","ĠkÉĻm p","ĠlËĪÉª ft","i ÉĻs","ĠdÊĴ ËĪÉĶÉª","Ġa m","Êĥ ÉĻ","Ġm ËĪÉªl","ĠbÉ¹ËĪeÉªk ÉªÅĭ","Ġt ËĪiËĲm","w ËĪÉĽl","ĠbËĪÃ¦ nd","ĠpÉ¹ ËĪÉĽÊĥ","ËĪÉĽn ÊĥÉĻn","Ġs ËĪaÉªt","Ġf ËĪeÉªv","Ġs ËĪÉĽlf","bËĪeÉªb i","ÉĲ p","ĠpÉ¹ ËĪÉĳËĲ","Ġsp ËĪÉªt","ĠÊĥ ËĪeÉªm","ĠkÉĻm pl","ĠsËĪÉªÅĭ É¡ÉĻl","ĠÉ¹ ËĪÃ¦n","ĠÉĻl wÉĻz","ĠmËĪÉĳËĲm ÉĻ","ĠsÉļ v","ĠpÉ¹ËĪÉĳËĲbl ÉĻm","ĠdÊĴ ËĪÉĳËĲn","Ġh ËĪÉªp","ĠbËĪa d","ĠÊĥËĪÉĳËĲt s","ĠstËĪuËĲp Éªd","ĠdÉ¹ ËĪÉĽs","Ġm ËĪaÊĬntÉªn","ËĪeÉªb ÉĻl","ĠÉ¹ËĪÉªd Éªn","Ġd É¾ÉĻm","dÊĴ Éªn","ĠÉĻ kÉ¹","ĠÉĻkÉ¹ ËĪÉĳËĲs","ĠwËĪÉª mÉªn","Ġk ËĪÃ¦m","Ġh ËĪÃ¦t","moÊĬ st","Ġs ËĪÉĽ","t ÉĻ","Ġw ËĪaÉªd","ĠwËĪÉľËĲk ÉªÅĭ","ĠdÉ¹ ËĪÊĮÅĭk","ĠÉªm p","ĠkÉ¹ËĪaÉª ÉªÅĭ","ĠlËĪuËĲz ÉªÅĭ","ĠkËĪÊĮnt É¹i","ĠÉĻÉĻÉĻÉĻÉĻÉĻÉĻÉĻ ÉĻÉĻÉĻ","ËĪÉĻ lf","Î¸ ËĪaÊĬzÉĻnd","Ġd ËĪaÊĬt","ĠÉ¡l ËĪoËĲÉ¹","ĠfÉĻl ÉĻÅĭ","ĠjÉĻ z","Ġst ËĪoÊĬn","Ġl ËĪÊĬks","w ËĮÉĽn","ËĪÉªp t","Ġf ÉĻt","ĠÉĲm ËĪÉĽÉ¹Éªk","ËĮÉĽ É¹i","ĠÎ¸ ËĪÊĮÉ¡","ĠdÊĴ ËĪeÉª","ĠkËĪÊĮ p","Ġw ËĪÉĽt","Ġk ËĪÃ¦nd","ĠÉĻËĮ o","ĠnËĪiËĲd z","Ġj ËĪÉĶËĲÉ¹k","Ġk ÉĻns","ĠËĪÉĶËĲl moÊĬst","w ÉĻn","Ġs ËĮÉª","ĠpËĪeÉªn t","ÉĲ m","Ġd ËĪÉĳËĲk","Ġp ËĪÃ¦n","ËĮ i","b ÉĻt","Ġh ËĪÉĽvi","ĠlËĪeÉªdi z","ĠwËĪaÉª n","ÉĲ l","ĠmÉĻ tÊĥ","Ã° ËĪÉªs","ËĪÉĽnt ÉĻl","ĠbÉªk ËĪÊĮm","ËĪÃ¦nt ÉĻ","ËĪÉĳËĲn ÉĻ","ËĮÃ¦ l","ĠsËĪÉľËĲ v","ĠËĪÃ¦ d","ĠÉ¹ËĪeÉªd ÉªËĮoÊĬ","Ġ âĢ","ËĪÉĻ z","Ġp ÉĻt","ËĮiËĲ n","ĠmËĪÊĮÃ°ÉļfËĮÊĮk Éªn","Î¸ É¹ËĪiËĲ","ĠÎ¸ ËĪÉĶËĲ","iËĲ t","Ġk ÉĻd","ËĪÉĽÊĥ ÉĻl","ĠËĪÉĽvÉ¹Éª dËĮeÉª","ËĪÉĽnd Éļ","ĠÉļ É¹","Ġh ËĮÉĻm","ĠÉĻ k","Ġs ÉļÉ¹","Ġkw ËĪiËĲn","ĠmËĪÉªs ÉªÅĭ","ĠÉ¡É¹ ËĪÃ¦nd","ËĪÉªv Éªn","Ġf ËĪÉªt","ĠËĪÉĳËĲn Éªst","Ġfl ËĪÉĽks","ĠÉĲ hËĪÉĽd","f ËĪÉĶËĲÉ¹","Ġst ÉĻt","Ġdáµ» s","ĠsÉĻp ËĪoÊĬzd","Ġj ËĪÊĮ","Ġsm ËĪÉĽl","Ġsm ËĪÉĶËĲl","ĠhËĪÉĻ z","Ġd ÉĻk","Ġh ËĪÊĮÅĭ","ÉĲ stÉļÉ¹ËĮÉªsk","ĠvËĪaÉª b","ĠdÉ¹ ËĪaÉª","ËĪÊĮ dÊĴ","ĠÉ¹ËĪoÊĬl ÉªÅĭ","ËĪÉª ÊĴÉĻn","Ġs ËĪaÊĬÎ¸","ĠÉ¡ ËĪÃ¦s","ËĪÉĳËĲ É¾ÉĻ","ĠÎ¸ËĪÉĶËĲ ts","Ġd ÉĻz","Ġf ËĪÉĽÉ¹","ĠÉ¹ËĪiËĲÉĻl aÉªz","p ÉĻ","jËĪuËĲ s","ĠkËĪÊĮ l","ĠpËĪÉĳËĲp Éªn",", \"","Ġd ÉĻm","w ËĪÉĽÉ¹","ËĪÊĬ t","Ġl ÉĻd","ĠkËĪÉĳËĲÉ¹ z","ËĪÉľËĲ k","n ÉªÅĭ","ĠwËĪÉĳËĲ Êĥ","Ġm ÉĻl","ĠËĪÃ¦ns Éļ","Ġl ËĮa","Ġk ËĪÊĬk","Ġk ËĪiËĲ","ĠkÉ¹ ËĪaÊĬd","Ġsl ËĪaÉªd","ĠÉ¡É¹ ËĪeÉªv","nd ÉĻ","ĠdÉ¹ ËĪaÊĬn","t ËĪÉľËĲn","ĠwËĪaÉª f","ĠwËĪÉĶËĲk t","Ġkl ËĪÃ¦s","ĠtÊĥ ËĪuËĲz","ĠÉ¹ ËĪeÉªs","ĠkËĪÉĶËĲÉ¹n Éļ","Ġb ÉĻk","k ÊĮm","Ġb ÉĻst","Ġsp ËĪÉĽÊĥÉĻl","n t","ĠdÊĴ ËĪÉĳËĲb","ĠÉ¡l ËĪÃ¦d","ĠfËĪoËĲÉ¹ É¾i","Ġf ËĪÃ¦kt","ËĪÉĶl t","fÉ¹ ÉĽnd","ĠËĪoÊĬ ÊĥÉĻn","Ġj ÉĻs","ËĪÉĶ ft","ĠkÉ¹ ËĪÃ¦Êĥ","ĠËĪ ÉªÉ¹","Ġp ËĪaÉª","ĠÉĻvÉ¾ËĪy Î¸ÉĻÅĭ","ĠmËĪÉĽm ÉļÉ¹iz","Ġsp ËĪÉĽnt","ĠsËĪÉª É¾ÉªÅĭ","Ġpl ËĪeÉªn","ĠhËĪÉľËĲ ts","ĠmËĪaÉª lz","ĠËĪÉĽnÉªw ËĮÊĮn","ĠkÉ¹ ËĪÉªb","ĠtÉĻn ÉĻt","ĠÉ¹ ËĪÉĳËĲ","ĠÉ¡l ËĪoÊĬ","dÊĴ ËĪÊĮst","ĠmËĪuËĲv Éªn","ĠÉ¹ËĪaÉªd ÉªÅĭ","ĠlËĪÊĬk t","Ġkl ËĪaÉªm","ĠdËĪeÉª ndÊĴ","ĠÉ¾ ÉĻÅĭ","ĠËĪÉĽn ÉĻm","ËĪÉªk st","É¹ uËĲ","Ġm ËĪÃ¦k","ĠbÉ¹ ËĪÉĶËĲt","ĠÉ¡ËĪÊĮn z","Ġm ÉĻt","ĠÉ¹ ËĪÉĳËĲb","Ġm ËĪa","ĠÉ¹ ËĪÊĮÊĥ","ĠbËĪÃ¦ Åĭk","Ġn ËĪiËĲ","ÉĻv ËĪo","ËĪÉªm p","Ġsp ËĪÉªÉ¹","É¡ Éļz","Ġf ÉĻst","k w","ĠmËĪÉĻ d","ĠwËĪÉĶËĲl z","ĠÉ¹áµ»sp ËĪÉĽkt","ÉĻÉĻÉĻÉĻ ÉĻÉĻÉĻ","ĠÉ¡ ËĪÉĻÉĻÅĭ","ĠsÉļv ËĪaÉªv","dÊĴ ËĪiËĲ","ĠËĪÉĽnÉª bËĮÉĳËĲdi","Ġw ËĪÉĽÃ°Éļ","ËĪÉª É¾Éļ","Ġtw ËĪÉªst","Ġbl ËĪÉĽs","ĠnÉĻ Î¸ÉĻÅĭ","ĠÉ¹ ËĪÃ¦ks","Ġdáµ» l","ĠÉĲ b","ÉĳËĲ hËĪÉĳËĲ","ĠdÊĴ ËĪÉĽl","ËĪÉªs k","Ġt ËĪÃ¦kÉªn","ĠsËĪÊĮm deÉª","ĠpÉ¹ ËĪÉĽz","ĠnËĪiËĲd áµ»d","ĠmËĪiËĲn z","Ġst É¾ÉĻt","Ġw ËĪiËĲl","ĠsËĪÉĻm Î¸ÉĻÅĭ","ĠâĢ ľ","Ġk ÉĻt","ĠÊĥËĪaÉªn ÉªÅĭ","ĠmËĪÉľËĲ dÉļ","ĠdÉ¹ËĪiËĲm ÉªÅĭ","t uËĲ","s aÉªd","Ġf ËĪÃ¦nt","ĠtËĪÉľËĲn ÉªÅĭ","ĠmÉĻ st","ĠbËĪÉĽ É¡","ĠËĪÉĽnÉªw ËĮeÉª","Ġk ÉĻs","ĠÉĻn ÉĻ","Ġp ËĪÉĳËĲÉ¹k","ËĪÉĽ É¡","Ġp ÉĻk","ĠmËĪÉªÉ¹ Éļ","ĠËĪ Éª","áµ» v","Ġp ÉĻn","Ġn ËĪaÉª","dÊĴ i","ĠhËĪÃ¦v ÉªÅĭ","âĢ Ŀ","Ġp ËĪÉªl","ĠÉ¹áµ»m ËĪaÉªnd","t ÉĻn","Ã° ËĪo","ĠlËĪÉĶÅĭ É¡Éļ","ĠwÉĻ Êĥ","ĠÊĮn l","Ġk ËĪÉĽpt","ĠhËĪoÊĬ li","ĠsËĪÉľËĲ k","ĠÉ¡ ËĪÉĻn","Ġ áµ»l","ĠdËĪaÉª ÉªÅĭ","Ġs ËĪÃ¦nd","Ġl ËĪÉªt","ËĪÉĳËĲm ÉĻ","ĠÉ¡ËĪuËĲ tÊĥi","ĠÉ¡ËĪeÉªm z","ĠjÉĻ Åĭ","Ġst É¾ÉĻ","ËĪÃ¦m p","Ġs ËĪÉĶft","ĠpÉ¹ ËĪaÉªs","t iËĲn","Ġf ËĪÃ¦t","ĠlËĪoÊĬ d","ĠfËĪÉªÅĭ É¡Éļ","ĠÊĥ ËĪoÊĬld","Î¸ ÉĻn","ĠtÊĥ ËĪÉĽst","ĠbÉĻ É¡","ĠdÉªz ËĪÉľËĲv","Ġk ËĪÃ¦t","Ġst ËĪeÉªt","ĠbËĪÉľËĲ d","ĠpÉ¹ ËĪoÊĬ","ĠÉ¹ ËĮiËĲ","ĠwÉĻ tÊĥ","ĠbÉĻtÊĥ ÉĻz","ĠÉ¡ ÉĻ","ĠÉ¹áµ» p","ĠdËĮÉªs ÉĲp","ĠÊĥËĪÉĶËĲÉ¹ É¾i","ËĪÉľËĲ d","Ġdáµ» f","Ġd ËĪÉĶËĲ","ĠhËĪeÉª É¾Éļz","Ġpl ËĪÊĮs","Ġb ËĪÉĽnd","Ġpl ËĪeÉªd","ĠkËĪÉªl ÉªÅĭ","ĠdËĮiËĲ dÊĴËĪeÉª","ĠbËĪÉĳËĲ ks","ËĮ ÊĬd","Ġt ËĪÊĮÅĭ","Ġ ËĪÉĶËĲÉ¹d","Ġ ËĪÉĽdÊĴ","Ġd ËĪaÉªd","Ġk ËĪuËĲp","Ġn ËĪuËĲz","ĠdÊĴ ËĪÊĮdÊĴ","Ġk ÉĻk","ĠpÉ¹ËĪÉĳËĲbl ÉĻmz","Ġs ËĪaÉª","ËĪÉĽn tÊĥ","Ġkl ËĪÃ¦p","Ġd áµ»n","ĠstËĪoËĲÉ¹ m","Ġt ËĪÉĽst","ĠlËĪeÉª É¾Éļ","Éª sk","Ġb ËĪoËĲÉ¹d","ĠlËĪÊĮk i","ÉĻnd ÊĴÉĻ","ĠlËĪÉª m","ÉĻv ÉĻn","ĠtÉ¾ ËĪÉĻna","É¡ ÉĻ","Ġsm ËĪÉĳËĲkÉªn","Ġf ËĪiËĲd","Î² lÉĻ","Ġb ÉĻdÉĻ","Ġd ËĪÉľËĲt","ĠËĪÃ¦ nd","s áµ»É¹","ËĪÊĮm bÉĻl","Ġd ËĪiËĲm","ĠlËĪuËĲ s","ĠfËĪeÉªv ÉļÉ¹","ĠsËĪiËĲkÉ¹ áµ»t","ĠbËĪÃ¦l áµ»n","ĠÉªn ÉĻÉĻÉĻ","Éļd ËĮeÉª","Ġ ËĪÉĽf","Ġh ËĪÊĮn","É¾ ÉĻnt","ËĪÊĬ É¡Éļ","Ġt ÉĻld","ĠËĮÉĻn a","ËĮÉĽm ËĪÉĽm","Ġfl ËĪÉªp","m Éļ","Ġd i","Ġs ËĪÉªl","ĠÉ¹áµ» v","Î² ÉĻdi","ĠdËĪÉĳËĲÉ¹k nÉĻs","ÉĻm ÉĻn","Ġsw ËĪÉªm","ĠfËĪeÉªvÉļÉ¹ áµ»t","Ġf ËĪÉĽd","ËĮÉĽ s","ĠpËĪÉĳËĲk Éªt","ËĪÉªn s","ËĪÉĽst ÉļdËĮeÉª","Ġf ËĪÃ¦n","Ġp ËĪÉĽn","ĠbÉĻ fËĪÉĻ","d ÉĻl","ĠhjËĪuËĲ mÉĻn","ĠhËĪÃ¦Åĭ ÉªÅĭ","Ġp ËĪÉªst","Ġ ËĮÉĽl","ĠlËĪaÉª ÉªÅĭ","Ġsw ËĪÉªÅĭ","Ġfl ËĪÃ¦Êĥ","Êĥ aÉªn","ĠpÉ¹ ËĪaÉªd","Éļ t","Î² ÉĻd","ĠÉªn st","k ËĪÃ¦n","Ġk ËĪaÊĬ","É¹ Éª","Ġf É¾ÉĻnd","Ġbl ÉĻ","ĠtÊĥ ËĪeÉªnz","i ÉĻn","ĠÎ¸ÉĻÅĭ z","Ġsp ËĪiËĲd","Ġw ËĪÉªÅĭz","Ġd ÉĻp","ĠklËĪaÊĬ dz","ĠtÉ¹ ËĪÊĮk","ĠÉ¹áµ» É¡É¹","ĠhËĪÉĳËĲÉ¹d Éļ","Ġsl ÉĻp","ËĪÃ¦st Éļ","âĢ ¦","ĠpÉĻl ËĪiËĲs","Ġkw ËĪÉªt","ÉļÉ¹ ÉĻl","Ġp ËĪaÊĬnd","ĠËĪÉĽnd z","ĠwËĪÊĮn hËĪÊĮndÉ¹ÉĻd","ĠÉ¹ËĪuËĲl z","Ġf ËĪÉªks","ĠdÉ¹ ËĪÊĮm","ĠÉ¡ ËĪaÉªz","Ġd ËĪÊĮst","Ġf ËĪoÊĬk","Ġw ËĪoÊĬk","ËĪÉĽt s","ĠÉĻ sk","ĠÊĥ ËĪÊĬÉ¡Éļ","Ġs ÉĻnd","ĠpÉĻp lÉĻ","ĠkwËĪÉĽst ÊĥÉĻn","Ġd ËĪÉªst","Ġj ËĪÉĽstÉļdËĮeÉª","! !","Ġl ËĪÉľËĲnd","ĠpÉ¹ ËĪaÊĬd","ËĮaÉª d","ĠfËĪÉĶËĲÉ¹ ÉĻn","ÉļÉ¹ ÉĻs","ÉªÅĭ z","Ġ ËĪÉĽkst","ĠwËĪeÉªt Éªn","ĠbÉ¹ ËĪoÊĬ","ÉĽn ËĪÉĽvÉļ","Ã° ÉĻm","ĠÊĥ ËĪÉĻd","ÉĽ k","ĠwËĪÉĽl kÊĮm","ĠlÉĻ ft","Ġb ÉĻd","ĠsmËĪoÊĬk ÉªÅĭ","Ġbl ËĪuËĲz","ĠbËĪÉªÉ¡ Éļ","ĠÊĥ ËĪÉĳËĲp","l oÊĬ","Ġk ËĪÉĳËĲÉ¹d","ĠslËĪiËĲp ÉªÅĭ","Ġs ËĪÉªpÉªn","ËĪÉľËĲ tÊĥ","Ġp ÉĻz","ËĪiËĲz i","ĠhËĪÊĮ sÉĻl","Ġm ËĮÃ¦","Ġtw ËĪaÉªs","ĠlËĪÉĳËĲk t","l ËĪaÉª","ĠtÉ¹ ËĪÃ¦v","ĠfÉ¹ ËĪiËĲd","ĠÉ¡lËĪoËĲÉ¹ i","Ġf ËĪÊĮÅĭk","ĠskÉ¹ËĪiËĲm ÉªÅĭ","ĠhËĪeÉª vÉĻn","ĠÉ¹ËĪuËĲ f","ĠdÊĴ ËĪiËĲnz","Ġt ËĪÉªp","ËĪÊĮ l","ĠÉĲw ËĪeÉªk","ĠkËĪÉĶËĲl áµ»n","ĠbËĪÉľËĲ Î¸","ĠlËĪiËĲ st","ËĪÉĻt y","ĠbÉ¹ ËĪÉĽd","ĠsËĪÉªm pÉĻl","ËĪÉĽÉ¹ z","Ġb ËĪÉĽÉ¹i","b ËĪo","Ġk ËĪoÊĬk","ĠbËĪÊĮ s","Ġb ËĪÊĮk","Ġm ÉĻm","ĠlËĪeÉªt li","ĠÉ¹ Éª","ĠÉĲm ËĪeÉªz","ĠÉªns ËĪeÉªn","ĠÉªn t","ĠsËĪÉĽks i","ĠÉĻ ks","Ġj ËĪÉĳËĲ","Ġw ÉĽnËĪÉĽvÉļ","Ġt ËĪÉĽÉ¹","Ġd ÉĻl","Ġkw ËĪaÉª","ĠwËĪÊĮ nd","Ġp ËĪÉªmp","ĠÉªm ËĪoÊĬ","Ġk ÉĻnd","ËĪÉĽ Åĭ",
[...]
