{"version":"1.0","truncation":null,"padding":null,"added_tokens":[{"id":0,"special":true,"content":"<|endoftext|>","single_word":false,"lstrip":false,"rstrip":false,"normalized":false},{"id":1,"special":true,"content":"<genre>","single_word":false,"lstrip":false,"rstrip":false,"normalized":false},{"id":2,"special":true,"content":"<artist>","single_word":false,"lstrip":false,"rstrip":false,"normalized":false},{"id":3,"special":true,"content":"<title>","single_word":false,"lstrip":false,"rstrip":false,"normalized":false},{"id":4,"special":true,"content":"<emotions>","single_word":false,"lstrip":false,"rstrip":false,"normalized":false},{"id":5,"special":true,"content":"<topics>","single_word":false,"lstrip":false,"rstrip":false,"normalized":false},{"id":6,"special":true,"content":"<lyrics>","single_word":false,"lstrip":false,"rstrip":false,"normalized":false},{"id":7,"special":true,"content":"<lang>","single_word":false,"lstrip":false,"rstrip":false,"normalized":false},{"id":8,"special":true,"content":"</lyrics>","single_word":false,"lstrip":false,"rstrip":false,"normalized":false},{"id":9,"special":true,"content":"<chorus>","single_word":false,"lstrip":false,"rstrip":false,"normalized":false},{"id":10,"special":true,"content":"<block_end>","single_word":false,"lstrip":false,"rstrip":false,"normalized":false},{"id":11,"special":true,"content":"<sentence_end>","single_word":false,"lstrip":false,"rstrip":false,"normalized":false},{"id":12,"special":true,"content":"<continue>","single_word":false,"lstrip":false,"rstrip":false,"normalized":false},{"id":13,"special":true,"content":"<generated>","single_word":false,"lstrip":false,"rstrip":false,"normalized":false},{"id":14,"special":true,"content":"<num_syllables>","single_word":false,"lstrip":false,"rstrip":false,"normalized":false}],"normalizer":null,"pre_tokenizer":{"type":"ByteLevel","add_prefix_space":false,"trim_offsets":true},"post_processor":{"type":"ByteLevel","add_prefix_space":true,"trim_offsets":false},"decoder":{"type":"ByteLevel","add_prefix_space":true,"trim_offsets":true},"model":{"type":"BPE","dropout":null,"unk_token":null,"continuing_subword_prefix":"","end_of_word_suffix":"","fuse_unk":false,"vocab":{"<|endoftext|>":0,"<genre>":1,"<artist>":2,"<title>":3,"<emotions>":4,"<topics>":5,"<lyrics>":6,"<lang>":7,"</lyrics>":8,"<chorus>":9,"<block_end>":10,"<sentence_end>":11,"<continue>":12,"<generated>":13,"<num_syllables>":14,"!":15,"\"":16,"'":17,"(":18,")":19,",":20,"-":21,":":22,";":23,"?":24,"[":25,"]":26,"a":27,"b":28,"d":29,"e":30,"f":31,"g":32,"h":33,"i":34,"j":35,"k":36,"l":37,"m":38,"n":39,"o":40,"p":41,"r":42,"s":43,"t":44,"u":45,"v":46,"w":47,"x":48,"y":49,"z":50,"{":51,"}":52,"¡":53,"£":54,"¦":55,"©":56,"ª":57,"«":58,"¬":59,"°":60,"²":61,"µ":62,"¸":63,"¹":64,"»":65,"¾":66,"¿":67,"Â":68,"Ã":69,"Å":70,"É":71,"Ê":72,"Ë":73,"Ì":74,"Î":75,"á":76,"â":77,"Ċ":78,"Ġ":79,"Ģ":80,"ĥ":81,"Ī":82,"Ĭ":83,"ĭ":84,"Į":85,"Ĳ":86,"ĳ":87,"Ĵ":88,"Ķ":89,"ķ":90,"Ļ":91,"ļ":92,"Ľ":93,"ľ":94,"Ŀ":95,"ËĪ":96,"ÉĻ":97,"Éª":98,"ËĲ":99,"ÉĻÉĻ":100,"ËĪÉ":101,"ËĪa":102,"É¹":103,"ËĪaÉª":104,"ÊĬ":105,"iËĲ":106,"ËĪÉĽ":107,"ĠÃ":108,"ÊĮ":109,"uËĲ":110,"ĠËĪ":111,"eÉª":112,"ËĪiËĲ":113,"ËĮ":114,"ĠÉĻÉĻ":115,"Ġw":116,"ĠÃ°":117,"Ġm":118,"oÊĬ":119,"Ġj":120,"ËĪÉª":121,"Ã¦":122,"Ġs":123,"Ġb":124,"ĳËĲ":125,"Ġt":126,"ĠÉ":127,"ĠËĪaÉª":128,"ËĪÃ¦":129,"ËĪÊĮ":130,"ËĪÉĳËĲ":131,"ËĪeÉª":132,"Ġd":133,"ËĪoÊĬ":134,"ËĪÉĶ":135,"Ġl":136,"Ġh":137,"Ġn":138,"nd":139,"ĠÉĻ":140,"Ġk":141,"ĠÃ°ÉĻ":142,"Åĭ":143,"ĠÉ¡":144,"Ġf":145,"ĠjuËĲ":146,"Êĥ":147,"ĠÉª":148,"ĠÉĻÉĻÉĻÉĻ":149,"Éļ":150,"ÉĻn":151,"Éªn":152,"ËĪuËĲ":153,"ĠÃ¦":154,"ËĪaÊĬ":155,"ĠËĪeÉª":156,"ËĪÉĶËĲ":157,"ÉªÅĭ":158,"ËĮÉĻ":159,"Ġp":160,"ĠÉĻÉĻÉĻ":161,"st":162,"ĠÉªt":163,"É¾":164,"ĠÉ¹":165,"ĠÃ¦nd":166,"ĠtuËĲ":167,"'t":168,"ĠmËĪaÉª":169,"ËĪÉĻ":170,"ĠmËĪiËĲ":171,"Ġ(":172,"ÉĻl":173,"ËĪÉĶn":174,"ľËĲ":175,"Î¸":176,"ËĪÉĽs":177,"ÊĴ":178,"ĠÉĻËĮÉĻ":179,"ËĮÊĮ":180,"ËĮÉ":181,"ËĪÉĽm":182,"É¡":183,"ËĲÉ¹":184,"ÉĻÉĻÉĻ":185,"ĠÊĥ":186,"ËĪÃ¦t":187,"ĠËĪÉĻ":188,"ĠnËĪoÊĬ":189,"ËĪÊĬ":190,"ËĮÉĽ":191,"ĠËĪÉªn":192,"ËĪÉľËĲ":193,"Ã°":194,"ĠlËĪaÉª":195,"ËĪÉĶËĲl":196,"ĠÃ°ËĪÃ¦t":197,"ËĪÉĽl":198,"µ»":199,"áµ»":200,"ËĪÃ¦n":201,"ËĪÊĮn":202,"Ġst":203,"ËĮÊĮt":204,"ËĪÉĳËĲt":205,"ËĪÉĽt":206,"ĠËĪÉĶn":207,"ĠdÊĴ":208,"ËĪÉĳËĲÉ¹":209,"ĠËĪoÊĬ":210,"ËĪÉĳËĲn":211,"ËĪÉĽv":212,"ĠÊĮ":213,"tÊĥ":214,"ĠËĪÊĮ":215,"ÊĬÉ¹":216,"ĠwiËĲ":217,"ĠÎ¸":218,"ĠjÊĬÉ¹":219,"ĠÉĲ":220,"ĠËĪÉĶËĲl":221,"ËĪeÉªk":222,"ËĪÉĽÉ¹":223,"ĠÊĮv":224,"ĶËĲÉ¹":225,"ĠbËĪiËĲ":226,"ËĪÊĮm":227,"ĠÉĻÉĻÉĻÉĻÉĻ":228,"ËĪÉªl":229,"ÉĻm":230,"ËĪo":231,"ËĪÉªs":232,"ĠlËĪaÉªk":233,"ËĪÉĽn":234,"ËĪÊĮv":235,"ĠdËĪÉĳËĲn":236,"ËĪaÊĬt":237,"ÉªÃ°":238,"ËĪaÉªt":239,"ĠwÉªÃ°":240,"ËĪÉĽh":241,"ĠËĪÊĮp":242,"ĠkËĪÃ¦n":243,"ËĪÉªÅĭ":244,"ĠlËĪÊĮv":245,"ÉĻs":246,"ÉĶËĲÉ¹":247,"ËĪÊĮst":248,"ĠjÉĻ":249,"ĠfÉĶËĲÉ¹":250,"ÉĻt":251,"ĠsËĪoÊĬ":252,"ĠÉªz":253,"Ġ'":254,"ËĪoËĲÉ¹":255,"ËĪÊĬd":256,"ĠwËĪÉĶn":257,"ËĮiËĲ":258,"ËĪÃ¦k":259,"ĠbËĮÊĮt":260,"ld":261,"ĠÉ¡ËĪÉĳËĲt":262,"ÉĻd":263,"ĠjËĪÉĽh":264,"ĠÉĻÉĻÉĻÉĻÉĻÉĻ":265,"ĠdÊĴËĪÊĮst":266,"ËĪÉªÉ¡":267,"ËĮÉĽn":268,"ĠÉ¡ËĪoÊĬ":269,"ĠtÉ¹":270,"ÉĻk":271,"ĠÃ°ËĪÉªs":272,"ĠËĪÉĻÉĻÉĻ":273,"ĠdËĪuËĲ":274,"ĠhËĪÃ¦":275,"ËĪÉĽd":276,"ËĪÉªÉ¹":277,"ÉĻz":278,"ĠÉ¡ËĪÉĽt":279,"ĠwËĪÊĮn":280,"ĠwËĮÊĮt":281,"ĠfÉ¹":282,"ËĪÉĽvÉļ":283,"ĠsËĪiËĲ":284,"ËĪaÊĬn":285,"ĠÉĻËĪ":286,"ĠwËĮÉĽn":287,"É¹ËĮiËĲ":288,"ËĪeÉªb":289,"ĠtÊĥ":290,"ĠsËĪeÉª":291,"ĠÃ°eÉª":292,"ĠhËĪoÊĬ":293,"ËĪÉªt":294,"li":295,"ĠnËĪaÊĬ":296,"ĠÊĥiËĲ":297,"ĠbÉ¹":298,"ĠwËĪeÉª":299,"ĠËĪaÊĬt":300,"ĠnËĪÉªÉ¡":301,"ËĪiËĲl":302,"ĠÉĻËĪÉĻÉĻÉĻ":303,"ĠtËĪaÉª":304,"ËĮÉĽl":305,"ËĪiËĲp":306,"ĠÉªf":307,"ËĮÉĽlËĪÉĽl":308,"ks":309,"ĠbËĪeÉªb":310,"ËĮÃ¦":311,"ËĪÊĮk":312,"ÉĲ":313,"Ġpl":314,"É¾ÉĻ":315,"ËĪÉĳËĲp":316,"ĠdÉ¹":317,"ÉľËĲ":318,"ËĪaÉªd":319,"ËĪiËĲd":320,"Ġbl":321,"ĠÎ¸ËĪÉªÅĭ":322,"ĠlËĪÉĽt":323,"ĠdËĪaÊĬn":324,"ĠbËĪeÉªbi":325,"ĠkËĪÊĮm":326,"ĠnÉĻ":327,"ĠËĪÃ¦":328,"ĠwËĪÉĶnt":329,"É¾i":330,"ĠwÊĮ":331,"ĠtËĪaÉªm":332,"Ġa":333,"ĠkÉ¹":334,"Ìĥ":335,"ĠËĪeÉªn":336,"ĠfËĪiËĲl":337,"ËĪÉĽvÉ¹":338,"ËĮÉªn":339,"ĠÉĻÉĻËĪÉĻ":340,"di":341,"ĳËĲÉ¹":342,"ĠtÉĻ":343,"ĠËĪÉĽvÉ¹":344,"ÉĻnt":345,"É¾Éļ":346,"ËĪiËĲz":347,"ĠÉĻËĪÉĻ":348,"ËĪÉĶËĲÉ¹":349,"ĠmËĪeÉªk":350,"ĠmÉĻ":351,"ËĪÉĶËĲz":352,"aÉª":353,"ĠwÊĮz":354,"ĠÉĻt":355,"Ã°Éļ":356,"ËĪÉªtÊĥ":357,"ĠÉĻÉĻËĮÉĻ":358,"ĠwËĪaÉª":359,"ĠpÉ¹":360,"ËĪaÊĬnd":361,"ĠwÉĻ":362,"ÉĻÉĻÉĻÉĻ":363,"ËĪÉªv":364,"ĠbËĪÃ¦k":365,"ËĪÉªk":366,"ĠnËĪÉĽvÉļ":367,"ËĪÉĶÅĭ":368,"ËĪÊĬk":369,"ËĪÉĳËĲÉ¹t":370,"ĠwËĪÉľËĲ":371,"dÊĴ":372,"Ê°":373,"ËĮÉĽm":374,"ĠtËĪeÉªk":375,"ÉĻÅĭ":376,"vËĪiËĲ":377,"ĠtËĪuËĲ":378,"ËĪeÉªn":379,"ÉļÉ¹":380,"ÊĥÉĻn":381,"ĠËĪÉĻn":382,"ËĮÉĻn":383,"ËĪeÉªm":384,"ĠsËĪÊĮm":385,"Ġkl":386,"ĠnËĪÉĳËĲt":387,"ÊĮm":388,"ĠhËĪÉªÉ¹":389,"ËĪÉĽnd":390,"ĠÃ°ËĪÉĽÉ¹":391,"ĠwËĪÉĶnÉĻ":392,"ts":393,"ĠhËĪaÊĬ":394,"ĠfËĪÊĮk":395,"Ġsp":396,"Ġfl":397,"ĠÃ¦t":398,"ĠhÉľËĲ":399,"ĠpËĪÊĬ":400,"Éªk":401,"ËĪÉªn":402,"ĠmËĪÉĻ":403,"ĠhiËĲ":404,"ĠÉĻtÊ°":405,"ĠfÉ¹ÊĮm":406,"Ġsk":407,"ĠÎ¸É¹":408,"ËĪÉľËĲl":409,"ËĪeÉªs":410,"ĠnËĪiËĲd":411,"ËĪÉĽk":412,"ĠÉ¾":413,"Ġbáµ»":414,"ĠÉĳËĲÉ¹":415,"ËĪÉªp":416,"áµ»d":417,"ĠhËĪÃ¦v":418,"ËĪÉĻt":419,"ĠÉ¡ËĪÉľËĲl":420,"ĠfËĪaÉª":421,"ĠÉ¡É¹":422,"ĠËĪiËĲ":423,"ËĪÉªd":424,"ĠnËĪÉªÉ¡ÉĻ":425,"ËĪoÊĬn":426,"ĠÉ¹ËĪaÉªt":427,"ĠbËĪÉªtÊĥ":428,"Ġand":429,"Ġv":430,"ĠtËĪÉĽl":431,"ĠbËĪÃ¦":432,"ĠdËĪeÉª":433,"ËĪÉĶËĲk":434,"ËĪÉĳËĲk":435,"bËĪaÊĬt":436,"ĠÉĻÉĻÉĻÉĻÉĻÉĻÉĻ":437,"kËĪÉĶËĲz":438,"ËĪi":439,"ËĪÉĶÉª":440,"ĠlËĪÊĬk":441,"ËĪiËĲv":442,"ÉĽ":443,"ËĪuËĲz":444,"ĠÉ¡ËĪÉĳËĲ":445,"ËĮÉª":446,"ËĪeÉªd":447,"ÉĻv":448,"Éļz":449,"Éªt":450,"ĠwËĪÉªl":451,"ft":452,"ĠstÉ¹":453,"áµ»z":454,"ĠbËĮÉªn":455,"ĠkËĪÊĬd":456,"ĠÉªn":457,"ÉĻnd":458,"Ġsl":459,"ËĪÉľËĲn":460,"ËĪiËĲn":461,"ËĪÉĳËĲm":462,"ĠÎ¸ËĪÉªÅĭk":463,"ĠÊĥËĪÉªt":464,"ĠËĪÉĽvÉ¹Éª":465,"ĠlËĪaÉªf":466,"ĠËĮÊĮ":467,"ĠmËĪÃ¦n":468,"ĠhËĪeÉª":469,"É¾ÉĻl":470,"ĠÉ¹áµ»":471,"ĠËĪoÊĬn":472,"ĠkËĪiËĲp":473,"ĠwËĪÉĽÉ¹":474,"ĠÉ¡ËĪÉªv":475,"ËĪÃ¦nd":476,"ËĮÉĻnÉĻ":477,"Ġ\"":478,"É¾ÉªÅĭ":479,"ĠÉ¡ËĮÉĻnÉĻ":480,"ÉĻp":481,"ĠnËĪaÉªt":482,"ËĪat":483,"Î¸ÉªÅĭ":484,"ĠnËĪÉªÉ¡ÉĻz":485,"ËĪÃ¦st":486,"ËĮeÉª":487,"Ġsw":488,"ÉĳËĲ":489,"ËĪÉĽst":490,"ĠÃ¦z":491,"ĠhËĪÉĳËĲÉ¹t":492,"ĠbËĪaÉª":493,"vÉļ":494,"ĠÉĻv":495,"ĠhËĪuËĲ":496,"ËĮoÊĬ":497,"ĠËĪuËĲ":498,"ËĮÊĮm":499,"ĠÉĲw":500,"ndÊĴ":501,"ËĪiËĲm":502,"ĠsËĮÊĮm":503,"ËĪÊĮni":504,"ĠmËĪÊĮ":505,"ËĪÉĽnt":506,"ËĮa":507,"ĠÃ°ËĮÉĽm":508,"ĠmËĪoËĲÉ¹":509,"ËĪÉĶf":510,"ĠÉ¹ËĪoÊĬ":511,"ĠÃ°ËĪÉĽn":512,"ĠlËĪÉª":513,"sk":514,"ĠÉĲbËĪaÊĬt":515,"ÉĻst":516,"ËĪÉªz":517,"ĠÃ°ËĪat":518,"É¹ËĪaÊĬnd":519,"ËĪoÊĬk":520,"ËĪiËĲt":521,"ĠËĪÉĶf":522,"ĠÉĲwËĪeÉª":523,"ĠÉ¡ËĪÊĬd":524,"ËĪÃ¦m":525,"ÉĻli":526,"ĠÉ¹ËĪÊĮn":527,"ĠbÉĻ":528,"ĠkËĪÉĶËĲl":529,"Ġsm":530,"ËĪÃ¦p":531,"Î²":532,"ËĪeÉªt":533,"ĠÎ¸É¹ËĪuËĲ":534,"ËĪÊĮÅĭ":535,"ĠnËĪuËĲ":536,"ĠhËĮÃ¦":537,"ĠÉ¡ËĪÉĻt":538,"ĠÉ¹ËĪiËĲ":539,"jËĪuËĲ":540,"ĠwËĪÊĬd":541,"ĠÃ°ËĪiËĲz":542,"ËĪoÊĬld":543,"ĠÉĻl":544,"ĠstËĪÉªl":545,"ĠsËĪÉĽd":546,"ĠlÉĻk":547,"ĠÉļ":548,"ĠnËĪÊĮ":549,"ĠËĪoÊĬnli":550,"ËĪan":551,"ĠhÉĻ":552,"ĠÉĲÉ¡":553,"ĠÉĶËĲÉ¹":554,"ĠbËĪÉĳËĲ":555,"ËĮÉĻt":556,"ĠhËĮÃ¦d":557,"ËĪaÉªn":558,"ĠÉĲl":559,"ĠtÉ¹ËĪaÉª":560,"ĠdËĪÉªd":561,"'d":562,"ĠhËĪoÊĬm":563,"ndÉļ":564,"ĠmËĪuËĲ":565,"ËĪÃ¦ns":566,"ËĪÃ¦Åĭ":567,"jËĪÉĽh":568,"ĠwËĪÉľËĲld":569,"ËĮÉĳËĲ":570,"ĠÉļÉ¹ËĪaÊĬnd":571,"Éªs":572,"ĠËĪÉĽvÉ¹i":573,"ĠËĪoÊĬvÉļ":574,"ĠdËĪaÉª":575,"ĠËĮÊĮs":576,"ĠbËĪÉĽ":577,"weÉª":578,"ËĪÉĳËĲÉ¹d":579,"ĠpËĪÊĬt":580,"ĠmËĪÊĮni":581,"ĠÉĲÉ¡ËĪÉĽn":582,"ĠlËĪÉªÉ¾ÉĻl":583,"',":584,"É¹i":585,"ËĮÉªÅĭ":586,"ËĪÉĳËĲl":587,"ĠtËĪÉĶËĲk":588,"Î¸ËĮÉªÅĭ":589,"ĠÉ¡ËĪÉĳËĲÉ¾ÉĻ":590,"ÉĻvÉĻ":591,"ËĪaÉªnd":592,"ĠbËĪÉĶÉª":593,"ĠdÉĻ":594,"ËĪÉªst":595,"ËĪeÉªz":596,"É£":597,"ĠÉĻn":598,"ĠdÉĻn":599,"ĠÃ°ËĪÉĻ":600,"ÊĬÉļ":601,"vÉĻn":602,"ĠmËĪaÉªnd":603,"bÉĻl":604,"ĠhËĪoÊĬld":605,"ĠhËĪÃ¦nd":606,"ĠtÉĻn":607,"ĠlËĪÉĶÅĭ":608,"ËĪÉĶËĲt":609,"ĠmËĪÃ¦":610,"ĠÉ¹ËĪiËĲÉĻl":611,"ËĮaÉª":612,"ĠËĮa":613,"ĠwËĪÉª":614,"ĠhËĪaÉª":615,"ĠËĮaÊĬÉļ":616,"ËĪoÊĬz":617,"ËĪÉĽlf":618,"ËĪiÉĻli":619,"ĠbËĪÉĽÉ¾Éļ":620,"ËĪeÉªndÊĴ":621,"ĠwËĪÉĽl":622,"ĠlËĪiËĲv":623,"ĠplËĪeÉª":624,"ĠÉĻÉĻÉĻÉĻÉĻÉĻÉĻÉĻ":625,"ĠÉ¹ËĪiÉĻli":626,"ĠËĪÉĽvÉļ":627,"Éªst":628,"ĠfÉĻ":629,"ĠjÉĲ":630,"ĠstËĪeÉª":631,"ËĪiËĲk":632,"fËĪoËĲÉ¹":633,"ËĪuËĲl":634,"mz":635,"weÉªz":636,"ĠkËĪÊĮ":637,"ÉĻns":638,"ËĪaÉªv":639,"ĠfËĪÉĶËĲl":640,"ĠhËĪÉªz":641,"ĠhËĪÉĽd":642,"Éªd":643,"bÉĳËĲ":644,"ĠÃ¦m":645,"ÉĲn":646,"ĶËĲ":647,"ĠstËĪÉĳËĲp":648,"ĠËĪÉĶËĲlweÉªz":649,"ĠtËĪÉľËĲn":650,"ĠËĪÉĽn":651,"ĠlËĮÃ¦":652,"ĠlËĪÉĽ":653,"ĠwÉĻn":654,"ĠhËĪÉĽl":655,"bÉĳËĲdi":656,"Ġbáµ»l":657,"ĠÉĽ":658,"ĠÉ¡ËĪÉĳËĲn":659,"ĠËĪiËĲvÉĻn":660,"ĠÊĮn":661,"ËĪÊĮÃ°Éļ":662,"Ġkw":663,"ĠhËĪÉĳËĲÉ¹d":664,"ĠmËĪuËĲv":665,"ËĪÃ¦s":666,"ĠnËĪÊĮÎ¸ÉªÅĭ":667,"sËĪÉĽlf":668,"ĠsÉĻ":669,"dz":670,"ĠbËĪÉĻ":671,"ĠhËĪÉľËĲ":672,"ĠËĪÉĳËĲ":673,"ĠËĮÉªn":674,"ĠdÉ¹ËĪiËĲm":675,"ĠfËĪaÉªnd":676,"ËĮÉªm":677,"áµ»n":678,"ĠnËĪÉĳËĲ":679,"ĠËĪaÉªz":680,"ĠÃ¦n":681,"bÉļ":682,"ĠÊĥËĪoÊĬ":683,"ĠsËĪÉª":684,"ĠÉ¡ËĪÉĽ":685,"ËĪÊĮf":686,"ĠsËĪÉĻ":687,"ĠwËĪÉĶËĲk":688,"ĠkËĪÉĶËĲz":689,"ĠhËĮÉªm":690,"juËĲ":691,"ĠËĪÉĽvÉ¹ÉªÎ¸ËĮÉªÅĭ":692,"ĠËĪÉĻp":693,"ĠbËĪÃ¦d":694,"kt":695,"'m":696,"ĠÃ°ÉĲn":697,"ÉĽÉ¹":698,"ĠkÉĻm":699,"ĠlËĪaÉªv":700,"ËĪÉĶËĲÉ¹n":701,"tËĪÉªl":702,"ĠwÉĻÃ°":703,"),":704,"ÉĻnz":705,"ĶËĲl":706,"ĠhËĪÉªt":707,"ĠÉĻz":708,"ĠmËĪeÉªd":709,"ĠËĮÉªnt":710,"ËĪÉĳËĲtÊĥ":711,"ĠwÉľËĲ":712,"ĠÊĥËĪÊĬd":713,"ËĪeÉªÊĥÉĻn":714,"ËĪÉĻn":715,"ĠsËĪÊĮn":716,"ĠÉ¡ËĪoÊĬÉªÅĭ":717,"ĠbËĪÉªÉ¡":718,"ĠbÉ¹ËĪeÉªk":719,"ËĪÃ¦Êĥ":720,"ĠfËĪeÉªs":721,"ĠÉªns":722,"ĠhËĪÊĮ":723,"ĠdËĪÃ¦ns":724,"ĠÎ¸ËĪÉªÅĭz":725,"ĠkËĪan":726,"ĠfÉ¹ËĪÉĽnd":727,"ĠmËĪÊĮtÊĥ":728,"ĠlÉĻt":729,"ĠtÉĻnËĪaÉªt":730,"Éļd":731,"ĠstËĪÉĳËĲÉ¹":732,"ĠsËĪÉªÅĭ":733,"ĠsËĪÊĮmÎ¸ÉªÅĭ":734,"ÉĻlz":735,"É¾áµ»d":736,"ĠÉ¡ËĪÉĳËĲd":737,"ĠÉ¡l":738,"ËĪÊĮtÊĥ":739,"Ġdáµ»":740,"ĠtÊĥËĪeÉªndÊĴ":741,"ËĪÊĮz":742,"ĠlÉĻvÉĻ":743,"ËĪeÉªv":744,"ĠÉ¡ËĪÉĶn":745,"ĠÉĻf":746,"fÉ¹":747,"ËĪoÊĬs":748,"ĠwËĪÉĳËĲtÊĥ":749,"ĠÉ¹ËĪÉĽd":750,"ÊĶ":751,"pÉĻn":752,"ËĪÉĽks":753,"ĠËĪa":754,"Ġtw":755,"ĠÉ¹ËĪoÊĬl":756,"Ġbáµ»lËĪiËĲv":757,"ĠËĮÉªntÊĬ":758,"ĠÊĥÉĻ":759,"ËĪy":760,"ÊĶn":761,"lÉĻ":762,"ĠlËĪaÉªt":763,"É¾ÉĻm":764,"ĠtÉ¹ËĪuËĲ":765,"Ġbáµ»fËĪoËĲÉ¹":766,"ĠwËĪoÊĬ":767,"ĠjÉĻh":768,"ĠnËĪeÉªm":769,"pt":770,"ĠpËĪiËĲp":771,"bËĮÉĳËĲ":772,"ĠwËĪÉĻ":773,"ËĪÉĳËĲÉ¹k":774,"ĠÉ¹áµ»m":775,"ĠkÉ¹ËĪaÉª":776,"!)":777,"bËĮÉĳËĲdi":778,"ËĪaÉªl":779,"ĠlËĪeÉª":780,"ÉĻld":781,"É¡z":782,"pl":783,"ĶËĲlÉ¹":784,"ĠfËĪiËĲlÉªÅĭ":785,"ĠËĪÉĽnd":786,"ËĪÉĶst":787,"ĠbËĮÉĻt":788,"ÉĻf":789,"ĠdÊĴÉĻst":790,"ËĪÉĳËĲb":791,"ĠsËĪeÉªm":792,"ĠÉ¹ËĪaÉªd":793,"ĠdËĪÉĳËĲ":794,"ËĪÊĬÉ¹":795,"ĠwËĪÉľËĲk":796,"ËĪÃ¦d":797,"ĠwËĪÊĮ":798,"ËĪÉªm":799,"ĠÉĲn":800,"ĠpËĪiËĲpÉĻl":801,"ĠËĪÉĽnÉª":802,"ĠËĪoÊĬld":803,"ĠÉ¹ËĪÉĳËĲk":804,"ËĪiËĲnÉĻ":805,"ĠkËĪÉªl":806,"ĠÉĶËĲlÉ¹":807,"ĠÉĲlËĪoÊĬn":808,"ĠjËĪÊĮÅĭ":809,"ĠdËĪÊĮn":810,"ĠfÉĻl":811,"ĠtËĪoÊĬld":812,"mÉĻn":813,"ĠÉĲnËĪÊĮÃ°Éļ":814,"ĠÃ°ËĪÉĻs":815,"ĠlËĪÉĽft":816,"ËĪuËĲm":817,"âĢ":818,"ĠbËĪÉĳËĲdi":819,"ËĪak":820,"Î²ÉĻ":821,"ĠwËĪeÉªt":822,"ĠstËĪÃ¦nd":823,"ĠlËĪÃ¦st":824,"ËĪaÉªz":825,"nÉĻs":826,"si":827,"Éªm":828,"ĠmËĪoÊĬ":829,"ĠmËĪiËĲn":830,"ĠjËĪoÊĬ":831,"ËĪÃ¦tÊĥ":832,"fÉĻl":833,"?)":834,"ĠtÉĻk":835,"ĠmËĪÉĳËĲm":836,"ËĪiËĲs":837,"ĠkËĪÉĽÉ¹":838,"ĠbÉªk":839,"ĠplËĪeÉªs":840,"ĠlËĪÉªv":841,"ĠmËĪÉĽn":842,"ĠtÉ¹ËĪiËĲnÉĻ":843,"ËĪÉªÉ¹z":844,"ĠsËĪuËĲ":845,"Ġ[":846,"ÉĻÉĻÉĻÉĻÉĻ":847,"kËĪeÉª":848,"ĠsËĪaÉªd":849,"ĠmËĪaÉªt":850,"ĠËĪÉĽl":851,"ĠfÉ¹ËĪiËĲ":852,"ĠËĪÃ¦s":853,"ĠÉªnsËĪaÉªd":854,"ËĪeÉªzi":855,"ËĮÉĳËĲÉ¹":856,"ËĪuËĲzd":857,"ËĪoÊĬl":858,"ĠpËĪeÉª":859,"ÉļÉ¡":860,"ĠsËĪÉĶÅĭ":861,"ndÉ¹":862,"ĠwËĮÉĻt":863,"ĠhËĪoÊĬl":864,"ĠmaÉª":865,"ĠbÉ¹ËĪÉªÅĭ":866,"ĠsËĪÊĮmw":867,"ĠwËĪÉªÊĥ":868,"ĠËĪÉĽvÉ¹ÉªbËĮÉĳËĲdi":869,"É£ËĪa":870,"ĠÉ¹ËĪÉĶÅĭ":871,"ËĪÉĽkst":872,"ĠmËĪaÉªn":873,"iz":874,"oËĲÉ¹":875,"ËĪÉľËĲst":876,"ËĪÉªÅĭk":877,"ĠhËĪÉĻ":878,"Éªz":879,"ËĪÉĽÉ¹i":880,"ĠmËĪÊĮÃ°Éļ":881,"ĠplËĪiËĲz":882,"ĠÉ¡ËĪeÉªm":883,"ĠËĪÊĮÃ°Éļ":884,"ĠnÉĻÉ£ËĪa":885,"ĠwÉªÃ°ËĪaÊĬt":886,"ËĮÉĻm":887,"ĠhËĪoÊĬp":888,"jÉĻ":889,"ĠkËĪeÉªm":890,"hËĪÊĮ":891,"ËĪÉĽvÉĻn":892,"ĠfÉļÉ¡":893,"ËĪÊĬl":894,"ËĪÉĽmbÉļ":895,"ĠhËĪa":896,"ĠËĪÉĽm":897,"ĠmËĪÉªs":898,"ĠbËĪÉªtÊĥáµ»z":899,"ËĪÉĽÃ°Éļ":900,"ĠpËĪÉĳËĲp":901,"ĠsËĪoÊĬl":902,"ĠmaÉªsËĪÉĽlf":903,"ĠËĮÉĽn":904,"É¡Éļ":905,"ĠflËĪaÉª":906,"ĠlËĪoÊĬ":907,"Ġsn":908,"ĠpËĪÊĬl":909,"ËĪÊĮmp":910,"ĠkÉ¹ËĪeÉªzi":911,"ĠblËĪÃ¦k":912,"ĠwËĪaÉªl":913,"ĠpËĪÉľËĲ":914,"ĠfËĪaÉªÉļ":915,"ĠlËĪÉĶst":916,"ĠÎ¸ËĪÉĶËĲt":917,"ËĪÊĮnt":918,"ĠpËĪeÉªn":919,"ËĪÉĳËĲs":920,"ĠwËĮÉĻn":921,"ËĮuËĲ":922,"ĠstËĪÉĳËĲÉ¹t":923,"ĠfËĪoËĲÉ¹":924,"ĠpËĪÉªk":925,"É¾ËĮÉĻ":926,"ĠËĪÉĳËĲÉ¹":927,"ĠlËĪuËĲz":928,"Î¸Éªn":929,"ĠkËĪÉĳËĲÉ¹":930,"ĠhÉĻt":931,"ĠmÉĻn":932,"ĠÉªnËĪÊĮf":933,"ĠjËĪuËĲzd":934,"ÊĮn":935,"ËĪÉªks":936,"ĠkËĪÊĮmÉªÅĭ":937,"pÉļ":938,"ĠnËĪoÊĬbÉĳËĲdi":939,"ĠbËĪÉľËĲn":940,"ĠhËĪÃ¦ndz":941,"ĠÉ¡ËĪÉĻ":942,"mÉĻnt":943,"ĠËĪÃ¦sk":944,"ĠklËĪoÊĬs":945,"ËĪÉĶËĲÉ¹d":946,"ĠslËĪiËĲp":947,"pÉ¹":948,"ĠËĪaÉªi":949,"ËĪaÊĬd":950,"ËĪÉĽkt":951,"ĠsËĪiËĲn":952,"ÉªdÊĴ":953,"ĠbÉ¹ËĪoÊĬk":954,"ĠËĮÊĮndÉļ":955,"ĠfËĪaÉªn":956,"ĠjËĪuËĲ":957,"ĠtËĪÊĮtÊĥ":958,"ĠfÉĻk":959,"ËĪÊĮb":960,"ĠbËĪÉĽst":961,"ËĪaÉªs":962,"ĠÉĻËĪÉĻÉĻÉĻÉĻ":963,"ĠmËĪeÉªb":964,"ĠfÉļÉ¹":965,"wÉĻ":966,"ĠhËĪÃ¦p":967,"lËĮÃ¦":968,"vÉĻ":969,"ĠfËĪÉľËĲst":970,"ĠÉ¹ËĪeÉªn":971,"ĠdËĪÃ¦m":972,"kÉ¹":973,"ĠlËĪÊĬkÉªÅĭ":974,"ĠdËĪÉªdÉĻn":975,"ĠÉ¹ËĪÃ¦p":976,"ĠÉ¹áµ»mËĪÉĽmbÉļ":977,"tÊĥÉļ":978,"ĠÉ¡ËĪÉĽÉ¾ÉªÅĭ":979,"ËĪaÊĬnt":980,"ËĪeÉªl":981,"ĠÉªm":982,"ĠdÉ¹ËĪÉĳËĲp":983,"ĠfÉļÉ¹ËĪÉĽvÉļ":984,"ËĪÊĮÉ¡":985,"ĠÎ¸É¹ËĪoÊĬ":986,"ĠsËĪÉľËĲ":987,"ĠsËĪÉªn":988,"ĠbÉªkËĪÊĮz":989,"ĠkËĪÉªs":990,"ĠÊĥÉĻt":991,"ĠpËĪÉĳËĲÉ¹":992,"ËĮÊĮk":993,"ËĪÃ¦Åĭk":994,"ĠdËĪeÉªz":995,"ĠkËĪÉĳËĲm":996,"ĠtËĪÉĳËĲp":997,"Ġ-":998,"fËĮÊĮk":999,"ĠkÉĻl":1000,"ĠmËĪeÉªbiËĲ":1001,"ËĪÊĮbÉĻl":1002,"ËĪÃ¦l":1003,"ftÉļ":1004,"ĠskÉ¹":1005,"ËĪÊĮd":1006,"ĠdËĪoËĲÉ¹":1007,"ĠfËĪÉĳËĲÉ¹":1008,"nËĪÉĳËĲ":1009,"ÉĻdÉĻ":1010,"aÊĬ":1011,"ĠÉĶËĲlÉ¹ËĪaÉªt":1012,"ËĪÉĽp":1013,"ĠsËĪÊĮmwÊĮn":1014,"É¾ÉĻt":1015,"ĠfÉ¹ËĪÉĽndz":1016,"ĠjËĪÉĽs":1017,"ĠbÉĻÎ²ÉĻ":1018,"ĠkËĪoÊĬld":1019,"ĠÉĽks":1020,"ĠhËĪeÉªt":1021,"ĠlËĪÉĳËĲt":1022,"ĠdËĪÉĳËĲÉ¹k":1023,"lÉĻs":1024,"ĠbÉĻt":1025,"ĠÉĻÉĻÉĻÉĻÉĻÉĻÉĻÉĻÉĻ":1026,"ËĪÉĽÊĥ":1027,"ĠÊĥËĪaÉªn":1028,"Ġz":1029,"ĠbËĪiËĲt":1030,"bÉ¹":1031,"ĠhËĪÉĳËĲ":1032,"ĠhËĪÃ¦z":1033,"jËĪuËĲz":1034,"pÉĻl":1035,"ĠÃ°ÉĽÉ¹":1036,"É¡ËĪÉĽÃ°Éļ":1037,"ËĮÉĽmËĮÉĽm":1038,"ĠÉ¹ËĪÉĽdi":1039,"ĠhËĪÉĽlp":1040,"ĠÃ°ËĮoÊĬ":1041,"ËĪÉĶËĲÉ¾Éļ":1042,"ËĪÉªli":1043,"ĠsËĪÊĮmbÉĳËĲdi":1044,"ĠtÉĻÉ¡ËĪÉĽÃ°Éļ":1045,"ĠpËĪÉĳËĲÉ¹É¾i":1046,"ĠmËĪÉĻk":1047,"ĠwÉĻnt":1048,"ÉļÉ¹i":1049,"ĠbËĪoÊĬ":1050,"ĠblËĪuËĲ":1051,"ÉĻlÉĻl":1052,"ĠdËĪiËĲp":1053,"ĠÉ¡ËĪÉľËĲlz":1054,"ĠwÉĻz":1055,"ĠlËĪaÉªn":1056,"ËĪÉĶs":1057,"ĠsËĪÉªÉ¾i":1058,"ĠmËĪÉĽni":1059,"ÉĻÉĻÅĭ":1060,"taÉª":1061,"ĠfËĪÉĽl":1062,"ĠskËĪaÉª":1063,"ĠswËĪiËĲt":1064,"É¹oÊĬ":1065,"ÊĬd":1066,"ĠdËĪÉª":1067,"ĠsmËĪoÊĬk":1068,"ĠwËĪÉªnd":1069,"ĠfËĪÊĮkÉªn":1070,"ĠblËĪoÊĬ":1071,"oÊĬkËĪeÉª":1072,"ËĪuËĲp":1073,"ĠÎ¸É¹ËĪiËĲ":1074,"ĠdËĪÉĽd":1075,"É¡É¹":1076,"ĠkËĪaÉªnd":1077,"ĠlËĪÉªl":1078,"ĠtËĪÊĬk":1079,"ĠsËĪeÉªv":1080,"ĠslËĪoÊĬ":1081,"ĠtËĪiËĲ":1082,"ĠdËĪÉĻn":1083,"ĠwËĪÉĶËĲÉ¹":1084,"ËĪÉªsÉĻn":1085,"?]":1086,"ĠpËĪiËĲs":1087,"ËĪÃ¦ks":1088,"nËĪoÊĬ":1089,"ĠbÉĻtÊĥ":1090,"ĠËĪÃ¦ftÉļ":1091,"ĠlËĪoÊĬn":1092,"ĠÉĻÉĻÉĻÉĻÉĻÉĻÉĻÉĻÉĻÉĻ":1093,"ĠsËĪaÊĬnd":1094,"ĠfËĪÉĶËĲÉ¹":1095,"ĠwËĪeÉªÉ¾ÉªÅĭ":1096,"ĠÊĥËĪuËĲ":1097,"ĠkËĪÉªd":1098,"ĠËĪiËĲz":1099,"ĠmËĪÊĮst":1100,"ĠfËĪaÊĬnd":1101,"ËĪÉĽnti":1102,"ĠlËĪeÉªt":1103,"ĠstËĪoËĲÉ¹":1104,"É¾ËĪy":1105,"ÉªÉ¾i":1106,"ÉªÊĥ":1107,"ĠhÉĻl":1108,"ĠÉ¡ËĪÃ¦Åĭ":1109,"ĠhËĪÉĳËĲt":1110,"ĠkÉĻnt":1111,"ĠÉ¡ËĪÊĮn":1112,"ĠmËĪÊĮÃ°ÉļfËĮÊĮk":1113,"ĠfËĪaÉªt":1114,"É¾ÉĻnd":1115,"ËĪÉªÉ¾i":1116,"ÉªÉ¡":1117,"ĠmËĪÉĶËĲÉ¹n":1118,"ËĪaÊĬÉļ":1119,"ËĪÉªft":1120,"ĠtËĪaÉªmz":1121,"Ã°ÉĻ":1122,"ËĪÉªld":1123,"ËĮoÊĬÉªn":1124,"ËĪÉĽËĲ":1125,"Åĭk":1126,"ĠnËĪoÊĬz":1127,"ÉĻmÉĻnd":1128,"ĠÃ°ËĪoÊĬz":1129,"ËĪÃ¦É¡":1130,"ĠËĪoÊĬpÉĻn":1131,"ĠpÉ¹ËĪÉĳËĲb":1132,"ĠÊĥËĪÉĳËĲt":1133,"ĠhËĪaÊĬs":1134,"ĠÉ¡ËĮoÊĬÉªn":1135,"Ġ[?]":1136,"ĠmËĪÉĳËĲmÉĲ":1137,"ĠËĪÃ¦kt":1138,"ĠbËĪak":1139,"ËĪÃ¦nt":1140,"ĠlËĪÉĶËĲÉ¹d":1141,"ĠkËĪÊĮmz":1142,"ĠlËĪÉªsÉĻn":1143,"ĠhËĪÉľËĲd":1144,"âĢĶ":1145,"ËĪÉĽz":1146,"ĠkËĪÃ¦":1147,"ĠmËĪÃ¦É¾Éļ":1148,"Éªts":1149,"jËĪÉĽËĲ":1150,"ĠÉ¡ËĪÉĽÊĶn":1151,"ËĪÉĽÎ¸":1152,"ĠËĪÉĽls":1153,"ĠnËĪÉĽkst":1154,"ĠËĮÊĮndÉļst":1155,"ĠlËĪÉªvÉªÅĭ":1156,"tÉ¹":1157,"ĠÊĮntËĪÉªl":1158,"ĠnÉĻv":1159,"ĠaÊĬ":1160,"ĠÊĥËĪÊĬÉ¹":1161,"ËĪÉªps":1162,"lÉªÅĭ":1163,"dÉĻ":1164,"dËĪuËĲ":1165,"ĠwËĪaÉªt":1166,"ĠbjËĪuËĲ":1167,"ĠtÊĥËĪÉĽk":1168,"ËĪÊĮÅĭk":1169,"ĠÊĥËĪeÉªk":1170,"ĠbËĪÉľËĲ":1171,"ĠsmËĪaÉªl":1172,"ĠÉĻvÉ¾ËĪy":1173,"tËĪiËĲ":1174,"ÉĻnk":1175,"ĠtÉ¹ËĪaÉªÉªÅĭ":1176,"ĠdÉ¹ËĪÉªÅĭk":1177,"Î¸ÉĻÅĭ":1178,"dËĪÉĳËĲ":1179,"hËĪeÉª":1180,"ÉĻlÉĻ":1181,"ĠnÉĻvËĪo":1182,"ĠdÉ¹ËĪaÉªv":1183,"ÉļÉ¹ËĮÉª":1184,"ĠÉ¹ËĪoÊĬd":1185,"ĠwËĪÊĮndÉļ":1186,"ĠÉ¡ËĪoÊĬz":1187,"ĠfÉļÉ¡ËĪÉĽt":1188,"Éªv":1189,"ĠkÉĻn":1190,"ĠwÉĻnËĪa":1191,"ĠtÉĻd":1192,"ĠÉ¡ËĪÉĽs":1193,"ĠwËĪÉªn":1194,"ĠoÊĬkËĪeÉª":1195,"ĠkÉĻp":1196,"ĠlËĪoÊĬnli":1197,"ĠfËĪÊĮkÉªÅĭ":1198,"ĠsËĪÊĮmtaÉª":1199,"ËĪÃ¦kt":1200,"ĠËĮÊĮndÉļstËĪÃ¦nd":1201,"ËĪiÉĻ":1202,"ËĪÃ¦kÉªn":1203,"ËĪiËĲts":1204,"ĠhËĪoÊĬz":1205,"ĠËĪÉĽvÉ¹Éªw":1206,"É¾ÉĻk":1207,"jËĪuËĲzÉªk":1208,"ËĪÉľËĲÉ¾i":1209,"ËĪÉĽdi":1210,"ĠfËĪÃ¦st":1211,"ĠbjËĪuËĲÉ¾i":1212,"ËĪÉªpÉªn":1213,"ĠtÉĻl":1214,"ĠÉ¹ËĪÊĮnÉªÅĭ":1215,"ĠtËĪaÊĬn":1216,"ĠjoËĲÉ¹":1217,"ĠsÉĻm":1218,"ps":1219,"ĠËĪÃ¦n":1220,"hËĪÉĳËĲ":1221,"ĠÉ¹ËĪuËĲm":1222,"sp":1223,"ĠjoËĲÉ¹sËĪÉĽlf":1224,"ĠmjËĪuËĲzÉªk":1225,"ĠmËĪeÉª":1226,"ĠwËĪÉĽnt":1227,"ĠËĪiËĲzi":1228,"ĠhËĪÉľËĲt":1229,"ĠwËĪÊĮns":1230,"ĠwËĪÉľËĲdz":1231,"ĠnËĪÉĻt":1232,"ĠlÉĻ":1233,"ĠÉ¡ÉĻd":1234,"ĠmËĪÉĳËĲ":1235,"ĠsËĪÉĽl":1236,"ĠdÉ¹ËĪiËĲmz":1237,"ĠbËĪÉĽd":1238,"ĠhÉĻd":1239,"ĠwËĪÉĶËĲÉ¾Éļ":1240,"ĠkËĪoÊĬ":1241,"ĠÉ¹ËĪÉªtÊĥ":1242,"ĠËĪÉĽÉ¹":1243,"ĠÉ¾ÉĻt":1244,"ĠdËĪuËĲÉªÅĭ":1245,"ĠsËĪÉĽt":1246,"ĠpËĪÊĬsi":1247,"ĠÉĲp":1248,"ĠdËĪoÊĬ":1249,"ĠwËĪeÉªk":1250,"ËĪÉĻd":1251,"ĠsËĪÉªk":1252,"ÉļÉ¹ËĮÉªsk":1253,"ĠsËĪÊĮmtaÉªmz":1254,"tÊ°":1255,"ĠËĮÉĽni":1256,"ĠflËĪoËĲÉ¹":1257,"ĠkËĪÃ¦tÊĥ":1258,"ÉĻb":1259,"ËĪaÊĬÎ¸":1260,"É¾ÉĻd":1261,"ndz":1262,"ĠatÊ°":1263,"ËĮÊĮn":1264,"ĠmËĪÃ¦d":1265,"ĠlËĪaÉªts":1266,"ĠbËĪÊĮ":1267,"wËĮÊĮt":1268,"ĠsËĪÉªns":1269,"iËĲn":1270,"mÉĻs":1271,"Ġbáµ»h":1272,"oÊĬz":1273,"ĠÉ¡ËĪoÊĬld":1274,"tÉļ":1275,"ĠdËĪaÉªÉĻmÉĻnd":1276,"ĠfËĪiËĲlz":1277,"ĠdËĪÉªfÉ¹":1278,"ĠsËĪÉĶËĲ":1279,"ĠflËĪoÊĬ":1280,"ĠÉ¡ËĪeÉªv":1281,"ĠtËĪÉªl":1282,"ĠmËĪÉĶËĲÉ¹nÉªÅĭ":1283,"sl":1284,"ĠwËĪuËĲ":1285,"ËĪÃ¦b":1286,"ĠfËĪoÊĬn":1287,"Ì©":1288,"ĠÉĲd":1289,"ĠstÉ¹ËĪeÉªt":1290,"ËĮaÉªz":1291,"ĠstÉ¹ËĪÉĶÅĭ":1292,"ĠnËĪÊĮÎ¸Éªn":1293,"ËĪaÉªm":1294,"bËĪaÉª":1295,"ĠlÉĻv":1296,"ÊĥÉĻnz":1297,"ËĪaÊĬz":1298,"ĠËĪÉĽnÉªÎ¸ËĮÉªÅĭ":1299,"ĠkËĪuËĲl":1300,"ËĮeÉªt":1301,"ĠfÉ¾ÉĻm":1302,"ÉĻmz":1303,"ĠfjËĪuËĲ":1304,"ĠwÉĻk":1305,"ĠhËĪÉĽvÉĻn":1306,"ĠblËĪÊĮd":1307,"ĠpËĪÃ¦":1308,"ĠËĪÊĮndÉļ":1309,"kÉĻz":1310,"tw":1311,"ĠfËĪuËĲl":1312,"ĠÉ¹ËĪuËĲ":1313,"ĠtÉĻdËĪeÉª":1314,"ĠhËĪaÉªd":1315,"ĠkËĪÊĬdÉĻn":1316,"ĠËĪÉľËĲ":1317,"ĠnÉĻd":1318,"ĠsËĪÉªt":1319,"ĠÉĻÉĻÉĻËĮÉĻ":1320,"ËĪÉľËĲt":1321,"ĠÃ°ÉĻn":1322,"ĠkÉ¹ËĪÉªs":1323,"ËĪÊĬmÉĻn":1324,"ËĪÃ¦f":1325,"ĠsËĪÉĳËĲÉ¹":1326,"ĠhËĪÃ¦pi":1327,"ĠkËĪÉªÅĭ":1328,"ĠpËĪÃ¦s":1329,"ĠtËĪÉĶËĲkÉªÅĭ":1330,"ĠpËĪÉĳËĲÉ¹t":1331,"ĠkËĪaÊĬnt":1332,"hËĪÊĮndÉ¹":1333,"ĠÎ¸ËĪÉªÅĭkÉªÅĭ":1334,"ĠkÉĻmÉĻ":1335,"ĠÉĲlËĪaÉªv":1336,"ĠwËĪÊĬmÉĻn":1337,"ĠwËĪiËĲk":1338,"ĠÉ¹ËĪaÊĬnd":1339,"aÉªt":1340,"Éªl":1341,"ĠtËĪÉĶËĲkÉªn":1342,"ĠlËĪuËĲ":1343,"É¡ÉĻl":1344,"Ã¦n":1345,"ĠtÉĻm":1346,"ĠpÉ¹ËĪÉªÉ¾i":1347,"ĠtÉ¹ËĪuËĲÎ¸":1348,"hËĪÊĮndÉ¹ÉĻd":1349,"ĠfËĪÊĬl":1350,"ĠwÉĻt":1351,"ĠÉ¹ËĪiËĲz":1352,"ĠpÉ¹ËĪÉĳËĲm":1353,"ĠdËĪÉªk":1354,"ĠwËĪeÉªst":1355,"ĠbËĪuËĲ":1356,"ËĪÉĳËĲloÊĬ":1357,"ĠdÊĴËĪÊĮmp":1358,"ĠmËĪeÉªks":1359,"ËĪÉľËĲnd":1360,"ĠhËĪÃ¦Åĭ":1361,"ĠÉ¹ËĪÉªÅĭ":1362,"stÉ¹":1363,"ĠpËĪÃ¦st":1364,"ĠtÉ¾ÉĻ":1365,"wËĪoÊĬ":1366,"ĠËĪÉĽnÉªw":1367,"ËĪaÊĬzÉĻnd":1368,"ÉĻdÊĴ":1369,"ËĪÉĶÉªs":1370,"ĠÉĲm":1371,"ĠstÉ¹ËĪiËĲt":1372,"ĠkËĪÊĮt":1373,"ĠmËĪÉªst":1374,"ĠlËĪÊĬkÉªn":1375,"ĠtwËĪÉĽnti":1376,"áµ»t":1377,"ĠstËĪÉĽp":1378,"ËĪÉĶl":1379,"ĠwËĪÉĶntáµ»d":1380,"ĠtËĪÉĽn":1381,"ĠdÉªz":1382,"ĠdÊĴËĪuËĲ":1383,"ĠbËĪÃ¦Åĭ":1384,"ĠmËĪÉªn":1385,"ĠbjËĪuËĲÉ¾ifÉĻl":1386,"Ġbáµ»hËĪaÉªnd":1387,"ĠklËĪÊĮb":1388,"ĠtÉ¾":1389,"ĠnÉĻt":1390,"ĠtÉ¹ËĪaÉªd":1391,"aÉªn":1392,"ĠbËĪÉĶÉªz":1393,"ÉĳËĲÉ¹":1394,"ĠwËĪaÉªld":1395,"ĠnËĪaÉªn":1396,"ĠlËĪeÉªdi":1397,"ĠbÉ¹ËĪiËĲ":1398,"ĠtÊĥËĪÃ¦ns":1399,"É¹ËĪoÊĬl":1400,"ĠËĮÉĽ":1401,"ĠlÉĻf":1402,"ĠÉĻvËĪo":1403,"ĠpÉ¹ËĪeÉª":1404,"ËĪÉĶÉªn":1405,"ĠhËĪÊĮndÉ¹":1406,"ÉĽkt":1407,"ĠhËĪÊĮndÉ¹Éªd":1408,"ĠnËĪÊĮm":1409,"ĠÉ¡ÊĬd":1410,"hÉĻ":1411,"ĠskÉ¹ËĪiËĲm":1412,"ĠtÉ¹ËĪÊĮst":1413,"É¡Éªn":1414,"É¾ËĪÉĻ":1415,"ÉªËĮoÊĬ":1416,"ĠfËĪiËĲt":1417,"ĠfËĪÉĶËĲlÉªÅĭ":1418,"É¾ÉĻs":1419,"ĠËĮoÊĬ":1420,"ËĪeÉªtÊĥ":1421,"ĠjËĪÉªÉ¹z":1422,"ĠwËĪÉĶËĲl":1423,"ĠdËĪÉªfÉ¹ÉĻnt":1424,"ĠbËĪÉĶËĲl":1425,"ĠspËĪÉĽnd":1426,"ËĪeÉªnz":1427,"É¾Éļz":1428,"ĠmËĪuËĲn":1429,"ĠmËĪÉªli":1430,"ÉĻzÉĻ":1431,"ĠswËĪÉĽÉ¹":1432,"ËĪeÉªst":1433,"wËĪÊĮn":1434,"ÊĴÉĻn":1435,"ĠbËĪa":1436,"?\"":1437,"ĠdÊĴËĪiËĲ":1438,"É¹ÉĻn":1439,"ĠmËĪÉľËĲ":1440,"ËĮÉĳËĲÉ¹É¹":1441,"ĠpËĪoËĲÉ¹":1442,"ĠfËĪaÉªv":1443,"ĠwËĪÉĻl":1444,"ĠËĪaÊĬ":1445,"ËĪÉĽÉ¹d":1446,"ĠÉ¡É¹ËĪaÊĬnd":1447,"ĠfÉ¹ËĪÊĮnt":1448,"fl":1449,"ĠsËĪuËĲn":1450,"ĠhËĪav":1451,"ĠsÉĻp":1452,"ĠbÉ¹ËĪoÊĬkÉĻn":1453,"ĠbÉ¹ËĪiËĲÃ°":1454,"ËĪÉľËĲv":1455,"ĠkÉ¹ËĪÉªsmÉĻs":1456,"ĠspËĪiËĲk":1457,"wËĪuËĲ":1458,"ĠstËĪÉĳËĲÉ¹z":1459,"ĠbËĪÉªt":1460,"ĠwËĪÊĮÉ¹i":1461,"ĠstÉ¹ËĪiËĲts":1462,"ĠsÉĻk":1463,"ĠsËĪÉĽks":1464,"ĠÉ¡ÉĻl":1465,"ĠbËĮÉĻn":1466,"ËĪÉĽpt":1467,"áµ»l":1468,"ĠtËĪÉªÉ¹z":1469,"ĠpÉĻl":1470,"ĠbÉ¹ËĪÊĮÃ°Éļ":1471,"ĠÉĻËĪÉĻÉĻÉĻÉĻÉĻ":1472,"ĠmËĪiËĲt":1473,"lz":1474,"ĠdËĪÉĳËĲl":1475,"ĠmËĪeÉªkÉªÅĭ":1476,"ĠsÉĻd":1477,"ĠÉªts":1478,"ĠtÉ¹ËĪÃ¦p":1479,"ËĪÉªÊĥÉĻn":1480,"ĠhËĪÉĽÉ¹":1481,"ĠÃ°ËĮÉĻm":1482,"ĠÉĻm":1483,"ĠkËĪÉªk":1484,"sÉĻn":1485,"ĠsËĪÊĮmÉļ":1486,"ĠËĪiËĲt":1487,"ĠhÉĻm":1488,"ÉĻtÉĻ":1489,"ĠÉĻÎ²":1490,"ĠÉ¹ËĪiËĲzÉĻn":1491,"ËĪÉĳËĲÉ¹É¹":1492,"ËĪÉĽns":1493,"ĠÊĥËĪuËĲt":1494,"ĠmËĪÉĽs":1495,"Ã¦nd":1496,"ĠwËĪÉľËĲd":1497,"ĠfËĪÉĳËĲloÊĬ":1498,"ĠsËĪÉĳËĲÉ¹i":1499,"wËĪaÉª":1500,"ĠbËĪÃ¦É¡":1501,"ĠbÉªÉ¡":1502,"ĠÉ¹ËĪÉĽst":1503,"ËĮÉĽÉ¹":1504,"ĠbËĪiËĲÉªÅĭ":1505,"ĠdËĪÊĮz":1506,"ÉĽn":1507,"ĠnÉĻÉ£ËĪaz":1508,"sËĪiËĲ":1509,"tËĪuËĲ":1510,"ĠkËĪÃ¦Êĥ":1511,"ĠbËĪÉĽt":1512,"ĠhËĪÊĬd":1513,"ĠbËĪÉĳËĲÉ¹":1514,"ĠplËĪÃ¦n":1515,"ĠpÉ¹ËĪÉĳËĲmÉªs":1516,"ĠÉ¹áµ»l":1517,"ĠfËĪiËĲlÉªn":1518,"ĠkÉĻntÉ¹ËĪoÊĬl":1519,"ËĪÉĶËĲÉ¾i":1520,"ĠÉĻb":1521,"ĠwËĪÉªt":1522,"ĠwËĪÊĬdÉĻn":1523,"ĠÉ¾ÉĻn":1524,"ĠfËĪÊĮn":1525,"ĠÉ¡ÊĬdbËĪaÉª":1526,"ĠpËĪÊĬÊĥ":1527,"deÉª":1528,"ËĮÉªs":1529,"ËĪoËĲÉ¹z":1530,"ĠdÉĻd":1531,"ĠËĪÉĳËĲÉ¹mz":1532,"ËĪaÉªk":1533,"ĠÉĻp":1534,"ĠfËĪeÉªd":1535,"ĠmËĪÉªd":1536,"ËĪÃ¦v":1537,"ĠbÉĻl":1538,"ĠÎ¸ÉĻnk":1539,"ĠkËĪÉĳËĲn":1540,"ËĪÉĳËĲks":1541,"Éªf":1542,"ĠlËĪÊĮvÉªÅĭ":1543,"ĠÉĶËĲlÉ¹ËĪÉĽdi":1544,"ĠblËĪÉĳËĲk":1545,"ËĪÉĽf":1546,"ĠkËĪÉĳËĲp":1547,"ĠmËĪoÊĬmÉĻnt":1548,"ĠkËĪÉĳËĲmÉªn":1549,"ĠÃ°ËĪÉĻz":1550,"ĠpÉĻp":1551,"ĠÉ¡É¹ËĪoÊĬ":1552,"ĠpËĪÉľËĲf":1553,"ËĮÉĳËĲn":1554,"ĠmËĪan":1555,"ËĪÉªlz":1556,"ĠsËĪÉĽnd":1557,"ĠsËĪeÉªÉªÅĭ":1558,"ĠÉ¹ËĪÉĽk":1559,"ĠfËĪÉªÉ¹":1560,"ËĪÉªÊĥ":1561,"ĠËĪaÉªs":1562,"ĠdËĪaÉªÉĻmÉĻndz":1563,"ĠbËĪÊĬl":1564,"ĠbËĪoÊĬÎ¸":1565,"ĠbËĪÊĮst":1566,"ĠËĮÉĽm":1567,"ĠstËĪÉĳËĲÉ¹É¾áµ»d":1568,"ĠwËĪÉĳËĲs":1569,"ËĪeÉªp":1570,"ĠÉ¡ÉĻvÉĻ":1571,"ĠÉĲlËĪÉĶÅĭ":1572,"ĠËĪiËĲtÊĥ":1573,"ĠsËĪÃ¦d":1574,"ËĪÉªmi":1575,"ĠtËĪeÉªkÉªÅĭ":1576,"ËĪÉĶËĲn":1577,"ÉªÉ¹":1578,"É¾oÊĬ":1579,"ÉĳËĲn":1580,"ĠsËĪÉĽk":1581,"ĠÉ¾ÉĻd":1582,"ĠmËĪÉĽm":1583,"ĠwËĪÉĳËĲsÉĻn":1584,"ĠhËĪÃ¦f":1585,"ËĪoËĲÉ¹d":1586,"ĠspÉ¹":1587,"ĠlËĪÃ¦f":1588,"stÉĻ":1589,"ÉĻÉĻÉĻÉĻÉĻÉĻÉĻÉĻ":1590,"sÉĻ":1591,"ĠÉĲt":1592,"ĠsËĮÉĻm":1593,"ĠaÊĬts":1594,"ËĮÉĳËĲÉ¹tËĪiËĲ":1595,"ĠkËĪÉĳËĲ":1596,"ĠdËĪÉĳËĲÉ¡":1597,"ĠbËĪÉĶËĲÉ¹n":1598,"skËĮeÉª":1599,"ĠlËĪaÊĬd":1600,"ĠkËĪÉĶËĲt":1601,"wiËĲ":1602,"ĠÎ¸ËĪÃ¦Åĭk":1603,"ËĪand":1604,"ĠdËĪÃ¦":1605,"ËĪuËĲv":1606,"Ã¦m":1607,"fËĮaÉª":1608,"ĠwËĪÉĳËĲ":1609,"ĠfËĪeÉª":1610,"É¹ÉĻ":1611,"ËĪaÉªld":1612,"ĠsÉĻn":1613,"tËĪÉĽvÉļ":1614,"ĠËĪÉĳËĲn":1615,"ĠÉ¹ËĪiËĲtÊĥ":1616,"bl":1617,"ĠpÉ¹ËĪÉĳËĲbl":1618,"ÉĻÉĻn":1619,"ĠÉ¹ËĪÃ¦":1620,"ËĪoÊĬzd":1621,"ËĪÊĮÊĥ":1622,"ĠlËĪaÉªz":1623,"ĠmÉĻs":1624,"ĠdËĪÉĳËĲÉ¹":1625,"ĠdËĪiËĲl":1626,"iÉĻ":1627,"áµ»k":1628,"ĠÉ¡ÉĻt":1629,"ĠhËĪÊĮni":1630,"ĠdËĪiËĲ":1631,"ĠvËĪaÉª":1632,"ĠjËĪeÉª":1633,"ËĪÉĳËĲÉ¹oÊĬ":1634,"ËĪam":1635,"ĠmËĪÉĽt":1636,"ĠÉĻÎ²ËĪÉĻt":1637,"ĠbËĪÉªz":1638,"ĠÉ¡ËĪÉĽts":1639,"ĠsËĪÉªks":1640,"ËĪaÉªi":1641,"ĠpËĪÉľËĲfÉĽkt":1642,"ĠsËĪÊĮk":1643,"ĠsËĪiËĲmz":1644,"ĠmËĪaÊĬÎ¸":1645,"ĠkËĪÉĻd":1646,"ĠvËĪÉĽÉ¹i":1647,"ËĪiÉĻÉ¹oÊĬ":1648,"ĠwÊĮtËĪÉĽvÉļ":1649,"É¡n":1650,"ĠtÉĻmËĪÉĳËĲÉ¹oÊĬ":1651,"ÉĻtÊĥ":1652,"ĠsËĪiËĲm":1653,"ĠËĪÉĽvÉ¹ÉªwËĮÊĮn":1654,"ĠËĪeÉªndÊĴ":1655,"ĠdËĪuËĲÉªn":1656,"ËĮÉĽmËĮÉĽmËĪÉĽm":1657,"ĠlËĪiËĲ":1658,"ĠjËĪÉªÉ¹":1659,"ĠÊĥËĪÉĶËĲÉ¾i":1660,"ĠmËĪoÊĬst":1661,"ĠfËĪÉªl":1662,"ĠËĪÉĶËĲ":1663,"ĠjËĪuËĲs":1664,"ĠsËĪÊĮmÎ¸Éªn":1665,"ÉĻËĮÉĻ":1666,"ĠlËĪÉľËĲn":1667,"ËĪÉĽvÉĻl":1668,"ĠkËĪÉªdz":1669,"Ġaz":1670,"ĠtËĪaÉªÉļd":1671,"dËĪÉĳËĲn":1672,"sËĪaÉªd":1673,"ĠlËĪÉĳËĲk":1674,"ĠdËĪoÊĬs":1675,"ĠjËĪoËĲÉ¹z":1676,"Ã°z":1677,"ĠfËĪÊĮkt":1678,"ĠÉ¡ÉĻn":1679,"ĠfÉ¹ËĪiËĲk":1680,"ËĪÊĮt":1681,"ĠmËĪÉªliÉĻn":1682,"ĠÉĲpËĪÉĳËĲÉ¹t":1683,"ËĪÉĳËĲd":1684,"ĠÉ¹ËĪeÉªz":1685,"É¾ÉĻn":1686,"ĠfËĪÃ¦m":1687,"ĠsÉĻl":1688,"ĠwËĪeÉªv":1689,"ĠstÉ¹ËĪeÉªndÊĴ":1690,"ĠlËĪÊĮvd":1691,"ĠËĪeÉªt":1692,"ĠsÉļ":1693,"ĠstÉĻl":1694,"ĠnËĪÉĳËĲk":1695,"nÉĻ":1696,"ËĪÉľËĲs":1697,"ĠfËĪÉĽlt":1698,"lÉļ":1699,"ÉªmËĪoËĲÉ¹":1700,"ĠsËĪÊĮtÊĥ":1701,"ĠfËĪiËĲ":1702,"ĠdËĪÃ¦di":1703,"ËĪaÊĬns":1704,"ĠstËĪÉªk":1705,"ĠaÊĬtsËĪaÉªd":1706,"ĠklËĪoÊĬ":1707,"ĠtËĪaÉªt":1708,"ĠhËĪÉĳËĲp":1709,"ĠmÉĻnÉĻ":1710,"ĠtËĪeÉªst":1711,"ĠlËĪÃ¦nd":1712,"ĠlËĪÉªvÉªn":1713,"ĠËĮÉĽnÉªmËĪoËĲÉ¹":1714,"ĠfËĪÉĳËĲ":1715,"ĠsËĪÉªm":1716,"ĠÉ¡É¹ËĪeÉªt":1717,"ĠlËĪiËĲd":1718,"ĠtÉ¹ËĪÊĮbÉĻl":1719,"ĠtÊĥËĪaÉªld":1720,"Éªks":1721,"ĠnËĪaÉªs":1722,"ĠfËĪeÉªk":1723,"ĠÉ¹ËĪÊĮnÉªn":1724,"ĠskËĪÉĽÉ¹d":1725,"ËĪÊĮp":1726,"ËĪÉĶÉªnt":1727,"dÊĴÉªk":1728,"ĠwËĪÉĶËĲkÉªÅĭ":1729,"ĠkËĪÉĶËĲlÉªÅĭ":1730,"jÉĻh":1731,"ĠskËĪÉªn":1732,"ĠÎ¸ÉĻÅĭ":1733,"ĠdËĪoÊĬsÉĻn":1734,"ĠvËĪÉĶÉªs":1735,"ĠdËĪoÊĬp":1736,"ĠlËĪÉĽs":1737,"stÉļÉ¹ËĮÉªsk":1738,"ËĪÉĽdÊĴ":1739,"ÉļÉ¹ÉªÅĭ":1740,"ĠwËĪÉľËĲÎ¸":1741,"ĠklËĪÉªÉ¹":1742,"ĠdËĪÉĽÎ¸":1743,"ĠlËĪÊĮk":1744,"aÉªz":1745,"mËĪaÉª":1746,"ĠwËĪÉªp":1747,"ĠbËĪÉĳËĲÉ¾ÉĻl":1748,"ËĮeÉªtÊĥ":1749,"ĠdËĮÉªs":1750,"ĠskËĪuËĲl":1751,"ËĪuËĲËĪuËĲ":1752,"ĠhËĮa":1753,"ĠÉĻwÉĻ":1754,"ĠwÉĻld":1755,"Éªli":1756,"É¹ËĪiËĲ":1757,"ËĪÉĻÉĻÉĻ":1758,"ĠdËĪÊĮbÉĻl":1759,"fÉ¹ËĪeÉªd":1760,"ĠÉ¹ËĪaÉªz":1761,"ti":1762,"ÉĻdi":1763,"ĠpËĪaÊĬÉļ":1764,"É¾Éªk":1765,"lf":1766,"ĠmËĪÉĽnt":1767,"ĠnËĪaÉªts":1768,"ĠlËĪÉªk":1769,"ĠhËĪÉĳËĲl":1770,"ĠtÉ¹ËĪÉªp":1771,"ĠÉ¡ËĪuËĲ":1772,"sÉĻl":1773,"ĠsËĪaÉªn":1774,"É£ÉĻn":1775,"lËĪÉĽt":1776,"ĠdËĪÃ¦nsÉªÅĭ":1777,"ÉĽnd":1778,"ĠkËĪÊĮpÉĻl":1779,"twËĪiËĲn":1780,"ÉĻÉĻl":1781,"ĠdÉ¾ÉĻ":1782,"ÉĻsÉĻ":1783,"ĠstÉĻ":1784,"ĠtËĪÉľËĲnd":1785,"ĠtËĪeÉªks":1786,"ÉĻsÉĻn":1787,"ĠÊĥËĪÉĶËĲÉ¹":1788,"Ġskw":1789,"ÉĻnts":1790,"ĠÉ¹ËĪÉª":1791,"kl":1792,"ËĪÊĮÉ¡z":1793,"É¾Éªst":1794,"ĠsËĪÉĽkÉĻnd":1795,"ĠbÉ¾ÉĻk":1796,"ĠfËĪÉªft":1797,"ĠÉĲfÉ¹ËĪeÉªd":1798,"ĠblËĪaÉªnd":1799,"ĠhËĮad":1800,"ĠwËĪÉĶnts":1801,"ĠplËĪeÉªÉªÅĭ":1802,"ĠfËĪeÉªm":1803,"ËĪÉªvÉļ":1804,"ĠsÉĻt":1805,"ĠÉ¡É¹ËĪiËĲn":1806,"ĠstËĪÃ¦ndÉªÅĭ":1807,"kËĪÊĮm":1808,"ĠÉĻnl":1809,"jËĪÊĬÉ¹":1810,"ĠdËĪÉľËĲÉ¾i":1811,"ĠnËĪÊĮmbÉļ":1812,"dËĪiËĲ":1813,"ËĪÉĻÉĻÅĭ":1814,"ËĪap":1815,"')":1816,"ĠfËĪÉªÅĭ":1817,"ĠpÉ¾ÉĻ":1818,"ĠÉ¹ËĪiËĲd":1819,"ËĪÉĽlv":1820,"ĠÉĻÉ¾ÉĻnd":1821,"ÉĻkt":1822,"ĠÉ¹ËĪaÉª":1823,"É¡oÊĬ":1824,"ĠmËĪÉªÉ¹":1825,"ĠÎ¸É¾ËĪÉĻ":1826,"ËĪuËĲd":1827,"ĠmËĪÉĳËĲÉ¹":1828,"Ìĥ,":1829,"ĠdËĪÊĮm":1830,"ĠÉĻbËĪÊĮv":1831,"ĠtÊĥËĪeÉªn":1832,"ĠmËĪÉªnÉªt":1833,"ĠsËĪa":1834,"ĠtÉ¹ËĪaÉªÉªn":1835,"Ġbáµ»twËĪiËĲn":1836,"ÉĻbli":1837,"fËĪaÉªv":1838,"ĠlÉĻst":1839,"ĠbËĪÉĶËĲt":1840,"ĠsËĪuËĲpÉļ":1841,"ĠstËĪÉĽÉ¹":1842,"ĠjËĪÉĽt":1843,"ËĪiËĲzÉĻs":1844,"ĠwËĪÊĮnz":1845,"ĠsËĪeÉªÉªn":1846,"ĠklËĪoÊĬÃ°z":1847,"ĠÎ¸ËĪaÊĬzÉĻnd":1848,"ĠËĮÉĻ":1849,"ĠkÉĻnf":1850,"ĠbÉ¾ÉĻ":1851,"ĠÉ¹ËĪeÉª":1852,"ĠsËĪÉĽnt":1853,"ĠstËĪoËĲÉ¹i":1854,"ĠpËĪoÊĬ":1855,"ĠhËĪoÊĬldÉªÅĭ":1856,"ĠfÉĻn":1857,"ĠspËĪeÉªs":1858,"ĠtÊĥËĪÉĳËĲp":1859,"ĠblËĪeÉªm":1860,"ÉĻÉĻÉĻÉĻÉĻÉĻ":1861,"ĠpËĪÉĳËĲk":1862,"ĠÉĻnlËĪi":1863,"ĠËĪÃ¦l":1864,"ĠlËĪÉªps":1865,"bËĪiËĲ":1866,"jÊĬ":1867,"jËĮuËĲ":1868,"ĠsËĪoÊĬld":1869,"ĠbÉªÉ¡ËĪÉªn":1870,"ĠbÉ¹ËĪeÉªn":1871,"ËĪÊĮs":1872,"ËĪÉªdÊĴ":1873,"ĠkËĪÃ¦É¹i":1874,"ĠbËĪÉĽl":1875,"ĠdËĮiËĲ":1876,"ĠnËĪÉĽk":1877,"ĠfËĪÉªn":1878,"ĠhËĪÃ¦pÉĻn":1879,"ËĪÊĮnd":1880,"ËĮÉĽmËĮÉĽmËĪeÉª":1881,"ĠwÉĻl":1882,"ËĪÉªkt":1883,"ĠstËĪÊĮk":1884,"ĠÉ¡ÉĻtËĪa":1885,"laÉªt":1886,"ĠÉ¹ËĪÉªd":1887,"ĠlÉĻn":1888,"ĠsËĪÉĽz":1889,"ĠtÊĥËĪeÉªs":1890,"ĠspËĪÉªn":1891,"ĠËĪÉªs":1892,"ĠkÉĻ":1893,"ĠfËĪÃ¦mÉªli":1894,"ĠÉ¾ÉĻk":1895,"ĠbËĪÉªld":1896,"ĠpÉ¹ËĪÉĳËĲbÉĻbli":1897,"ĠhËĪaÉªÉļ":1898,"dËĮeÉª":1899,"mÉĻ":1900,"ĠÉ¾ÉĻlÉĻ":1901,"ĠfËĪeÉªÎ¸":1902,"ĠËĪÉĽks":1903,"ĠpËĪeÉªpÉļ":1904,"ĠsËĪÉĻm":1905,"ĠbÉ¹ËĪÉĽÎ¸":1906,"ĠkËĪoËĲÉ¹":1907,"ĠkËĪÉĶËĲld":1908,"ËĪal":1909,"ĠÉ¡ËĪÉªmi":1910,"ÉĻbÉĻl":1911,"ĠbËĪeÉªs":1912,"ÉĻmÉĻ":1913,"ĠpÉĻ":1914,"ĠËĮÉĻs":1915,"ĠdÊĴËĪiËĲzÉĻs":1916,"ĠhËĪÉĳËĲÉ¹":1917,"hËĪÉĽd":1918,"ĠËĪiËĲv":1919,"mÉªn":1920,"ĠsÉĻÅĭ":1921,"ĠpËĪÉªktÊĥÉļ":1922,"ĠswËĪÉªtÊĥ":1923,"ĠkÉĻz":1924,"ĠtËĪoÊĬ":1925,"ĠÉªnv":1926,"ĠÉªmËĪÃ¦":1927,"pti":1928,"stÉļ":1929,"É¾Éªs":1930,"ĠdËĪÉĳËĲÉ¹lÉªÅĭ":1931,"ËĪoÊĬnz":1932,"ĠmËĪÉĽÉ¹i":1933,"ĠÉ¡É¹ËĪeÉª":1934,"É¾ÉĻz":1935,"ĠlËĪÊĮvÉļ":1936,"dÉļ":1937,"ĠfËĪoÊĬ":1938,"Ã°ËĪÃ¦t":1939,"ĠkwËĪÉªk":1940,"ĠwËĪÉªs":1941,"ËĪÉªÅĭz":1942,"ĠÉ¡ËĪÉªvÉªÅĭ":1943,"ĠmËĪÉªstÉļ":1944,"ĠbËĪaÊĬt":1945,"ĠÉ¾ÉĻÉĻl":1946,"ĠpÉĻs":1947,"ĠlËĪiËĲn":1948,"ĠbÉ¹ËĪaÉªt":1949,"wÉĽÉ¹":1950,"ĠpÉ¹Éªt":1951,"ËĪÉĽkÊĥÉĻn":1952,"ĠÎ¸ËĪÉªÅĭkÉªn":1953,"hËĪuËĲ":1954,"dÉ¹":1955,"ĠdËĪÉªÉ¡":1956,"ĠbËĪÉĽÉ¹":1957,"ĠËĪÃ¦ns":1958,"ĠkÃ¦n":1959,"ËĪÊĬks":1960,"ĠÉ¹ËĪuËĲl":1961,"ĠfÉĻnd":1962,"ĠÊĥËĪaÊĬt":1963,"ĠtËĪaÉªp":1964,"ĠmÉĻnd":1965,"ĠÉ¹ËĪÃ¦Ã°Éļ":1966,"ËĮeÉªÉ¾áµ»d":1967,"ĠËĪÉľËĲÎ¸":1968,"ĠpÉ¹ÉªtËĪÉĽnd":1969,"ĠpËĪÉĻt":1970,"ĠfËĪaÉªnÉĻli":1971,"ÉĻts":1972,"ËĪÉĻna":1973,"ÉĶ":1974,"ĠkËĪÉĶËĲÉ¹n":1975,"ÅĭÉ¡":1976,"ĠwËĪÉĳËĲtÊĥÉªÅĭ":1977,"ÊĴÉļ":1978,"ËĪÉªf":1979,"moÊĬ":1980,"ĠbÉĻn":1981,"dÊĴËĪeÉª":1982,"ĠËĮÊĮnd":1983,"ĠkÃ¦nËĪÉĳËĲt":1984,"ĠbËĪÉľËĲnÉªÅĭ":1985,"ĠËĪÉªm":1986,"ĠtÊĥËĪÉªl":1987,"ĠkÉ¹ËĪÃ¦k":1988,"ĠwËĪÉĽst":1989,"ËĪiËĲnz":1990,"ĠmÉªst":1991,"ĠmËĪuËĲvÉªÅĭ":1992,"ĠËĪÉĽmpti":1993,"ĠwËĪiËĲd":1994,"ËĪÊĮvÉļ":1995,"ĠbÉĻtËĪo":1996,"ĠÉ¹ËĪÉªst":1997,"ĠsËĪÉªst":1998,"aÊĬn":1999,"áµ»fËĮaÉª":2000,"ĠlËĪÊĮvÉªn":2001,"ĠpËĪÃ¦k":2002,"ĠmËĪÃ¦dÊĴÉªk":2003,"ĠsËĪÊĮmwÉĽÉ¹":2004,"lÉªn":2005,"ĠËĮÉĽmËĮÉĽmËĪÉĽm":2006,"!\"":2007,"ĠÉ¡É¹ËĪÃ¦b":2008,"ĠtÊĥËĪÉªk":2009,"ĠsËĪÃ¦":2010,"ĠstËĪiËĲl":2011,"ĠsËĪÉªÅĭÉªÅĭ":2012,"eÉªk":2013,"ĠtËĮiËĲ":2014,"ĠtÉ¹ËĪiËĲt":2015,"ĠÉ¹ËĪeÉªd":2016,"ĠÉ¾ÉĻl":2017,"ËĪaÉªÉļ":2018,"ĠnËĪiËĲz":2019,"ËĪÉĶÉªz":2020,"ĠklËĪiËĲn":2021,"ĠhËĪÉĳËĲÉ¹ts":2022,"ĠbËĪuËĲm":2023,"ĠmËĪÉªdÉĻl":2024,"ĠkËĪeÉª":2025,"ĠtËĪÉªÉ¹":2026,"ĠkËĪÃ¦p":2027,"nËĪiËĲ":2028,"ĠbËĪaÊĬns":2029,"ĠmËĪaÉªk":2030,"ĠtÉ¹ËĪeÉªn":2031,"ĠtÊĥËĪeÉªndÊĴd":2032,"ĠÉĽÉ¡z":2033,"ĠwÉĻd":2034,"ĠÊĥËĪuËĲz":2035,"ĠpËĪeÉªd":2036,"ĠÉĽksp":2037,"ĠhÉĻld":2038,"ĠspËĪÉĳËĲt":2039,"ĠwËĪeÉªz":2040,"ĠsËĪiËĲkÉ¹":2041,"ĠÉ¹ËĪÉªvÉļ":2042,"ËĪÉĽvi":2043,"ĠkÉ¹ËĪÉĶs":2044,"ĠËĮoÊĬvÉļ":2045,"ĠËĪÃ¦k":2046,"ĠÉ¾ÉĻ":2047,"ËĪÉªb":2048,"ĠpËĪiËĲ":2049,"É¡ËĪoÊĬ":2050,"tÊĥi":2051,"Ġbáµ»lËĪÉĶÅĭ":2052,"ĠkwËĪÉĽst":2053,"ĠfËĪiËĲlÉªÅĭz":2054,"ĠhËĪoÊĬmi":2055,"ĠnËĪoÊĬn":2056,"ĠfËĪÉĳËĲÃ°Éļ":2057,"ĠmËĪÊĮÃ°ÉļfËĮÊĮkÉļ":2058,"ĠbËĪÉªl":2059,"ÉĻnsÉĻ":2060,"ËĪÃ¦stÉļÉ¹ËĮÉªsk":2061,"ĠËĪÉªsÉĻn":2062,"tËĪÉĽl":2063,"ĠËĮÃ¦":2064,"ĠsËĪeÉªf":2065,"ĠbËĪÉĳËĲm":2066,"ËĮaÉªm":2067,"ĠsËĪaÉªl":2068,"ĠkËĪÊĮz":2069,"bËĪÉĳËĲ":2070,"ĠkÉ¹ËĪuËĲ":2071,"lÉĻnd":2072,"ĠsËĪiËĲz":2073,"ĠÉĻËĮ":2074,"ĠlËĪiËĲvÉªÅĭ":2075,"ĠËĪÉĽvÉ¹ÉªwËĮÉĽÉ¹":2076,"skËĮeÉªËĪÉĳËĲÉ¹É¹":2077,"ĠnËĪÉªÉ¹":2078,"ĠdÉªs":2079,"ĠsËĪÉĽvÉĻn":2080,"ÉļÉ¹iz":2081,"ĠËĪaÊĬÉ¾ÉĻ":2082,"ĠstËĪaÉªl":2083,"ĠÉ¡ËĪaÉª":2084,"aÉªd":2085,"ĠdËĪÉĽm":2086,"ĠÉ¾ÉĻm":2087,"ĠlÉĻÅĭ":2088,"ĠhÉĻp":2089,"ĠpËĪÉĶÉªnt":2090,"ĠlÉĻtÉĻ":2091,"ĠhÉĻlËĪoÊĬ":2092,"ĠnËĪÊĮn":2093,"ĠÊĥËĪÊĮt":2094,"ĠnËĪoÊĬwÉĽÉ¹":2095,"ÉĻsi":2096,"ĠhjËĪuËĲ":2097,"Ã¦k":2098,"ĠdËĪÉĽvÉĻl":2099,"ĠÊĥËĪÉĽÉ¹":2100,"ËĪeÉªÊĥÉĻnz":2101,"pËĪiËĲ":2102,"Éªp":2103,"ËĪÉĽÉ¹Éªk":2104,"ÊĴÉĻ":2105,"bÉĻ":2106,"jÉļ":2107,"áµ»É¹":2108,"ĠÉĲÉ¡ËĪÉĽnst":2109,"tÊĥÉªÅĭ":2110,"ĠkjËĪuËĲ":2111,"ÉĻks":2112,"fËĪÉĻ":2113,"fËĪÊĮk":2114,"tÉĻl":2115,"ĠkËĪa":2116,"ËĪaÊĬntÉªn":2117,"ĠwËĪÉªtÊĥ":2118,"ĠkËĪiËĲps":2119,"ĠfÉ¹ËĪÉĽÊĥ":2120,"ĠÉĻpËĮÉĳËĲn":2121,"ĠÉ¡ËĪoÊĬst":2122,"ĠkËĪeÉªs":2123,"skËĮeÉªËĪÉĳËĲÉ¹É¹ËĮÉĳËĲÉ¹tËĪiËĲ":2124,"ĠÉ¹ËĪoÊĬz":2125,"haÊĬ":2126,"áµ»bÉĻl":2127,"ĠdËĪÉªÉ¹":2128,"ĠÎ¸ËĪÉľËĲÉ¾i":2129,"ĠklËĪaÊĬ":2130,"ĠÉĻÉ£ÉĻn":2131,"ĠmÉªstËĪeÉªk":2132,"ĠtÉ¹ËĪiËĲ":2133,"ĠfjËĪuËĲtÊĥÉļ":2134,"ËĪÉĳËĲkÉªn":2135,"ĠdÊĴËĪÃ¦k":2136,"ĠbËĪÉĶs":2137,"ĠwËĪÉĻd":2138,"ĠÉ¡É¹ËĪaÉªnd":2139,"sËĪoÊĬ":2140,"ĠwËĪÉªndoÊĬ":2141,"tÊĥÉļz":2142,"ĠpËĪÃ¦É¹":2143,"nËĪaÉªn":2144,"ËĪÉªpÉªÅĭ":2145,"ĠpÉļ":2146,"ĠfÉĻs":2147,"ĠbËĪÃ¦l":2148,"ËĮiËĲËĮÉĳËĲÉ¹É¹":2149,"ĠÉ¹ËĪoÊĬláµ»n":2150,"bi":2151,"ĠbËĪÉĽn":2152,"ĠbËĪÃ¦ndz":2153,"ĠpËĪÉĳËĲ":2154,"ĠbËĪÉªznÉĻs":2155,"wÉĻz":2156,"ĠdËĪÉĳËĲlÉļ":2157,"'?":2158,"ĠsnËĪoÊĬ":2159,"ni":2160,"ĠÉĽkspl":2161,"ĠmËĪÉĽl":2162,"ĠbÉ¹ËĪÃ¦nd":2163,"ĠmËĪeÉªn":2164,"ĠplËĪeÉªÉªn":2165,"ĠbËĪÉĳËĲÉ¾ÉĻm":2166,"ĠÉ¹áµ»sp":2167,"ĠÉ¹ËĮÉĽ":2168,"ĠËĪÉĳËĲp":2169,"ĠflÉĻ":2170,"ĠtËĪÉĽlÉªÅĭ":2171,"ÊĥiËĲ":2172,"nz":2173,"kÉĻ":2174,"boÊĬ":2175,"ĠkËĪaÉªndÉĻ":2176,"ĠnÉĻm":2177,"ĠËĮÉĻn":2178,"ĠplÉĻ":2179,"tÉªn":2180,"ĠlËĪÊĮvz":2181,"ĠhËĪiËĲt":2182,"ĠjËĪÉĽl":2183,"ĠwËĪÉĶËĲÉ¹m":2184,"ĠÊĥËĪÃ¦d":2185,"bËĪeÉªb":2186,"ĠËĪuËĲoÊĬ":2187,"ĠfËĪÉªÉ¡":2188,"ĠtÊĥËĪÉªld":2189,"ĠstËĪuËĲp":2190,"Ġfo":2191,"lËĪÊĮv":2192,"ĠkÉ¾ÉĻ":2193,"ĠhËĪiËĲl":2194,"ĠÉ¡lËĪÃ¦s":2195,"ĠmËĪÃ¦kÉªn":2196,"ĠklËĪoÊĬsÉļ":2197,"lÉªk":2198,"É¡ËĪÉĽt":2199,"ĠËĪÉĳËĲÉ¹m":2200,"ĠkËĪÊĮnt":2201,"ĠfËĪÉªfti":2202,"ËĮÉľËĲ":2203,"ĠkÉ¾":2204,"nËĪiËĲÎ¸":2205,"ĠblËĪiËĲd":2206,"yn":2207,"ĠfÉļÉ¡ËĪÉªv":2208,"ĠlËĪaÉªvz":2209,"ĠtÉ¹ËĪÃ¦k":2210,"ĠÉĻvÉĻn":2211,"tÊĥuËĲ":2212,"hËĪÉĻ":2213,"ki":2214,"ĠdÉ¹ËĪÊĮÉ¡z":2215,"ĠÎ¸ËĪÃ¦Åĭ":2216,"ĠfËĪÊĮni":2217,"ĠtËĪÉªk":2218,"ĠsËĪÉĶÅĭz":2219,"ĠtÊĥËĪÉĳËĲÉ¹":2220,"ĠËĪÉĽs":2221,"ĠËĪeÉªndÊĴÉĻl":2222,"ĠflËĪeÉªm":2223,"ÉªkÉĻl":2224,"Ġspl":2225,"ĠÉĻnd":2226,"ĠnÉĻk":2227,"ËĪÉĶËĲÉ¹k":2228,"ĠtÊĥËĪÉªldÉ¹ÉĻn":2229,"ËĪÊĮntÊĥ":2230,"ĠsËĪÉĽns":2231,"ĠkÉĻmp":2232,"ĠlËĪÉªft":2233,"iÉĻs":2234,"ĠdÊĴËĪÉĶÉª":2235,"Ġam":2236,"ÊĥÉĻ":2237,"ĠmËĪÉªl":2238,"ĠbÉ¹ËĪeÉªkÉªÅĭ":2239,"ĠtËĪiËĲm":2240,"wËĪÉĽl":2241,"ĠbËĪÃ¦nd":2242,"ĠpÉ¹ËĪÉĽÊĥ":2243,"ËĪÉĽnÊĥÉĻn":2244,"ĠsËĪaÉªt":2245,"ĠfËĪeÉªv":2246,"ĠsËĪÉĽlf":2247,"bËĪeÉªbi":2248,"ÉĲp":2249,"ĠpÉ¹ËĪÉĳËĲ":2250,"ĠspËĪÉªt":2251,"ĠÊĥËĪeÉªm":2252,"ĠkÉĻmpl":2253,"ĠsËĪÉªÅĭÉ¡ÉĻl":2254,"ĠÉ¹ËĪÃ¦n":2255,"ĠÉĻlwÉĻz":2256,"ĠmËĪÉĳËĲmÉĻ":2257,"ĠsÉļv":2258,"ĠpÉ¹ËĪÉĳËĲblÉĻm":2259,"ĠdÊĴËĪÉĳËĲn":2260,"ĠhËĪÉªp":2261,"ĠbËĪad":2262,"ĠÊĥËĪÉĳËĲts":2263,"ĠstËĪuËĲpÉªd":2264,"ĠdÉ¹ËĪÉĽs":2265,"ĠmËĪaÊĬntÉªn":2266,"ËĪeÉªbÉĻl":2267,"ĠÉ¹ËĪÉªdÉªn":2268,"ĠdÉ¾ÉĻm":2269,"dÊĴÉªn":2270,"ĠÉĻkÉ¹":2271,"ĠÉĻkÉ¹ËĪÉĳËĲs":2272,"ĠwËĪÉªmÉªn":2273,"ĠkËĪÃ¦m":2274,"ĠhËĪÃ¦t":2275,"moÊĬst":2276,"ĠsËĪÉĽ":2277,"tÉĻ":2278,"ĠwËĪaÉªd":2279,"ĠwËĪÉľËĲkÉªÅĭ":2280,"ĠdÉ¹ËĪÊĮÅĭk":2281,"ĠÉªmp":2282,"ĠkÉ¹ËĪaÉªÉªÅĭ":2283,"ĠlËĪuËĲzÉªÅĭ":2284,"ĠkËĪÊĮntÉ¹i":2285,"ĠÉĻÉĻÉĻÉĻÉĻÉĻÉĻÉĻÉĻÉĻÉĻ":2286,"ËĪÉĻlf":2287,"Î¸ËĪaÊĬzÉĻnd":2288,"ĠdËĪaÊĬt":2289,"ĠÉ¡lËĪoËĲÉ¹":2290,"ĠfÉĻlÉĻÅĭ":2291,"ĠjÉĻz":2292,"ĠstËĪoÊĬn":2293,"ĠlËĪÊĬks":2294,"wËĮÉĽn":2295,"ËĪÉªpt":2296,"ĠfÉĻt":2297,"ĠÉĲmËĪÉĽÉ¹Éªk":2298,"ËĮÉĽÉ¹i":2299,"ĠÎ¸ËĪÊĮÉ¡":2300,"ĠdÊĴËĪeÉª":2301,"ĠkËĪÊĮp":2302,"ĠwËĪÉĽt":2303,"ĠkËĪÃ¦nd":2304,"ĠÉĻËĮo":2305,"ĠnËĪiËĲdz":2306,"ĠjËĪÉĶËĲÉ¹k":2307,"ĠkÉĻns":2308,"ĠËĪÉĶËĲlmoÊĬst":2309,"wÉĻn":2310,"ĠsËĮÉª":2311,"ĠpËĪeÉªnt":2312,"ÉĲm":2313,"ĠdËĪÉĳËĲk":2314,"ĠpËĪÃ¦n":2315,"ËĮi":2316,"bÉĻt":2317,"ĠhËĪÉĽvi":2318,"ĠlËĪeÉªdiz":2319,"ĠwËĪaÉªn":2320,"ÉĲl":2321,"ĠmÉĻtÊĥ":2322,"Ã°ËĪÉªs":2323,"ËĪÉĽntÉĻl":2324,"ĠbÉªkËĪÊĮm":2325,"ËĪÃ¦ntÉĻ":2326,"ËĪÉĳËĲnÉĻ":2327,"ËĮÃ¦l":2328,"ĠsËĪÉľËĲv":2329,"ĠËĪÃ¦d":2330,"ĠÉ¹ËĪeÉªdÉªËĮoÊĬ":2331,"ĠâĢ":2332,"ËĪÉĻz":2333,"ĠpÉĻt":2334,"ËĮiËĲn":2335,"ĠmËĪÊĮÃ°ÉļfËĮÊĮkÉªn":2336,"Î¸É¹ËĪiËĲ":2337,"ĠÎ¸ËĪÉĶËĲ":2338,"iËĲt":2339,"ĠkÉĻd":2340,"ËĪÉĽÊĥÉĻl":2341,"ĠËĪÉĽvÉ¹ÉªdËĮeÉª":2342,"ËĪÉĽndÉļ":2343,"ĠÉļÉ¹":2344,"ĠhËĮÉĻm":2345,"ĠÉĻk":2346,"ĠsÉļÉ¹":2347,"ĠkwËĪiËĲn":2348,"ĠmËĪÉªsÉªÅĭ":2349,"ĠÉ¡É¹ËĪÃ¦nd":2350,"ËĪÉªvÉªn":2351,"ĠfËĪÉªt":2352,"ĠËĪÉĳËĲnÉªst":2353,"ĠflËĪÉĽks":2354,"ĠÉĲhËĪÉĽd":2355,"fËĪÉĶËĲÉ¹":2356,"ĠstÉĻt":2357,"Ġdáµ»s":2358,"ĠsÉĻpËĪoÊĬzd":2359,"ĠjËĪÊĮ":2360,"ĠsmËĪÉĽl":2361,"ĠsmËĪÉĶËĲl":2362,"ĠhËĪÉĻz":2363,"ĠdÉĻk":2364,"ĠhËĪÊĮÅĭ":2365,"ÉĲstÉļÉ¹ËĮÉªsk":2366,"ĠvËĪaÉªb":2367,"ĠdÉ¹ËĪaÉª":2368,"ËĪÊĮdÊĴ":2369,"ĠÉ¹ËĪoÊĬlÉªÅĭ":2370,"ËĪÉªÊĴÉĻn":2371,"ĠsËĪaÊĬÎ¸":2372,"ĠÉ¡ËĪÃ¦s":2373,"ËĪÉĳËĲÉ¾ÉĻ":2374,"ĠÎ¸ËĪÉĶËĲts":2375,"ĠdÉĻz":2376,"ĠfËĪÉĽÉ¹":2377,"ĠÉ¹ËĪiËĲÉĻlaÉªz":2378,"pÉĻ":2379,"jËĪuËĲs":2380,"ĠkËĪÊĮl":2381,"ĠpËĪÉĳËĲpÉªn":2382,",\"":2383,"ĠdÉĻm":2384,"wËĪÉĽÉ¹":2385,"ËĪÊĬt":2386,"ĠlÉĻd":2387,"ĠkËĪÉĳËĲÉ¹z":2388,"ËĪÉľËĲk":2389,"nÉªÅĭ":2390,"ĠwËĪÉĳËĲÊĥ":2391,"ĠmÉĻl":2392,"ĠËĪÃ¦nsÉļ":2393,"ĠlËĮa":2394,"ĠkËĪÊĬk":2395,"ĠkËĪiËĲ":2396,"ĠkÉ¹ËĪaÊĬd":2397,"ĠslËĪaÉªd":2398,"ĠÉ¡É¹ËĪeÉªv":2399,"ndÉĻ":2400,"ĠdÉ¹ËĪaÊĬn":2401,"tËĪÉľËĲn":2402,"ĠwËĪaÉªf":2403,"ĠwËĪÉĶËĲkt":2404,"ĠklËĪÃ¦s":2405,"ĠtÊĥËĪuËĲz":2406,"ĠÉ¹ËĪeÉªs":2407,"ĠkËĪÉĶËĲÉ¹nÉļ":2408,"ĠbÉĻk":2409,"kÊĮm":2410,"ĠbÉĻst":2411,"ĠspËĪÉĽÊĥÉĻl":2412,"nt":2413,"ĠdÊĴËĪÉĳËĲb":2414,"ĠÉ¡lËĪÃ¦d":2415,"ĠfËĪoËĲÉ¹É¾i":2416,"ĠfËĪÃ¦kt":2417,"ËĪÉĶlt":2418,"fÉ¹ÉĽnd":2419,"ĠËĪoÊĬÊĥÉĻn":2420,"ĠjÉĻs":2421,"ËĪÉĶft":2422,"ĠkÉ¹ËĪÃ¦Êĥ":2423,"ĠËĪÉªÉ¹":2424,"ĠpËĪaÉª":2425,"ĠÉĻvÉ¾ËĪyÎ¸ÉĻÅĭ":2426,"ĠmËĪÉĽmÉļÉ¹iz":2427,"ĠspËĪÉĽnt":2428,"ĠsËĪÉªÉ¾ÉªÅĭ":2429,"ĠplËĪeÉªn":2430,"ĠhËĪÉľËĲts":2431,"ĠmËĪaÉªlz":2432,"ĠËĪÉĽnÉªwËĮÊĮn":2433,"ĠkÉ¹ËĪÉªb":2434,"ĠtÉĻnÉĻt":2435,"ĠÉ¹ËĪÉĳËĲ":2436,"ĠÉ¡lËĪoÊĬ":2437,"dÊĴËĪÊĮst":2438,"ĠmËĪuËĲvÉªn":2439,"ĠÉ¹ËĪaÉªdÉªÅĭ":2440,"ĠlËĪÊĬkt":2441,"ĠklËĪaÉªm":2442,"ĠdËĪeÉªndÊĴ":2443,"ĠÉ¾ÉĻÅĭ":2444,"ĠËĪÉĽnÉĻm":2445,"ËĪÉªkst":2446,"É¹uËĲ":2447,"ĠmËĪÃ¦k":2448,"ĠbÉ¹ËĪÉĶËĲt":2449,"ĠÉ¡ËĪÊĮnz":2450,"ĠmÉĻt":2451,"ĠÉ¹ËĪÉĳËĲb":2452,"ĠmËĪa":2453,"ĠÉ¹ËĪÊĮÊĥ":2454,"ĠbËĪÃ¦Åĭk":2455,"ĠnËĪiËĲ":2456,"ÉĻvËĪo":2457,"ËĪÉªmp":2458,"ĠspËĪÉªÉ¹":2459,"É¡Éļz":2460,"ĠfÉĻst":2461,"kw":2462,"ĠmËĪÉĻd":2463,"ĠwËĪÉĶËĲlz":2464,"ĠÉ¹áµ»spËĪÉĽkt":2465,"ÉĻÉĻÉĻÉĻÉĻÉĻÉĻ":2466,"ĠÉ¡ËĪÉĻÉĻÅĭ":2467,"ĠsÉļvËĪaÉªv":2468,"dÊĴËĪiËĲ":2469,"ĠËĪÉĽnÉªbËĮÉĳËĲdi":2470,"ĠwËĪÉĽÃ°Éļ":2471,"ËĪÉªÉ¾Éļ":2472,"ĠtwËĪÉªst":2473,"ĠblËĪÉĽs":2474,"ĠnÉĻÎ¸ÉĻÅĭ":2475,"ĠÉ¹ËĪÃ¦ks":2476,"Ġdáµ»l":2477,"ĠÉĲb":2478,"ÉĳËĲhËĪÉĳËĲ":2479,"ĠdÊĴËĪÉĽl":2480,"ËĪÉªsk":2481,"ĠtËĪÃ¦kÉªn":2482,"ĠsËĪÊĮmdeÉª":2483,"ĠpÉ¹ËĪÉĽz":2484,"ĠnËĪiËĲdáµ»d":2485,"ĠmËĪiËĲnz":2486,"ĠstÉ¾ÉĻt":2487,"ĠwËĪiËĲl":2488,"ĠsËĪÉĻmÎ¸ÉĻÅĭ":2489,"ĠâĢľ":2490,"ĠkÉĻt":2491,"ĠÊĥËĪaÉªnÉªÅĭ":2492,"ĠmËĪÉľËĲdÉļ":2493,"ĠdÉ¹ËĪiËĲmÉªÅĭ":2494,"tuËĲ":2495,"saÉªd":2496,"ĠfËĪÃ¦nt":2497,"ĠtËĪÉľËĲnÉªÅĭ":2498,"ĠmÉĻst":2499,"ĠbËĪÉĽÉ¡":2500,"ĠËĪÉĽnÉªwËĮeÉª":2501,"ĠkÉĻs":2502,"ĠÉĻnÉĻ":2503,"ĠpËĪÉĳËĲÉ¹k":2504,"ËĪÉĽÉ¡":2505,"ĠpÉĻk":2506,"ĠmËĪÉªÉ¹Éļ":2507,"ĠËĪÉª":2508,"áµ»v":2509,"ĠpÉĻn":2510,"ĠnËĪaÉª":2511,"dÊĴi":2512,"ĠhËĪÃ¦vÉªÅĭ":2513,"âĢĿ":2514,"ĠpËĪÉªl":2515,"ĠÉ¹áµ»mËĪaÉªnd":2516,"tÉĻn":2517,"Ã°ËĪo":2518,"ĠlËĪÉĶÅĭÉ¡Éļ":2519,"ĠwÉĻÊĥ":2520,"ĠÊĮnl":2521,"ĠkËĪÉĽpt":2522,"ĠhËĪoÊĬli":2523,"ĠsËĪÉľËĲk":2524,"ĠÉ¡ËĪÉĻn":2525,"Ġáµ»l":2526,"ĠdËĪaÉªÉªÅĭ":2527,"ĠsËĪÃ¦nd":2528,"ĠlËĪÉªt":2529,"ËĪÉĳËĲmÉĻ":2530,"ĠÉ¡ËĪuËĲtÊĥi":2531,"ĠÉ¡ËĪeÉªmz":2532,"ĠjÉĻÅĭ":2533,"ĠstÉ¾ÉĻ":2534,"ËĪÃ¦mp":2535,"ĠsËĪÉĶft":2536,"ĠpÉ¹ËĪaÉªs":2537,"tiËĲn":2538,"ĠfËĪÃ¦t":2539,"ĠlËĪoÊĬd":2540,"ĠfËĪÉªÅĭÉ¡Éļ":2541,"ĠÊĥËĪoÊĬld":2542,"Î¸ÉĻn":2543,"ĠtÊĥËĪÉĽst":2544,"ĠbÉĻÉ¡":2545,"ĠdÉªzËĪÉľËĲv":2546,"ĠkËĪÃ¦t":2547,"ĠstËĪeÉªt":2548,"ĠbËĪÉľËĲd":2549,"ĠpÉ¹ËĪoÊĬ":2550,"ĠÉ¹ËĮiËĲ":2551,"ĠwÉĻtÊĥ":2552,"ĠbÉĻtÊĥÉĻz":2553,"ĠÉ¡ÉĻ":2554,"ĠÉ¹áµ»p":2555,"ĠdËĮÉªsÉĲp":2556,"ĠÊĥËĪÉĶËĲÉ¹É¾i":2557,"ËĪÉľËĲd":2558,"Ġdáµ»f":2559,"ĠdËĪÉĶËĲ":2560,"ĠhËĪeÉªÉ¾Éļz":2561,"ĠplËĪÊĮs":2562,"ĠbËĪÉĽnd":2563,"ĠplËĪeÉªd":2564,"ĠkËĪÉªlÉªÅĭ":2565,"ĠdËĮiËĲdÊĴËĪeÉª":2566,"ĠbËĪÉĳËĲks":2567,"ËĮÊĬd":2568,"ĠtËĪÊĮÅĭ":2569,"ĠËĪÉĶËĲÉ¹d":2570,"ĠËĪÉĽdÊĴ":2571,"ĠdËĪaÉªd":2572,"ĠkËĪuËĲp":2573,"ĠnËĪuËĲz":2574,"ĠdÊĴËĪÊĮdÊĴ":2575,"ĠkÉĻk":2576,"ĠpÉ¹ËĪÉĳËĲblÉĻmz":2577,"ĠsËĪaÉª":2578,"ËĪÉĽntÊĥ":2579,"ĠklËĪÃ¦p":2580,"Ġdáµ»n":2581,"ĠstËĪoËĲÉ¹m":2582,"ĠtËĪÉĽst":2583,"ĠlËĪeÉªÉ¾Éļ":2584,"Éªsk":2585,"ĠbËĪoËĲÉ¹d":2586,"ĠlËĪÊĮki":2587,"ÉĻndÊĴÉĻ":2588,"ĠlËĪÉªm":2589,"ÉĻvÉĻn":2590,"ĠtÉ¾ËĪÉĻna":2591,"É¡ÉĻ":2592,"ĠsmËĪÉĳËĲkÉªn":2593,"ĠfËĪiËĲd":2594,"Î²lÉĻ":2595,"ĠbÉĻdÉĻ":2596,"ĠdËĪÉľËĲt":2597,"ĠËĪÃ¦nd":2598,"sáµ»É¹":2599,"ËĪÊĮmbÉĻl":2600,"ĠdËĪiËĲm":2601,"ĠlËĪuËĲs":2602,"ĠfËĪeÉªvÉļÉ¹":2603,"ĠsËĪiËĲkÉ¹áµ»t":2604,"ĠbËĪÃ¦láµ»n":2605,"ĠÉªnÉĻÉĻÉĻ":2606,"ÉļdËĮeÉª":2607,"ĠËĪÉĽf":2608,"ĠhËĪÊĮn":2609,"É¾ÉĻnt":2610,"ËĪÊĬÉ¡Éļ":2611,"ĠtÉĻld":2612,"ĠËĮÉĻna":2613,"ËĮÉĽmËĪÉĽm":2614,"ĠflËĪÉªp":2615,"mÉļ":2616,"Ġdi":2617,"ĠsËĪÉªl":2618,"ĠÉ¹áµ»v":2619,"Î²ÉĻdi":2620,"ĠdËĪÉĳËĲÉ¹knÉĻs":2621,"ÉĻmÉĻn":2622,"ĠswËĪÉªm":2623,"ĠfËĪeÉªvÉļÉ¹áµ»t":2624,"ĠfËĪÉĽd":2625,"ËĮÉĽs":2626,"ĠpËĪÉĳËĲkÉªt":2627,"ËĪÉªns":2628,"ËĪÉĽstÉļdËĮeÉª":2629,"ĠfËĪÃ¦n":2630,"ĠpËĪÉĽn":2631,"ĠbÉĻfËĪÉĻ":2632,"dÉĻl":2633,"ĠhjËĪuËĲmÉĻn":2634,"ĠhËĪÃ¦ÅĭÉªÅĭ":2635,"ĠpËĪÉªst":2636,"ĠËĮÉĽl":2637,"ĠlËĪaÉªÉªÅĭ":2638,"ĠswËĪÉªÅĭ":2639,"ĠflËĪÃ¦Êĥ":2640,"ÊĥaÉªn":2641,"ĠpÉ¹ËĪaÉªd":2642,"Éļt":2643,"Î²ÉĻd":2644,"ĠÉªnst":2645,"kËĪÃ¦n":2646,"ĠkËĪaÊĬ":2647,"É¹Éª":2648,"ĠfÉ¾ÉĻnd":2649,"ĠblÉĻ":2650,"ĠtÊĥËĪeÉªnz":2651,"iÉĻn":2652,"ĠÎ¸ÉĻÅĭz":2653,"ĠspËĪiËĲd":2654,"ĠwËĪÉªÅĭz":2655,"ĠdÉĻp":2656,"ĠklËĪaÊĬdz":2657,"ĠtÉ¹ËĪÊĮk":2658,"ĠÉ¹áµ»É¡É¹":2659,"ĠhËĪÉĳËĲÉ¹dÉļ":2660,"ĠslÉĻp":2661,"ËĪÃ¦stÉļ":2662,"âĢ¦":2663,"ĠpÉĻlËĪiËĲs":2664,"ĠkwËĪÉªt":2665,"ÉļÉ¹ÉĻl":2666,"ĠpËĪaÊĬnd":2667,"ĠËĪÉĽndz":2668,"ĠwËĪÊĮnhËĪÊĮndÉ¹ÉĻd":2669,"ĠÉ¹ËĪuËĲlz":2670,"ĠfËĪÉªks":2671,"ĠdÉ¹ËĪÊĮm":2672,"ĠÉ¡ËĪaÉªz":2673,"ĠdËĪÊĮst":2674,"ĠfËĪoÊĬk":2675,"ĠwËĪoÊĬk":2676,"ËĪÉĽts":2677,"ĠÉĻsk":2678,"ĠÊĥËĪÊĬÉ¡Éļ":2679,"ĠsÉĻnd":2680,"ĠpÉĻplÉĻ":2681,"ĠkwËĪÉĽstÊĥÉĻn":2682,"ĠdËĪÉªst":2683,"ĠjËĪÉĽstÉļdËĮeÉª":2684,"!!":2685,"ĠlËĪÉľËĲnd":2686,"ĠpÉ¹ËĪaÊĬd":2687,"ËĮaÉªd":2688,"ĠfËĪÉĶËĲÉ¹ÉĻn":2689,"ÉļÉ¹ÉĻs":2690,"ÉªÅĭz":2691,"ĠËĪÉĽkst":2692,"ĠwËĪeÉªtÉªn":2693,"ĠbÉ¹ËĪoÊĬ":2694,"ÉĽnËĪÉĽvÉļ":2695,"Ã°ÉĻm":2696,"ĠÊĥËĪÉĻd":2697,"ÉĽk":2698,"ĠwËĪÉĽlkÊĮm":2699,"ĠlÉĻft":2700,"ĠbÉĻd":2701,"ĠsmËĪoÊĬkÉªÅĭ":2702,"ĠblËĪuËĲz":2703,"ĠbËĪÉªÉ¡Éļ":2704,"ĠÊĥËĪÉĳËĲp":2705,"loÊĬ":2706,"ĠkËĪÉĳËĲÉ¹d":2707,"ĠslËĪiËĲpÉªÅĭ":2708,"ĠsËĪÉªpÉªn":2709,"ËĪÉľËĲtÊĥ":2710,"ĠpÉĻz":2711,"ËĪiËĲzi":2712,"ĠhËĪÊĮsÉĻl":2713,"ĠmËĮÃ¦":2714,"ĠtwËĪaÉªs":2715,"ĠlËĪÉĳËĲkt":2716,"lËĪaÉª":2717,"ĠtÉ¹ËĪÃ¦v":2718,"ĠfÉ¹ËĪiËĲd":2719,"ĠÉ¡lËĪoËĲÉ¹i":2720,"ĠfËĪÊĮÅĭk":2721,"ĠskÉ¹ËĪiËĲmÉªÅĭ":2722,"ĠhËĪeÉªvÉĻn":2723,"ĠÉ¹ËĪuËĲf":2724,"ĠdÊĴËĪiËĲnz":2725,"ĠtËĪÉªp":2726,"ËĪÊĮl":2727,"ĠÉĲwËĪeÉªk":2728,"ĠkËĪÉĶËĲláµ»n":2729,"ĠbËĪÉľËĲÎ¸":2730,"ĠlËĪiËĲst":2731,"ËĪÉĻty":2732,"ĠbÉ¹ËĪÉĽd":2733,"ĠsËĪÉªmpÉĻl":2734,"ËĪÉĽÉ¹z":2735,"ĠbËĪÉĽÉ¹i":2736,"bËĪo":2737,"ĠkËĪoÊĬk":2738,"ĠbËĪÊĮs":2739,"ĠbËĪÊĮk":2740,"ĠmÉĻm":2741,"ĠlËĪeÉªtli":2742,"ĠÉ¹Éª":2743,"ĠÉĲmËĪeÉªz":2744,"ĠÉªnsËĪeÉªn":2745,"ĠÉªnt":2746,"ĠsËĪÉĽksi":2747,"ĠÉĻks":2748,"ĠjËĪÉĳËĲ":2749,"ĠwÉĽnËĪÉĽvÉļ":2750,"ĠtËĪÉĽÉ¹":2751,"ĠdÉĻl":2752,"ĠkwËĪaÉª":2753,"ĠwËĪÊĮnd":2754,"ĠpËĪÉªmp":2755,"ĠÉªmËĪoÊĬ":2756,"ĠkÉĻnd":2757,"ËĪÉĽÅĭ":2758,"ĠkËĪoÊĬd":2759,"sw":2760,"ĠÉĽsk":2761,"ĠÉªl":2762,"ĠsËĪÉªÅĭk":2763,"ĠnËĪÉĻ":2764,"ĠpËĪÉľËĲsÉĻn":2765,"ĠstËĪÊĮf":2766,"ĠsËĪÉªÉ¹":2767,"ĠkËĪÊĮlÉļ":2768,"ĠËĪeÉªndÊĴÉĻlz":2769,"ĠstËĪÃ¦k":2770,"ĠbÉ¹ËĪaÊĬn":2771,"ËĪoÊĬd":2772,"ĠstÉ¹ËĪÉĽs":2773,"É¹ÉĻl":2774,"ĠvjËĪuËĲ":2775,"ĠÉªnstËĪÉĽd":2776,"ÉªtËĮaÉªm":2777,"ĠkËĪeÉªk":2778,"ĠfÉ¾ÉĻ":2779,"Ġ('":2780,"ĠskËĪÉĳËĲÉ¹":2781,"ĠsËĪÉªtÉªn":2782,"Ã¦t":2783,"ĠkËĪÉĶst":2784,"ËĮÉªlÉªk":2785,"ĠwËĪÉĶËĲkÉªn":2786,"sáµ»É¹ËĮÉªlÉªk":2787,"sáµ»É¹ËĮÉªlÉªkjËĪÉĽËĲ":2788,"ĠËĪÃ¦skt":2789,"ĠhËĪÃ¦pÉĻnd":2790,"ĠfËĪÉªnÉªÊĥ":2791,"ĠÉ¡É¹ËĪoÊĬn":2792,"ĠmËĪÃ¦É¹i":2793,"ĠsËĪÉªkst":2794,"ĠtËĪaÉªd":2795,"ĠÉĻlÉĻn":2796,"ĠdÊĴÉĻ":2797,"ÉļÉ¹ËĪeÉªÊĥÉĻn":2798,"zËĪiÉĻÉ¹oÊĬ":2799,"ĠËĪeÉªdÊĴ":2800,"ĠtÉ¹ËĪiËĲz":2801,"ĠplÉĻs":2802,"ĠtËĪÉĽláµ»n":2803,"ËĪuËĲjÉĻ":2804,"ĠbËĪÊĮmp":2805,"ĠtËĪeÉªl":2806,"ĠÉĻnÉĻÃ°ËĪo":2807,"ĠmËĪuËĲvi":2808,"ĠbËĪoÊĬt":2809,"ËĪÉĶËĲd":2810,"ĠsËĪaÉªlÉĻns":2811,"ÉĻnÉĻ":2812,"ĠdËĪÉĳËĲktÉļ":2813,"ĠtÉ¹ËĪÉªpÉªn":2814,"ËĪÃ¦lÉªÉ¾i":2815,"ĠÉĲtËĪÉĽnÊĥÉĻn":2816,"ÉĶËĲ":2817,"ĠÉ¡ËĪeÉª":2818,"ÊĥÉĻl":2819,"ÉĲfËĮÊĮk":2820,"ĠbËĪÃ¦É¾ÉĻl":2821,"ĠslËĪÉªp":2822,"ĠÉĲk":2823,"ĠsËĪÊĮnÊĥaÉªn":2824,"ĠmËĪÉĽmÉļÉ¹i":2825,"ĠËĪaÊĬÉļ":2826,"ĠdÉ¹ËĪÉªp":2827,"ĠhËĪÉªl":2828,"ĠkÉ¹ËĪiËĲp":2829,"ĠplËĪeÉªsáµ»z":2830,"ĠbËĪeÉª":2831,"ĠfËĪÊĬt":2832,"ĠÎ¸ËĪÊĮ":2833,"Î¸ÉĲfËĮÊĮk":2834,"ĠlÉĻvÉĻÅĭ":2835,"ĠsÉĻks":2836,"ĠÉ¹áµ»s":2837,"fÉĻ":2838,"áµ»lËĪuËĲjÉĻ":2839,"ÉĻdËĮaÉª":2840,"ĠklÉĻs":2841,"ĠÉ¡ËĪÃ¦ÅĭstÉĻ":2842,"ĠnËĪÉĶËĲÉ¹":2843,"ĠÉĻnËĪy":2844,"ĠkwËĪaÉªÉĻt":2845,"ËĪuËĲs":2846,"ËĪaÅĭ":2847,"ĠkËĪÊĮvÉļ":2848,"ËĪÃ¦É¾Éªk":2849,"ĠfÉ¹ËĪiËĲdÉĻm":2850,"ĠbËĪÊĬk":2851,"ĠËĪas":2852,"ĠÎ¸É¾ÉĻ":2853,"ĠmÉĻk":2854,"ĠËĪÃ¦skÉªÅĭ":2855,"ĠdÉ¹ËĪaÉªvÉªÅĭ":2856,"ĠbËĪoÊĬn":2857,"ĠbËĪiËĲf":2858,"ĠfËĪiËĲld":2859,"ĠfËĪÉĶËĲláµ»n":2860,"ĠfËĪaÉªÉ¾ÉªÅĭ":2861,"ĠdËĪoËĲÉ¹z":2862,"tËĪeÉªk":2863,"oÊĬm":2864,"Ġ,":2865,"ËĪÉĻnt":2866,"ËĪÉĶËĲÉ¹s":2867,"ĠdÉ¾":2868,"ĠsmÉĻk":2869,"pÉ¹ËĪaÉªz":2870,"ĠËĮÉĽmËĪÉĽm":2871,"ĠhËĪÃ¦ndÉĻl":2872,"ĠkËĪoÊĬst":2873,"ĠnËĪÉªk":2874,"ĠsËĪÊĮmhaÊĬ":2875,"ĠfËĪÃ¦":2876,"ĠhËĪÉĽld":2877,"ĠdÉ¹ËĪÊĮÉ¡":2878,"Ġdáµ»nËĪaÉª":2879,"hËĪoÊĬ":2880,"ĠÉ¡lËĪÉĳËĲk":2881,"ĠtËĪÊĮf":2882,"ĠpÉ¹ËĪuËĲv":2883,"ĠËĪÉĽnÉªwËĮÉĽÉ¹":2884,"ËĪÉĽÊĥÉĻn":2885,"ĠËĪaÊĬÉļz":2886,"Ġbáµ»sËĪaÉªd":2887,"ËĪuËĲn":2888,"ËĪÉĳËĲlv":2889,"lÉĻt":2890,"ĠsËĪÊĮnd":2891,"ĠflËĪaÉªÉªÅĭ":2892,"ÊĮp":2893,"ĠmËĪÉĽd":2894,"ĠËĪÃ¦stÉļÉ¹ËĮÉªsk":2895,"ÉĻdÊĴÉĻ":2896,"ÉĶËĲl":2897,"ĠtËĪÉľËĲnz":2898,"ĠwÉĽÉ¹":2899,"ĠdÉ¹ËĪÃ¦É¡":2900,"ĠdËĪÉĽÉ¹":2901,"ĠpËĪoÊĬl":2902,"ĠdÊĴËĪeÉªl":2903,"ĠwÉĽÉ¹ËĪÉĽvÉļ":2904,"ĠstÉ¹ËĪÉĶÅĭÉ¡Éļ":2905,"pËĪeÉªn":2906,"hËĪaÊĬ":2907,"ĠÉĲdv":2908,"ĠspËĪÉªÉ¹Éªt":2909,"ËĪÉĶnd":2910,"laÉªn":2911,"taÊĬn":2912,"oÊĬk":2913,"ĠpËĪÊĬld":2914,"dÉĻn":2915,"lËĪaÉªk":2916,"É¹uËĲm":2917,"ĠkËĪÉĳËĲl":2918,"ĠÉªÉ¡n":2919,"ĠvËĪÉľËĲs":2920,"ĠkËĪÉªtÊĥ":2921,"ĠsËĪiËĲt":2922,"ĠbÉ¹ËĪÊĮÃ°Éļz":2923,"ĠpËĪÊĬÉ¹":2924,"ĠÉ¡ËĪÉĽÉ¾oÊĬ":2925,"ĠbËĪÊĬlÉªt":2926,"ĠËĪÊĮÉ¡":2927,"ĠtÉĻtÊĥ":2928,"nËĪaÉªt":2929,"ĠdËĮÉªsÉĲpËĪÉªÉ¹":2930,"ĠplËĪÊĮÉ¡":2931,"ĠswËĪÉĽt":2932,"ĠmËĪuËĲvz":2933,"ĠjËĪÉĽloÊĬ":2934,"ËĮÉĽskËĮeÉªËĪÉĳËĲÉ¹É¹ËĮÉĳËĲÉ¹tËĪiËĲ":2935,"ËĪÉĽvÉĻnt":2936,"ĠÉªnsÉĻd":2937,"ĠÉ¾ÉĻz":2938,"ĠÉĲÉ¡ËĪoÊĬ":2939,"ĠdËĪiËĲpÉļ":2940,"ËĪÃ¦nÉĻ":2941,"ĠbËĪÉĽnt":2942,"dÉĻm":2943,"ĠkËĪÉľËĲ":2944,"ËĪaÊĬÉļz":2945,"ĠtËĪÉĽm":2946,"ĠtËĪÉĶËĲl":2947,"ËĪÉĻv":2948,"ĠÉ¡ËĪÉĳËĲÉ¹d":2949,"ĠslËĪoÊĬli":2950,"ĠhËĪÊĬk":2951,"ĠstÉ¹ËĪÉªp":2952,"Ġ{":2953,"ĠpËĪÊĮmp":2954,"ËĮÃ¦n":2955,"ËĪyÅĭ":2956,"ĠpËĪiËĲsáµ»z":2957,"ĠtËĪiËĲÎ¸":2958,"ĠÊĥËĪÊĬdÉĻn":2959,"ĠbËĪÉĳËĲÉ¾ÉĻlz":2960,"Ã°ËĪÉĽÉ¹":2961,"ĠwËĪÉľËĲst":2962,"ĠsÉļpÉ¹ËĪaÉªz":2963,"ĠkËĪÉªtÊĥÉĻn":2964,"ĠjËĪiËĲ":2965,"ĠÉ¹ËĪoÊĬt":2966,"ĠdÉĻnsÉĻ":2967,"ĠlËĪaÉªnz":2968,"ĠlËĪÉĶËĲ":2969,"ĠÎ¸ÉĻt":2970,"ĠÉĽskËĪeÉªp":2971,"ÉĻmp":2972,"ĠÉ¹ËĪÉĽkÉļd":2973,"ĠËĮÉª":2974,"ĠwÉªÃ°ËĪÉªn":2975,"ËĪÉĽktáµ»d":2976,"ĠwËĪÉªntÉļ":2977,"ĠdËĪÉĶËĲÉ¡":2978,"ĠkËĪÉªld":2979,"niÉĻ":2980,"sËĪÉªks":2981,"ĠmÉĻsËĪÉĻlf":2982,"ĠkËĪÉĳËĲps":2983,"naÉªt":2984,"ĠfËĪÉªÉ¡jÉļ":2985,"hiËĲ":2986,"ĠpËĪÉĽÉ¹":2987,"ËĪÉĻtyÉĻn":2988,"ËĪuËĲt":2989,"ĠstÉ¹ËĪÃ¦p":2990,"ĠbËĪÉľËĲdz":2991,"ĠbËĪÉĽnts":2992,"É¹ÉĻs":2993,"ĠbËĪoÊĬnz":2994,"ÉĻdËĮaÉªs":2995,"ĠtÊĥËĪÉľËĲtÊĥ":2996,"Î²ÉĻdËĮi":2997,"ĠpÉ¹ËĪiËĲ":2998,"ĠmËĪÉĽsÉªdÊĴ":2999,"ĠfËĪÉľËĲ":3000,"ĠËĮÉĽs":3001,"ĠËĪÉĶËĲÉ¹":3002,"ĠbÉĻlÉĻvÉĻ":3003,"ĠlËĪÉĶÉª":3004,"ĠfËĪÉªÅĭÉ¡Éļz":3005,"vÉĻl":3006,"--":3007,"bËĪÉªtÊĥ":3008,"ĠÉ¹ËĪÉĳËĲkÉªn":3009,"ĠmËĪÊĮn":3010,"ËĪoËĲÉ¹t":3011,"ËĮÃ¦lÉª":3012,"ĠËĪÃ¦ktÉªn":3013,"ĠmËĪÃ¦tÊĥ":3014,"ĠsËĪÉªp":3015,"ĠsËĪÃ¦ntÉĻ":3016,"ĠdÊĴËĪÃ¦m":3017,"ËĪank":3018,"ËĪÉĽÊĴÉļ":3019,"ĠkÉļÉ¹":3020,"ĠkÉ¹ËĪÉĶËĲl":3021,"ĠÉ¹ËĪÉªÃ°ÉĻm":3022,"ĠsËĪÃ¦k":3023,"ĠhËĪiÉĻÉ¹oÊĬ":3024,"ĠÉĻvÉ¾ËĪyÎ²ÉĻdi":3025,"ĠzËĪoÊĬn":3026,"Éļdz":3027,"ĠkwËĪaÉªt":3028,"ĠtwËĪÉĽlv":3029,"ĠsËĪÉľËĲtÊĥÉªÅĭ":3030,"ĠpËĪoÊĬst":3031,"ÉĶÉª":3032,"ËĪaÊĥ":3033,"ĠtÊĥÉĻk":3034,"ĠbËĪaÉªt":3035,"ĠÉĻld":3036,"ĠdËĪÉĳËĲlÉļz":3037,"ĠÉ¡É¹ËĪeÉªs":3038,"ĠtÊĥËĪiËĲ":3039,"ĠËĪiËĲvÉĻl":3040,"ĠpÉ¹ËĪÉĽÊĥÉļ":3041,"ĠÊĥËĪÃ¦l":3042,"ĠsËĮiËĲ":3043,"ĠÉĽksplËĪeÉªn":3044,"ĠdËĪÉĶËĲn":3045,"ĠÉ¡ËĪoÊĬldÉĻn":3046,"ĠfËĪÉªÊĥ":3047,"ËĪÉĽtÊĥ":3048,"ĠÉ¡É¹ËĪuËĲv":3049,"sËĪeÉª":3050,"ĠnËĪeÉªb":3051,"ĠflËĪaÉªt":3052,"ĠbËĪiËĲts":3053,"ËĮaÉªzd":3054,"ĠvËĪiËĲ":3055,"ĠhÉĻs":3056,"ĠmËĪÉĻt":3057,"ĠdËĪoÊĬn":3058,"ĠhËĪoÊĬpÉªÅĭ":3059,"Éªnz":3060,"ĠÊĥËĪeÉªd":3061,"ÊĥÉªt":3062,"ĠËĪÉľËĲli":3063,"fÉĶËĲÉ¹":3064,"ĠdËĪÉĶËĲÉ¾Éļ":3065,"ĠlÉĻl":3066,"ĠÉªmËĪÃ¦dÊĴÉªn":3067,"ĠsËĪÊĮndeÉª":3068,"slËĪiËĲp":3069,"ĠlËĪeÉªn":3070,"ĠtËĪÉĽkst":3071,"ĠfËĪÉªnÉĻ":3072,"Ã°eÉª":3073,"ĠmÉĻÊĥ":3074,"É¹ËĪaÉª":3075,"ĠbËĪÉªlt":3076,"ÉĻbÉ¹":3077,"ĠskËĪaÉªz":3078,"ĠËĪeÉªm":3079,"ĠhËĪoÊĬmiz":3080,"ĠdÊĴËĪoÊĬ":3081,"ĠkËĪÉĳËĲk":3082,"ĠtÉĻkÉĻÅĭ":3083,"ĠspÉ¹ËĪÉĽd":3084,"ËĪÉĳËĲz":3085,"ĠkËĪÊĮlÉļz":3086,"ĠstÉĻp":3087,"ĠbÉĻz":3088,"ĠnËĪÉĻÎ²ÉĻdËĮi":3089,"Î¸s":3090,"ĠÉ¹ËĪÊĮf":3091,"É£ÉĻ":3092,"ĠdÉ¾ÉĻp":3093,"ĠmÉĻvÉĻ":3094,"ĠmËĪÉªdnaÉªt":3095,"láµ»lËĪuËĲjÉĻ":3096,"ĠdÊĴËĪoÊĬk":3097,"ĠpËĪÃ¦É¹ÉĻdËĮaÉªs":3098,"ĠtËĪuËĲÎ¸ËĪaÊĬzÉĻnd":3099,"ĠhÉĻz":3100,"ĠbËĪuËĲÉ¾i":3101,"ĠËĪiËĲst":3102,"É¹Éªk":3103,"ĠwËĪÉľËĲkÉªn":3104,"ĠÉ¡ÉĻlz":3105,"ËĪÉªÉ¹Éªks":3106,"ĠstËĪeÉªdÊĴ":3107,"nËĪaÊĬ":3108,"ĠvËĪÉªÊĴÉĻn":3109,"ĠmËĪÉľËĲsi":3110,"ĠÉĽm":3111,"ËĮÃ¦lÉªfËĪoËĲÉ¹":3112,"jËĪÉĽs":3113,"ĠtÊĥÉĻndÊĴÉĻ":3114,"ĠblÉĻd":3115,"liÉĻn":3116,"ÉĽks":3117,"ĠlËĪÊĮvÉļz":3118,"jÊĬl":3119,"ĠstËĪÉĳËĲÉ¹ts":3120,"ĠbËĪÊĬlÊĥÉªt":3121,"ĠkËĪiËĲz":3122,"ĠÉ¡ÉĻm":3123,"ĠÉĽk":3124,"ĠbËĪiËĲtÊĥ":3125,"jÊĬÉ¹":3126,"ĠlËĪeÉªd":3127,"ĠaÉªd":3128,"ĠÊĥËĪÉĶËĲÉ¹t":3129,"ĠkËĪÉĶf":3130,"ĠdÊĴËĪaÉª":3131,"ĠdÉ¹ËĪÉªÅĭkÉªÅĭ":3132,"kËĪoËĲÉ¹":3133,"ÊĴuËĲ":3134,"ĠÉ¹ËĪaÉªm":3135,"ËĮÃ¦lÉªfËĪoËĲÉ¹niÉĻ":3136,"ĠnËĪÉľËĲv":3137,"ĠlËĪÉĽÉ¡z":3138,"ĠdËĪy":3139,"ĠfËĪeÉªl":3140,"ĠdÊĴËĪÉĽt":3141,"ĠfËĪeÉªsáµ»z":3142,"ĠfËĪeÉªmÉĻs":3143,"ĠlËĪÉªst":3144,"ËĪÉªnt":3145,"bÉĻm":3146,"ĠpËĪÉªktÊĥÉļz":3147,"ĠsËĪÉªstÉļ":3148,"ĠdËĪiËĲmÉĻnz":3149,"ĠËĪÃ¦ktÉªÅĭ":3150,"ĠdÉªsk":3151,"ĠlËĪÃ¦":3152,"ĠlËĪuËĲi":3153,"ĠsËĪeÉªl":3154,"ĠÉ¾ÉĻdÉĻ":3155,"ĠpËĪÉĳËĲkÉªts":3156,"ËĪyÉĻn":3157,"ĠkËĪiËĲpÉªÅĭ":3158,"ĠstËĪand":3159,"lËĮa":3160,"ĠËĮÊĮndÉļÉ¹":3161,"ĠstËĪÉĽdi":3162,"bz":3163,"Ġdáµ»sËĪaÉªd":3164,"ĠtÉ¹ËĪÉªk":3165,"ĠhËĪÉĽn":3166,"áµ»p":3167,"ĠÎ¸ËĪÉªk":3168,"ÉĻsÉĻd":3169,"ĠpËĪÉªÅĭk":3170,"ĠtËĪiËĲtÊĥ":3171,"ÉªtËĮuËĲ":3172,"ĠstËĪoÊĬl":3173,"ËĪÊĮks":3174,"ĠtËĮiËĲvËĪiËĲ":3175,"ÉĻkÉĻ":3176,"ĠpÉ¹ËĪeÉªz":3177,"ĠplËĪÃ¦nz":3178,"ÊĴÉĻnz":3179,"Ã°o":3180,"aÊĬt":3181,"ĠhËĪÊĮnÉªd":3182,"ĠÉ¡ËĪÉªvÉĻn":3183,"sËĪÊĮm":3184,"dËĪÃ¦m":3185,"ĠbËĪÉĳËĲp":3186,"ËĪeÉªkáµ»d":3187,"\",":3188,"ĠmËĪÉªks":3189,"ĠhËĮÃ¦láµ»lËĪuËĲjÉĻ":3190,"ĠdËĪÃ¦d":3191,"ËĮaÉªt":3192,"ĠdËĪuËĲd":3193,"É£ÉĻt":3194,"ĠËĪoÊĬldÉļ":3195,"ĠÉĻÉĻÉĻÉĻÉĻÉĻÉĻÉĻÉĻÉĻÉĻÉĻ":3196,"ĠkËĮÃ¦lÉªfËĪoËĲÉ¹niÉĻ":3197,"lËĪoÊĬ":3198,"ËĪÃ¦ÅĭÉ¡":3199,"ÉªtËĪÉĳËĲÉ¹":3200,"ĠhËĪÉĶËĲÉ¹s":3201,"ĠÊĥËĪÉĽl":3202,"ĠlËĪÉĳËĲÉ¾ÉĻ":3203,"ËĮÉªv":3204,"ĠtÊĥËĪeÉªsÉªÅĭ":3205,"ĠËĪiËĲÃ°Éļ":3206,"ĠdÊĴËĪÉªvÉªn":3207,"dÊĴÉĻ":3208,"ĠpËĪeÉªdÊĴ":3209,"ĠhËĪÉĳËĲli":3210,"ĠbËĪÊĬ":3211,"ĠblËĪÉĳËĲ":3212,"ĠhËĪiËĲ":3213,"ĠtËĪeÉªkÉĻn":3214,"ËĮoÊĬn":3215,"ĠnÉĻz":3216,"ĠËĮÉªnd":3217,"ĠkÉ¹iËĲ":3218,"pÉļÉ¹":3219,"ĠÉ¹ËĪÃ¦pÉļz":3220,"ĠlËĪÉĽÉ¾ÉªÅĭ":3221,"ĠËĮeÉª":3222,"ĠlËĪiËĲvz":3223,"slËĪÃ¦Êĥ":3224,"Ã¦mpËĪeÉªn":3225,"ĠwËĪiËĲ":3226,"sËĪÉĽvÉĻn":3227,"ĠËĪyn":3228,"ËĪuËĲÊĥÉĻn":3229,"bÉĻn":3230,"ĠÉ¡É¾ÉĻ":3231,"ĠnËĪÉĶÉªz":3232,"ĠplÉĻzÉĻ":3233,"ĠËĮÊĮndÉļnËĪiËĲÎ¸":3234,"ĠmÉªstËĪeÉªks":3235,"ĠwËĪeÉªstáµ»d":3236,"ĠdËĪÃ¦t":3237,"ĠlËĪeÉªm":3238,"ĠÉĲs":3239,"ĠwËĪÉĳËĲtÊĥÉªn":3240,"jÉĻz":3241,"ĠÉĲdm":3242,"ĠmËĪÃ¦stÉļ":3243,"aÉªl":3244,"ĠsËĪaÊĬndz":3245,"ĠÉ¾ÉĻtÊĥ":3246,"ĠÉ¹ËĪÉĳËĲks":3247,"Ġdáµ»v":3248,"boËĲÉ¹":3249,"ĠkËĪÊĮv":3250,"ĠÉĲf":3251,"ÉĻmbËĪo":3252,"ÊĥÉĻs":3253,"ËĪÉĶloÊĬ":3254,"ĠÊĥËĪoÊĬz":3255,"ĠnËĪeÉªkáµ»d":3256,"ĠËĪynÉĻf":3257,"ĠnËĪoÊĬÉªÅĭ":3258,"ĠdËĪÃ¦nsÉªn":3259,"ĠhËĪÉªst":3260,"ĠfÉĻm":3261,"ËĪoÊĬv":3262,"wËĪeÉª":3263,"ĠstÉ¹ËĪÉĽÅĭ":3264,"hËĪÉĻnd":3265,"wÉļd":3266,"ĠsmÉĻl":3267,"ĠÉ¹ËĪeÉªzd":3268,"ËĪÃ¦z":3269,"jËĪuËĲzd":3270,"É¡i":3271,"ĠsËĪÊĮf":3272,"ftÉĻ":3273,"ĠkÉ¾ÉĻzÉĻ":3274,"ĠÊĥËĪoÊĬldÉļ":3275,"oÊĬtËĪÉĽl":3276,"ĠvËĪÉªkt":3277,"kËĪoËĲÉ¹ÉĻs":3278,"ĠsËĪÉªlvÉļ":3279,"É¾ËĪa":3280,"ĠÉ¹oÊĬm":3281,"ĠvËĪÉľËĲ":3282,"ËĪÃ¦É¾Éļ":3283,"ĠwËĪiËĲkÉĽnd":3284,"ËĪaÉªÉĻ":3285,"bÉļz":3286,"ĠmËĪÉĶn":3287,"ËĮÉĳËĲÉ¹É¹ËĪÉĳËĲÉ¹":3288,"ĠsËĪiËĲlÉªÅĭ":3289,"ĠÉ¾ËĪap":3290,"ĠklËĪÉĳËĲk":3291,"sÉĽ":3292,"ĠbËĪiËĲÉ¾ÉªÅĭ":3293,"ËĪÃ¦sti":3294,"ĠmËĪÉĳËĲli":3295,"ĠtËĪÉĶËĲt":3296,"ĠÉĻÃ°ÉĻ":3297,"ĠÉĲslËĪiËĲp":3298,"ĠmÉĻd":3299,"ĠlËĪÃ¦m":3300,"ĠklËĪoÊĬzd":3301,"ĠbËĪÉªzi":3302,"ĠjÉĻzÉĻd":3303,"ËĮeÉªÉ¾ÉªÅĭ":3304,"ĠhËĪÉª":3305,"É¹ËĪaÉªt":3306,"ĠwÉĻÃ°ËĪÉĻt":3307,"ĠfËĪÉĶlt":3308,"ĠkÉ¹ËĪaÉªd":3309,"ĠfÉ¹ËĪaÉªd":3310,"ËĪÉĽlvz":3311,"ĠlËĪÉĽvÉĻl":3312,"ĠhËĪÉĶËĲl":3313,"ĠÉ¹áµ»pl":3314,"ĠbÉ¹ËĪÉªdÊĴ":3315,"ĠÉ¡ËĪÉľËĲlfÉ¹ÉĽnd":3316,"ĠlÉĻkÉĻÅĭ":3317,"ĠlËĪoÊĬk":3318,"ĠpËĪÉľËĲpÉĻl":3319,"ĠkÉĻmËĪyÅĭ":3320,"ĠÉ¡ÉªtËĪÉĳËĲÉ¹":3321,"Éļn":3322,"ĠtËĪuËĲn":3323,"bËĮiËĲ":3324,"ĠkwËĪÉĶËĲÉ¹":3325,"ĠËĪeÉªtÊĥ":3326,"ĠkÉĳËĲn":3327,"Î¸i":3328,"sÊĮm":3329,"lËĪÊĬk":3330,"ĠstÉ¹ËĪeÉªndÊĴÉļ":3331,"ĠdËĪeÉªndÊĴÉļÉ¹ÉĻs":3332,"ĠsËĪÉľËĲtÊĥ":3333,"ĠÊĥËĪÃ¦doÊĬz":3334,"ĠhËĪÉªstÉļÉ¹i":3335,"ĠÉ¾ËĪa":3336,"ËĪe":3337,"ÉĻÉ¾ÉĻ":3338,"ĠmËĪÊĮÃ°ÉļfËĮÊĮkÉļz":3339,"ĠpÉ¾ÉĻt":3340,"ĠsËĪiËĲÉªÅĭ":3341,"ĠbËĪÊĮÉ¾Éļ":3342,"ËĮoËĲÉ¹":3343,"ĠbËĪÃ¦É¡z":3344,"ĠÉ¡ËĪÃ¦l":3345,"jËĪoÊĬ":3346,"ĠbËĪaÊĬnd":3347,"ĠswËĪÃ¦É¡":3348,"ĠÉ¡É¹ËĪuËĲ":3349,"ĠvËĪaÉªÉĻl":3350,"ĠstËĪÊĮnt":3351,"ĠwËĪÉĽ":3352,"ĠÉ¾ÉĻs":3353,"ĠÉĲmËĪÉĽÉ¹ÉªkÉĻn":3354,"ĠfÉĻd":3355,"twËĪÉĽnti":3356,"É¹ÉªdÊĴ":3357,"ĠklËĪeÉªm":3358,"ĠfËĪÉªld":3359,"ĠfÉļÉ¡ËĪÉĳËĲt":3360,"ĠfÉĻkÉĻn":3361,"ĠfÉĻkÉĻÅĭ":3362,"ĠstÉ¹ËĪÉĽÅĭÎ¸":3363,"ĠbËĪÊĮm":3364,"ĠfËĪuËĲd":3365,"ËĪÉªÅĭks":3366,"fËĪÉªft":3367,"sËĪÉĽlvz":3368,"ĠtÊĥËĪÉĶÉªs":3369,"ĠÊĥËĪÃ¦doÊĬ":3370,"ĠbÉ¹ËĪeÉªks":3371,"ĠfËĪeÉªdáµ»d":3372,"ĠswËĪÉĶloÊĬ":3373,"ĠlËĪÃ¦fÉªÅĭ":3374,"ĠËĪuËĲuËĲ":3375,"ĠÉ¹áµ»É¡É¹ËĪÉĽt":3376,"ĠdËĪoÊĬnt":3377,"ĠwËĪeÉªvz":3378,"ĠmËĪÉĳËĲÉ¹k":3379,"ĠsÉĻnt":3380,"ĠÉ¡w":3381,"ËĪÃ¦mi":3382,"ĠkÉ¹ËĪaÉªm":3383,"ĠmËĪÉĶËĲÉ¹nÉªn":3384,"ËĮÉĶËĲ":3385,"ĠhËĪand":3386,"wËĮeÉª":3387,"ĠtËĪeÉªbÉĻl":3388,"eÉªs":3389,"ĠÉ¹áµ»tËĪÉľËĲn":3390,"ĠnËĪÃ¦sti":3391,"ĠhËĪoÊĬldÉªn":3392,"ËĪÉĽlÉĻ":3393,"ËĪÉĳËĲÉ¹É¹i":3394,"ĠÎ¸ËĪÊĮndÉļ":3395,"ĠhËĪÊĮsl":3396,"ĠswÉĻt":3397,"ĠkËĪÉĶËĲlz":3398,"Ġdáµ»É¹":3399,"É¾ÉªsfËĮaÉª":3400,"ÉªsËĮaÉªd":3401,"Ġdáµ»p":3402,"ËĮeÉªtÊĥËĪÉĽm":3403,"ĠlËĪÉªsÉĻnÉªÅĭ":3404,"wËĮÊĬd":3405,"ËĪeÉªÉ¾áµ»d":3406,"ËĪÃ¦sÉªn":3407,"áµ»m":3408,"ĠËĮÊĮndo":3409,"ËĮÉĶ":3410,"ĠtÉ¹ËĪÃ¦vÉĻl":3411,"ĠblËĪÊĮnt":3412,"ĠdÉĻf":3413,"ËĪato":3414,"fÉªs":3415,"ĠbÉ¾ÉĻÅĭ":3416,"ÉĻntli":3417,"ĠstÉ¹ËĪÊĮÉ¡":3418,"ĠÉ¹ËĪÉªp":3419,"ĠhËĪÃ¦tÉªn":3420,"ĠÎ¸ËĪÉĳËĲ":3421,"ĠbÉ¹ËĪaÉª":3422,"ĠÉĻs":3423,"ĠkÉ¹ËĪaÊĬn":3424,"ËĮÉĳËĲl":3425,"ĠÉĲmËĪeÉªzÉªÅĭ":3426,"ĠÊĥÃ¦mpËĪeÉªn":3427,"ËĪÉĳËĲlÉĻdÊĴ":3428,"ĠlËĪÉªkÉļ":3429,"ĠwËĪÊĮndÉļfÉĻl":3430,"dËĪaÊĬn":3431,"Ġ?":3432,"ĠdÉ¹ËĪÉĳËĲpt":3433,"ĠËĪÃ¦nÉªm":3434,"ĠhÉĳËĲhËĪÉĳËĲ":3435,"ËĪÉĶËĲks":3436,"ËĪÉªzÉĻn":3437,"ĠbÉ¹ËĪÉªk":3438,"ËĪÊĮndÉĻn":3439,"ĠÉ¹ËĪÉĳËĲkÉªÅĭ":3440,"ĠhËĪaÉªweÉª":3441,"ĠÉ¡ËĪÉĳËĲdÃ¦m":3442,"plÉĻs":3443,"ĠmÉĻÊĥËĪiËĲn":3444,"bÉĻdÉĻ":3445,"ĠfËĪÉĶËĲlz":3446,"ĠblËĪoÊĬÉªÅĭ":3447,"ĠklËĪÉªp":3448,"nËĪÉĽvÉļ":3449,"ĠÎ¸É¹ËĪÉªl":3450,"ĠÉ¡ËĪÉĻtÉĻÅĭ":3451,"ĠwÉĻst":3452,"ĠÉ¹ËĪÉªÅĭz":3453,"áµ»fËĮaÉªd":3454,"ĠÊĮnÉĻÉĻÉĻ":3455,"ĠdËĪam":3456,"ĠbÉĻm":3457,"ĠtËĪoÊĬn":3458,"ĠbËĪÉľËĲÎ¸deÉª":3459,"ĠwËĪÊĮÉ¹id":3460,"ĠmÉªs":3461,"ËĪÃ¦É¹":3462,"ĠblËĪÃ¦st":3463,"ĠhËĪandz":3464,"ĠËĪiËĲvnÉªÅĭ":3465,"ĠpËĪÉªlz":3466,"ĠkËĪÉªlÉļ":3467,"ĠÉĲdmËĪÉªt":3468,"Éļs":3469,"ĠbËĪÉĳËĲÉ¹z":3470,"ËĪÉªktáµ»d":3471,"ĠÊĮnlËĪÉĽs":3472,"ĠtÊĥËĪoÊĬz":3473,"ĠwËĪÉľËĲs":3474,"ĠpÉ¹ÉĻt":3475,"É¡É¹i":3476,"ĠdÉ¾ÉĻnk":3477,"ËĪÃ¦stÉªk":3478,"ĠÉĻlÉ¾ÉĻt":3479,"ĠdÊĴËĪuËĲs":3480,"ĠdÊĴËĪÉĶÉªn":3481,"É¾ËĪi":3482,"ĠÉ¡É¹ËĪÃ¦s":3483,"ĠsmËĪÃ¦Êĥ":3484,"ĠÉĻd":3485,"ËĮiËĲËĪÉĽs":3486,"ËĪaÉªÉ¾áµ»d":3487,"ĠmÉĻÃ°":3488,"ĠkËĪÉªláµ»n":3489,"ĠdÉªzËĪaÉªÉļ":3490,"ĠbÉĻs":3491,"ĠbËĪÉĳËĲdiz":3492,"fÉªn":3493,"ĠÉĳËĲ":3494,"ĠtËĪÊĬÉ¹":3495,"ËĪÊĮdi":3496,"bÉ¹eÉªk":3497,"ĠstËĪeÉªd":3498,"ĠËĮÉĽskËĮeÉªËĪÉĳËĲÉ¹É¹ËĮÉĳËĲÉ¹tËĪiËĲ":3499,"bËĮiËĲËĮÉĳËĲÉ¹É¹":3500,"ĠsËĪeÉªvd":3501,"ĠlËĪÊĮvli":3502,"ĠkÉ¹ËĪÉªst":3503,"ĠÊĥËĪoÊĬd":3504,"ĠhËĪÉľËĲÉ¹i":3505,"ĠpÉĻsËĪi":3506,"ĠswËĪiËĲ":3507,"ĠdËĪÉªp":3508,"ĠspËĪÉĳËĲÉ¹k":3509,"ÉļÉ¹ËĮÉªn":3510,"ĠÉĻÉĻÉĻËĪÉĻ":3511,"ĠdËĪÊĮk":3512,"ĠsËĪÃ¦É¾ÉªsfËĮaÉª":3513,"ĠhËĪÉĳËĲliwËĮÊĬd":3514,"jËĪÉĶnd":3515,"ĠtËĪoÊĬz":3516,"ĠblËĪak":3517,"ĠwËĪaÊĬ":3518,"ĠskÉĻ":3519,"ĠÊĮnf":3520,"ËĪiËĲf":3521,"ĠdËĪÊĮ":3522,"ĠÉ¹ËĪÃ¦t":3523,"ĠdËĪÉªs":3524,"ĠblËĪoÊĬÉªn":3525,"ĠbËĪÉĽntli":3526,"dÊĴÉļ":3527,"É¡ËĪÉľËĲl":3528,"ĠtÊĥËĪeÉªndÊĴÉªÅĭ":3529,"ĠÃ°ËĮÉĻ":3530,"ĠlËĪÊĮndÉĻn":3531,"ĠnËĪoÊĬÉ¾Éªs":3532,"ÉĽs":3533,"vÉļs":3534,"ĠmËĪÊĮÃ°ÉļfËĮÊĮkÉªÅĭ":3535,"ĠbËĪÉĽlz":3536,"ĠfËĪoÊĬks":3537,"ĠpËĪÃ¦ÊĥÉĻn":3538,"ĠsÉĻv":3539,"ËĪÉĽvÉ¹Éª":3540,"ĠkÉĻld":3541,"ĠÊĥÉĻn":3542,"Ġbáµ»jËĪÉĶnd":3543,"ĠhËĪÉĳËĲlÉĻ":3544,"ĠlËĪÉĽdÊĴ":3545,"ĠdÉĻdÉĻn":3546,"kjËĪuËĲs":3547,"ĠhËĪÃ¦vÉªn":3548,"ËĪuËĲËĪuËĲËĪuËĲËĪuËĲ":3549,"ËĪÊĮdÉĻn":3550,"É¡l":3551,"ĠdÉ¹ËĪÉĽst":3552,"ĠsÉĻmbÉĻdÉĻ":3553,"ËĪeÉªdi":3554,"ĠdËĪÉĳËĲÉ¡z":3555,"ĠËĮoÊĬv":3556,"ĠhËĪÊĮÅĭÉ¡É¹i":3557,"ĠËĪÉªÅĭ":3558,"ĠdÉªzËĪaÉªn":3559,"ĠslËĪeÉªv":3560,"ÉªdÉĻnt":3561,"hÉĻm":3562,"ĠwËĪÊĮndÉļÉ¹ÉªÅĭ":3563,"ĠmÉĻÎ²ÉĻ":3564,"ĠpËĪÉĳËĲt":3565,"ĠËĮoÊĬkËĪeÉª":3566,"zdeÉª":3567,"ĠlËĪaÉªÉªn":3568,"ĠbÉ¹ËĪÉªks":3569,"ĠËĪÉªnÉĻs":3570,"ĠsËĪÉĽlÉĻbÉ¹":3571,"ĠmÉĻÃ°ÉĻf":3572,"ĠdËĪÃ¦n":3573,"ËĪÉĳËĲnÉªk":3574,"ĠfÉĻlÉĻn":3575,"ĠjËĪuËĲn":3576,"ĠÉ¹ËĪÉĶËĲ":3577,"ĠkÉ¹ËĪuËĲz":3578,"ËĪÉªÉ¡ÉĻ":3579,"iËĲz":3580,"ĠpËĪÉªstÉĻl":3581,"ĠkËĪaÉª":3582,"ĠËĪÉªnd":3583,"ĠËĪaÉªlÉĻnd":3584,"ÉĻkÉĻl":3585,"ËĪÉĶÉªd":3586,"ËĪiËĲni":3587,"ĠfÉ¹ËĪoÊĬz":3588,"ĠtÊĥËĪÉĽÉ¹":3589,"ĠpÉ¹ËĪÉĽs":3590,"ĠbËĪÉªli":3591,"eÉªt":3592,"ĠwËĪÉªÊĥÉªÅĭ":3593,"ĠhËĪÃ¦pÉĻnz":3594,"ĠpËĪÃ¦nts":3595,"ĠsËĪÊĮdÉĻn":3596,"Êĥáµ»z":3597,"ĠÉ¹ËĪÉĽs":3598,"ĠbÉĻkËĪÉĻz":3599,"ĠdÊĴËĪÉĽlÉĻs":3600,"ĠhoÊĬtËĪÉĽl":3601,"ĠÉ¡ËĪaÅĭ":3602,"ĠsËĪÉĽvÉĻnt":3603,"ËĪÉĶËĲnt":3604,"blÉªÅĭ":3605,"ĠkËĪÃ¦ndi":3606,"ĠnÉĻn":3607,"Ã¦l":3608,"jÊĬlÉļ":3609,"ĠlËĪÉĽts":3610,"ĠtÊĥËĪiËĲp":3611,"hoÊĬ":3612,"ĠlÉĻvÉĻn":3613,"áµ»kjËĪÊĬÉ¹":3614,"ĠÉ¡É¹ËĪeÉªÉ¾Éªst":3615,"ĠbËĪÉĽÉ¹li":3616,"ËĮeÉªÉ¾Éļ":3617,"ËĪÉĳËĲsáµ»bÉĻl":3618,"ĠhËĪÉªts":3619,"ĠsËĪuËĲt":3620,"ĠËĪÉĽnÉĻmiz":3621,"ĠËĪakt":3622,"ĠlËĪÉªvd":3623,"ĠËĪÃ¦lbÉĻm":3624,"ĠsËĪÃ¦v":3625,"ĠnËĪeÉª":3626,"ĠdÉ¹ËĪÉĳËĲmÉĻ":3627,"ĠÉ¾ÉĻmÉĻmbËĪo":3628,"ĠÊĥËĪÉľËĲt":3629,"ĠwÉĻndÉĻ":3630,"ĠsËĪaÉªnz":3631,"ĠbËĪeÉªn":3632,"ĠbËĪiËĲst":3633,"ĠkÉĻÅĭ":3634,"ËĪÃ¦kÊĥÉĻn":3635,"ĠsnËĪeÉªk":3636,"ĠbÉ¹ËĪiËĲÃ°ÉªÅĭ":3637,"ĠbËĮiËĲ":3638,"ËĪÉªlÉĻ":3639,"ĠÉ¾ÉĻp":3640,"ĠËĪÉĳËĲl":3641,"ĠdÉ¹ËĪÉªÅĭkÉªn":3642,"aÉªm":3643,"ĠÉĽÉ¡zËĪÃ¦kt":3644,"ĠÎ¸É¹ËĪoÊĬn":3645,"ĠÉĽkskjËĪuËĲs":3646,"ĠvÉĻ":3647,"ĠfËĪoËĲÉ¹s":3648,"ĠwËĪÉĶËĲÉ¹n":3649,"ÉªnÉĻs":3650,"ĠbËĪÉªldÉªÅĭ":3651,"ĠdËĪÉªn":3652,"ĠÉ¡É¹ËĪoÊĬÉªÅĭ":3653,"ĠÉĽndÊĴ":3654,"ĠdËĪeÉªt":3655,"ĠËĪÉªl":3656,"ÉªndÊĴ":3657,"bÉĶÉª":3658,"ĠsËĪÉĽÉ¾ÉĻl":3659,"ĠlËĪÉĽÉ¾Éļ":3660,"ĠlÉĻzÉĻ":3661,"ĠËĪÉĶËĲÉ¹dÉļ":3662,"ĠdËĪÉªfÉ¹ÉĻns":3663,"ĠfÉ¹ËĪaÉªdeÉª":3664,"ĠswÉĻ":3665,"ĠsÉĻmwÉĻn":3666,"hËĪÉĳËĲhÉĻ":3667,"ËĪÉĽkstËĪuËĲ":3668,"ĠbËĪÊĮz":3669,"ĠpÉ¹ËĪaÉªv":3670,"ËĪÉªts":3671,"ĠblËĪÉĽst":3672,"mËĪÃ¦n":3673,"eÉªn":3674,"ĠtËĪÉĳËĲm":3675,"ĠdÊĴËĪuËĲÉĻl":3676,"Ġbáµ»nËĪiËĲÎ¸":3677,"ĠpÉĻtÉĻ":3678,"ĠdÊĴËĪÉĽntÉĻl":3679,"ËĮÉĳËĲm":3680,"ĠËĪÉĽnÉĻmi":3681,"ĠmËĪÉĶËĲÉ¹":3682,"ĠdÉ¹ËĪÉªft":3683,"ÉĻËĪÉĻÉĻÉĻ":3684,"ÉĻni":3685,"ĠÊĥÉĻk":3686,"ËĮÃ¦É¹":3687,"ËĪeÉªlz":3688,"áµ»kËĮeÉªÉ¾áµ»d":3689,"ĠÉ¡ËĪÉªl":3690,"ĠbËĪÊĬlÉªts":3691,"ĠhËĪÉªd":3692,"ĠÉĽkst":3693,"ĠkÉĳËĲnvÉļs":3694,"ĠsËĪÊĮb":3695,"ĠÉ¹áµ»z":3696,"ĠmËĪÃ¦sk":3697,"ĠËĪÉĽnÉļ":3698,"ÉªtËĮuËĲd":3699,"jÉĻt":3700,"ËĪÉĳËĲlÉĻ":3701,"ĠsËĪoÊĬldÊĴÉļ":3702,"ĠjËĪuËĲz":3703,"ĠfÉĻlz":3704,"ĠmËĪuËĲd":3705,"ĠÉ¹ËĪÃ¦pt":3706,"ĠdËĪÉªstÉĻns":3707,"ĠklËĪaÊĬd":3708,"ĠÎ¸É¹ËĪoÊĬÉªn":3709,"ĠÉĲmËĪÉĽÉ¹ÉªkÉĻ":3710,"tÊĥáµ»z":3711,"ĠÉĲtËĪÃ¦k":3712,"ĠÊĥËĪÉªp":3713,"Éªb":3714,"mÉĻnts":3715,"ĠsÉļÉ¹ËĪaÊĬnd":3716,"ËĪÉĶÉªl":3717,"ÉĽm":3718,"ĠÉ¡ËĪaÉªd":3719,"ÉĲd":3720,"ĠstËĪÉĽÉ¹ÉªÅĭ":3721,"ĠsÉĻns":3722,"ËĪÉĳËĲÉ¾i":3723,"ĠÉ¡ÉĻs":3724,"ĠlËĪÉªp":3725,"ĠpÉ¹ËĪÉªzÉĻn":3726,"ÉªdËĮeÉª":3727,"ĠwËĪÉªndoÊĬz":3728,"ĠËĪÊĮm":3729,"ĠzËĪÃ¦n":3730,"ĠpÉ¹ËĪÉĽÉ¹":3731,"ĠkÉĻnv":3732,"ĠÎ¸ËĪÉªn":3733,"ĠÉ¹ËĪÃ¦pÉļ":3734,"ÉĻÉ¡n":3735,"ĠhËĪÉĳËĲÉ¹tbÉ¹eÉªk":3736,"ĠmËĪÉĳËĲmi":3737,"ĠbËĪÉªlz":3738,"ĠdËĮÉĽ":3739,"ÉĳËĲÉ¹d":3740,"wËĪÉĳËĲ":3741,"ĠÉ¹ËĪoÊĬlz":3742,"ĠÊĮÅĭk":3743,"ĠbÉªÉ¡ËĪÉªnÉªÅĭ":3744,"sËĪÉĻ":3745,"ĠspËĪoÊĬk":3746,"ĠflËĪaÊĬÉļz":3747,"ĠwËĪÉĽÉ¹ÉªÅĭ":3748,"ĠÉĽn":3749,"ĠdÊĴËĪÉĽn":3750,"mËĪÉĻ":3751,"tÊĬ":3752,"ĠpËĪuËĲl":3753,"ĠtËĪÉľËĲ":3754,"ĠÉĲpÉ¹":3755,"ĠlËĪiËĲvÉªn":3756,"ĠlÉĻts":3757,"ĠsnËĪiËĲk":3758,"ĠfËĪeÉªt":3759,"ĠmÉĻmÉĻ":3760,"ĠdËĪÉĽst":3761,"ĠhËĪoËĲÉ¹":3762,"ĠdËĪaÉªm":3763,"ĠfËĪoÊĬld":3764,"ĠspËĪÉªnÉªÅĭ":3765,"ĠstÉĻk":3766,"ĠdÉ¹ËĪÃ¦Åĭk":3767,"Ġbáµ»lËĪoÊĬ":3768,"ĠÉ¹oÊĬmËĪÃ¦ns":3769,"ĠËĪÃ¦m":3770,"ĠnËĪaÉªntiËĲn":3771,"vz":3772,"ĠÉ¹ËĪÉĽp":3773,"bËĪÃ¦k":3774,"hÉĻl":3775,"ĠhËĪÉªlz":3776,"É¡É¹ËĮÃ¦":3777,"ĠkÉ¹ËĪiËĲm":3778,"ĠdÉªst":3779,"ÉĲt":3780,"ĠsËĪaÉªlÉĻnt":3781,"hËĪÃ¦Êĥ":3782,"ĠtËĪÉĽk":3783,"ĠmËĪuËĲvd":3784,"Éªkt":3785,"daÊĬn":3786,"ĠfËĪÃ¦stÉļ":3787,"ĠtÊĥËĪiËĲz":3788,"ĠÉ¹ËĪÊĮ":3789,"eÉªl":3790,"ĠkÉ¹ËĪaÉªÉªn":3791,"ĠhËĪaÉªdÉªÅĭ":3792,"É¡ÉļÉ¹":3793,"ĠhËĪÉĽdz":3794,"ĠnËĪÉĶËĲÉ¹Î¸":3795,"ĠflËĪoÊĬt":3796,"ĠskËĪÉĳËĲÉ¹z":3797,"ĠvËĪÉĶÉªsáµ»z":3798,"ĠsËĮÉªtÊĥuËĲ":3799,"ĠoÊĬ":3800,"ĠsËĪaÉªk":3801,"ĠÉĽÉ¡zËĪÃ¦ktli":3802,"ĠspËĪÉĽl":3803,"ĠsËĪÉĳËĲl":3804,"mËĪÉĳËĲ":3805,"ĠmËĪÉĽ":3806,"ĠpÉĻst":3807,"ĠbËĪÉªÉ¹":3808,"ĠÉ¡ÉĻÊĶn":3809,"ĠÉ¾ÉĻst":3810,"ĠÉ¹áµ»pËĪiËĲt":3811,"ĠkËĪÉªst":3812,"ĠtÉĻt":3813,"ĠÉ¹ËĪoÊĬm":3814,"ĠplËĪeÉªÉļ":3815,"ĠËĪÉĽlËĪeÉª":3816,"ĠÉ¹ÉªËĪÃ¦lÉªÉ¾i":3817,"bÉľËĲ":3818,"biËĲt":3819,"ĠnËĪaÉªf":3820,"ĠsËĪiËĲkÉ¹áµ»":3821,"ĠmËĪÉªz":3822,"ĠtÉĻkÉĻn":3823,"ĠmËĪuËĲnlaÉªt":3824,"ĠskwËĪÉĳËĲd":3825,"ĠkwËĪÉĶËĲÉ¹É¾Éļ":3826,"ĠstËĪÊĬd":3827,"ĠbËĪuËĲts":3828,"ĠÉĽndÊĴËĪÉĶÉª":3829,"ĠtÊĥËĪoÊĬk":3830,"ĠfÉ¾ÉĻndz":3831,"ĠsnËĪÃ¦p":3832,"áµ»nËĪeÉªÊĥÉĻn":3833,"ĠËĪeÉªk":3834,"ËĪiËĲvÉļ":3835,"ĠsÉĻtËĪi":3836,"ĠbËĪÉªÉ¾Éļ":3837,"ĠbÉ¹ËĪiËĲz":3838,"ĠsËĪÉªstÉĻm":3839,"jÉĲ":3840,"fÉĻk":3841,"ĠËĪÉĽnÉļdÊĴi":3842,"pÉļz":3843,"ĠsÉĻs":3844,"ĠhËĪÃ¦pÉªnÉĻs":3845,"ĠÃ°ËĪÃ¦ts":3846,"ĠtÉĻÉ£":3847,"ĠmËĪÉªÊĥÉĻn":3848,"ĠpÉ¹ËĪÉªns":3849,"jÉĻËĲ":3850,"ĠlËĪaÉªks":3851,"ÉĲz":3852,"ĠÉ¹áµ»f":3853,"ĠmËĪÉªsÉªn":3854,"ĠkËĪÉªsáµ»z":3855,"ĠÉĽkspËĪÉĽkt":3856,"ĠÉ¹ËĪÊĮb":3857,"ĠvËĪÃ¦n":3858,"ĠpËĪÉľËĲp":3859,"nÉĻt":3860,"ĠkËĪoËĲÉ¹s":3861,"ĠpÉ¹ËĪaÉªvÉĻt":3862,"ÅĭkÉ¹":3863,"ËĪÉªÉ¹i":3864,"ĠtÊĥËĪÉĳËĲÉ¹dÊĴ":3865,"ĠÉ¹ËĪÉªk":3866,"ĠÎ¸ËĪÃ¦Åĭks":3867,"ĠwËĪÉªz":3868,"ĠÉ¡ËĪÊĮ":3869,"ĠÉĲdËĪÉªktáµ»d":3870,"ĠsËĪÉªÉ¹iÉĻs":3871,"ĠËĪÉĳËĲÉ¹t":3872,"ĠsËĪoÊĬloÊĬ":3873,"stËĪÉĳËĲp":3874,"ĠlËĪaÉªd":3875,"ĠÉ¹ËĪoÊĬli":3876,"ĠdÊĴËĪÉĳËĲ":3877,"ĠplËĪÉĽnti":3878,"oÊĬkËĪeÉªn":3879,"ĠkËĪÉĽÉ¹z":3880,"ÉĻtÉĻd":3881,"ÉĳËĲt":3882,"Ġdáµ»stÉ¹":3883,"ĠaÊĬt":3884,"ĠsËĪÃ¦É¾Éļ":3885,"ĠkÉ¹ËĪoÊĬ":3886,"ĠsËĪÉĶËĲs":3887,"lÉĻn":3888,"ĠwÉĻnd":3889,"fÉļ":3890,"ĠkÉ¹ËĪÊĮÊĥ":3891,"lt":3892,"ËĪuËĲf":3893,"ĠËĪeÉªÉ¾i":3894,"ĠpËĪÉĳËĲm":3895,"ËĪÃ¦tÉªn":3896,"ĠstËĪÉĳËĲÉ¹É¾ÉªÅĭ":3897,"ĠbÉ¹ËĪÉĶËĲd":3898,"ĠkËĪaÊĬntÉªÅĭ":3899,"ÉĲstÉļÉ¹ËĮÉªskÉĲstÉļÉ¹ËĮÉªsk":3900,"ĠsËĪiËĲkÉ¹áµ»ts":3901,"mËĪiËĲ":3902,"ËĪÃ¦pi":3903,"ĠhÉĻlp":3904,"wÉªÃ°":3905,"ĠtÉ¹ËĪÉªÉ¡":3906,"ĠkÉĻmplËĪiËĲt":3907,"ĠbËĪÊĮntÊĥ":3908,"ËĪakÉĻn":3909,"ËĪÉĶËĲÉ¹tÊĥ":3910,"ĠnËĪaÉªnti":3911,"ĠÉ¹áµ»k":3912,"ĠsËĪÃ¦É¾ÉļdËĮeÉª":3913,"lÉĻm":3914,"ËĪÉĽÉ¾i":3915,"ĠsËĪÉĳËĲÉ¹oÊĬ":3916,"ĠlËĪÉĽdÊĴÉĻnd":3917,"ĠËĪÊĮÃ°Éļz":3918,"tËĮaÉªm":3919,"ËĪÉĽbÉĻl":3920,"ĠÎ¸É¹ËĪoÊĬt":3921,"hËĪÉªÉ¹":3922,"ËĮÉĻyn":3923,"mËĪÉĽn":3924,"ĠkËĪoËĲÉ¹ÉĻs":3925,"bËĮÊĮt":3926,"ËĪÉªÉ¾":3927,"ĠpËĪÃ¦Î¸":3928,"ĠkoÊĬkËĪeÉªn":3929,"ËĪÉĻÃ°o":3930,"ĠÎ¸É¹ËĪoÊĬÉªÅĭ":3931,"ĠsÉļÉ¹ËĪÉĽndÉļ":3932,"áµ»f":3933,"ĠskÉ¾ÉĻm":3934,"ĠlÉĻsÉĻn":3935,"ĠlËĪÉĽm":3936,"ĠfËĪÃ¦ntÉĻsi":3937,"Î¸É¹":3938,"ËĪÃ¦kts":3939,"ĠfÉ¹ËĪiËĲz":3940,"ĠtÉĻÉ£ËĪÉĻÃ°o":3941,"ĠfËĪoÊĬkÉĻs":3942,"ĠÉĻpÉĻn":3943,"ĠÊĥËĪiËĲts":3944,"ÉĳËĲx":3945,"ĠdËĪaÉªv":3946,"ĠÉ¹ËĪiËĲzÉĻnz":3947,"ĠhËĪeÉªÉ¾ÉªÅĭ":3948,"ĠkÉ¾ÉĻs":3949,"bËĪÉĶÉª":3950,"ĠÉĲpËĪÉĳËĲlÉĻdÊĴ":3951,"ĠÉ¡ËĮÉĻyn":3952,"ĠstËĪÉĳËĲpt":3953,"ĠspÉĻk":3954,"ĠflËĪÊĮd":3955,"ĠhËĪÉĳËĲpÉªn":3956,"ĠsËĪÉªkstiËĲn":3957,"ĠdËĪÃ¦Êĥ":3958,"ĠfËĮaÉª":3959,"ËĪÊĮmpt":3960,"ĠnËĪeÉªbÉļ":3961,"ĠmËĪÉªkst":3962,"ĠstËĪÃ¦ndÉªn":3963,"ĠmËĪÉªnÉªts":3964,"ĠkËĪÉĳËĲmpl":3965,"ĠnËĪÃ¦tÊĥ":3966,"ËĮeÉªn":3967,"ĠpËĪÊĬlÉªÅĭ":3968,"ĠËĪÉĳËĲntÊĬ":3969,"wËĪÉĻn":3970,"ĠÉ¡ËĪÉªvz":3971,"ĠÉªmpÉ¹":3972,"ĠtËĪÃ¦p":3973,"ĠsnËĪÉªtÊĥ":3974,"ĠpÉ¹ËĪeÉªÉªÅĭ":3975,"hËĪaÉª":3976,"ËĪoÊĬt":3977,"ĠsËĪiËĲzÉĻn":3978,"ĠfËĪÉĽdz":3979,"ËĪuËĲoÊĬ":3980,"ĠËĪoÊĬp":3981,"ĠtÉ¹ËĪeÉªd":3982,"ĠËĪÃ¦kÊĥÉĻn":3983,"ĠspÉ¹ËĪÉªÅĭ":3984,"ĠtÊĥËĪÉĳËĲpÉļ":3985,"sÉĽt":3986,"ÉªnÉĻl":3987,"ĠsmËĪuËĲ":3988,"ĠkjËĪÊĬÉ¹":3989,"ĠtËĪÉĽndÉļ":3990,"ĠkËĪÃ¦s":3991,"ĠÉªmËĪoÊĬÊĥÉĻn":3992,"ĠtÊĥËĪÃ¦mp":3993,"ĠwÉĻtÉĻÅĭ":3994,"ĠËĪÉªÊĥ":3995,"ĠsËĪoËĲÉ¹":3996,"ĠÉ¹ËĪeÉªndÊĴ":3997,"ËĮÉĽmáµ»n":3998,"ĠklËĪÉªk":3999,"É¹Éªs":4000,"ĠvËĪÃ¦l":4001,"ĠtÊĥËĪeÉªndÊĴáµ»z":4002,"ĠÉ¡É¹ËĪÉªp":4003,"ĠbÉĻÎ¸":4004,"ĠlËĪÉªmÉªt":4005,"hËĪoÊĬld":4006,"ËĮÉªst":4007,"ĠÊĮnd":4008,"ĠÊĮntÉĻl":4009,"ĠhËĪÉĽlÉĻ":4010,"ĠhËĪÃ¦ÅĭÉ¡Éªn":4011,"ÊĴÉļz":4012,"ĠskwËĪiËĲz":4013,"ËĮÉĽmáµ»nËĪÉªs":4014,"stÉĻn":4015,"ĠmËĪÊĮd":4016,"wËĪaÉªnd":4017,"ËĮÉĶËĲl":4018,"ËĪÉĻvo":4019,"Ã¦Ã¦":4020,"ËĪeÉªmd":4021,"ĠmËĪaÉªl":4022,"ĠsplËĪÉªt":4023,"ĠÉªÉ¡nËĪoËĲÉ¹":4024,"lÉĻz":4025,"ĠjËĪuËĲÎ¸":4026,"ĠÉĻftÉĻ":4027,"ĠpÉ¹ËĪÉĳËĲmÉªst":4028,"ĠbËĪoËĲÉ¹":4029,"ĠfËĪÃ¦nz":4030,"ĠlÉĻz":4031,"ĠpjËĪÊĬÉ¹":4032,"ĠpËĪÊĬÉ¾ÉªÅĭ":4033,"ĠskËĪoËĲÉ¹":4034,"ĠtÉ¹Ã¦n":4035,"ftaÉªm":4036,"ĠÉ¡ËĪÉĻz":4037,"ĠmËĪÉĳËĲÎ¸ÉĲfËĮÊĮk":4038,"ĠÉ¹ËĪÉĽnt":4039,"haÊĬs":4040,"ĠËĪÉĽ":4041,"ĠËĪÉªÉ¡":4042,"ĠwËĪÉªspÉļ":4043,"ËĪiËĲÊĥ":4044,"ptÉĻn":4045,"ĠÊĥËĪÉĳËĲÉ¹":4046,"ĠvËĪeÉªnz":4047,"ĠmËĪÉĳËĲb":4048,"ĠbËĪÉľËĲnÉªn":4049,"É¡ËĪÉĳËĲt":4050,"ĠstËĪuËĲd":4051,"ĠstÉ¹ËĪÉĽtÊĥ":4052,"ĠÉ¹ËĪuËĲd":4053,"ĠpËĪÉĶÉªz":4054,"ndÊĴÉĻ":4055,"ĠdËĪaÉªn":4056,"ĠmËĪÊĮÅĭk":4057,"ĠdÉĻt":4058,"ĠwËĪeÉªÉ¾áµ»d":4059,"ĠflËĪeÉªmz":4060,"ĠËĪÉĽkstÉ¹ÉĻ":4061,"tËĪaÉªm":4062,"ĠÉ¡ËĪÉªft":4063,"ĠlËĪÉĽsÉĻn":4064,"ĠËĪÊĮÉ¡li":4065,"kËĪiËĲp":4066,"ĠmÉĻnt":4067,"ĠdËĪa":4068,"ĠwËĪeÉªstÉªÅĭ":4069,"É¹ËĪÊĮn":4070,"ĠmÉĻdÉĻ":4071,"ĠmËĪÃ¦É¹id":4072,"ËĪÃ¦dÊĴ":4073,"ĠÊĥËĪuËĲÉ¾ÉªÅĭ":4074,"ÉĻmÉĻndz":4075,"ĠwËĪaÉªz":4076,"ĠnÉĻkst":4077,"ĠkËĪÃ¦l":4078,"ĠbËĪÉľËĲnd":4079,"ĠhËĪÉĶËĲnt":4080,"ÉĲs":4081,"ĠzËĪiÉĻÉ¹oÊĬ":4082,"ĠkËĪÃ¦b":4083,"ĠhËĪiËĲlz":4084,"pÉªt":4085,"ĠtËĪÃ¦":4086,"ĠtËĪÉªÅĭ":4087,"ĠbÉ¹ËĪeÉªv":4088,"bËĪuËĲm":4089,"ËĪÉĽli":4090,"ĠbËĪÉĳËĲÃ°Éļ":4091,"ĠÉªnf":4092,"ĠfËĪÉĶËĲÉ¹m":4093,"ĠlËĪaÊĬdÉļ":4094,"ËĮÃ¦k":4095,"ĠwËĪÉĽÉ¹ÉĽn":4096,"ÉĻps":4097,"ĠtÉĻz":4098,"ĠkËĪatÊĥ":4099,"ĠpËĪÉªs":4100,"ĠsËĪÉĽlÉĻbÉ¹ËĮeÉªt":4101,"ĠmËĪato":4102,"ĠÉ¹áµ»t":4103,"ĠbÉªÉ¡ËĪÊĮn":4104,"ĠÉ¡É¾ÉĻnd":4105,"ĠwËĪÉªtnÉĻs":4106,"ĠÉ¹ËĪoÊĬzáµ»z":4107,"ĠÉ¹ËĮÉĽmáµ»nËĪÉªs":4108,"ĠslÉĻ":4109,"ĠpÉ¹ËĪÉĳËĲdÊĴ":4110,"É¹ÉªÅĭ":4111,"ĠfËĪÉªÉ¹z":4112,"ÊĥÉªp":4113,"ĠflËĪuËĲ":4114,"ĠÉ¡É¹ËĪuËĲp":4115,"ĠbÉ¹ËĪÉªÅĭz":4116,"ĠdÉ¹ËĪÉªÅĭks":4117,"ĠklÉĻ":4118,"ĠtËĪÉªm":4119,"ĠtÊĥËĪÉªláµ»n":4120,"vi":4121,"ĠdÉĻs":4122,"ËĪÉĻti":4123,"ĠËĪÉĳËĲb":4124,"ĠwËĪÉªski":4125,"ĠblËĪeÉªz":4126,"ËĪÃ¦ps":4127,"ĠmËĪaÉªndz":4128,"Ġdáµ»m":4129,"ĠkwËĪÉĽstÊĥÉĻnz":4130,"ĠÉ¹áµ»fl":4131,"ĠmËĪiËĲnÉªÅĭ":4132,"ĠsËĪÉĽlÉªÅĭ":4133,"sËĮiËĲ":4134,"ĠwËĪÉªk":4135,"Ġ[?],":4136,"ĠÉĻkËĪÉĻ":4137,"ĠdÊĴËĪaÉªÉĻl":4138,"ĠtÊĥËĪÉĳËĲ":4139,"ĠhËĪÉĽdáµ»d":4140,"ĠÉªtËĪÉľËĲn":4141,"ĠÊĥËĪÉĽd":4142,"ĠÉ¾ÉĻnÉĻÅĭ":4143,"ËĪeÉªÉ¾i":4144,"ĠÉĽÉ¡zËĪÉªst":4145,"ĠÉ¡ÉĻv":4146,"hËĪÃ¦Êĥj":4147,"sm":4148,"ĠbËĮiËĲËĮÉĳËĲÉ¹É¹":4149,"ĠËĪÉĽnÉªtËĮaÉªm":4150,"ĠfËĪÉĶËĲÉ¹É¾i":4151,"pi":4152,"ĠpËĪeÉªs":4153,"ÉĻÅĭÉ¡":4154,"ĠflËĪÃ¦t":4155,"ËĮaÉªn":4156,"ÉĶËĲlÉ¹":4157,"ËĪÉĽÉ¾Éļ":4158,"ĠwËĪÉĳËĲtÊĥt":4159,"ĠÉ¹ËĪÉĽkÉĻÉ¡n":4160,"ĠstËĪÊĮm":4161,"ËĪeÉªmz":4162,"pÉĻt":4163,"ËĪeÉªÉ¡":4164,"É¾ÉªtËĮuËĲd":4165,"ĠËĪÉĶfÉĻn":4166,"ĠfËĪÃ¦ÊĥÉĻn":4167,"ĠsËĪÊĮni":4168,"ĠdÉĻÉ¡":4169,"ĠbËĪÃ¦kw":4170,"ĠkÉ¹ËĪaÉªst":4171,"ĠdÊĴËĪÉĳËĲni":4172,"fÉªt":4173,"ĠnÉĻÎ¸ÉĻn":4174,"ĠÉĻzÉĻ":4175,"ÉĻfÉĻl":4176,"ĠmÉĻnËĪi":4177,"ÉĻÉĻËĪÉĻ":4178,"ĠlËĪÉĳËĲ":4179,"ĠlËĪÉĽÉ¡":4180,"ĠlËĪÉĶÉªÉĻl":4181,"nËĪaÉªnti":4182,"ĠfËĪÉªftiËĲn":4183,"ĠtËĪÉĻ":4184,"skËĮeÉªËĮÉĳËĲÉ¹tËĪiËĲ":4185,"ĠdÉªsÉ¡":4186,"pÉ¹áµ»z":4187,"ÉĻmÉĻm":4188,"ĠsËĮÉªÉ¡ÉļÉ¹":4189,"ËĮÉĶËĲÉ¹":4190,"ĠtËĪoÊĬst":4191,"ĠsËĪÃ¦Åĭ":4192,"ĠbËĪÊĮbÉĻl":4193,"ĠfËĪuËĲlz":4194,"ĠsËĪeÉªk":4195,"ĠspÉĻt":4196,"juËĲm":4197,"ĠÉ¹áµ»lËĪÃ¦ks":4198,"ĠhËĪÃ¦b":4199,"ĠnËĪeÉªmz":4200,"ĠkËĮÉĳËĲm":4201,"ĠklËĪaÊĬn":4202,"ĠdËĪeÉªndÊĴÉļ":4203,"ĠkËĪoÊĬt":4204,"ĠhËĪÉĳËĲlÉªdËĮeÉª":4205,"ĠhÉĻvÉĻn":4206,"ĠpËĪa":4207,"ĠËĪÉĽk":4208,"ËĪÉªÊĴÉĻnz":4209,"ËĪeÉªnd":4210,"ĠwÉĻmÉĻn":4211,"ĠlÉĻkÉĻn":4212,"ĠdÉ¾ÉĻmz":4213,"ÉĻnsi":4214,"ĠdÉªv":4215,"ĠkËĪuËĲ":4216,"ÊĥËĮÉª":4217,"ĠsÉĻf":4218,"ĠsËĪÃ¦vÉªdÊĴ":4219,"ĠtËĪÉĽlz":4220,"ĠpËĪÊĮf":4221,"ĠskÉ¹ËĪÃ¦tÊĥ":4222,"ĠmËĪÉªzÉļÉ¹i":4223,"É¡ËĪÉªv":4224,"ĠlÉĻnlÉĻ":4225,"ĠdÉ¹ËĪÉĶËĲ":4226,"ĠskÉ¹ËĪiËĲmÉªn":4227,"ĠÉ¡ËĪÃ¦":4228,"É¾ÉĻsk":4229,"ĠlËĪaÉªftaÉªm":4230,"ĠmËĪÉĽlÉĻdi":4231,"ĠÉ¹ËĪÉªÊĶn":4232,"ĠkÉĻmplËĪeÉªn":4233,"Î¸ÉĻ":4234,"ĠsËĪÉľËĲÊĶn":4235,"ĠkËĪeÉªdÊĴ":4236,"ĠtËĪÉªkÉªt":4237,"ĠmÉĻÎ¸":4238,"ĠsËĪÉªÅĭÉ¡Éªn":4239,"jj":4240,"ĠwËĪoËĲÉ¹":4241,"ĠtËĪÉĳËĲ":4242,"ĠpÉ¾ÉĻm":4243,"ĠsËĪiËĲk":4244,"ĠdÊĴËĪÉĶËĲÉ¹":4245,"ĠÉĻls":4246,"ĠnËĪÊĮmbÉļz":4247,"ĠpÉļs":4248,"ĠswËĪÉľËĲv":4249,"ĠÉ¹ËĪeÉªdÊĴ":4250,"ĠtËĪÊĮtÊĥt":4251,"mËĪoËĲÉ¹":4252,"ĠplËĪeÉªt":4253,"ĠËĪÃ¦Åĭ":4254,"ĠpÉ¹ËĪÉĳËĲp":4255,"ËĪiÉĻÉ¹Éª":4256,"ĠdËĪÉĳËĲÉ¹lÉªn":4257,"ĠbËĪÉĽÉ¡ÉªÅĭ":4258,"É£ËĪo":4259,"ĠËĪiËĲÉ¾ÉªÅĭ":4260,"ĠbËĪÉĶÉªfÉ¹ÉĽnd":4261,"ËĪÉĳËĲtÊĥi":4262,"ĠÉ¹áµ»mËĪeÉªn":4263,"ĠfËĪÉĶËĲÉ¹Î¸":4264,"ĠfËĪÉªst":4265,"Éªni":4266,"ĠwËĪaÉªp":4267,"ËĪÉªÊĥÉĻs":4268,"ĠfÉ¹ËĪiËĲki":4269,"ËĮeÉªtÊĥsáµ»É¹ËĮÉªlÉªkjËĪÉĽËĲ":4270,"ĠdËĪÉĽf":4271,"ĠÊĥËĪeÉªkÉªÅĭ":4272,"ĠmËĪÉĶnstÉļ":4273,"ĠkËĪÉľËĲs":4274,"mËĪeÉªk":4275,"ĠwËĪÊĬl":4276,"ĠËĪÃ¦É¹ÉĻn":4277,"ĠhËĪÉĳËĲÉ¹tbiËĲt":4278,"jËĪÉĽËĲËĪÉĳËĲÉ¹":4279,"ĠaÊĬÉļ":4280,"ĠÉ¹ËĮÉĽpÉ¹áµ»z":4281,"ĠfËĪÊĮÅĭki":4282,"ĠsËĮÉªtÊĥuËĲËĪeÉªÊĥÉĻn":4283,"ĠsËĪÉĽláµ»n":4284,"ĠsmËĪuËĲÃ°":4285,"ĠkÉĻmÉĻz":4286,"ĠbÉ¹ËĪÉªÅĭÉªÅĭ":4287,"ĠkËĪÉĳËĲÉ¹dz":4288,"dËĪÊĮm":4289,"ĠfËĪÉĻ":4290,"ĠdÉ¹ËĪÉªpÉªn":4291,"ĠmËĪaÊĬntÉªnz":4292,"vÉĻlËĪuËĲÊĥÉĻn":4293,"ĠhÉĻnd":4294,"ËĪÉªskoÊĬ":4295,"ĠmËĪÊĮnd":4296,"ĠbËĪÉĽdÉ¹uËĲm":4297,"ÉªÉ¾ÉĻl":4298,"ĠlËĪoÊĬdáµ»d":4299,"ËĪÉĽndÊĴ":4300,"ĠhËĪÉľËĲÉ¾ÉªÅĭ":4301,"ĠbÉ¾ÉĻÃ°ÉĻ":4302,"ĠdÊĴËĪÊĮÅĭ":4303,"ĠÊĥËĪÊĬdÉĻ":4304,"aÊĬnd":4305,"ĠÉ¹ËĪaÉªzÉªÅĭ":4306,"ĠwËĪÉĶntÉªÅĭ":4307,"ĠspÉ¹ËĪeÉª":4308,"ĠÉĻtÊĥ":4309,"staÉªl":4310,"ĠmËĪÉĽlt":4311,"ĠsmËĪaÉªlÉªÅĭ":4312,"ĠplËĪÃ¦nÉªt":4313,"ĠjËĮuËĲ":4314,"ĠdËĪÊĮbÉĻljËĮuËĲ":4315,"ĠfËĪÉĶËĲlÉĻn":4316,"ÉĽd":4317,"ĠmËĪÉĶËĲl":4318,"ËĮÉĳËĲs":4319,"ĠdÊĴËĮÉĽn":4320,"ĠsËĪÉĽvÉĻntËĮiËĲn":4321,"ĠlËĪeÉªk":4322,"ĠpËĪÊĮb":4323,"Éªnd":4324,"ĠsËĪÉªli":4325,"ĠlËĪaÉªtnÉªÅĭ":4326,"tÊĥuËĲÉĻli":4327,"ĠtÉ¹ËĪÃ¦Êĥ":4328,"pÉĻni":4329,"ĠkËĪÉªlÉļz":4330,"ĠsËĪeÉªnt":4331,"ĠkËĪÉĳËĲnt":4332,"ĠwËĪiËĲlz":4333,"sËĪÉªkst":4334,"ĠÊĥËĪaÉª":4335,"ĠdËĪÉĽk":4336,"ĠdÉĻv":4337,"ĠpËĪeÉªÊĥ":4338,"ĠpÉ¹ËĪÉĽÊĥÉĻs":4339,"ĠmËĪad":4340,"fËĪÉªfti":4341,"ĠhËĪÉĳËĲm":4342,"ĠstÉ¹ËĪaÉª":4343,"ĠhÉĻÉĻ":4344,"wËĮÉĻt":4345,"ĠlËĪaÉªÉļ":4346,"ËĪÉªzi":4347,"ĠklËĪiËĲk":4348,"ĠdËĪÉªnÉļ":4349,"ĠkÉĻnfjËĪuËĲzd":4350,"ĠbÉ¾":4351,"ĠwËĪÉĻnt":4352,"ĠwÉĻp":4353,"ĠflËĪÃ¦É¡":4354,"dËĪÊĮbÉĻl":4355,"ĠkËĪÃ¦st":4356,"aÉªÉļ":4357,"ĠpËĪÉľËĲk":4358,"ĠsËĪoÊĬlz":4359,"ĠËĪÃ¦nÉªmÉĻl":4360,"É¹áµ»fËĮaÉª":4361,"oÊĬn":4362,"ĠÎ¸ËĪÉªÅĭks":4363,"ĠbËĪeÉªbiz":4364,"ĠsÉĻtÊĥ":4365,"ĠkÉĳËĲnvÉļsËĪeÉªÊĥÉĻn":4366,"ËĪÉĳËĲts":4367,"ËĪÉĳËĲsÉªn":4368,"ĠÉ¹ËĮÉĽpÉ¹áµ»zËĪÉĽnt":4369,"ĠdËĪÉĽs":4370,"ĠaÊĬÉļsËĪÉĽlvz":4371,"ĠËĮÉĽmËĮÉĽm":4372,"ĠtÉĻst":4373,"ÉĶËĲlÉ¹ËĪaÉªt":4374,"ĠÉĶËĲl":4375,"ĠstËĪÉªks":4376,"ĠvÉļs":4377,"ĠvÉļsËĪÉĳËĲtÊĥi":4378,"wËĪÉĶn":4379,"ĠdËĪÉĽn":4380,"ĠfËĪiËĲvÉļ":4381,"stÉĳËĲÉ¹":4382,"ĠhËĪaz":4383,"ĠpËĪÊĬÊĥÉªÅĭ":4384,"ĠdËĪÉĽz":4385,"ÉĻdz":4386,"ĠhËĪÉªtÉªn":4387,"fÉĻli":4388,"Ġáµ»lËĪÉĽkt":4389,"ËĮe":4390,"ĠËĮÉĽlËĪeÉª":4391,"ĠtÉ¾ÉĻÉĻÅĭ":4392,"ĠdËĪÉĽstÉªni":4393,"ĠËĪÉªÊĥuËĲ":4394,"ĠËĪÃ¦skÉªn":4395,"ĠtÊĥËĪÉªkÉªn":4396,"ĠËĪÉªÉ¹z":4397,"fi":4398,"dÊĴÉĻs":4399,"ĠnËĪÉľËĲvÉĻs":4400,"ĠpÉ¹ÉĻtËĪÉĽkt":4401,"fËĪiËĲl":4402,"ĠmËĪoÊĬÊĥÉĻn":4403,"ËĪÉªdÉª":4404,"taÉªm":4405,"ĠÉ¡ËĪÉĳËĲÉ¹dÉĻn":4406,"ËĪÃ¦li":4407,"ĠdÊĴËĪÊĮÅĭÉ¡ÉĻl":4408,"ĠpËĮiËĲ":4409,"ĠdÉ¹ËĪiËĲ":4410,"ĠdÊĴËĪÊĮmpÉªn":4411,"stÉĻÉ¾ÉĻsk":4412,"ĠpËĪÉĶÉªzÉĻn":4413,"mÉĽÉ¹":4414,"sáµ»z":4415,"ĠtÉ¹ËĪÊĮÅĭk":4416,"ĠÉ¡É¹ËĪÃ¦m":4417,"ĠÉĲdvËĪaÉªs":4418,"ĠÉ¹ËĪiËĲp":4419,"ÉĽl":4420,"ĠslËĪeÉª":4421,"ĠËĮÉªns":4422,"ĠsËĪÃ¦É¾ÉªsfËĮaÉªd":4423,"ĠÉ¹ËĪÉĽkÉĻÉ¡nËĮaÉªz":4424,"pËĪÃ¦k":4425,"ĠlËĪÃ¦p":4426,"ĠvËĪeÉªn":4427,"ĠÉ¹ËĪaÉªmz":4428,"ĠsÉĻmËĪa":4429,"ËĪiËĲnoÊĬ":4430,"ĠmËĪeÉªbÉĳËĲx":4431,"ÉĻËĪÉĻ":4432,"ĠÉ¹ËĪÉªsk":4433,"ĠfÉ¹ËĪÃ¦Åĭk":4434,"ËĪÉĶËĲÉ¹dz":4435,"ĠsËĪÊĮdÉĻnli":4436,"É¡ËĪÃ¦Åĭ":4437,"ĠtÊĥÉĻnsÉĻ":4438,"ĠstÉ¹ËĪÊĮÉ¡ÉĻl":4439,"jËĪeÉª":4440,"ĠstËĪoÊĬnz":4441,"ĠtÊĥËĪÉªks":4442,"ĠnËĪeÉªtÊĥÉļ":4443,"ĠlËĪÊĮÅĭ":4444,"ËĪeÉªÊĥÉĻns":4445,"ĠsËĪaÉªz":4446,"ĠËĪÃ¦pÉĻl":4447,"ĠkËĪÊĮmpÉĻni":4448,"ĠpÉ¹ËĪÉĳËĲmÉªsáµ»z":4449,"ĠmËĪÊĮndeÉª":4450,"ĠhËĪÊĮm":4451,"ĠkËĪÃ¦É¹":4452,"ĠÉ¹ËĪÉĽbÉĻl":4453,"ĠflËĪÉĽÊĥ":4454,"ĠÉ¹ËĪÊĮnz":4455,"ĠkËĪÉľËĲt":4456,"ËĪÉªÉ¹d":4457,"ĠnËĪaÉªtmÉĽÉ¹":4458,"ĠpËĪÉĳËĲpÉĻ":4459,"ĠmËĪÃ¦É¾Éļz":4460,"ĠpÉĻnt":4461,"ĠpËĪÊĬÊĶn":4462,"ĠpËĪÃ¦sÉªÅĭ":4463,"ĠpËĪÉĳËĲÉ¹tn":4464,"ĠmËĪaÉªÉ¾i":4465,"ĠkËĪÊĮÊĥ":4466,"ĠÊĥËĪeÉªp":4467,"ĠdÊĴÉĻn":4468,"ĠÉĻndËĪo":4469,"ĠsËĪÃ¦m":4470,"ĠÉĲpl":4471,"ËĪÉªÅĭÉ¡ÉĻl":4472,"ĠmËĪÉªÉ¹ÉĻkÉĻl":4473,"ĠhËĪÃ¦pÉĻnÉªÅĭ":4474,"ĠÉ¡É¹ËĪÃ¦ndm":4475,"ĠsËĮÉľËĲ":4476,"ĠbËĪÊĮt":4477,"Ġáµ»É¹":4478,"ĠvËĮiËĲ":4479,"ĠplËĪeÉªz":4480,"ĠbÉ¾ÉĻt":4481,"ĠwÉĻdz":4482,"ĠÊĮnn":4483,"ĠËĮoÊĬvÉļÉ¹":4484,"ĠpËĪÊĮm":4485,"ĠÎ¸ËĪÉľËĲd":4486,"ĠspËĪiËĲkÉªÅĭ":4487,"ĠtÉ¾ÉĻd":4488,"ĠpËĪÉªn":4489,"ĠblËĪoÊĬz":4490,"ĠkËĪÉªsÉªÅĭ":4491,"ĠtÊĥËĪuËĲ":4492,"ËĪÃ¦nsi":4493,"ĠËĪÉĻÉĻ":4494,"ĠbËĪeÉªl":4495,"ĠÉ¹ËĪÉĽÉ¡":4496,"ĠÉĻÉĻÉĻÉĻÉĻÉĻÉĻÉĻÉĻÉĻÉĻÉĻÉĻ":4497,"ÉĳËĲk":4498,"ĠdÊĴËĪÊĮmpÉªÅĭ":4499,"ÉĻÉĻz":4500,"ĠsÉĻz":4501,"ĠtÉ¹ËĪuËĲli":4502,"ĠjÉĻsËĪÉĻlf":4503,"ĠdÉªzËĪaÉªnÉļ":4504,"Ã¦z":4505,"ĠÉ¹ËĪaÉªÉ¾ÉªÅĭ":4506,"ĠsÉĻÅĭÉ¡":4507,"ĠpËĪÊĬláµ»n":4508,"ĠwÉĻkÉĻÅĭ":4509,"ÉªÉĻs":4510,"ĠtËĪoËĲÉ¹":4511,"ÉĲnËĪÉĽl":4512,"ĠËĪÉĽndÉªÅĭ":4513,"ĠlËĪÉĳËĲts":4514,"ĠwÉĻntÉĻd":4515,"dËĪÃ¦ns":4516,"ĠjËĪuËĲÊĴuËĲ":4517,"ĠhÉĻndÉ¾ÉĻd":4518,"ĠtËĪÉĶËĲÉ¹n":4519,"ĠÉ¹áµ»lËĪÉªdÊĴ":4520,"-,":4521,"ĠËĪÉªnst":4522,"ĠhËĪeÉªz":4523,"ĠtÉ¹ËĪÉªpÉªÅĭ":4524,"ĠkËĪoËĲÉ¹t":4525,"ĠwËĪÉĶl":4526,"ĠhËĪÊĮndÉ¹Éªdz":4527,"ÉĻwËĮeÉª":4528,"ĠÉĻbs":4529,"ĠbËĪÃ¦Î¸":4530,"ĠÉ¹ËĪiËĲk":4531,"ĠtwËĪÉªstáµ»d":4532,"ĠstÉ¹ËĪaÉªk":4533,"ĠÉĻnËĪyÎ¸ÉĻÅĭ":4534,"ĠtÉ¹ËĪÉªÉ¡Éļ":4535,"ĠmËĪÊĮÅĭki":4536,"ĠfÉĻv":4537,"ĠpËĪÊĮÅĭk":4538,"ĠflËĪoÊĬÉ¾ÉªÅĭ":4539,"ĠtÉ¹ËĪÃ¦pt":4540,"ĠkËĪÃ¦ts":4541,"ĠpËĪÉĳËĲpÉªÅĭ":4542,"ĠkËĪÃ¦mÉ¹ÉĻ":4543,"pËĪÉĽkt":4544,"ĠbËĪoÊĬl":4545,"ĠÉ¹ËĪeÉªnboÊĬ":4546,"ĠmËĪaÉªkÉĻl":4547,"ĠbËĪaÉ¡":4548,"ĠdÉªt":4549,"ĠdËĪaÉªs":4550,"ĠmÉĻnÉĻÅĭ":4551,"ËĪaÉ¡":4552,"ĠdÉĻÉĻn":4553,"ĠpËĪeÉªÊĥÉĻns":4554,"ĠpÉĻÊĥ":4555,"ĠmjÉĻz":4556,"ÉĻÉĻÉĻÉĻÉĻÉĻÉĻÉĻÉĻ":4557,"ĠkËĪaÊĬntÉªn":4558,"ĠmËĪÉľËĲd":4559,"ĠwËĪÃ¦n":4560,"ĠÉ¹ËĪoÊĬld":4561,"ĠdËĪÉĻÉĻÅĭ":4562,"ĠkËĪÉªks":4563,"ĠfËĪÉĶËĲÉ¹wÉļd":4564,"ĠlËĪÉĶs":4565,"ĠÉªÅĭk":4566,"É¡ËĪÉĳËĲd":4567,"ĠdÊĴËĪeÉªn":4568,"ĠhËĪapÉĻn":4569,"ĠmaÉªËĪÃ¦mi":4570,"ĠwËĪÉĶËĲks":4571,"ĠnËĪÃ¦s":4572,"ĠËĪÉĽndlÉĻs":4573,"ĠhËĪÊĮnt":4574,"ĠnËĪeÉªÊĥÉĻn":4575,"ĠdÊĴËĪÉľËĲ":4576,"ĠtÉĻdÉĻ":4577,"ĠËĮÉĻni":4578,"ËĮaÊĬ":4579,"É¹Éªd":4580,"ĠfËĪeÉªdÉªÅĭ":4581,"ĠmËĪÊĮÎ¸ÉĲfËĮÊĮk":4582,"ĠsËĪoÊĬbÉļ":4583,"ĠÊĥËĪuËĲtÉªn":4584,"ĠdÉĻfÉ¾ÉĻnt":4585,"hËĪÉĳËĲp":4586,"ĠÉ¾ÉĻnd":4587,"ĠÉ¾ÉĻf":4588,"ĠkÉĻmÉĻn":4589,"lËĪÉªÉ¹Éªks":4590,"ĠdÉĻtÉĻ":4591,"ĠÎ¸ËĪÉľËĲst":4592,"soÊĬ":4593,"ĠmÉĻÃ°ÉĻfÉĻk":4594,"ĠwËĪÉªkáµ»d":4595,"kjuËĲ":4596,"stËĪand":4597,"ĠdÉ¹ËĪoÊĬv":4598,"ĠpËĪÉªkt":4599,"ĠËĮÊĮndÉļÉ¹ÉĻÉĻÉĻÉĻÉĻ":4600,"ĠdËĪÊĮb":4601,"ĠÉ¡É¹ËĪiËĲd":4602,"ĠslËĪiËĲv":4603,"Ã°ËĪoÊĬ":4604,"hËĮÊĬd":4605,"ĠÉĲks":4606,"ĠmÉĻv":4607,"ĠstËĪoËĲÉ¹iz":4608,"ĠpËĪaÉªp":4609,"ĠwÉĻns":4610,"ĠplËĪÉĽÊĴÉļ":4611,"ĠÉĻts":4612,"ËĪÉªkÊĥÉĻn":4613,"ËĮÃ¦É¹ÉĻnt":4614,"stÉļz":4615,"ĠÊĥÉĲnËĪÉĽl":4616,"ĠbÉĻb":4617,"ĠlËĪÉĽÃ°Éļ":4618,"ÉªbÉĻl":4619,"ĠtËĪÊĮk":4620,"ĠnËĪÉĶËĲ":4621,"ĠpÉĻf":4622,"ĠkÉĻdÉĻn":4623,"ĠmËĪÃ¦t":4624,"ĠÊĥËĪoËĲÉ¹":4625,"ĠbÉ¹ËĪeÉªkÉªn":4626,"ĠstËĪeÉªÉªÅĭ":4627,"ĠsÉĻÉ¾ÉĻ":4628,"ËĮuËĲz":4629,"ĠbÉ¾ÉĻkÉĻn":4630,"ËĪÉĳËĲzÉªt":4631,"plËĪiËĲz":4632,"ĠÉ¡ËĮÃ¦É¹ÉĻnt":4633,"ĠËĪÃ¦É¾ÉªtËĮuËĲd":4634,"kÉªn":4635,"áµ»tËĮeÉªt":4636,"ËĪÉªÊĥÉĻnz":4637,"ĠsËĪÉªpÉªÅĭ":4638,"ĠÉªÉ¹":4639,"ĠtËĪÉľËĲnÉªn":4640,"ĠmËĪÉĽnÊĥÉĻn":4641,"ĠtÉ¾ÉĻÎ¸":4642,"bÃ¦":4643,"ĠdÊĴËĪiËĲn":4644,"ĠwÉĽÉ¹ËĪÉĽvÉļÉ¹":4645,"ĠwËĪÃ¦k":4646,"ĠkÉ¹ËĪÉĶst":4647,"ĠÉªmËĪoÊĬÊĥÉĻnz":4648,"ĠsËĪÉªksti":4649,"ĠsËĪÃ¦t":4650,"ĠstÉ¾ÉĻÅĭ":4651,"ÉĻtli":4652,"ÉªdÉĻns":4653,"ĠsËĪÉĻmÎ¸ÉĻn":4654,"hËĪiËĲ":4655,"ĠtÉ¹ËĪÃ¦ks":4656,"ËĮÉľËĲs":4657,"ĠËĪÃ¦ÅĭÉ¡":4658,"ĠpÉ¹Éªp":4659,"ĠtËĪÊĮn":4660,"ËĮeÉªtÊĥËĪeÉªtÊĥ":4661,"ĠÊĥËĪeÉªdz":4662,"ĠbËĪeÉªk":4663,"ĠsnËĪÉªp":4664,"ĠaÊĬÉ¾":4665,"ĠÉ¡É¾ÉĻn":4666,"ĠkÉĻntÉ¾ÉĻl":4667,"ĠtÊĥËĪÉĳËĲpÉĻ":4668,"ĠÊĥÉ¹":4669,"ĠËĮÉĶËĲ":4670,"ĠslËĪÃ¦p":4671,"ËĪÊĮtÊĥÉĻ":4672,"ĠÉ¹ËĪÃ¦pÉªn":4673,"ÅĭkÉĻl":4674,"ĠdÉ¹ËĪaÊĬnÉªÅĭ":4675,"ĠÉ¡ËĪÉªlti":4676,"wÉľËĲ":4677,"Ã¦hËĪÉĳËĲhÉĻ":4678,"ĠdËĪÉĳËĲm":4679,"ĠÉ¹ËĪÉĽÉ¹":4680,"hËĪÉĽl":4681,"ĠnËĪoÊĬt":4682,"ĠvËĪÉªdÉª":4683,"ĠbËĪÉľËĲnz":4684,"ĠtËĪeÉªp":4685,"ĠÉĲfËĪoËĲÉ¹":4686,"ÉĲv":4687,"tËĪeÉªn":4688,"ĠmjÉĻzÉĻk":4689,"ËĪÉªÉ¾ÉªÅĭ":4690,"ĠdÊĴËĮÉĽnÉļÉ¹ËĪeÉªÊĥÉĻn":4691,"ĠfËĪuËĲ":4692,"ĠwËĪÉĶËĲÉ¹nÉªÅĭ":4693,"ĠlËĪÉªÉ¹Éªks":4694,"Ġ(\"":4695,"ĠdÊĴÉĻmp":4696,"ËĪoÊĬnÉĻ":4697,"ĠtÉ¾ÉĻst":4698,"ĠspËĪÉĽndÉªÅĭ":4699,"ĠËĪÉĳËĲÉ¹mi":4700,"ĠwËĪÉªÉ¡":4701,"ĠdËĪaÊĬntaÊĬn":4702,"ĠsËĪuËĲÉªsËĮaÉªd":4703,"ĠmËĪÉĻkÉĻÅĭ":4704,"ĠmËĪÉªliÉĻnz":4705,"ĠstËĪÃ¦ks":4706,"ÉľËĲs":4707,"ĠklÉĻb":4708,"ĠpËĪÉĳËĲpt":4709,"ĠÉĲdËĪoËĲÉ¹":4710,"ÉªlËĮÃ¦":4711,"ĠwËĪÉªpÉªn":4712,"ĠplËĪÃ¦stÉªk":4713,"lÉĻb":4714,"É¾Éªv":4715,"ĠdÉ¹ËĪiËĲmd":4716,"bÉĶËĲl":4717,"ĠÉ¡É¾":4718,"ĠfËĪÃ¦kts":4719,"ĠmËĪÊĮnÎ¸s":4720,"ĠÉĶËĲlÃ°ËĪoÊĬ":4721,"hÉĳËĲhËĪÉĳËĲ":4722,"ĠhËĪoÊĬplÉĻs":4723,"ËĮÃ¦dÊĴ":4724,"ĠpËĪÊĮntÊĥ":4725,"ËĪÃ¦fÉªk":4726,"ĠdÉ¹ËĪÉªvÉªn":4727,"ĠdËĪÃ¦mÉªdÊĴ":4728,"ĠkËĪÊĮvÉļd":4729,"ĠsmËĪÉĳËĲÉ¹t":4730,"ĠÊĥÉĻtÉĻ":4731,"ĠtÉ¹ËĪÊĮbÉĻlz":4732,"ĠblËĪiËĲdÉªÅĭ":4733,"ĠÉĲfËĪoËĲÉ¹d":4734,"ĠpÉļÉ¹":4735,"ĠstÉĻz":4736,"ĠÉĻlÉĻvÉĻ":4737,"Ġdáµ»pËĪÉĽnd":4738,"ĠtÊĥËĪiËĲt":4739,"ĠskÉ¹ËĪiËĲn":4740,"ĠslËĪiËĲpÉªn":4741,"ĠfËĪÉªnÉªÊĥt":4742,"ĠkËĪoÊĬl":4743,"ĠpËĪaÉªn":4744,"ĠÉĽmbÉ¹":4745,"ĠÉ¹ËĪÊĮbÉļ":4746,"ĠdÉªsÉ¡ËĪaÉªz":4747,"ÉĳËĲp":4748,"ĠpËĪoËĲÉ¹ÉªÅĭ":4749,"ĠfËĪiËĲnd":4750,"ĠÊĥËĪoÊĬldÉļz":4751,"ĠbËĪÊĮÉ¾Éļfl":4752,"ĠbÉ¾ÉĻn":4753,"ĠspËĪÉªl":4754,"ĠkÉ¹ËĪoÊĬm":4755,"ĠhËĪÃ¦m":4756,"ĠskËĪiËĲm":4757,"ĠslËĪÃ¦m":4758,"ĠbÉªÉ¡ËĪÃ¦n":4759,"ĠÉ¹ËĪÉĽkÉļdz":4760,"ĠÉĲtl":4761,"ĠdËĪyz":4762,"ĠvËĪÉªl":4763,"ĠÊĥËĪaÉªnz":4764,"hÉĻlËĪoÊĬ":4765,"ĠmËĪÃ¦p":4766,"ĠtËĮiËĲËĮeÉªtÊĥsáµ»É¹ËĮÉªlÉªkjËĪÉĽËĲ":4767,"ĠmÃ¦":4768,"ĠÉĲÊĥ":4769,"ĠÉ¹ËĪeÉªnz":4770,"ĠlËĪeÉªbÉĻl":4771,"ËĪeÉªdz":4772,"ĠhÉĻts":4773,"ĠfËĪaÉªnÉĻl":4774,"ÉĳËĲÉ¹t":4775,"ĠsËĪÃ¦kÉ¹áµ»fËĮaÉª":4776,"ĠËĪÉĽv":4777,"ĠtÊĥËĪÃ¦nsáµ»z":4778,"ĠkËĮÃ¦":4779,"ĠdÊĴËĪÊĮmpt":4780,"ĠdËĪaÉªÉªn":4781,"ĠpÉ¾ÉĻtËĪi":4782,"ĠtËĪÉĳËĲÉ¹":4783,"ĠdÊĴÉĻl":4784,"ĠkwËĪÉĽ":4785,"ĠhËĪÉĳËĲÉ¹dli":4786,"ĠmËĪÊĮnÎ¸":4787,"bÉĳËĲks":4788,"ËĪaks":4789,"eÉªd":4790,"ĠdËĪÉªdÊĴ":4791,"ĠbÉ¹ËĪÉĳËĲ":4792,"ĠfËĪÉĶËĲÉ¹tÊĥ":4793,"ĠhËĪÉĳËĲÉ¹É¾":4794,"ËĪÉĻs":4795,"ĠvËĪeÉªÉ¡":4796,"ĠlËĪeÉªÉªÅĭ":4797,"ĠËĪÉĳËĲÉ¹É¡":4798,"ĠkËĪÉªÅĭdÉĻm":4799,"ĠÉªmpËĪÉĳËĲsáµ»bÉĻl":4800,"ĠpËĪÉªloÊĬ":4801,"boËĲÉ¹d":4802,"ĠbËĪÊĮÉ¡":4803,"ĠsËĪaÉªdz":4804,"ĠmËĪÉĳËĲdÉĻl":4805,"ĠwËĪeÉªkÉªÅĭ":4806,"ĠÉªmpËĪoËĲÉ¹t":4807,"ĠÉ¹áµ»fjËĪuËĲz":4808,"ĠtÃ¦":4809,"ĠÉ¹áµ»wËĪaÉªnd":4810,"fÉļt":4811,"ĠtÊĥËĪÃ¦sÉªn":4812,"ĠsËĪÉľËĲkÉĻl":4813,"ĠlËĪÉªÅĭk":4814,"ĠwËĪÉªnÉªÅĭ":4815,"É¹Éªn":4816,"ĠÉ¡ËĪÃ¦t":4817,"ĠËĪÉĽnt":4818,"ËĪÊĮnts":4819,"ĠhËĪÊĮÉ¡":4820,"ĠÊĥËĪuËĲÉ¾Éļz":4821,"ĠlËĪÊĮÅĭz":4822,"kÉĻn":4823,"ĠnËĪÊĮts":4824,"ĠdËĮÉªsÉ¹Éªs":4825,"ÉĽkts":4826,"Ġdáµ»sp":4827,"ĠstÉ¹ËĪeÉªndÊĴÉļz":4828,"ËĮÉĳËĲp":4829,"laÉª":4830,"ÉĻnËĮÉªn":4831,"ĠtÉ¹ËĪÉĽntÊĥ":4832,"ĠËĪÃ¦nsÉļz":4833,"ĠmËĪÉĽÉ¾ÉĻl":4834,"lÉĻk":4835,"ĠdÊĴËĪuËĲn":4836,"ĠsÉĻÉĻÅĭ":4837,"ËĪiËĲtÊĥ":4838,"ĠkÉĻlÉĻÅĭ":4839,"ĠstÉ¹ËĪÃ¦pt":4840,"ĠhËĪÃ¦mÉļ":4841,"ÉĻndÊĴ":4842,"ĠkÉ¹ËĪaÉªz":4843,"ĠnËĪaÉªntiËĲnhËĪÊĮndÉ¹ÉĻd":4844,"kËĪÉĳËĲ":4845,"ĠËĪÉªntÉļ":4846,"ĠflËĪaÉªÉªn":4847,"ĠdÊĴËĪuËĲÉĻlÉ¹i":4848,"ÉªnËĮÉĽÉ¹i":4849,"ĠÎ¸ÉĻ":4850,"ÉĽÉ¹i":4851,"ĠstÉ¹ËĪÉªÅĭz":4852,"ĠÉ¡ËĪiËĲk":4853,"ĠfËĪa":4854,"ĠpÉ¾ÉĻd":4855,"ĠsËĪeÉªvjÉļ":4856,"ĠmËĪÉĻki":4857,"ĠstËĪuËĲdÉªËĮoÊĬ":4858,"ĠdËĪÉĽzÉļt":4859,"ĠwËĪÉĽd":4860,"ĠdÊĴËĪÃ¦ks":4861,"ĠblÉĻk":4862,"ĠdÉ¹ËĪiËĲmÉªn":4863,"ĠkËĪÉĽÉ¹fÉĻl":4864,"bËĪÉªÉ¡":4865,"ĠfËĪÃ¦nsi":4866,"ĠdÊĴËĮiËĲ":4867,"ĠbËĪÉĳËĲbi":4868,"bËĪuËĲ":4869,"mËĪoÊĬ":4870,"ĠpËĪÃ¦nt":4871,"ĠÊĥËĪeÉªdi":4872,"ËĪeÉªbÉĻlz":4873,"ÉĻÉĻd":4874,"ĠÎ¸ËĪÊĮÉ¡z":4875,"ËĪÉĽksÉªk":4876,"ĠfËĪÃ¦ntÉĻm":4877,"ĠËĪÉªnÉĻsÉĻnt":4878,"ĠpËĪÊĮblÉªk":4879,"ĠËĪaÉªoÊĬ":4880,"ĠkËĪÉĶfi":4881,"ËĮÃ¦d":4882,"ĠhËĪÉĳËĲÉ¾Éļ":4883,"ĠmÉĻlÉĻn":4884,"ĠÉ¡ËĪÉĳËĲÉ¹":4885,"ĠÉ¹áµ»lËĪiËĲs":4886,"ĠmËĪÃ¦nÊĥÉĻn":4887,"jËĪuËĲn":4888,"ĠmËĪÊĮm":4889,"ĠdÊĴËĪÉªmi":4890,"ĠtÊĥÉĻp":4891,"ĠkËĪÊĮmfÉļt":4892,"Ġdáµ»É¡É¹":4893,"ÉªÉ¾iz":4894,"ĠÉ¡ÊĬdnËĪaÉªt":4895,"ÉĻÊĥ":4896,"eÉªdÊĴ":4897,"ĠstËĪeÉªÊĥÉĻn":4898,"ĠËĮÉĽmsËĪiËĲ":4899,"ĠdÉĻmÉĻndz":4900,"ĠhËĪÉªps":4901,"ËĪÉªfÎ¸":4902,"ĠÉ¡É¹ËĪÃ¦ndmÉĳËĲ":4903,"ĠmËĪeÉªl":4904,"ĠsËĪÊĮmÉļtËĮaÉªm":4905,"kËĪÉĶËĲl":4906,"É¹aÉªz":4907,"ËĪÉĳËĲbi":4908,"ĠaÊĬÉļz":4909,"ĠkËĪoÊĬdaÉªn":4910,"ĠpjËĪuËĲ":4911,"ĠsËĪiËĲÉªn":4912,"ĠËĪÉĳËĲÉ¡":4913,"ĠbÉĻhËĪÉĻnd":4914,"ĠaÊĬtÉ¹":4915,"ĠfÉªn":4916,"ËĪÉĳËĲmp":4917,"ĠvËĪÉªktÉªm":4918,"ĠËĪoÊĬpÉĻnd":4919,"báµ»l":4920,"tÊĥÉĻ":4921,"ĠtÊĥËĪiËĲk":4922,"ĠnÉĻs":4923,"ĠpËĪiËĲk":4924,"ĠtÊĥÉĻld":4925,"ĠpËĪÉľËĲpÉĻs":4926,"ĠnËĪÃ¦tÊĥÉļÉ¹ÉĻl":4927,"ĠstËĪÊĮmÉĻk":4928,"ĠkËĮÉĳËĲn":4929,"ĠËĪiËĲtÉªn":4930,"ĠÉ¡ËĪÃ¦Ã°Éļ":4931,"ĠbËĪiËĲm":4932,"ËĪÉĶËĲÉ¹t":4933,"ËĪÉªÉ¾áµ»d":4934,"ĠkÉ¹ËĪÉĽd":4935,"ĠbÉªÉ¡ËĪÉªnz":4936,"ĠkËĪÉªÅĭz":4937,"ĠËĪy":4938,"skÉªt":4939,"ĠÉ¡ÉĻld":4940,"ĠÊĥËĪaÉªnÉªn":4941,"fËĪÉĶËĲÉ¹m":4942,"ĠbËĪÉĻÉĻÅĭ":4943,"ĠËĮÊĮn":4944,"ĠsËĪÊĮnsÉĽt":4945,"ĠpËĪÃ¦É¹Éªs":4946,"ĠjËĪÊĮp":4947,"ÉĻntÉĻ":4948,"ËĪÉĳËĲÉ¹m":4949,"ĠÉ¹ËĪÉĽklÉĻs":4950,"ĠkËĪaÊĥ":4951,"É¡ÉĻn":4952,"ĠskÉĻl":4953,"ĠbÉ¹ËĪeÉªnz":4954,"ĠfÉĻlt":4955,"ĠmËĪÉĽdÉĻsÉĻn":4956,"Ġ(?)":4957,"sËĪiËĲz":4958,"ĠpÉ¹ËĪuËĲf":4959,"ĠfËĪiËĲldz":4960,"ĠlËĪÉĽmi":4961,"??":4962,"ĠËĪÃ¦ks":4963,"ĠhËĪÉªÉ¹ÉªÅĭ":4964,"ĠkËĪÉĳËĲnf":4965,"ĠdËĪaÊĬ":4966,"ĠdÊĴËĪoËĲÉ¹d":4967,"ĠvËĪÉªz":4968,"ĠkËĪÉªkt":4969,"ĠËĪÃ¦stÉļÉ¹ËĮÉªskÉĲstÉļÉ¹ËĮÉªskÉĲstÉļÉ¹ËĮÉªsk":4970,"Ġdáµ»É¹ËĪÉĽkÊĥÉĻn":4971,"ËĪÃ¦ntáµ»d":4972,"\")":4973,"ÉªkËĪeÉªÊĥÉĻn":4974,"ÉªÉļ":4975,"dÊĴËĮiËĲ":4976,"ĠwËĪÉªlÉªÅĭ":4977,"ĠstËĪÉĳËĲps":4978,"ĠfÉĻkÉĻd":4979,"ĠfËĪuËĲlÉªÊĥ":4980,"ĠbÉ¹ËĪaÉªÉ¾Éļ":4981,"ĠËĮÉĽntÉļ":4982,"ĠfËĪoÊĬkÉĻst":4983,"ĠtËĪÉĽks":4984,"ĠpÉ¾ÉĻÎ²":4985,"ĠdËĮÉªsÉ¹ÉªspËĪÉĽkt":4986,"bËĪoÊĬ":4987,"mËĪÊĮni":4988,"ĠdÊĴËĪÊĮÅĭk":4989,"ĠÉ¹ËĪiËĲÉĻlÉªst":4990,"ĠsËĪÉªmp":4991,"ÊĥËĮÉªp":4992,"nËĪÊĮ":4993,"ËĮÊĮbÉĻl":4994,"ÉĻtÊ°":4995,"ËĪÊĮkÊĥÉĻn":4996,"ĠlËĪuËĲp":4997,"ĠkËĪÉĳËĲs":4998,"ĠÉĲksËĪÉĽpt":4999,"ĠblËĪÊĮdi":5000,"ĠtÉ¹ËĪÃ¦pÉªn":5001,"ĠÉļÉ¹ËĪaÉªv":5002,"ĠtËĪiËĲz":5003,"ĠÊĥËĪÉĳËĲk":5004,"ĠsËĪiËĲmd":5005,"fÉĻst":5006,"ĠpËĪÉĳËĲl":5007,"ĠwËĪeÉªn":5008,"ĠskÉĻd":5009,"ĠÉĽksËĪÉĽpt":5010,"wËĪÉĻ":5011,"ĠtËĪÊĮm":5012,"ĠtËĪoÊĬni":5013,"ËĪas":5014,"ĠnËĪeÉªmd":5015,"zËĪiÉĻÉ¹oÊĬzËĪiÉĻÉ¹oÊĬ":5016,"ËĮÊĮbÉĻljËĮuËĲ":5017,"ĠnËĪÃ¦":5018,"ĠspÉĻnd":5019,"ĠkËĪÃ¦ndÉĻl":5020,"ĠlËĪÃ¦k":5021,"ĠËĪÃ¦fÉ¹":5022,"ĠËĪÉĽvÉ¹ÉªtËĮaÉªm":5023,"ËĮÉªliÉĻn":5024,"ĠkÉ¹ËĪuËĲÉĻl":5025,"ĠdÉ¹ËĪeÉªk":5026,"ÉªkÉĻ":5027,"ĠÉ¡É¹ËĪoÊĬz":5028,"ĠÉĽmbÉ¹ËĪeÉªs":5029,"ĠlËĪÉĳËĲÉ¹":5030,"ĠlËĪÉªÅĭ":5031,"ĠfËĪÉªz":5032,"ËĪÉĽndáµ»d":5033,"zËĪiËĲ":5034,"ĠwËĪiËĲp":5035,"ĠjËĪÉĳËĲÉ¹d":5036,"ĠËĪÃ¦v":5037,"dÉĻlz":5038,"É¡É¹ËĪaÊĬnd":5039,"ËĪoÊĬzÉªÅĭ":5040,"ĠÎ¸ÉĻnkÉĻÅĭ":5041,"ĠkËĪÉĳËĲnd":5042,"ĠÉ¡ËĪeÉªts":5043,"É¡ÊĮn":5044,"É¡ÉĲz":5045,"ĠstËĪÉĽps":5046,"ĠtÉ¹ËĪÉªks":5047,"ËĮeÉªd":5048,"ĠÉĲdÉ¹":5049,"ĠÉĲÊĥËĪeÉªmd":5050,"ĠfËĪÉľËĲÃ°Éļ":5051,"pËĮiËĲ":5052,"ÉªËĮeÉªt":5053,"ĠhËĪÉĳËĲloÊĬ":5054,"ĠflËĪaÊĬÉļ":5055,"ĠslËĪÃ¦Åĭ":5056,"ĠkËĪiËĲpÉªn":5057,"ĠhÉĻlÉĻ":5058,"ĠbËĪÊĮÊĶn":5059,"hËĪÉĻndÉ¾ÉĻd":5060,"ĠdÉĻst":5061,"ĠkËĪÉĳËĲmptÉĻn":5062,"ËĪÉĳËĲns":5063,"ĠhËĪÉĳËĲÉ¹dÉªst":5064,"bÉ¹ËĪeÉªk":5065,"ĠpËĪÃ¦t":5066,"ÉĳËĲw":5067,"ĠkËĪÉĳËĲlÉªdÊĴ":5068,"uËĲt":5069,"ĠÉ¾ÉĻnÉĻn":5070,"ĠdËĪÉªÅĭ":5071,"jËĪÉĽËĲÉĲ":5072,"ĠvËĪeÉªÉ¡ÉĻs":5073,"pËĪÉĳËĲ":5074,"ÉĻtËĮÉªv":5075,"ĠhËĪoÊĬlz":5076,"ĠÊĥËĪoÊĬÉªÅĭ":5077,"ĠpËĪÉªmpÉªn":5078,"ĠmËĪÉĽksÉªk":5079,"ÉĻdËĪuËĲs":5080,"ĠkËĪÉĳËĲmÉĻn":5081,"kÉĻm":5082,"ĠËĪÉĳËĲps":5083,"ĠflËĪÉªk":5084,"ĠsËĪÉĽlfÉªÊĥ":5085,"ĠnËĪeÉªbÉļhËĮÊĬd":5086,"ËĪoÊĬp":5087,"ĠsËĪÉªnz":5088,"ĠbËĪÉĽÉ¹id":5089,"ËĪÃ¦ÅĭÉ¡w":5090,"bÃ¦k":5091,"ĠmjËĪuËĲ":5092,"ĠtÉ¹ËĪeÉªs":5093,"ĠslËĪaÉªm":5094,"ĠswËĪÉªmÉªÅĭ":5095,"ĠÉªmpËĪoËĲÉ¹tÉĻnt":5096,"ĠwËĪaÉªÉļ":5097,"ĠdËĪeÉªv":5098,"ĠÉ¹ËĪaÉªdÉļ":5099,"ĠfÉ¹ËĪoÊĬzÉĻn":5100,"ÉªtÊĥ":5101,"ĠlËĪÉĶËĲÉ¹":5102,"ĠfÉ¾ÉĻnt":5103,"áµ»tËĮÉªv":5104,"ĠpËĪÉĽd":5105,"ĠpÉ¹ËĪÉĳËĲpÉļ":5106,"ĠdËĮÉĻ":5107,"ĠlËĪÊĮst":5108,"ĠflËĪoÊĬz":5109,"ĠwËĪÊĮtÊĥÉĻ":5110,"ĠkËĪaÊĬtÊĥ":5111,"ĠpËĪÃ¦kt":5112,"ĠbËĪÉªÉ¡Éªst":5113,"ĠflËĪÉĽksÉªn":5114,"ËĪÃ¦ÅĭÉ¡wÉªdÊĴ":5115,"ĠËĪÊĮÅĭkÉĻl":5116,"ĠhËĪapi":5117,"ĠËĪeÉªbÉĻl":5118,"ĠvËĪÃ¦li":5119,"kÉ¹oÊĬ":5120,"ËĪÃ¦É¾Éļd":5121,"ĠwËĪÉĶ":5122,"ĠfÉ¹ËĪeÉªm":5123,"ĠblËĪÃ¦Åĭk":5124,"ĠÉ¾ÉĻzÉĻn":5125,"ĠvËĪaÉªÉĻlÉĻns":5126,"ĠÉ¹ËĪÉĽskjuËĲ":5127,"ĠpËĪaÊĬ":5128,"ĠwËĪÉľËĲkt":5129,"ĠmËĪÃ¦dnÉĻs":5130,"ĠtwËĪÉĽntifËĪoËĲÉ¹":5131,"ËĪÉĻnÉĻ":5132,"É¹ÉĻz":5133,"ĠwËĪiËĲzi":5134,"ĠpÉĻzËĪÉªÊĥÉĻn":5135,"Ġáµ»lËĪÉĽktÉ¹Éªk":5136,"ĠkÉĻdz":5137,"ĠlËĪÉĳËĲsÉªn":5138,"ĠlÉĻvÉĻz":5139,"ĠâĢĶ":5140,"ĠmËĪeÉªdÊĴÉļ":5141,"ĠtÉ¹ËĪÃ¦fÉªk":5142,"ĠsËĪoÊĬldÊĴÉļz":5143,"bËĪÃ¦d":5144,"iËĲm":5145,"ĠbËĪÃ¦ks":5146,"ĠsËĪÊĮnÉ¹aÉªz":5147,"ĠbÉªkËĪeÉªm":5148,"hÉĻd":5149,"ĠsËĪÊĮ":5150,"ĠÉ¡ËĪÃ¦m":5151,"ËĪÉĳËĲni":5152,"ĠwËĪÉªÊĥÉªn":5153,"ĠzËĪuËĲ":5154,"ĠdÊĴËĪÉĽntÉĻlmÉĻn":5155,"ĠbËĪÊĮstÉªn":5156,"ĠsËĪÉľËĲkÉĻlz":5157,"É¹áµ»k":5158,"ĠdËĪÉĳËĲt":5159,"ĠmËĮÃ¦É¡ÉĲz":5160,"ĠfËĪÉĶl":5161,"ĠtËĪiËĲn":5162,"ĠËĪaÉªÉļn":5163,"ĠlËĪÃ¦ÅĭÉ¡wÉªdÊĴ":5164,"ĠÉ¹ËĪÊĮm":5165,"É¡ËĪÊĬd":5166,"ĠÊĥËĪaÊĬ":5167,"ĠhËĪoÊĬps":5168,"ĠsnËĪÃ¦tÊĥ":5169,"ĠdËĪÉĳËĲÉ¹kÉªst":5170,"stÉ¹ÉĻm":5171,"ĠsÉĻksËĪÉĽs":5172,"dËĪeÉª":5173,"tËĮiËĲ":5174,"ËĪÉĽnÊĥÉĻl":5175,"Ġáµ»É¹ËĪeÉªs":5176,"ĠklËĪÉĳËĲzÉªt":5177,"ĠmËĪÉªstÉļÉ¹i":5178,"ÉĽnt":5179,"ËĪÉªdi":5180,"ĠkwÉĻt":5181,"ÊĮst":5182,"ĠÉ¹ËĪiËĲtÊĥÉªÅĭ":5183,"ËĪÉĳËĲlvd":5184,"ĠsËĪÉĳËĲlÉªd":5185,"ĠËĮÉĽntÉļtËĪeÉªn":5186,"ĠlÉĻm":5187,"ĠsËĪÉªmpli":5188,"ĠsËĮuËĲ":5189,"tËĪÉĶËĲk":5190,"ĠtÊĥËĪÉĽks":5191,"ĠnËĪÊĮt":5192,"ĠstËĪÃ¦ndz":5193,"ĠËĪÉĽlÉªv":5194,"ĠËĮÊĮndÉļÉ¡É¹ËĪaÊĬnd":5195,"ĠpÉ¹ËĪÉĽzÉªdÉĻnt":5196,"ÉĳËĲs":5197,"ĠhËĪÉĳËĲÉ¹m":5198,"ËĪÉĽvÉ¹i":5199,"ĠpÉ¹ËĪoÊĬli":5200,"ĠlËĪÉĽv":5201,"ĠtwËĪÉĻna":5202,"ĠÉ¹ËĪÃ¦m":5203,"Éªkli":5204,"ÉĳËĲnt":5205,"ĠsËĪuËĲpÉļst":5206,"ĠwÉĻdÉĻn":5207,"ËĮÉªt":5208,"ĠÉ¹áµ»lËĪÉªdÊĴÉĻn":5209,"ĠÉĻÉĻÉĻÉĻÉĻÉĻÉĻÉĻÉĻÉĻÉĻÉĻÉĻÉĻÉĻÉĻÉĻÉĻ":5210,"nËĪÉĳËĲt":5211,"ĠÉ¾ÉĻÎ²":5212,"ĠtËĪÉĽláµ»f":5213,"ĠkËĪÉĳËĲli":5214,"ĠtÊĥËĪÃ¦mpiÉĻn":5215,"ĠÉ¹ËĮÉĽvÉĻlËĪuËĲÊĥÉĻn":5216,"an":5217,"ĠpËĪÉĽ":5218,"ĠkÉ¹ËĪÊĬk":5219,"ĠkËĪÉªkÉªn":5220,"ĠsËĪÊĮkÉļ":5221,"ĠjËĪuËĲnÉªv":5222,"nËĪÉªÉ¡ÉĻ":5223,"ĠËĪÃ¦p":5224,"ĠbËĪÉĶËĲlz":5225,"ĠËĪÉĳËĲÉ¹É¡juËĲ":5226,"uËĲËĮuËĲ":5227,"ĠsËĪÉĽm":5228,"ĠdÊĴËĪÉªm":5229,"ĠwÉĻtÉĻ":5230,"ĠwËĪÉĽpÉĻn":5231,"ĠËĪÃ¦Êĥáµ»z":5232,"ĠbËĪÃ¦b":5233,"ĠbËĪuËĲÎ¸":5234,"ĠmËĪÉĳËĲn":5235,"ĠtÉĻw":5236,"ĠsËĪaÉªnd":5237,"ÉļÉ¹ÉĻ":5238,"ĠËĪÉĽÉ¡z":5239,"ËĪiËĲÉ¾ÉĻ":5240,"ĠtËĪÃ¦É¡":5241,"ĠpËĪÉªÉ¡":5242,"ĠmËĪÉĽst":5243,"ĠtÉ¹ËĪÉªpÉĻl":5244,"ĠÉĲtlËĪÃ¦ntÉĻ":5245,"dËĮiËĲ":5246,"ĠdÉĻsÉĻn":5247,"ĠhËĮuËĲz":5248,"ĠsÉĻmËĪo":5249,"ËĪÉĳËĲÊĶn":5250,"ĠblËĪoÊĬn":5251,"ĠpÉ¾ÉĻs":5252,"jÉĳËĲÉ¹d":5253,"sËĪÉªksti":5254,"ĠfËĪÉĶËĲÉ¹tÊĥÊĬ":5255,"ĠËĪaÉªsi":5256,"ĠstÉ¹ËĪiËĲm":5257,"ĠbËĪÉĳËĲb":5258,"ĠkËĪÉĳËĲnst":5259,"ĠkjËĪuËĲt":5260,"ĠmËĪoÊĬmÉĻnts":5261,"ĠkËĪÊĮzÉĻn":5262,"ĠËĮeÉªmËĪÉĽn":5263,"ËĪÉĽÉ¾ÉªÅĭ":5264,"ÉªtËĪeÉªÊĥÉĻn":5265,"ĠÉ¹ËĪÉĳËĲkÉªt":5266,"ĠsËĪÉĽntÉļ":5267,"ĠËĮÉªnsáµ»kjËĪÊĬÉ¹":5268,"ĠjËĪuËĲnÉªvËĮÉľËĲs":5269,"ĠÉĻÉĻËĪÉĻÉĻÉĻ":5270,"ĠÊĥËĪÉªft":5271,"ĠstËĪÉĽÉ¹z":5272,"ĠaÉªdËĪiÉĻ":5273,"pËĪÉĳËĲp":5274,"ĠwÉĻsÉĻn":5275,"Ġso":5276,"É¹ÉĻnËĮÉĶ":5277,"ĠnËĪÉĳËĲkt":5278,"ĠlËĪeÉªzi":5279,"pÉ¹ÉĻt":5280,"ĠÉ¹ËĪuËĲÉªn":5281,"ĠdËĪuËĲdz":5282,"ËĪÃ¦tÉªnÉĻm":5283,"ĠbËĪoÊĬld":5284,"ĠkËĪÉĶËĲÉ¹":5285,"ĠpÉĻkt":5286,"ĠtÊĥËĪÉªÉ¹":5287,"ĠÉ¹ËĪÉªÅĭÉªÅĭ":5288,"ĠsËĪÉªÅĭkÉªÅĭ":5289,"kÉĻmÉĻ":5290,"É¹ËĪÉĳËĲ":5291,"ËĪoÊĬnli":5292,"ĠËĪÉĽndÊĴ":5293,"ĠpËĪÉªÉ¾i":5294,"ĠwËĪÉªnÉļ":5295,"ĠkËĪÉĳËĲns":5296,"ĠlËĪÉªÉ¹":5297,"ĠpËĪoÊĬk":5298,"ĠskËĪÉĽÉ¹i":5299,"ĠbËĪÃ¦dÉªst":5300,"Ġbáµ»lËĪiËĲvÉªÅĭ":5301,"uËĲÉĻl":5302,"Ã¦kt":5303,"ĠdÉ¾ÉĻvÉĻ":5304,"ĠÉ¹áµ»plËĪeÉªs":5305,"ËĪiËĲËĪÉĳËĲÉ¹":5306,"ĠpËĪaÉªl":5307,"ĠfËĪoËĲÉ¹tiËĲn":5308,"tÉ¹ËĪuËĲ":5309,"Ġáµ»v":5310,"ĠhËĪeÉªloÊĬ":5311,"ĠpÉĻfÉĻkt":5312,"ĠdÉ¹ËĪÉĽd":5313,"ÉĻvÉĻÅĭ":5314,"ĠslËĪÉªk":5315,"ĠhËĪÉľËĲÉ¹áµ»k":5316,"ĠbËĪÊĬÉ¡i":5317,"ĠlÉĻs":5318,"ĠtÊĥËĪÉĽÉ¹i":5319,"ĠÉ¹ËĪoÊĬdz":5320,"ĠkËĪaÊĬnti":5321,"ËĪÉĽndÉªÅĭ":5322,"?),":5323,"ĠfÉ¹ËĪaÉª":5324,"ĠstËĪÊĮ":5325,"É¾ÉĻmËĪÃ¦É¾Éªk":5326,"ĠstÉ¾ÉĻts":5327,"ËĪÉĽÉ¾Éªk":5328,"ËĮÉĽt":5329,"ĠÉĲtÉ¹":5330,"ÉĻmÉĻmÉĻ":5331,"ĠfËĪÉªfÎ¸":5332,"ĠÊĥËĪÉĳËĲ":5333,"ĠstËĪeÉªk":5334,"ĠstËĪiËĲv":5335,"ĠlËĪaÉªkt":5336,"ĠtÃ¦tËĪuËĲ":5337,"ĠÉ¡É¾ÉĻt":5338,"ĠfËĪÉĽns":5339,"ĠhËĪiÉĻÉ¹oÊĬz":5340,"ĠkËĪÉĽm":5341,"ĠÊĥËĪaÊĬÉļ":5342,"ĠstËĪÃ¦Êĥ":5343,"ĠbËĪÉĳËĲmz":5344,"ĠkËĪÃ¦d":5345,"ĠËĪÃ¦b":5346,"ËĮÃ¦dÊĴáµ»nËĪeÉªÊĥÉĻn":5347,"jËĪiËĲ":5348,"ma":5349,"ĠlËĪÊĮ":5350,"ĠnËĪoËĲÉ¹":5351,"juËĲt":5352,"ĠÉ¹ËĪÃ¦pÉªÅĭ":5353,"ĠËĪÉĳËĲnÉªstli":5354,"ËĪuËĲËĪuËĲËĪuËĲËĪuËĲhËĪÃ¦Êĥj":5355,"ĠvËĪÉªdÉªoÊĬ":5356,"ĠbjÉĻt":5357,"ËĪÉĽvÉ¹ÉªbËĮÉĳËĲdi":5358,"ĠpËĪÉĶËĲÉ¹tÊĥ":5359,"ĠdÉ¹ËĪÉĳËĲpÉªn":5360,"dËĪÊĮbÉĻljËĮuËĲ":5361,"wËĪeÉªt":5362,"ĠÉ¹ËĪoÊĬlÉļ":5363,"ĠwËĪiËĲks":5364,"ĠËĮÉªntÉ¹":5365,"ÉĻnÉĻd":5366,"ĠstËĪeÉªn":5367,"ĠdÊĴËĪÉªÅĭÉ¡ÉĻl":5368,"ĠplËĪan":5369,"ĠplËĪÃ¦tÉªnÉĻm":5370,"ĠhËĪoÊĬldz":5371,"ĠÃ°ËĪaÊĬ":5372,"ĠhËĪÉĳËĲÉ¹É¾eÉªk":5373,"and":5374,"bÉĽÉ¹i":5375,"jËĪÉĳËĲ":5376,"ĠÉ¹ËĪÃ¦k":5377,"áµ»É¡":5378,"ĠtËĪÊĮtÊĥÉªÅĭ":5379,"ĠbÉ¹ËĪÊĬk":5380,"ĠËĪiËĲÉ¡oÊĬ":5381,"ĠÉªmËĮÃ¦dÊĴáµ»nËĪeÉªÊĥÉĻn":5382,"vËĪÉľËĲs":5383,"Ã¦ÉĻ":5384,"ĠpËĪÉªt":5385,"ĠdËĪeÉªlaÉªt":5386,"ĠstËĪÉĳËĲpÉªÅĭ":5387,"ĠtwËĪÉĽntiwËĪÊĮn":5388,"áµ»kËĮeÉªt":5389,"ĠbËĪuËĲl":5390,"fÉ¹ËĪiËĲ":5391,"ĠdÊĴËĪuËĲÉĻlz":5392,"ĠkËĪÉªkÉªÅĭ":5393,"ËĪÉĳËĲÉ¹É¹ËĪÉĳËĲ":5394,"Î¸ËĪÉľËĲÉ¾i":5395,"fËĪoËĲÉ¹É¾i":5396,"Ġdáµ»pÉ¹":5397,"ĠfÉļÉ¡ËĪÉĳËĲÊĶn":5398,"ĠÊĥËĪÊĬÉ¹li":5399,"ĠpËĪÃ¦É¹ÉĻnËĮÉĶ":5400,"ĠkËĪÃ¦ptÉªn":5401,"ĠkÉĻmpËĪÉĽÉ¹":5402,"ĠbjÉĻtÉĻfÉĻl":5403,"wÉĶËĲ":5404,"ËĪÃ¦ni":5405,"ĠËĪÊĮn":5406,"ĠÎ¸ÉĻz":5407,"bËĪeÉª":5408,"ĠtÊĥÉĻs":5409,"ĠÎ¸É¹ËĪiËĲhËĪÊĮndÉ¹ÉĻd":5410,"É¾ËĪÉĻdi":5411,"ĠpËĪaÊĬndz":5412,"ĠpËĪÉĳËĲn":5413,"ĠsËĪiËĲts":5414,"ĠblËĪÊĮnts":5415,"É¾ÉĻlz":5416,"É¾oÊĬz":5417,"Ġbáµ»lËĪiËĲvd":5418,"ĠnÉĻts":5419,"ĠÉĻlÉ¾ËĪÉĻdi":5420,"ËĪÉĽnsÉªv":5421,"ĠÉ¡ËĪeÉªt":5422,"ĠËĮÉªntÉļ":5423,"Åĭz":5424,"ÉĻsk":5425,"ĠpÉ¹ÉªtËĪÉĽndÉªÅĭ":5426,"hÉĲ":5427,"ĠdËĪaÉªz":5428,"ĠhËĪÉĳËĲlÉļ":5429,"ĠpÉ¹ËĪÃ¦kt":5430,"ĠmÉļÉ¹":5431,"ĠtËĪÃ¦t":5432,"ĠpËĪeÉªv":5433,"ÉĽst":5434,"ĠhËĪeÉªÉ¾Éļ":5435,"ĠÉ¹ËĪoÊĬp":5436,"ĠfËĪeÉªÎ¸fÉĻl":5437,"ĠhËĪÊĮslÉªn":5438,"ĠstËĪÊĮntÉªn":5439,"ĠÉ¹áµ»zËĪÉªst":5440,"ĠËĪÃ¦ÅĭÉ¡É¹i":5441,"ËĪÉªvÉļz":5442,"ĠpËĪÉĽÉ¹ÉĻnts":5443,"ËĪÉĽnÊĥÉĻnz":5444,"ĠflËĪaÉªz":5445,"ĠstÉ¹ËĪÉªÅĭ":5446,"ĠtËĪÉĶËĲkt":5447,"ĠÊĮnnËĪoÊĬn":5448,"ĠtËĪÃ¦l":5449,"ĠdËĪÉªskoÊĬ":5450,"ÊĥÉļ":5451,"ĠslËĪÉªpÉªÅĭ":5452,"ĠnËĪeÉªbÉļz":5453,"ĠÉĲpËĪÉĳËĲlÉĻdÊĴËĮaÉªz":5454,"hËĪÊĬk":5455,"ĠhÉªm":5456,"ĠhËĪaÉªp":5457,"ĠËĮÉĽsËĪeÉªtÊĥ":5458,"ĠstËĪoÊĬ":5459,"ĠÉĲÉ¡É¹ËĪiËĲ":5460,"nÉļÉ¹":5461,"ÉĻÉĻs":5462,"ĠlËĪeÉªs":5463,"ĠsËĪeÉªn":5464,"ĠsËĪÊĮnlaÉªt":5465,"ĠÊĥÉĻts":5466,"ĠÉ¹ËĪÉªtÊĥáµ»z":5467,"stÉ¹ËĪeÉªt":5468,"ĠËĪeÉªtiËĲn":5469,"ĠpËĪÉĶËĲl":5470,"ĠÎ¸ËĪÊĮm":5471,"blÉªn":5472,"ĠÉ¹ËĪeÉªÎ¸":5473,"ĠdÊĴËĪÃ¦ksÉĻn":5474,"ËĪaÉªpËĪiËĲ":5475,"ĠnËĪoÊĬÉªn":5476,"ËĪÉªdÉªn":5477,"ĠfËĪaÉªndÉªÅĭ":5478,"ĠdÊĴËĪÉĶÉªnt":5479,"ĠhËĪÃ¦bÉªt":5480,"ĠwËĪÉĽdÉªÅĭ":5481,"ĠhÉªmsËĪÉĽlf":5482,"ĠlËĮÉĳËĲs":5483,"ĠpÉ¹ËĪÉĽÉ¹z":5484,"ĠdÉĻns":5485,"ĠstËĪÉĳËĲÉ¹v":5486,"nËĪuËĲ":5487,"ĠkËĪeÉªn":5488,"ĠÎ¸ËĪank":5489,"Î²ËĪÉĻ":5490,"zi":5491,"ĠwËĪÉªÉ¹d":5492,"ÊĥËĪoÊĬ":5493,"ËĪaÉªnÉĻ":5494,"ĠmËĪÃ¦s":5495,"jËĪÊĮ":5496,"ĠÉ¡ÉļÉ¹":5497,"ĠkÉ¹ËĪÉªm":5498,"ĠslËĪÉªm":5499,"ĠfËĪÉĶËĲt":5500,"ĠblÉĻnd":5501,"ĠpËĪÉĳËĲÉ¹tnÉļ":5502,"ĠdËĪeÉªli":5503,"viÉĻs":5504,"ĠblËĪÉªÅĭ":5505,"ĠklËĪuËĲ":5506,"ĠÉĻmÉĻ":5507,"Ġbáµ»hËĪeÉªv":5508,"ĠÉĲkËĪaÊĬnt":5509,"ÉĳËĲps":5510,"ĠvËĪaÉªbz":5511,"ĠpÉ¹ËĪÉĳËĲdÊĴÉĽkts":5512,"stÉªk":5513,"skËĮeÉªËĮÉĳËĲÉ¹É¹ËĪÉĳËĲÉ¹":5514,"báµ»":5515,"tËĪÉĽn":5516,"stÉĻk":5517,"ĠÊĥËĪÃ¦kÉªn":5518,"ĠpËĪoÊĬz":5519,"ĠhËĪÊĮs":5520,"ĠlËĪiËĲdz":5521,"ĠklËĪaÊĬs":5522,"ĠhËĪÉªÉ¾ÉªÅĭ":5523,"ĠfËĪÉĶËĲÉ¹tÊĥÊĬn":5524,"ĠbËĪÉĳËĲÉ¹k":5525,"ĠÊĥËĪÊĮv":5526,"ftÉĻbÉĻl":5527,"ĠÊĮnt":5528,"ĠÉ¡ÉĻts":5529,"ËĪÉªnjuËĲ":5530,"ËĮeÉªz":5531,"ËĪÉľËĲtiËĲn":5532,"ĠmËĪÉĳËĲÉ¹tÊĥ":5533,"ĠnËĪiËĲÉĳËĲn":5534,"É¡É¹ËĮÃ¦f":5535,"ĠjËĪuËĲÊĴuËĲÉĻli":5536,"ĠtËĪÃ¦n":5537,"ĠnËĪÉĶËĲÉ¾i":5538,"ĠskËĪÉªp":5539,"ËĪÉľËĲni":5540,"ËĪÉĳËĲÊĴ":5541,"ĠËĪiËĲkw":5542,"ĠslËĪÉªpÉªn":5543,"ÉªlËĪÉĽvÉĻn":5544,"ĠÉ¹ËĪaÉªÉĻt":5545,"ĠsËĪoÊĬdÉĻ":5546,"ĠËĪÉĳËĲÉ¹É¾Éªst":5547,"ĠzËĪÉªp":5548,"É¹ËĪiËĲÉĻl":5549,"ĠtËĪÉĽláµ»fËĮoÊĬn":5550,"mËĪuËĲv":5551,"ĠdËĪÉĽl":5552,"ĠlËĪoÊĬnsÊĮm":5553,"ĠÉĲmËĪÊĮÅĭ":5554,"ĠpËĪeÉªÊĥÉĻnt":5555,"ĠÊĥÉĻz":5556,"ĠdËĪiËĲlÉļ":5557,"ĠsËĪuËĲpÉļstËĮÉĳËĲÉ¹":5558,"tËĪÉĳËĲ":5559,"ĠËĪiËĲziÉļ":5560,"ĠkÉ¹ËĪÃ¦ÊĥÉªÅĭ":5561,"ĠdËĪÉªstÉĻnt":5562,"ËĪaÉªÉĻÉ¾i":5563,"ĠkÉ¹ËĪÉĽdÉªt":5564,"ĠsÉĻÉĻn":5565,"ĠtÊĥËĪÉĳËĲÉ¹m":5566,"ËĮÉªliÉĻnËĪÉĽÉ¹":5567,"ĠlÉĻdÉĻ":5568,"ĠÉ¹áµ»mËĪÉªks":5569,"ĠhËĪÉľËĲÉ¹áµ»kËĮeÉªn":5570,"ĠÊĮp":5571,"ĠswËĪÉªÊĥ":5572,"ĠlËĪÉĽÉ¾Éļz":5573,"ĠplËĪÉĳËĲt":5574,"ĠkwËĪiËĲnz":5575,"ĠÊĥËĪoÊĬÉªn":5576,"ĠpËĪÃ¦nÉªk":5577,"ĠÊĥËĪÊĬk":5578,"ĠskwËĪÉĽÉ¹":5579,"ĠkÉĻnfËĪÉĽs":5580,"ĠsËĪÃ¦kÉ¹áµ»fËĮaÉªs":5581,"ĠhËĪÊĮÊĥ":5582,"ĠkËĪoÊĬldÉļ":5583,"ĠsmËĪaÉªlz":5584,"ËĪad":5585,"ĠÉ¹ËĪÉĶÉª":5586,"ËĪÉľËĲdÊĴ":5587,"ËĪÉĽkÊĥÉĻnz":5588,"fti":5589,"ĠdËĪÃ¦nsÉļ":5590,"ĠkÉĻps":5591,"bËĪÃ¦Åĭ":5592,"Î²ÉĻÎ²lÉĻ":5593,"ĠÉ¡wËĪÉĳËĲp":5594,"ĠsËĪÊĮfÉļ":5595,"ĠsËĪiËĲd":5596,"uËĲËĪÉĽvÉļ":5597,"ĠlËĪaÉªÉĻn":5598,"ËĪuËĲÊĴÉĻn":5599,"ĠfÉĻlÉĻ":5600,"ĠkËĪÉĳËĲÉ¹mÉĻ":5601,"ĠpÉ¾ÉĻÎ²ÉĻÎ²lÉĻ":5602,"ĠsËĪad":5603,"fÉĻn":5604,"ĠËĪÉĶËĲt":5605,"ÉĻÉĻËĮÉĻ":5606,"Ã¦nt":5607,"ĠpÉ¹ËĪeÉªÉªn":5608,"ĠbÉ¾ÉĻd":5609,"ĠveÉªk":5610,"ĠsmËĪÃ¦k":5611,"ĠlËĪeÉªÉªn":5612,"ĠÉ¹ËĪÉĳËĲkstÉĳËĲÉ¹":5613,"ĠwËĪÉĶndÉļ":5614,"ĠkËĪÉľËĲv":5615,"ĠsËĪeÉªvÉªÅĭ":5616,"ĠÎ¸ËĪÉĳËĲt":5617,"ĠÉ¹áµ»dÊĴ":5618,"ËĪÉĽÊĥÉĻli":5619,"ĠbËĪÉĶËĲlÉªÅĭ":5620,"ĠspËĪÉªnÉªn":5621,"ĠstÉĻtÉĻd":5622,"ĠtÉ¹Ã¦ns":5623,"ËĪÉªki":5624,"ĠspÉĻn":5625,"ĠspÉĻs":5626,"ÉĻstÉĻ":5627,"ËĪÉĳËĲlÉļ":5628,"ĠskÉ¹ËĪuËĲ":5629,"ĠfËĪÉªÉ¡Éļd":5630,"báµ»lËĪiËĲv":5631,"ĠdÊĴËĪeÉªmz":5632,"ËĪiËĲÉ¾áµ»d":5633,"ËĪeÉªdiËĲz":5634,"ĠÊĥËĪÃ¦k":5635,"ĠmËĪuËĲvÉªz":5636,"ĠkÉĻntËĪÉªnjuËĲ":5637,"ËĪÉªÉ¾Éªz":5638,"ĠkËĪÊĮts":5639,"ĠsËĪÊĮnz":5640,"ĠËĪÉĽkstÉĻsi":5641,"ĠmËĪÃ¦ks":5642,"ĠsËĪÉªÉ¡":5643,"ËĮÉĽd":5644,"ĠpÉ¹ÉĻv":5645,"ĠkÉĻlËĪaÉªd":5646,"ĠsËĪaÉªkoÊĬ":5647,"ĠaÊĬÉ¾ÉĻÉĻÉĻ":5648,"ĠpÉ¹ËĪÉĳËĲd":5649,"ĠbËĪaÉªbÉĻl":5650,"nÉĻsi":5651,"ĠpËĪÉªkÉªÅĭ":5652,"ĠfÉĻnËĪa":5653,"ĠbËĪÉĽlt":5654,"Ġdáµ»stÉ¹ËĪÉĶÉª":5655,"zÉĻl":5656,"ĠwËĪÉľËĲks":5657,"ĠmËĪÉªsÉªz":5658,"ĠtËĪÉĽksÉĻs":5659,"ĠkËĪÃ¦dÉªlËĮÃ¦":5660,"ĠtÉ¹ËĪÉĽÊĴÉļ":5661,"ĠÉĻÉĻÉĻÉĻÉĻÉĻÉĻÉĻÉĻÉĻÉĻÉĻÉĻÉĻ":5662,"ĠÊĥËĪÉĳËĲpÉªÅĭ":5663,"ĠbËĪÃ¦t":5664,"ĠwËĪÊĬdz":5665,"ËĪÉĳËĲÉ¹dÉĻn":5666,"ĠjËĪÊĮÅĭÉ¡Éªn":5667,"ĠbÉ¹ËĪÉªÅĭÉ¡Éªn":5668,"ĠpËĪeÉªntáµ»d":5669,"ĠtËĪÉĶs":5670,"ĠpÉ¾ÉĻz":5671,"stËĪÃ¦nd":5672,"ĠtËĪiËĲtÊĥÉļ":5673,"ĠwËĪÉªsp":5674,"ĠÎ¸ËĪÊĮÉ¡Éªn":5675,"ĠtËĪÃ¦ks":5676,"ĠhuËĲËĪÉĽvÉļ":5677,"ĠstËĪeÉªz":5678,"ËĪÉĽkfÉĻst":5679,"Ġdáµ»vËĪaÉªn":5680,"ĠlËĪaÉªfstaÉªl":5681,"ĠpÉĻpÉĻ":5682,"ĠdÉ¹ËĪÉĳËĲpÉªÅĭ":5683,"Ġdáµ»sËĪÉĽmbÉļ":5684,"vËĪeÉªÊĥÉĻn":5685,"ĠfÉ¾ÉĻk":5686,"ĠdÊĴËĪoÊĬnz":5687,"ĠËĪÉĶËĲlsoÊĬ":5688,"ydÊĴ":5689,"ĠÉĲv":5690,"ĠÉĲsËĪaÉªd":5691,"ËĪÉªpsi":5692,"klËĪÉĳËĲk":5693,"ËĪÉĳËĲÉ¡oÊĬ":5694,"ĠwÉĻÎ¸":5695,"skÉ¹":5696,"ĠÉ¹áµ»lËĪeÉªÊĥÉĻn":5697,"kÉĻh":5698,"ĠhËĪÉĽni":5699,"jÉĻl":5700,"ĠsËĪuËĲz":5701,"ËĮÉĽst":5702,"ĠbÉ¹ËĪÉĽkfÉĻst":5703,"ÊĥÉĻnÉĻl":5704,"ĠwÉĻtËĪÉĻvo":5705,"ĠlËĪÉªftáµ»d":5706,"ĠbÉ¹ËĪÊĬklÉªn":5707,"leÉª":5708,"ĠÉĻlÉĻÅĭ":5709,"ĠbËĪÉĽli":5710,"ĠÉ¹ËĪiËĲÉĻlaÉªzd":5711,"vÉªl":5712,"ËĪaÉªts":5713,"ĠsuËĲ":5714,"Ġsáµ»kjËĪÊĬÉ¹":5715,"ĠfËĪeÉªz":5716,"ËĪÉĽvÉĻnz":5717,"ĠplÉĻÉĻÅĭ":5718,"ËĪeÉªnt":5719,"ĠtÉ¾ËĪap":5720,"lËĪÃ¦st":5721,"ĠlËĪÉľËĲnÉªÅĭ":5722,"ĠlËĪÉĽd":5723,"ĠbËĪiËĲp":5724,"ĠÉ¡É¹ËĪÃ¦v":5725,"ĠsËĪÉªnÉļ":5726,"ĠdÊĴËĪoËĲÉ¹dÉĻn":5727,"ĠÉĻÉ£":5728,"ĠÉ¡É¹ËĪÉªl":5729,"ĠtËĪÉľËĲnt":5730,"ĠÊĥËĪÉĳËĲtÉ¡ÊĮn":5731,"ĠtwËĪÉľËĲk":5732,"É¾ÉĻtÉĻ":5733,"ĠbËĪÃ¦kwÉļdz":5734,"ËĪÉªÎ¸":5735,"ĠpËĪÃ¦l":5736,"ĠdÊĴËĪÉªÉ¡":5737,"É¹ËĪÉĳËĲk":5738,"ĠÊĥÉĻp":5739,"ĠsËĪiËĲdz":5740,"ĠËĪÃ¦É¡":5741,"ĠswËĪiËĲp":5742,"ĠÉ¹ËĪeÉªnÉªÅĭ":5743,"ĠtÉ¾ÉĻk":5744,"ÉĻlt":5745,"Î¸ËĪÉªÅĭk":5746,"ÉĲÉ¹":5747,"É¾ÉĻbÉĻl":5748,"ĠswËĪoËĲÉ¹":5749,"ĠËĪÉĳËĲbviÉĻs":5750,"ÊĥÉĳËĲt":5751,"Î¸ËĪÃ¦Åĭk":5752,"ËĪÃ¦mÉĻ":5753,"ĠÉĲlËĪÉĳËĲÉ¹m":5754,"ĠhËĪaÅĭ":5755,"ĠsËĪÉªstÉļz":5756,"ĠËĪÉĶËĲÉ¹dÉªnËĮÉĽÉ¹i":5757,"ĠtËĪÉĶÉª":5758,"ĠspËĪaÉª":5759,"ĠstÉĻpÉĻd":5760,"ĠlËĪÉĳËĲÉ¹dÊĴ":5761,"ĠdÊĴËĪÉªn":5762,"ĠËĪÊĮpsaÉªd":5763,"ĠËĮÃ¦ftÉļ":5764,"ĠÉ¹áµ»É¡É¹ËĪÉĽts":5765,"ĠwËĪiËĲv":5766,"ĠwËĪuËĲp":5767,"ĠtËĪÃ¦k":5768,"ĠtËĪÃ¦Åĭk":5769,"ĠtÊĥÉĻn":5770,"liÉĻnz":5771,"ĠflËĪÉĶs":5772,"ÉªÊĥt":5773,"ĠÊĥáµ»k":5774,"ĠlËĪuËĲzÉļ":5775,"ĠÉ¡ÉĻdÎ²ËĪÉĻ":5776,"ĠÉ¹ËĪÉªÉ¹":5777,"ĠjËĪÊĮÅĭÉ¡Éļ":5778,"ĠÉ¹ËĪaÊĬndz":5779,"ĠsËĪÉĽpÉ¹ÉĻt":5780,"ĠdÉ¾ÉĻn":5781,"ĠÉĻËĪo":5782,"dÊĴÉĻk":5783,"ĠtËĪuËĲpËĪÃ¦k":5784,"ĠfÉ¹ËĪÊĮntÉªn":5785,"poËĲÉ¹":5786,"ÉĻfËĮoÊĬn":5787,"Ġ--":5788,"ËĪÉªÊĥÉĻl":5789,"ĠÃ°ËĪiËĲ":5790,"ĠsËĪÉĳËĲks":5791,"ĠbËĪaÊĬ":5792,"stÉªn":5793,"ÉĲk":5794,"ĠmËĪÃ¦nÉªdÊĴ":5795,"ĠkÉĻmËĪÃ¦nd":5796,"ÉľËĲsËĪeÉªdiËĲz":5797,"ËĪÉĶËĲdz":5798,"ËĪÉĳËĲÉ¹tÉªn":5799,"ĠtwËĪÉªn":5800,"ĠkËĪÉĳËĲÅĭk":5801,"ĠÉ¹áµ»sËĪiËĲv":5802,"ĠhËĪÉªdÉĻn":5803,"ĠËĮÉĽmËĮÉĽmËĪeÉªtÊĥ":5804,"ĠÉ¹ËĪÉĽÉ¡jÊĬlÉļ":5805,"ĠtÉ¹ËĪÉĽntÊĥáµ»z":5806,"dËĪaÉª":5807,"ĠbÉ¹ËĪÊĮ":5808,"ÉĲb":5809,"ÉĲÉ¡":5810,"ĠÉ¹ËĪÉĳËĲbÉªn":5811,"ĠËĪÃ¦ÅĭÉ¡Éļ":5812,"pËĪÊĬt":5813,"ĠbÉ¹ËĪÊĮÊĥ":5814,"ÊĴuËĲÉĻl":5815,"ĠsÉĻsp":5816,"ĠËĮÉĶËĲÉ¾ÉĻmËĪÃ¦É¾Éªk":5817,"ĠËĪaÊĬns":5818,"ĠdÉĻlÉĻ":5819,"ËĮÉĽz":5820,"ËĮeÉªl":5821,"ĠkÉĻplÉĻ":5822,"ĠlËĪoÊĬnlinÉĻs":5823,"ĠdÊĴËĪÃ¦kÉªt":5824,"ĠblËĪÉĽsÉªÅĭz":5825,"pÉĻtËĪÉªÊĥÉĻn":5826,"ĠpËĪÃ¦ntiz":5827,"ĠhËĪÉĽz":5828,"ĠdÊĴËĪÉĽlÉĻsi":5829,"ĠpËĪÉľËĲsÉĻnÉĻl":5830,"wËĪÉĶnt":5831,"ĠklËĪoÊĬzÉªÅĭ":5832,"ĠÉĽnd":5833,"ĠwËĪÉĳËĲÊĥt":5834,"bËĮiËĲËĮÉĳËĲÉ¹É¹ËĪÉĳËĲÉ¹":5835,"ĠkÉ¹ËĪÉªstÉĻl":5836,"ĠkÉ¾ÉĻd":5837,"ĠtÊĥÉĻz":5838,"ĠÉĻfÉ¾ÉĻd":5839,"stÉ¹ÉĻmËĪÉĽntÉĻl":5840,"bÊĬ":5841,"tËĪaÊĬn":5842,"Ġ:":5843,"ĠÉĻÉ¡z":5844,"ĠtÊĥÉĻl":5845,"ĠtÊĥËĪoÊĬzÉĻn":5846,"ĠfËĪam":5847,"ĠtÉĻnÉĻd":5848,"ĠwËĪÉªnÉªn":5849,"ĠpËĪoËĲÉ¹Êĥ":5850,"ĠËĪÉĽsk":5851,"ĠlËĪand":5852,"ĠhaÊĬ":5853,"ĠdÉªzËĪiËĲz":5854,"ĠsËĪÉĽkÉĻndz":5855,"ËĮÉªk":5856,"ĠtËĪoÊĬk":5857,"ĠlËĪeÉªnz":5858,"ĠÉ¹ËĪÃ¦tÊĥ":5859,"ËĪÉĳËĲlÉªdÊĴ":5860,"ĠnËĪÉĳËĲkÉªÅĭ":5861,"ĠÊĮndËĪÊĮn":5862,"ĠbÉ¹ËĪÃ¦É¡":5863,"ĠmËĪÉªlk":5864,"ĠlËĪÃ¦ftÉļ":5865,"nËĪuËĲn":5866,"ĠdËĪÃ¦b":5867,"ĠlËĪÊĮntÊĥ":5868,"ĠÉĻmz":5869,"ĠkÉ¾ÉĻm":5870,"ÉĳËĲl":5871,"ĠhËĪÉĽnnÉĻsi":5872,"ĠpËĪak":5873,"ĠÊĥÉĻd":5874,"ĠwÉĻnz":5875,"ĠkËĪÃ¦tÊĥÉªÅĭ":5876,"ĠdËĪadi":5877,"ĠÊĥáµ»kËĪÉĳËĲÉ¡oÊĬ":5878,"ĠwËĪÉªps":5879,"ĠhËĪeÉªl":5880,"ĠpËĪÉĳËĲps":5881,"liÉĻ":5882,"mÉĻni":5883,"ĠsËĪÉĽndÉªÅĭ":5884,"ĠËĮÉĽmËĮeÉªtÊĥËĪÉĽm":5885,"ĠmËĪoÊĬn":5886,"ĠtÊĥÉĻndÊĴ":5887,"ĠjÉĻt":5888,"ĠpÉ¹ËĪÉĽzÉĻns":5889,"ĠËĪÉĽd":5890,"ÊĥÉĻt":5891,"ĠtÊĥËĪÉĳËĲk":5892,"É¾ÉĻf":5893,"ĠfËĪÊĬ":5894,"ĠkËĪÉªlÉĻ":5895,"ĠÎ¸ËĪÉľËĲsti":5896,"ËĪÉªnd":5897,"ĠËĪÉĽkoÊĬ":5898,"lËĪÉªl":5899,"eÉªks":5900,"ĠhÉļÉ¹":5901,"áµ»s":5902,"ĠdÊĴÉĲm":5903,"ĠlÉĻkÉĻd":5904,"ĠpÉĻÉĻ":5905,"ĠbËĪÉªÉ¡i":5906,"ĠhÉĻtËĪo":5907,"ĠsÉļpÉ¹ËĪaÉªzd":5908,"ĠÊĥËĪÉĽltÉļ":5909,"ËĪaz":5910,"ĠtËĪÉªnt":5911,"ËĮÊĮndÉļ":5912,"ĠstËĪÉĳËĲmp":5913,"ËĪÉªlÉªk":5914,"spËĪÉĽÊĥÉĻli":5915,"ĠÉ¹ËĪiËĲtÊĥt":5916,"bËĪÉľËĲ":5917,"ĠlËĪÃ¦d":5918,"ĠËĪÉĽndáµ»d":5919,"ĠfËĪaÉªtÉªn":5920,"ĠhËĪÉĽvÉĻnli":5921,"ĠbÉĻÉĻ":5922,"ĠbËĪeÉªsmÉĻnt":5923,"ĠkÃ¦":5924,"ĠÉ¡ËĪÊĮvÉļ":5925,"ËĪÉĻm":5926,"ËĮÃ¦t":5927,"ĠfËĪoËĲÉ¹Î¸":5928,"kÉĻl":5929,"ËĪÃ¦É¹i":5930,"ĠËĪÉªntÉ¹":5931,"ĠblËĪÉªÅĭk":5932,"ĠÉªnh":5933,"ĠblËĪÉĽsÉªÅĭ":5934,"ĠËĮÃ¦ftÉļnËĪuËĲn":5935,"?!":5936,"wËĪÉĶËĲk":5937,"ĠkÉĻlÉĻn":5938,"mÉĻl":5939,"mËĪeÉªb":5940,"ĠÉ¡ËĪeÉªn":5941,"ĠswËĪeÉª":5942,"ĠhËĪÉĽdÉªÅĭ":5943,"ĠÊĥËĪÉĶËĲn":5944,"ĠwËĪÉªndz":5945,"ĠdÉªstÉ¹":5946,"ĠËĪÉªÊĥuËĲz":5947,"ĠnËĪeÉªlz":5948,"stËĪeÉª":5949,"ËĮÉĽsËĪeÉªtÊĥ":5950,"ĠmÉĻmÉĻnt":5951,"ËĪiËĲks":5952,"ĠtËĪÉªÉ¾Éªz":5953,"ĠstËĪÉĳËĲk":5954,"plÉĻ":5955,"ËĪoÊĬvÉļ":5956,"ËĪÉĽndi":5957,"ĠkÉĻlËĪÉĽkt":5958,"ĠËĪÉĶËĲÉ¾ÉĻ":5959,"ĠpÉ¹ËĪÉĽzÉĻnt":5960,"ĠdËĪÃ¦nst":5961,"ĠsÉļÉ¹ËĪaÊĬndáµ»d":5962,"ĠveÉªkËĪeÉªÊĥÉĻn":5963,"ĠstËĪÉĽpÉªn":5964,"bËĪÉĳËĲp":5965,"ĠpÉ¾":5966,"tËĪuËĲn":5967,"ĠsËĪÃ¦dnÉĻs":5968,"ĠswËĪiËĲÉ¾Éªst":5969,"sËĮÊĮm":5970,"ĠtËĪuËĲzdeÉª":5971,"ËĪÃ¦tÊĥt":5972,"ĠËĮÉĽskËĮeÉªËĮÉĳËĲÉ¹tËĪiËĲ":5973,"ĠËĪÉªmÉªdÊĴ":5974,"ĠÉ¡É¹ËĪaÉªndÉªn":5975,"ĠbÉĻld":5976,"ĠdËĪÊĮmp":5977,"ĠÉ¡É¾ËĪa":5978,"ĠstËĪÃ¦b":5979,"ĠËĪÃ¦Êĥ":5980,"Ġdáµ»sËĪiËĲv":5981,"ĠdËĪÉĽspÉļÉ¹":5982,"ĠÉ¡ËĪÊĮvÉļn":5983,"ĠdÉª":5984,"ĠkËĪÃ¦naÉª":5985,"ĠtËĪuËĲÎ¸":5986,"ËĪÉĽndz":5987,"ĠpÉ¹ËĪÉĳËĲfÉªt":5988,"hÉĽd":5989,"ĠbËĪÉľËĲst":5990,"ĠbËĪÊĮd":5991,"ĠtÉ¾ÉĻt":5992,"ĠlËĪiËĲk":5993,"ĠtËĪoÊĬÉ¾ÉĻl":5994,"ĠbËĪoËĲÉ¹dÉļ":5995,"ÅĭkÉ¹iËĲt":5996,"ĠwËĪÉªzdÉĻm":5997,"ĠkËĪÉĳËĲmpláµ»kËĮeÉªÉ¾áµ»d":5998,"ĠsËĮÉªÉ¡ÉļÉ¹ËĪÉĽt":5999,"ĠmÉľËĲsËĪeÉªdiËĲz":6000,"ĠpËĪÉĳËĲÉ¹dÉĻn":6001,"ĠvËĪÉĽn":6002,"foÊĬ":6003,"wËĪÉľËĲk":6004,"ĠmËĪaÉªkÉ¹":6005,"ÊĥÉĻns":6006,"ĠpÉ¾ÉĻmÉĻsÉĻ":6007,"dËĪÉªd":6008,"ËĪaÉªÉļd":6009,"ĠhËĪÊĮmbÉĻl":6010,"stÉĻz":6011,"ĠtÉĻmÉĻÉ¾ÉĻ":6012,"ÉĻÉĻÉĻtÉĻ":6013,"ĠkËĪÊĮvÉļz":6014,"É¹ËĪoÊĬ":6015,"ĠsËĪÉĳËĲ":6016,"ËĪÉªlÉªÉ¹":6017,"ÉĻsÉĻz":6018,"ÉĻntÉĻn":6019,"ĠÉ¡lËĪÊĮv":6020,"ĠÊĥËĪÉĳËĲÉ¹p":6021,"ĠËĪÉľËĲn":6022,"ĠmËĪaÊĬ":6023,"ĠpÉĻd":6024,"ĠspËĪÃ¦n":6025,"ĠÉ¹ËĪÃ¦ps":6026,"pÉĻÎ¸i":6027,"ĠfËĪÉĶls":6028,"ĠtËĪÉĶÉªz":6029,"ĠÉ¹ËĪÃ¦É¡":6030,"ĠtËĪÉĽÉ¹ÉªÅĭ":6031,"boËĲÉ¹É¡":6032,"ĠsËĪÉĳËĲk":6033,"ĠstËĪÊĮmbÉĻl":6034,"ÉĻsËĪiËĲ":6035,"ËĮÉĽnÉĻsËĪiËĲ":6036,"É¾ÉĻwÉĻn":6037,"ĠsËĪÉĽts":6038,"ÉĽns":6039,"ĠsËĪuËĲpÉļm":6040,"ĠkËĪÃ¦mÉ¹ÉĻz":6041,"ĠdÊĴÉĲmËĪeÉªk":6042,"wÉĻk":6043,"É¹ÉªÉ¾i":6044,"ÊĥËĪÉľËĲt":6045,"ĠplËĪÃ¦nd":6046,"Ìĥ)":6047,"ĠdÉ¹ËĪÉĳËĲps":6048,"ËĪÉĽbÉ¹":6049,"ĠkËĮÉĳËĲmpÉĻtËĪÉªÊĥÉĻn":6050,"ĠsnËĪÉªpÉªt":6051,"záµ»z":6052,"ÊĥËĪeÉªk":6053,"ĠslËĪÊĮm":6054,"ËĪaÊĬdÉļ":6055,"ĠÉĻËĮÉĻÉĻÉĻ":6056,"ĠnËĪÉªki":6057,"Ġdáµ»vËĪaÉªd":6058,"ĠlËĪÉĽn":6059,"ĠÉªÅĭkÉ¹":6060,"ĠpËĪÉĶËĲz":6061,"ĠtÊĥËĪÉªps":6062,"ĠÉªnnËĪÉĳËĲ":6063,"ĠspËĪiËĲkÉļz":6064,"ĠpËĪÊĬÊĥt":6065,"ĠdËĪiËĲmÉĻn":6066,"ĠsnËĪeÉªks":6067,"ĠjËĪuËĲzÉªÅĭ":6068,"ĠsËĪÃ¦l":6069,"ĠlËĪÉªs":6070,"ÊĥËĪÉªt":6071,"ËĪaÊĬnts":6072,"ĠslËĪÉĽpt":6073,"ĠbËĪÉĳËĲÉ¹oÊĬ":6074,"ĠÉ¡ËĪuËĲs":6075,"ĠwËĪÉªsÉĻl":6076,"ĠkËĪÃ¦dÉªlËĮÃ¦k":6077,"vËĮiËĲ":6078,"wËĪÉĳËĲtÊĥ":6079,"ËĪÃ¦É¡Éļ":6080,"tÊĥËĪÉĽk":6081,"ÉĲdÊĴ":6082,"ĠkËĪÊĮmftÉĻbÉĻl":6083,"ĠmËĪÃ¦l":6084,"ĠÊĮns":6085,"ĠlËĪÃ¦fÉªn":6086,"ĠskËĪiËĲ":6087,"ËĪÊĮfÉĻl":6088,"ĠmËĪoÊĬÉ¾Éļ":6089,"ĠËĪÃ¦ktÊĥuËĲÉĻli":6090,"iÉĻnz":6091,"ËĪaÊĬl":6092,"ĠÉĻvÉ¾ÉĻwÉĻn":6093,"laÉªts":6094,"ĠÊĥËĪÉĽlf":6095,"ĠdÊĴËĪÉľËĲni":6096,"ËĪÉĳËĲkÉĻ":6097,"ĠkËĪÊĮf":6098,"ËĪÊĮÃ°Éļn":6099,"ĠfÉ¹ËĪiËĲks":6100,"ĠËĮÊĮndÉļstËĪÊĬd":6101,"ymËĪÉĻ":6102,"Î²ÉĻt":6103,"ĠfÉĻÎ¸":6104,"ĠdÉ¹ËĪaÉªvÉļ":6105,"wÉĶËĲk":6106,"eÉªp":6107,"ĠtËĮÉĽnÉĻsËĪiËĲ":6108,"ĠdjËĪuËĲs":6109,"ĠskËĪÉªni":6110,"mboËĲÉ¹É¡":6111,"ËĪeÉªvÉļ":6112,"ËĪÉĶÅĭk":6113,"ĠÉĽksËĪaÉªÉ¾áµ»d":6114,"ĠsmËĪoÊĬkt":6115,"ĠÉ¡ËĪÃ¦ÅĭstÉļ":6116,"ĠÉ¡lËĪÃ¦sáµ»z":6117,"ĠÎ¸ÉĻzÉĻnd":6118,"ËĪÉĽndÉĻnt":6119,"ÉĽndz":6120,"ĠÉªnvËĪÉĳËĲlvd":6121,"ĠspËĪÉªtÉªn":6122,"ĠÉĲpÉ¹ËĪiËĲÊĥ":6123,"voÊĬ":6124,"ĠskÉĻn":6125,"Î²ÉĻz":6126,"ĠtÉ¾ËĪa":6127,"ĠfËĪÉĳËĲloÊĬÉªÅĭ":6128,"ĠkjËĪuËĲb":6129,"ĠkÉ¾ÉĻsmÉĻs":6130,"ĠtËĪuËĲhËĪÊĮndÉ¹ÉĻd":6131,"ËĮÉªz":6132,"ĠÉ¡ËĪoÊĬsts":6133,"sËĪÉĽvÉĻnt":6134,"ĠÉ¹ËĪoÊĬvÉļ":6135,"plËĪeÉª":6136,"ĠwËĪÊĮÉ¹iz":6137,"ĠËĪÉĳËĲnÉļ":6138,"ĠmËĪÉĳËĲÉ¹tÊĥÉªÅĭ":6139,"Ġhj":6140,"ÉļÉ¹ËĮeÉªt":6141,"ĠswÉĻtÊĥ":6142,"ĠstËĪÉĳËĲpÉªn":6143,"ĠÉĽksplËĪoÊĬd":6144,"ĠswËĪÉªÅĭÉªÅĭ":6145,"ĠpÉ¹ËĪÃ¦ktÉªs":6146,"ĠfËĪÉĽÃ°Éļ":6147,"ĠskËĪÉĽÉ¹":6148,"ĠkËĪÉĳËĲÅĭkÉ¹iËĲt":6149,"ĠpËĪÉľËĲs":6150,"ĠsËĪÉĽntÉĻns":6151,"ÅĭÉ¡ÉĻn":6152,"ËĪeÉªdÊĴÉĻs":6153,"ĠpËĪÉľËĲl":6154,"ĠplËĪaÉªÉĻ":6155,"ÅĭÉ¡ÉĻ":6156,"ĠkËĪaÊĬbÉĶÉª":6157,"ĠpËĪoÊĬstáµ»d":6158,"ÊĮstÉ¹i":6159,"ĠkÉ¹ËĪÉªp":6160,"ĠhËĪÊĮÅĭÉ¡Éļ":6161,"ĠÉªtËĪÉľËĲnÉªÉ¾i":6162,"ĠdÊĴËĮeÉª":6163,"ĠÉ¹ËĪÉªmz":6164,"ĠpÉ¾ÉĻv":6165,"ĠËĪÉªndÊĮstÉ¹i":6166,"ĠdÉ¹ËĪÉªl":6167,"ËĪiËĲdÊĴ":6168,"ĠÉ¡ËĪÉĳËĲÉ¾i":6169,"ĠkËĪÉªsÉªn":6170,"ĠdËĪoÊĬm":6171,"ĠwËĪÉĽstsaÉªd":6172,"ĠbËĪÉĽndÊĴ":6173,"ĠsËĪÊĮÃ°Éļn":6174,"ËĪeÉªpt":6175,"ÊĥËĪÊĬÉ¹":6176,"ĠspËĪaÉªn":6177,"ĠÉ¡É¹ËĪÉªn":6178,"ĠËĪÉĳËĲfÉªs":6179,"ĠspËĪÉĽndÉªn":6180,"ĠhËĪeÉªÉ¾áµ»d":6181,"ĠÉĽkspÉ¹":6182,"ĠfÉªnËĪÉĽs":6183,"ĠmËĪÉĳËĲÉ¹tÉªn":6184,"ĠÊĮps":6185,"ĠtÉ¹ËĪÉªn":6186,"ĠbÉ¹ËĪÉĽ":6187,"ËĪiËĲlÉĻ":6188,"ËĪiËĲlÉªÅĭ":6189,"ĠËĪak":6190,"ĠÉªntËĪÉĽnÊĥÉĻnz":6191,"ĠhËĪiËĲlÉªÅĭ":6192,"ĠÉ¹ËĪiËĲkÉĶËĲl":6193,"keÉªs":6194,"Ã°ËĪat":6195,"ĠbÉĻf":6196,"ĠsËĪÉĶftli":6197,"ĠlËĪÃ¦mboÊĬ":6198,"jÉĻÉĻ":6199,"nËĮÉĽt":6200,"Ã°i":6201,"ĠtËĪaÉªni":6202,"ËĮÃ¦m":6203,"ĠblËĪuËĲm":6204,"ĠsËĪÉĻmz":6205,"!),":6206,"ĠÉ¡ËĪoËĲÉ¹":6207,"ĠdÊĴÉĻk":6208,"ËĪoÊĬni":6209,"ĠpËĪÉĳËĲÉ¹ts":6210,"ĠsËĪiËĲzÉĻnz":6211,"ĠËĪÉĽnvi":6212,"ĠbËĪÃ¦ÅĭÉ¡Éªn":6213,"ĠkÉ¹ËĪÊĬkÉªd":6214,"ĠsËĪÉĶlt":6215,"pÉĻkt":6216,"ĠfËĪÉĳËĲks":6217,"ĠslËĪÃ¦Êĥ":6218,"ĠÉĻlÉĻ":6219,"ĠfÉĻks":6220,"ĠËĮÉĽf":6221,"ĠflËĪÃ¦ÊĥÉªÅĭ":6222,"ĠhËĪÊĬkt":6223,"ĠfÉ¾":6224,"ĠtÊĥËĪÊĮk":6225,"ĠËĪÉĶfÉļ":6226,"ĠsÉĻpËĪoÊĬz":6227,"ĠfÉĻlÉĻÅĭz":6228,"ĠhËĪÉĶËĲÉ¹sáµ»z":6229,"ĠvËĮiËĲv":6230,"wËĪiËĲ":6231,"ĠdÊĴuËĲ":6232,"ËĪÉĳËĲÉ¹É¾áµ»d":6233,"ĠbËĪÊĮdi":6234,"ĠdËĪÉªÉ¡ÉªÅĭ":6235,"ĠvËĪÉªzÉªt":6236,"É¡Éªt":6237,"ĠklÉĻn":6238,"ĠËĪÃ¦ni":6239,"ĠstËĪÉĽpt":6240,"ĠkÉĻndÉĻ":6241,"ĠÉĻnËĪywÉĻ":6242,"ĠlËĪoÊĬkoÊĬ":6243,"ĠËĪÉĽndÊĴÉªn":6244,"ĠwËĪÉĻn":6245,"ĠsÉªn":6246,"ĠÉ¹áµ»d":6247,"ĠmËĪÃ¦Êĥ":6248,"ĠpÉ¹ËĪaÉªm":6249,"ĠstÉ¹ËĪÉĽst":6250,"ĠdÉĻnsÉĻÅĭ":6251,"tËĪÉĳËĲp":6252,"ĠÉ¡ËĪÉĳËĲts":6253,"ĠdÉ¹ËĪÉªftÉªÅĭ":6254,"kÉĻhËĮÉĳËĲl":6255,"ËĪÃ¦É¾i":6256,"ĠpËĪÉªÉ¹":6257,"ĠhËĪÉĽlÎ¸":6258,"ĠkËĪÉĽÉ¹d":6259,"ĠdÉ¹ËĪÉªpÉªÅĭ":6260,"Éªkw":6261,"ĠmËĪÃ¦nz":6262,"ĠhaÊĬËĪÉĽvÉļ":6263,"É¾ÉĽk":6264,"ÉĻtÉĻÅĭ":6265,"ĠkÉĻnfjËĪuËĲ":6266,"ĠwËĪÊĬlf":6267,"ĠhËĪÉĽvÉĻnz":6268,"É¡Éªst":6269,"ĠwÉĻÉ¾ÉĻ":6270,"ĠbËĪÃ¦m":6271,"ĠÉĻpÉĻt":6272,"ËĪÉĳËĲdoÊĬ":6273,"ĠlËĪÃ¦ft":6274,"ĠpËĪÉªtÊĥ":6275,"ĠËĪiËĲÉ¡ÉĻl":6276,"ĠhËĪaÉªÉªst":6277,"ËĪÉľËĲb":6278,"ĠÃ¦mb":6279,"ĠËĪÃ¦nt":6280,"ĠËĪÉªntÉļnËĮÉĽt":6281,"ĠËĪÃ¦vÉ¹ÉªdÊĴ":6282,"ĠÉ¹ËĪaÊĬt":6283,"ĠÉĻpËĪÉªn":6284,"ĠstËĪÉªki":6285,"ĠÉ¹áµ»vËĪÉĽndÊĴ":6286,"ĠsËĪÉĳËĲlv":6287,"ËĪÉªzáµ»bÉĻl":6288,"ĠsËĪÉľËĲf":6289,"ĠvËĪÉªktÉļÉ¹i":6290,"ĠmËĪÉĽksÉªkËĮoÊĬ":6291,"É¾ÉļÉ¹i":6292,"ĠfËĪÉĳËĲÉ¹m":6293,"ËĮaÉªzÉªÅĭ":6294,"ĠdÉ¹ËĪÊĮmz":6295,"noÊĬ":6296,"ÉĻÎ¸":6297,"ĠÉ¹ËĪoËĲÉ¹":6298,"ĠhËĪaf":6299,"É¡É¹aÊĬnd":6300,"ĠbËĪÃ¦lÉĻns":6301,"lÉª":6302,"ĠbÃ¦":6303,"ĠstÉĻm":6304,"ĠfËĪeÉªvÉļ":6305,"ĠlËĪiËĲdÉļ":6306,"ĠsÊĮ":6307,"ĠhÉĻnÉĻ":6308,"ËĪÉĻl":6309,"ĠtËĪaÉªz":6310,"ĠzËĪuËĲm":6311,"ĠËĪiËĲzili":6312,"ĠfÉļÉ¡ËĪÉªvnÉĻs":6313,"mboËĲÉ¹É¡ËĪiËĲni":6314,"ĠbÉ¹ËĪÉĶËĲdz":6315,"ĠblÉĻz":6316,"ĠvËĪÉĽst":6317,"ĠÊĥËĪÉªts":6318,"ĠÉ¾ÉĻdÉĻn":6319,"ĠÉĽkspËĪÉĽnsÉªv":6320,"jËĪÊĮÅĭ":6321,"ĠjuËĲn":6322,"ĠtÊĥËĪÃ¦n":6323,"ĠwËĪeÉªl":6324,"ĠdËĪeÉªdÉ¹":6325,"ĠstËĪeÉªÉªn":6326,"ĠaÊĬtsÉĻd":6327,"ĠËĪÃ¦lkÉĻhËĮÉĳËĲl":6328,"ĠstËĪoÊĬlÉĻn":6329,"ĠwËĪÉªli":6330,"ĠpËĪÉªkÉªn":6331,"ĠÉ¹ËĪÉĽstlÉĻs":6332,"ĠfËĪÉªzÉªkÉĻl":6333,"lËĪÉªÅĭ":6334,"ĠwËĪÉªÅĭ":6335,"ÊĥËĪÉĳËĲ":6336,"ĠÉªnd":6337,"ĠbËĪÉĽÉ¡Éªn":6338,"ĠwËĪuËĲnd":6339,"ĠbËĪÉªliÉĻn":6340,"ËĪiËĲst":6341,"ĠkËĪÉĶËĲ":6342,"ĠfËĪÉĽlÉĻz":6343,"mËĪeÉªÊĥÉĻn":6344,"ĠkËĪÉĳËĲpt":6345,"ĠËĪÉªnÉĻsÉĻns":6346,"ĠtÉĻwËĪÉĶËĲÉ¹dz":6347,"ĠmËĪÉĽntÉĻl":6348,"ĠdËĮÊĮbÉĻljËĮuËĲ":6349,"ÉĲf":6350,"ĠklËĪÊĮtÊĥ":6351,"ĠÉ¡ËĪÉĳËĲs":6352,"lËĪaÉªf":6353,"ĠËĪÉĶËĲÉ¹liÉĻnz":6354,"ĠfÉĻmËĪÉªlÉªÉ¹":6355,"ĠtÉ¹ËĪÃ¦vÉĻlÉªÅĭ":6356,"ĠswËĪiËĲÉ¾Éļ":6357,"ĠkËĪÉĳËĲnfÉªdÉĻns":6358,"ËĪÃ¦nÉªÉ¾i":6359,"ËĪanz":6360,"ĠbËĪÉĳËĲnd":6361,"ËĪÉªfÉªk":6362,"ĠbËĪÃ¦Î¸É¹uËĲm":6363,"ĠwËĪÉĳËĲp":6364,"ĠtËĪÉĳËĲk":6365,"ËĮÉĽks":6366,"ĠtÉ¹ËĪeÉªl":6367,"ĠÉĲpËĪÉªÉ¹":6368,"ĠnËĪÉĳËĲkÉªn":6369,"bËĪÉĳËĲm":6370,"ĠhÃ¦hËĪÉĳËĲhÉĻ":6371,"ĠpËĪÃ¦pi":6372,"ËĮÊĮlt":6373,"ĠwËĪÉľËĲldz":6374,"ĠstËĪÉĳËĲÉ¹tÉªn":6375,"ĠdËĪÉªdi":6376,"ĠmËĪÉĳËĲdÉĻlz":6377,"ĠbËĪÊĮn":6378,"ĠbËĪoËĲÉ¹ÉªÅĭ":6379,"wËĪÉĳËĲnÉĻ":6380,"ĠmÉĳËĲnt":6381,"ĠwËĮÊĮts":6382,"ĠpÉ¹ËĪeÉªd":6383,"ĠlËĪÃ¦sts":6384,"ĠbÉĻtÉĻ":6385,"ĠmËĮÃ¦É¹Éª":6386,"ĠstËĪÃ¦":6387,"ËĪÉĽnÊĥ":6388,"ËĮÃ¦tÉªn":6389,"ĠblËĪÉĳËĲks":6390,"ËĪoÊĬkÉĻn":6391,"ĠkËĪÊĮps":6392,"ĠÉªnvËĪÉªzáµ»bÉĻl":6393,"ĠkËĪÃ¦sÉĻl":6394,"ĠÉ¹áµ»flËĪÉĽkÊĥÉĻn":6395,"ĠbËĪÃ¦n":6396,"ĠÉ¡ËĪÉĳËĲdz":6397,"ĠsÉĻpËĪoËĲÉ¹t":6398,"É¡É¹ËĮÃ¦m":6399,"ĠblÉĻm":6400,"ËĪanÉĻ":6401,"ĠvËĪaÉªÉĻlÉĻnt":6402,"fËĪÉªftiËĲn":6403,"ËĪaÉªp":6404,"ĠdÉ¾ÉĻs":6405,"ĠfËĪÊĮks":6406,"ĠdÊĴÉĻm":6407,"ËĪeÉªsÉĻn":6408,"ËĪÃ¦ntÉªk":6409,"ĠpËĪÉĳËĲÉ¹kÉªÅĭ":6410,"ĠbÉ¹ËĪÉĽÎ¸Éªn":6411,"ĠstËĪiËĲm":6412,"ĠÎ¸ËĪaÉªz":6413,"oÊĬt":6414,"ĠlËĪiËĲs":6415,"ÉĻnst":6416,"ĠzËĪiËĲ":6417,"lÉªt":6418,"wËĪaÉªt":6419,"stÉļd":6420,"ĠstËĪoÊĬnd":6421,"ĠbËĪÊĬks":6422,"ËĪÉĳËĲÉ¡":6423,"ĠlËĪaÊĬ":6424,"ĠvËĪÉªÊĴÉĻnz":6425,"ĠÉĻnymËĪÉĻ":6426,"ĠstËĪÉĳËĲÉ¹É¹Éªn":6427,"ĠsËĪÊĮmtaÉªm":6428,"ĠkËĪÉĳËĲpi":6429,"ĠËĮÉªndáµ»p":6430,"ĠpÉ¾ÉĻtÉĻnd":6431,"É¹ÉĻnz":6432,"ĠsËĮÉĽn":6433,"ĠdËĪÉĽt":6434,"ĠhÉĻdÉĻ":6435,"ĠmÉĻÃ°ÉĻ":6436,"ĠËĪÉĳËĲd":6437,"ĠfËĪiËĲndz":6438,"sËĪÊĮn":6439,"ĠblËĪeÉªd":6440,"áµ»vËĮÉª":6441,"ĠÉ¹áµ»mËĪeÉªnz":6442,"ĠËĪÉĶËĲd":6443,"ĠÉªnvËĪÉĽst":6444,"ÉĲmËĮaÉªt":6445,"ËĪÉĽvÉ¹ÉªÎ¸ËĮÉªÅĭ":6446,"ĠlÉĻdÊĴ":6447,"ĠÉ¹ËĪeÉªni":6448,"ÊĮt":6449,"ĠÃ°ÉĽm":6450,"ĠsËĪÉªs":6451,"áµ»b":6452,"ĠÉĻtÉĻ":6453,"Ġbáµ»lËĪiËĲvÉļ":6454,"ĠpËĪeÉªÉªÅĭ":6455,"ĠdÊĴËĪuËĲd":6456,"ĠkËĪÃ¦É¹id":6457,"ĠtÊĥËĪÉĳËĲÉ¹li":6458,"ĠÊĮpsËĪÉĽt":6459,"jÉļz":6460,"ËĮÊĬ":6461,"ĠtËĪÉĶËĲks":6462,"ĠstÉĻn":6463,"ĠbÉ¹ËĪoÊĬz":6464,"ÉĲÉĲ":6465,"ĠbÉĻtwËĪÉĻn":6466,"ĠfËĪÉĶËĲÉ¹Éªst":6467,"âĢĶ,":6468,"ĠkËĪÉĳËĲnÊĥÉĻns":6469,"ĠsÉĻlËĪuËĲt":6470,"ĠmËĪÃ¦tÉ¹ÉĻs":6471,"poËĲÉ¹t":6472,"ĠkÉĻnfjËĪuËĲÊĴÉĻn":6473,"lËĪeÉª":6474,"ĠdËĪÃ¦md":6475,"ĠvÉĻl":6476,"ĠdËĪaÉªÉĻl":6477,"ĠwÉĻnts":6478,"ĠmËĪÉĳËĲÉ¹z":6479,"ĠmËĪak":6480,"ĠpËĪÃ¦d":6481,"ĠklËĪÉªps":6482,"ĠflËĪeÉªvÉļ":6483,"ĠÉĲlËĪaÊĬ":6484,"ĠÉªspËĪÉĽÊĥÉĻli":6485,"ĠÉĲtÊĥ":6486,"ĠËĪÊĮptaÊĬn":6487,"ĠdÊĴËĪÉĶËĲÉ¹dÊĴÉĻ":6488,"ÉĻÉ¡":6489,"ĠkËĪeÉªv":6490,"ĠkÉ¹ËĪÃ¦ks":6491,"ĠÊĥËĪuËĲÉ¾Éļ":6492,"ĠtÊĥËĪÉĳËĲklÉĻt":6493,"ĠbÉĲn":6494,"ĠwËĪÉĽÉ¹z":6495,"ĠhËĪÉĳËĲpt":6496,"ĠstÉĻÉ¾ËĪi":6497,"ĠsËĪÉªÉ¹ÊĮp":6498,"ĠÉªÅĭkÉ¹ËĪÉĽd":6499,"'-":6500,"ĠÉ¹ËĪÉĽm":6501,"ĠvËĮaÉª":6502,"ĠÉĲlËĪaÊĬd":6503,"ĠÉªnsp":6504,"ĠsËĪÉªÅĭz":6505,"ĠvÉĻÉ¾ËĪi":6506,"ĠfÉĽÉ¹":6507,"ĠÊĥËĪÉĽvi":6508,"ÉĻÉĻÉĻÉĻÉĻÉĻÉĻÉĻÉĻÉĻ":6509,"ĠsËĪÉľËĲvÉªs":6510,"ĠÉĻndÊĴÉĻ":6511,"Ġbáµ»tÉ¹":6512,"ËĪÃ¦Åĭks":6513,"ĠbËĪuËĲt":6514,"ĠÉĲpÉ¹ËĪoÊĬ":6515,"ĠtËĪÉĳËĲks":6516,"stÉĽ":6517,"ĠplËĪiËĲd":6518,"spÉļÉ¹ËĪeÉªÊĥÉĻn":6519,"ĠwËĪiËĲknÉĻs":6520,"ĠÉ¡ËĪÊĮvÉļnmÉĻnt":6521,"yti":6522,"ĠwËĪÉĶnd":6523,"ĠtËĪÉĽnd":6524,"ĠËĪeÉªs":6525,"ËĮiËĲz":6526,"ĠËĪaÊĬtl":6527,"ĠÉ¹ËĪeÉªnd":6528,"ĠtÊĥËĪÉĳËĲpÉļz":6529,"ĠpËĪÉĽni":6530,"ĠmËĪaÉªkÉ¹ÉĻfËĮoÊĬn":6531,"É¹ËĪÉĳËĲÉ¹É¹i":6532,"ĠÉ¡É¹ËĪÃ¦ntáµ»d":6533,"ĠbÉªkËĪÊĮmz":6534,"ĠfËĪoËĲÉ¹É¾ifËĪaÉªv":6535,"ĠlËĪÉĶÉªÉļ":6536,"ĠstËĪandÉĻÅĭ":6537,"ĠvËĮaÉªbÉ¹":6538,"ĠbËĪaÉªÉªÅĭ":6539,"ĠpËĪÃ¦É¹ÉĻnËĮÉĶÉªd":6540,"ĠfËĪamÉĻli":6541,"ĠbÉĻnd":6542,"ĠwËĪÉľËĲÃ°i":6543,"ĠÉ¡É¹ËĪeÉªd":6544,"ĠbËĪÊĮmpÉªn":6545,"ËĪoÊĬÊĥÉĻn":6546,"ĠlËĪÉªn":6547,"É¡ËĪÉĻt":6548,"ĠkÉ¹ËĪÉª":6549,"ĠÉ¡lËĪÉªÉ¾Éļ":6550,"ĠbËĪÊĮks":6551,"ĠbËĪaÅĭ":6552,"ĠÉ¹áµ»lËĪeÉªt":6553,"Ġdáµ»sËĪÉªÊĴÉĻnz":6554,"ĠstÉ¹ËĪÉĽsÉªn":6555,"ĠmËĪÉĳËĲÎ¸ÉĲfËĮÊĮkÉªn":6556,"ĠsÃ¦l":6557,"ĠstËĪÃ¦É¾Éªk":6558,"ĠplÉĻÉĻn":6559,"ĠÉ¹ËĪÊĮnÉĻwËĮeÉª":6560,"ËĪiÉĻÉ¹ÉĻ":6561,"ĠËĪÉªntÉ¹Éªst":6562,"fËĪÉĶËĲl":6563,"ĠkËĪÉĽli":6564,"ĠÉ¹áµ»É¡":6565,"ĠÉ¡ËĪÊĬdnÉĻs":6566,"ĠbÉĻÉ£ÉĻn":6567,"ĠsÉĻkÉĻnd":6568,"ĠÉ¾ËĪapo":6569,"ĠÉĲplËĪÉĶËĲz":6570,"ĠÉ¹ËĪÃ¦tÊĥÉªt":6571,"ĠmÉĳËĲntËĪÃ¦nÉĻ":6572,"ĠtÉ¹ËĪÉªl":6573,"ĠkÉ¹ËĪiËĲ":6574,"ĠÉ¡lËĪÉĳËĲks":6575,"ĠpËĪoËĲÉ¹Éªn":6576,"ĠÉ¾ÉĻlÉĻn":6577,"ĠspËĪÃ¦nÉªÊĥ":6578,"Ġbáµ»lËĪÉĶÅĭz":6579,"ĠmËĮÉªliÉĻnËĪÉĽÉ¹":6580,"ĠnËĪÉĳËĲn":6581,"ĠËĪÉªntÊĥ":6582,"ĠmÉĻÉ¾ÉĻ":6583,"ĠbËĪaÉªk":6584,"ĠvËĮiËĲvËĮiËĲËĪÉĽs":6585,"ĠsËĪoËĲÉ¹d":6586,"ĠÎ¸ËĪÉľËĲ":6587,"ÉĻdËĮeÉªz":6588,"ĠpÉ¹ÉĻf":6589,"ĠklËĪÉªÉ¹li":6590,"É¹ËĪuËĲm":6591,"ĠmËĪÊĮÃ°Éļz":6592,"ĠbËĪÉľËĲnt":6593,"nËĪoÊĬbÉĳËĲdi":6594,"ĠsËĪÉĽkÊĥÉĻn":6595,"ĠlËĪiËĲÉ¡":6596,"ĠpËĪÉĳËĲÉ¾ÉĽk":6597,"mËĪaÉªnd":6598,"ĠÉĻsÉĻn":6599,"ËĮÉĽvÉļ":6600,"ĠfÉ¹ËĪaÊĬn":6601,"ËĮÉªl":6602,"ĠkËĪÉªlz":6603,"ĠpËĪÊĬÊĥÉªn":6604,"ĠfËĪeÉªdz":6605,"hËĪÃ¦v":6606,"ĠhÉĻv":6607,"ĠhËĪÉĶËĲÉ¹n":6608,"stËĪeÉªt":6609,"ËĪÃ¦ÅĭÉ¡Éªn":6610,"ĠlËĮÃ¦mboËĲÉ¹É¡ËĪiËĲni":6611,"ĠÃ°ÉĽmsËĪÉĽlvz":6612,"sËĪuËĲ":6613,"sks":6614,"ĠkÉĻnËĪÉĽkt":6615,"ĠwËĪÉĶËĲÉ¾Éļz":6616,"ĠtÊĥËĪÉªlÉªÅĭ":6617,"ĠÉ¡É¹ËĪeÉªvi":6618,"ĠtËĪeÉªlÉļ":6619,"É¹ËĪaÉªb":6620,"nËĪÊĮÎ¸ÉªÅĭ":6621,"ĠdÊĴuËĲlËĪaÉª":6622,"ËĪÃ¦sk":6623,"ĠÉ¹ËĪÉªvÉļz":6624,"Ġdáµ»sËĪaÉªdáµ»d":6625,"ĠlËĪÊĮlÉĻb":6626,"ĠnËĪaÊĬÉĻdËĮeÉªz":6627,"ĠËĪÃ¦vÉĻn":6628,"ËĪÃ¦ndÉĻ":6629,"ĠdÉĻÎ¸":6630,"ĠdÉ¹ËĪaÉªvz":6631,"ĠdËĪiËĲlÉªÅĭ":6632,"ËĪÉĳËĲÉ¾Éªk":6633,"ĠpËĪÉĳËĲsáµ»bÉĻl":6634,"ÉĻmpl":6635,"pleÉª":6636,"ĠÉ¹ËĪuËĲts":6637,"ĠnËĪiËĲÃ°Éļ":6638,"ĠpÉ¹ËĪiËĲtÊĥÉļ":6639,"poÊĬ":6640,"ĠkËĪÉĽl":6641,"liz":6642,"ĠflËĪÉĳËĲp":6643,"ĠsplËĪÃ¦Êĥ":6644,"ĠÉ¹ËĪeÉªsÉªÅĭ":6645,"ĠfËĪÊĬli":6646,"am":6647,"ĠËĮÉĳËĲÉ¹":6648,"ĠÉ¡ËĪÉĽtÊĥÉĻ":6649,"ĠslÉĻd":6650,"ĠhËĪÉĽlplÉĻs":6651,"áµ»nËĮeÉªt":6652,"ĠwÉĻkÉĻn":6653,"ĠsÉĻÅĭz":6654,"ĠkÉ¹ËĪiËĲpÉªÅĭ":6655,"ĠhËĪÊĮslÉļ":6656,"ĠhÉľËĲsËĪÉĽlf":6657,"ĠhËĪoÊĬmz":6658,"ĠÉĽnt":6659,"Ġdáµ»kl":6660,"Ġdáµ»sËĪÉªÊĴÉĻn":6661,"ĠÉĲbjËĪuËĲs":6662,"ĠwËĪÉĽn":6663,"Ì©,":6664,"ĠmËĪÉĽsÉªÅĭ":6665,"hÉĳËĲÉ¹t":6666,"ĠkËĪÊĮst":6667,"ĠmËĪiËĲd":6668,"twËĪÉĽntiwËĪÊĮn":6669,"ËĮÉĽf":6670,"ËĮÉĽskËĮeÉªËĮÉĳËĲÉ¹tËĪiËĲ":6671,"ĠtÉ¹ËĪÊĮmp":6672,"ÉĽmpt":6673,"ËĪÉĽÉ¾":6674,"ĠtÊĥËĪÃ¦t":6675,"ĠtËĪoÊĬt":6676,"ĠdËĪaÉªnÉĲmËĮaÉªt":6677,"ĠklÉĻÃ°z":6678,"ĠÉĲpÉ¹ËĪiËĲÊĥÉªËĮeÉªt":6679,"huËĲ":6680,"ĠdÊĴËĪiËĲp":6681,"ĠdÊĴÉĻp":6682,"ËĮÉªks":6683,"ĠblËĪaÉªndáµ»d":6684,"Ġdáµ»lËĪÉªvÉļ":6685,"ĠbÉ¹ËĪÉªdÊĴáµ»z":6686,"ĠÉ¡ËĮÃ¦É¹ÉĻntËĪiËĲ":6687,"ĠtËĪÉªn":6688,"ĠstËĪÊĮdi":6689,"ĠhËĪÃ¦Êĥ":6690,"ĠnËĪiËĲdÉĻl":6691,"ĠlËĪÉĽÊĶn":6692,"ĠÉ¡ËĪuËĲnz":6693,"ĠhËĪÉªpnÉĻt":6694,"ĠklËĪÃ¦sÉªk":6695,"ĠnËĪÉĽt":6696,"É¡ÊĬd":6697,"É¡ËĪÉĳËĲÉ¾ÉĻ":6698,"tÊĥÉĻs":6699,"ĠhËĪÃ¦l":6700,"vËĪiËĲjËĪÉĽËĲ":6701,"ËĮÉĽsËĪeÉª":6702,"ĠkËĪÉĶfÉªn":6703,"ÊĮk":6704,"ĠmËĮÊĮlt":6705,"ĠsËĮÃ¦":6706,"ĠÎ¸ËĪÉľËĲtiËĲn":6707,"ĠwËĪÉĽÉ¹Éªn":6708,"ĠdËĪÊĮtÊĥ":6709,"ĠdËĪÉªks":6710,"ĠÉªv":6711,"ĠfÉ¹ËĪÉĽntÊĥ":6712,"ĠpÉĻpÉĻn":6713,"ĠkÉ¹ËĪÉĶËĲlÉªÅĭ":6714,"ĠlÉĻps":6715,"ĠkÉ¹ËĪeÉªv":6716,"ĠtËĪuËĲl":6717,"ĠÉ¹áµ»mËĪÉĽm":6718,"ĠÎ¸ËĪÃ¦ÅĭkfÉĻl":6719,"dÉļn":6720,"ĠkËĪaÉ¾i":6721,"ĠÉļÉ¹ËĪÉªdÊĴ":6722,"ĠsËĮÉªÉ¡ÉļÉ¹ËĪÉĽts":6723,"kËĪoÊĬ":6724,"sËĪÉªÅĭ":6725,"ĠtËĪeÉªbÉĻlz":6726,"ĠÉ¹ËĪeÉªl":6727,"ĠtÉ¹ËĪeÉª":6728,"ËĪÉĽkts":6729,"ĠÉ¹ËĪaÉªts":6730,"ĠstÉ¹ËĪÉĶËĲ":6731,"ĠtÉ¾ÉĻn":6732,"vÉªn":6733,"ĠdÊĴËĪeÉªk":6734,"ĠwËĪeÉªts":6735,"ĠÉ¾ÉĻv":6736,"ĠmËĪÃ¦É¡n":6737,"ÉļÉ¹ËĮÉªsks":6738,"ĠpËĪoËĲÉ¹d":6739,"ĠÉ¡É¹ËĪeÉªtfÉĻl":6740,"bÉĻÎ²ÉĻ":6741,"Ġdáµ»mËĪÃ¦nd":6742,"tËĪÉªk":6743,"ËĪÉľËĲts":6744,"ĠkËĪaÊĬntÉļ":6745,"jÊĬlÉĻs":6746,"ĠsËĪÉªÉ¡n":6747,"ÉĻmi":6748,"ĠÉ¾ËĪaks":6749,"ĠwËĪÉĶlÉªt":6750,"ĠbËĪÉª":6751,"ËĪÃ¦dÊĴÉªk":6752,"ĠplËĪeÉªnz":6753,"ĠdËĪÉĳËĲdÊĴ":6754,"ĠpËĪeÉªpÉļz":6755,"ĠkËĪoÊĬb":6756,"ĠpËĪÉľËĲfjuËĲm":6757,"ĠËĪÉĶËĲÉ¹ÉªndÊĴ":6758,"ĠbÉĻznÉĻs":6759,"ĠÉ¡ËĪÊĮÉ¾Éļ":6760,"uËĲk":6761,"ĠtÉĽmpt":6762,"ĠkÉ¹ËĪÉĳËĲnÉªk":6763,"ĠwÉĻv":6764,"ĠtÉ¹ËĪÃ¦pÉªÅĭ":6765,"ĠbËĪeÉªsÉªk":6766,"hËĪÃ¦nd":6767,"ĠÉ¹ËĪÉªs":6768,"ĠstÉ¹ËĪÊĮk":6769,"ËĮÉĳËĲÉ¹d":6770,"hoÊĬl":6771,"ĠlËĪÉªpstÉªk":6772,"fÉļÉ¹":6773,"ĠbËĪÉĳËĲn":6774,"Î¸ËĪÉĻz":6775,"ĠÉ¡ËĪoÊĬl":6776,"ĠfÉ¹ËĪuËĲt":6777,"ËĪÉªstÉªk":6778,"ĠsËĪÉľËĲfÉªs":6779,"ĠpÉ¹ËĪÉĳËĲdÉĻ":6780,"ĠvËĪÉľËĲsáµ»z":6781,"Ġáµ»vËĪÉĽn":6782,"ĠsÃ¦lvËĪeÉªÊĥÉĻn":6783,"ĠlËĪeÉªz":6784,"ÉĻlËĮÉªn":6785,"ÉĻntËĮaÉªn":6786,"ĠÉ¾ÉĻÉ£":6787,"ĠdÊĴËĪÉĶËĲÉ¹dÊĴ":6788,"tÉĻk":6789,"wËĪaÊĬ":6790,"ĠlÉĻnz":6791,"ÉĻnËĪeÉªd":6792,"ĠpËĪeÉªt":6793,"ĠblËĪÉªs":6794,"ĠkËĪÃ¦skÉªt":6795,"ĠpÉ¹ËĪiËĲtÊĥ":6796,"ĠmËĮÃ¦É¡ÉĲzËĪiËĲn":6797,"fËĮÉĶËĲl":6798,"kËĪÉĳËĲm":6799,"sËĪÉªÉ¹":6800,"ĠÃ°ËĮaÉª":6801,"ĠsËĪÉĽntÊĥ":6802,"ĠkËĮeÉª":6803,"ĠpËĪÉªks":6804,"ËĪÉľËĲm":6805,"ĠÊĮm":6806,"ĠwËĪÊĬdÉĻ":6807,"ĠmËĪÉĳËĲdÉļn":6808,"ĠÎ¸ÉĻnkÉĻn":6809,"ĠhËĪÃ¦fweÉª":6810,"ÉĶÉªz":6811,"ËĪÉªfts":6812,"ĠdËĪÉĶËĲÉ¡z":6813,"ĠÉĻmÉĻÉ¾ÉĻk":6814,"nÉªv":6815,"É¹Éªt":6816,"É¡ËĪÉĻ":6817,"ĠÉ¹áµ»b":6818,"ĠmÉĻnÉĻt":6819,"ĠwËĪaÉªldÉªn":6820,"ĠkËĪÉĳËĲÊĶn":6821,"ĠpËĪeÉªdÊĴáµ»z":6822,"ÊĮkt":6823,"ĠskËĪeÉªt":6824,"ËĮoÊĬm":6825,"ĠkËĪÉĳËĲÉ¹pÉªt":6826,"ĠstËĪÉĽpÉªÅĭ":6827,"ĠhËĪÉĽzáµ»tËĮeÉªt":6828,"pjuËĲt":6829,"yt":6830,"Î¸ÉĻm":6831,"ĠspËĪÉĽÉ¹":6832,"ĠplËĪeÉªÉļz":6833,"ĠfËĪaÉªts":6834,"ĠlÉĻvÉĻd":6835,"ĠËĮÉĽmsáµ»É¹ËĮÉªlÉªkjËĪÉĽËĲ":6836,"ĠnËĪÉĽklÉĻs":6837,"ĠÉĻkst":6838,"ĠmÉªsËĮÊĮndÉļ":6839,"ĠbËĪÊĮÉ¾ÉļflËĮaÉªz":6840,"ĠÉ¡É¹ËĪÃ¦vÉªÉ¾i":6841,"Î¸ËĪÉĻzÉĻnd":6842,"Ã¦ks":6843,"ĠpËĪÊĮn":6844,"ÉĻlËĮiËĲn":6845,"ĠslËĪÉªpt":6846,"ËĪÃ¦ndÉĻm":6847,"ĠmÉĻÃ°ÉĻfÉĻkÉĻ":6848,"ĠmËĮÃ¦É¹ÉªwËĪÉĳËĲnÉĻ":6849,"mi":6850,"ĠËĪaÉªd":6851,"sti":6852,"ĠÉ¹ËĪÉĶÉªs":6853,"ĠhÉĻmÉĻ":6854,"ĠkËĪÉĳËĲÅĭ":6855,"ĠlËĪÉªstÉĻnËĮÉªn":6856,"ĠËĪÉªÅĭk":6857,"ĠbaÉª":6858,"ĠÉ¡É¾ÉĻs":6859,"ĠfËĪÊĮs":6860,"ĠsËĪÉĽÉ¾ÉªÅĭ":6861,"ĠflËĪÉĽksÉªÅĭ":6862,"ĠkËĪÊĬkÉªÅĭ":6863,"ĠÉĽmb":6864,"mËĪeÉªd":6865,"ĠsËĪeÉªtÉĻn":6866,"ĠkËĪÉĳËĲÉ¹É¾Éļ":6867,"ĠÉĻmÉĻmÉĻm":6868,"ĠbËĪÊĮkÉªt":6869,"jËĪÊĮp":6870,"ĠfËĪiËĲm":6871,"ĠstÉ¹ËĪoÊĬk":6872,"ĠkÉĻlËĪe":6873,"ĠËĪiËĲkwÉĻl":6874,"wËĪÉªl":6875,"ĠËĪÉĶÉª":6876,"ĠÉ¹ËĪÉĳËĲki":6877,"ĠkËĪÃ¦ndÉĻlz":6878,"ĠaÉªdËĪi":6879,"ĠËĪan":6880,"ĠkËĪÉĽn":6881,"ĠkÉĻst":6882,"ĠfjÉĻt":6883,"ËĪÉĽmjËĪÉĽËĲ":6884,"ĠdÊĴËĪÉĽnt":6885,"ĠsnËĪuËĲp":6886,"sËĮiËĲËĪeÉªtÊĥ":6887,"ĠdËĪÉĽfÉªn":6888,"ĠwÉĻlz":6889,"ĠmËĪeÉªt":6890,"ĠÉ¹ËĪÊĮÉ¡":6891,"ĠÊĥÉĻm":6892,"ËĮÃ¦nd":6893,"ĠspËĪaÉªd":6894,"ĠswËĪÉªtÊĥÉªn":6895,"ĠpÉļf":6896,"ĠkËĪÉľËĲtÉĻnz":6897,"ĠtËĪÉĳËĲksÉªk":6898,"ĠbÉ¹ËĪeÉªs":6899,"ËĪÊĮkt":6900,"ËĪeÉªtÊĥjËĪÉĽËĲ":6901,"ĠfËĪÉªlm":6902,"ĠbÉ¾ÉĻÎ¸":6903,"ĠsËĪÉľËĲkÉĻs":6904,"ĠkÉļÉ¹ËĪÉªÉ¹":6905,"ĠwËĪÉªÉ¹i":6906,"ĠÊĥËĪÉĽÉ¹d":6907,"ĠdËĪuËĲm":6908,"ĠbÉĻÉ£":6909,"Ġdáµ»fËĪÉĽns":6910,"ÉĻltËĮoÊĬ":6911,"ĠwËĪÉªd":6912,"ËĪÃ¦É¾":6913,"ĠfËĮÉĻ":6914,"ĠtÊĥËĪÃ¦p":6915,"ĠdÉ¹ËĪÉĶËĲÉ¹":6916,"ĠfÉ¹ËĪÉĽndli":6917,"ĠhËĪÉĳËĲv":6918,"!!!":6919,"ĠpÉ¹ÉĻvËĪaÉªd":6920,"ÉĻmÉĻnt":6921,"ĠpÉ¹ÉĻm":6922,"ĠÉĲwËĪÉĽÉ¹":6923,"ĠdÉ¾ÉĻÉ¡z":6924,"ĠpÉ¹ÉªpËĪÉĽÉ¹d":6925,"ĠÉªÅĭkÉ¹ËĪÉĽdÉªbÉĻl":6926,"stËĪÉĳËĲÉ¹":6927,"ĠdÊĴËĪÃ¦z":6928,"ĠtÉ¹ËĪoÊĬ":6929,"ĠËĪÃ¦t":6930,"ËĪÉªliÉĻn":6931,"ĠkËĪÊĮltÊĥÉļ":6932,"ĠkËĪÉľËĲb":6933,"sÉļ":6934,"ĠdÊĴËĪÃ¦É¡":6935,"ĠhËĪÉĳËĲÉ¹tlÉĻs":6936,"ĠfjÉĻtjÉĻ":6937,"mÉĽn":6938,"Ã¦st":6939,"ĠËĪeÉªliÉĻn":6940,"ËĮÉªnstÉ¹ÉĻmËĪÉĽntÉĻl":6941,"ĠwÉĻkÉĻd":6942,"ĠtÉ¾ÉĻÉĻn":6943,"É¹ËĪaÉªd":6944,"ĠbÉĻlz":6945,"ĠnËĪÉĳËĲlÉªdÊĴ":6946,"ĠÉ¾ÉĻvÉĻ":6947,"ĠlËĪeÉªÉ¾Éªst":6948,"ĠmËĪÉªsÉĻltËĮoÊĬ":6949,"ĠsËĪÊĮkÉªn":6950,"ĠzËĪÃ¦nz":6951,"É¡ÉĻlz":6952,"ËĪÉªpi":6953,"kËĪÊĮmÉªÅĭ":6954,"ËĪÃ¦ÅĭÉ¡ÉĻld":6955,"Ã¦Åĭ":6956,"ËĮÉĳËĲk":6957,"ĠkÉĻmËĪÉªt":6958,"pÉ¹ËĮuËĲ":6959,"ĠnËĪÉªÉ¹li":6960,"ĠklËĪaÉªmÉªÅĭ":6961,"ĠÉĲfËĪÉĽkÊĥÉĻn":6962,"ĠÎ¸É¾":6963,"É¾ÉĻÉ¡É¹ËĮÃ¦f":6964,"ĠmËĪeÉªkÊĮp":6965,"ĠkËĪÊĬdÉĻ":6966,"ĠhËĪÉĽlpt":6967,"ĠtËĪÉĳËĲÉ¹É¡Éªt":6968,"iËĲÉĻl":6969,"ĠdËĪÉªm":6970,"ĠstËĪoÊĬv":6971,"ĠplËĪÃ¦nt":6972,"ÉĻbËĪÉªl":6973,"fËĪÉľËĲst":6974,"ĠtÊĥËĪÉĽkÉªÅĭ":6975,"ĠÉ¹áµ»kËĪoËĲÉ¹d":6976,"ĠÉ¡É¹ËĪÃ¦mz":6977,"ĠmËĮÉªs":6978,"ĠkÉĻvËĪo":6979,"ĠdÊĴËĪÉªpsi":6980,"ĠsËĪoÊĬk":6981,"ĠpËĪeÉªl":6982,"ĠÉĲtËĪÃ¦tÊĥt":6983,"ĠËĪÃ¦vÉĻnËĮuËĲ":6984,"ĠsÉĽ":6985,"ĠzËĪoÊĬ":6986,"ĠwËĪuËĲndz":6987,"ĠbËĪÉĳËĲÉ¹b":6988,"kËĪÉªl":6989,"wÉĻl":6990,"ĠÉĻsÉĻ":6991,"ËĪuËĲuËĲ":6992,"ĠpËĪaÊĬdÉļ":6993,"tÊĥaÉª":6994,"ĠÉ¹ËĪuËĲmÉļz":6995,"ĠtËĪÉĳËĲmi":6996,"ĠwÉĻm":6997,"ĠbËĪÃ¦ÅĭkÉ¹oÊĬ":6998,"ĠfËĪÉĳËĲloÊĬd":6999,"ĠkÉĻnsËĪÉªd":7000,"ĠËĮoÊĬvo":7001,"ĠËĪÉªÉ¡nÉļÉ¹":7002,"ÊĮv":7003,"ÉĻpÉĻ":7004,"ĠfËĪÉªÉ¡jÉļz":7005,"ĠÉ¾ËĪaÃ°o":7006,"ĠhjÉĻmÉĻn":7007,"É¹áµ»m":7008,"ĠdÊĴËĪÉĶËĲ":7009,"É¾iz":7010,"ÉĻntlÉĻ":7011,"ÉĽz":7012,"ĠdËĪaÉªmz":7013,"ĠnËĪaÉªnhËĪÊĮndÉ¹ÉĻd":7014,"ĠjËĪÉĽp":7015,"Ã¦s":7016,"ĠbËĪank":7017,"ĠÉ¹ËĪeÉªp":7018,"ËĪÉľËĲÉ¹i":7019,"ĠtÉ¹ËĪÃ¦dÊĴ":7020,"ĠkwÉĻk":7021,"ĠËĪÉĳËĲks":7022,"pÉ¹ËĮuËĲf":7023,"ĠdËĪÉªtÊĥ":7024,"fÉ¹ÊĮm":7025,"ĠwËĪÉªÊĥáµ»z":7026,"ĠbÉĻts":7027,"ĠÉļÉ¹ËĪÉĽst":7028,"ĠÉĽkstÉ¹":7029,"ĠhËĪÉĳËĲmÉªsËĮaÉªd":7030,"nÉļÉ¹ÉĻl":7031,"ĠdÊĴÉĻnÉĻ":7032,"ËĪÉĳËĲÉ¹ks":7033,"ĠskËĪeÉªl":7034,"ĠpËĪÃ¦É¹ÉĻ":7035,"ĠËĪeÉªkÉªÅĭ":7036,"ĠÉªmpÉ¹ËĪÉĽs":7037,"tÉªm":7038,"É¡oÊĬz":7039,"Ã°ÉªÅĭ":7040,"ĠtÉ¹ËĪÉĽm":7041,"ĠpÉ¹ËĪÉĳËĲs":7042,"ĠÉ¹ËĪÃ¦É¾ÉĻl":7043,"ĠfËĪoÊĬÉ¾ÉĻÉ¡É¹ËĮÃ¦f":7044,"ĠnÉĻmbËĪo":7045,"ĠkÉ¹ËĪiËĲpÉªn":7046,"ĠbËĮiËĲËĮÉĳËĲÉ¹É¹ËĪÉĳËĲÉ¹":7047,"ĠtËĪakÉĻn":7048,"ĠstËĪÉªtÊĥ":7049,"ĠbËĪÃ¦ÅĭÉªÅĭ":7050,"ĠbÉ¾ËĪand":7051,"ĠÉ¡É¹ËĪiËĲdi":7052,"ĠÉ¡ËĪiËĲkt":7053,"sÉĻns":7054,"ËĮiÉĻ":7055,"ĠstÉĻf":7056,"ËĪatÉĻn":7057,"ĠfjËĪuËĲnÉļÉ¹ÉĻl":7058,"ĠkÉĻnfjËĪuËĲz":7059,"ĠsËĪÉľËĲtÊĥÉªn":7060,"sÉĻz":7061,"ĠsËĮÃ¦n":7062,"ĠkËĪam":7063,"ĠstËĪÊĮn":7064,"ĠtÉĻkËĪiËĲlÉĻ":7065,"ĠtÉ¾ËĪak":7066,"ĠstËĪÉĽÉ¹ÉªËĮoÊĬ":7067,"tÉļz":7068,"ËĮÊĬÉ¹":7069,"tÊĥËĪÉĳËĲ":7070,"ËĮoÊĬz":7071,"É¹oÊĬz":7072,"twËĪÉĽlv":7073,"ĠdÉĻvÉĻl":7074,"ĠpÉļÉ¹ËĪeÉªd":7075,"ĠËĪaÉªst":7076,"ĠÉĻÎ¸":7077,"ĠvËĪÊĮl":7078,"ĠËĪÉĳËĲdz":7079,"ĠsËĪeÉªkÉ¹Éªd":7080,"ĠËĪÃ¦fÉ¹ÉªkÉĻ":7081,"ĠÉĲwËĪaÉªl":7082,"ĠfËĪoËĲÉ¹hËĪÊĮndÉ¹ÉĻd":7083,"ĠÉĲfËĪÉĽÉ¹":7084,"pËĪoÊĬzd":7085,"ĠvËĪaÊĬ":7086,"ĠbËĪÃ¦É¹ÉĻl":7087,"tÉ¹ËĪaÉª":7088,"ĠskÉ¹ËĪiËĲmz":7089,"ĠÉªmËĪoÊĬÊĥÉĻnÉĻl":7090,"ĠsÉĻÅĭÉ¡lÉĻ":7091,"ĠsÉĻdÊĴ":7092,"ĠbËĪÊĮb":7093,"ĠÉ¹ËĪÊĮst":7094,"ĠmËĪiËĲts":7095,"ĠpËĪÊĬs":7096,"ĠnËĪÊĮtÉªn":7097,"ĠsÉĻkÉ¾ÉĻt":7098,"ËĪÉªÉ¹iÉĻl":7099,"ĠdËĪÉĳËĲmÉªn":7100,"pjËĪuËĲ":7101,"ĠpËĪiËĲl":7102,"ËĪÉĻÊĥÉĻn":7103,"ĠflËĪÉªpÉªn":7104,"ĠvËĪeÉªk":7105,"ĠhËĪÉĳËĲÉ¾Éªst":7106,"ÉĻktËĪyÉĻn":7107,"ĠsËĪÉľËĲvÉªn":7108,"ĠsËĪaÉªÉ¹ÉĻnz":7109,"lËĪÉĽs":7110,"ĠsÉĽns":7111,"ÉĻÅĭz":7112,"ĠËĮoÊĬvÉļsËĪiËĲz":7113,"ĠËĪÉĽntÉļ":7114,"ĠtËĪiËĲneÉªdÊĴ":7115,"ĠÉªtsËĪÉĽlf":7116,"ĠstËĪÉªÅĭ":7117,"ĠËĪÃ¦li":7118,"ĠwËĪÉľËĲÊĥÉªp":7119,"ĠsËĪÉªÉ¾iz":7120,"ËĪÉĳËĲÉ¹É¹ÉĻ":7121,"ĠÉĽkspËĪiÉĻÉ¹Éª":7122,"ĠtÉ¹ËĪÉªps":7123,"ËĪÃ¦ndoÊĬ":7124,"ĠsmËĪÉªÎ¸":7125,"ĠmËĪoÊĬd":7126,"blËĪÃ¦k":7127,"ĠtËĪeÉªsts":7128,"ĠvËĪÉľËĲdÊĴÉªn":7129,"ĠËĪaÊĬtlÉĶËĲ":7130,"ĠÊĮmbÉ¹":7131,"-)":7132,"kËĪÊĮz":7133,"uËĲl":7134,"Ã¦p":7135,"ĠÉ¡ËĪÉªÉ¹":7136,"dÊĴËĮiËĲËĮÉĳËĲÉ¹É¹":7137,"ĠvËĪÉªp":7138,"ĠspËĪoÊĬkÉĻn":7139,"ĠÉ¹ËĪiËĲpleÉª":7140,"ĠËĮÉªntÉ¹ÉĻdËĪuËĲs":7141,"Ġ!":7142,"ÉªÉ¾Éļ":7143,"ĠpËĪÊĮp":7144,"ĠÎ¸ËĪiËĲf":7145,"ĠËĮÉĽmËĪÉĽs":7146,"É¾ÉªkÉĻl":7147,"ĠkËĪÃ¦mp":7148,"ĠtËĪÉĽmpt":7149,"ËĪÃ¦zÉªn":7150,"bËĪiËĲt":7151,"ÉªtÊĥÉļ":7152,"ËĪiËĲÉĻ":7153,"ĠsËĪÊĮÅĭ":7154,"ĠkËĪÊĬkÉªn":7155,"ĠpÉ¹ËĪaÉªz":7156,"ĠtwËĪiËĲk":7157,"ËĪÉĽpÊĥÉĻn":7158,"ĠËĪaÊĬÉ¾Éļ":7159,"ĠbËĪÉĳËĲÉ¾ÉĻmz":7160,"ĠkÉ¹iËĲËĪeÉªt":7161,"ĠmËĮÊĮltÉª":7162,"ĠdËĪÊĮv":7163,"ĠÉ¡ËĪÉľËĲ":7164,"ĠspËĪÉĳËĲtlaÉªt":7165,"bËĪÉĳËĲdi":7166,"ĠsËĪÉĽmaÉª":7167,"ĠhÉļÉ¹ËĪaÉªz":7168,"ÊĬlf":7169,"ĠmËĪakÉĻn":7170,"ĠtËĪaÉªÉ¡Éļ":7171,"ÉªndÊĴÉļ":7172,"ĠÉĲvËĪÉĶÉªd":7173,"ĠÉ¹áµ»É¡ËĪÉĳËĲÉ¹d":7174,"kËĮeÉª":7175,"ĠdÉ¹ËĪiËĲmÉļ":7176,"É¾Éªsf":7177,"ĠpÉ¹ËĪÉĳËĲdÊĴÉĽkt":7178,"ĠfËĪuËĲld":7179,"ĠfËĪÃ¦É¡":7180,"Éªnt":7181,"ĠdÊĴËĪÃ¦n":7182,"ĠklËĪaÊĬt":7183,"ËĮoÊĬp":7184,"ĠlËĪuËĲt":7185,"ÉĻsÉĻËĪal":7186,"ĠstÉ¾ÉĻndÊĴÉĻ":7187,"ĠtËĪeÉªlz":7188,"ĠpËĪoÊĬloÊĬ":7189,"ĠbËĪÊĬlÉªtpÉ¹ËĮuËĲf":7190,"ĠÉ¡ËĪÊĮts":7191,"ĠtËĪoÊĬl":7192,"Ġpi":7193,"ĠsËĪiËĲl":7194,"ĠdÉ¹ËĪuËĲ":7195,"ĠÉ¹áµ»vËĪiËĲl":7196,"ĠËĪÉªz":7197,"ĠmeÉª":7198,"ËĪeÉªdáµ»d":7199,"ĠmËĪuËĲvmÉĻnt":7200,"ĠkÉ¹ËĪÉªmÉªnÉĻl":7201,"ĠÉ¹ËĪÉĶÉªÉĻl":7202,"pjuËĲtËĪeÉªÊĥÉĻn":7203,"dËĪÊĮn":7204,"ÉĻnÉĻt":7205,"É¾aÊĬt":7206,"ĠbÉ¹ËĪuËĲz":7207,"ĠËĪÉĶËĲsÊĮm":7208,"dÉ¹ËĪÉĳËĲp":7209,"ĠhËĪaÊĬzáµ»z":7210,"ËĪÉĽksÎ¸É¹ËĪiËĲ":7211,"ĠkÉ¹iËĲËĪeÉªÉ¾áµ»d":7212,"ĠdËĪeÉªvÉªd":7213,"lËĪiËĲv":7214,"ËĪiËĲjËĪÉĽËĲ":7215,"ĠsÉĻlÉĻ":7216,"ĠdÊĴËĪÊĮstÉªs":7217,"ĠskËĪÉľËĲt":7218,"ĠpËĪoÊĬÉªt":7219,"ĠÉ¹áµ»plËĪaÉª":7220,"fÉļmËĪeÉªÊĥÉĻn":7221,"ĠfÉ¹ËĪaÉªÊĶn":7222,"ĠjËĪÉĶËĲl":7223,"ËĪÊĮndÉļ":7224,"tÊĥËĪeÉªndÊĴ":7225,"ËĪÉĻtÉĻ":7226,"ĠÉ¹áµ»h":7227,"ĠtËĪÉĽnÊĥÉĻn":7228,"ÉĲÉĲËĮÃ¦":7229,"ĠpËĪÊĮl":7230,"ĠspËĪiËĲtÊĥ":7231,"juËĲÉ¡":7232,"ÉªmÉĻnt":7233,"ĠsÉĻmwÉĻ":7234,"ĠstËĪiËĲlÉªÅĭ":7235,"swËĪiËĲt":7236,"ĠdËĪÉĽspÉļÉ¹ÉĻt":7237,"ĠÉ¹ËĪÉĽmÉĻdi":7238,"ĠÉļÉ¹ËĪÉªdÊĴÉªnÉĻl":7239,"ĠkÉ¹ËĪÊĮm":7240,"dÊĴÉĻn":7241,"ĠÉ¹ËĪiËĲdÉªÅĭ":7242,"ĠfËĪeÉªvÉ¹Éªt":7243,"ĠdËĪÉªdÊĴÉªts":7244,"ĠbËĪÃ¦ksiËĲt":7245,"lÉĻmz":7246,"ĠkËĪiËĲl":7247,"ĠÉ¡ËĪÉĽst":7248,"ĠfËĪÉªli":7249,"ËĮÉªÉ¹":7250,"ĠzËĪÉĳËĲm":7251,"pÉªd":7252,"ĠsËĪaÊĬÉļ":7253,"ĠdËĪÉªzi":7254,"ÉĲÉ¡É¹ËĮÃ¦m":7255,"ĠblËĪÊĮf":7256,"ĠtÉĻkËĪi":7257,"stÉ¹ËĪeÉª":7258,"ĠÉ¡É¹ËĪÃ¦bd":7259,"ĠsËĪÃ¦É¾ÉĻl":7260,"ĠkÉĻmplËĪiËĲtli":7261,"[?]":7262,"ËĮal":7263,"ĠsËĪÉªmpÉĻÎ¸i":7264,"tÉĻnËĪaÉªt":7265,"ĠsËĪÊĮfÉļÉ¹ÉªÅĭ":7266,"bËĮÉªn":7267,"ĠËĪÉĶÉªl":7268,"ĠÉĻdÊĴÉĻ":7269,"ĠstËĪÉľËĲ":7270,"ËĮoÊĬs":7271,"skÉ¹ËĪaÉªb":7272,"ĠhËĪoÊĬmtaÊĬn":7273,"ĠÉ¹ËĪoÊĬlÉĽks":7274,"ĠkËĪÃ¦tÊĥÉªn":7275,"ĠwËĪÊĮndÉļÉ¹ËĮÉªn":7276,"ĠÉ¹ËĪÃ¦ts":7277,"ĠwËĪÉĽnzdeÉª":7278,"ËĪÃ¦ft":7279,"ĠpËĪÉĽnt":7280,"ĠklÉĻm":7281,"ĠflÉĻp":7282,"ĠsmËĪÉªl":7283,"ĠmËĪÃ¦Î¸":7284,"ĠfËĪaÉªnÉªst":7285,"ĠtÊĥËĪÉĽkÉªn":7286,"ĠhËĪÊĮnÉªdz":7287,"ĠbËĪuËĲlÉªv":7288,"ĠËĪÃ¦É¡aÉª":7289,"ĠbËĪÉªd":7290,"ËĪÃ¦É¡z":7291,"ĠlËĪÉĳËĲks":7292,"ÊĥËĪaÉªn":7293,"ĠdÊĴËĪak":7294,"ĠmËĪeÉªkÉļ":7295,"ĠpËĪÊĬts":7296,"ĠslËĪÉĶËĲÉ¾Éļ":7297,"ĠËĪÃ¦nÉªmÉĻlz":7298,"bËĮiËĲËĮÉĳËĲÉ¹É¹ËĮÉĳËĲÉ¹tËĪiËĲ":7299,"ĠwÉĻs":7300,"ĠbËĪaÉªÉªn":7301,"ĠtÉ¾ÉĻÎ²lÉĻ":7302,"ĠkËĪeÉªsáµ»z":7303,"ĠpÉļsËĪÉĽnt":7304,"ĠdËĪÉĽfÉªnÉĻtli":7305,"ĠmÉĲ":7306,"ËĪeÉªÉ¾Éļ":7307,"ĠÉ¡ÉĻst":7308,"ĠÉ¹ËĪÉĶs":7309,"ĠdÊĴËĪÉĳËĲÉ¹":7310,"ËĮeÉªts":7311,"ĠÉ¡ËĪÊĬdb":7312,"ĠËĮÉĽks":7313,"ĠnËĪaÉªk":7314,"ĠklËĪÉĽvÉļ":7315,"kËĪeÉªjËĪÉĽËĲ":7316,"ĠkËĪuËĲlÉļ":7317,"ĠspËĪiËĲkÉªn":7318,"ĠÉ¡É¹ËĪaÉªndÉªÅĭ":7319,"ĠwËĪÉĳËĲÊĥÉªÅĭ":7320,"ĠdËĪeÉªdÉ¹iËĲm":7321,"hËĪÉĳËĲl":7322,"ĠmËĪiËĲl":7323,"Ã°ÉľËĲ":7324,"ĠbÉ¹ËĪuËĲ":7325,"ĠdÊĴËĪuËĲk":7326,"ËĪÉĳËĲÉ¹É¹ËĮÉĳËĲÉ¹É¹":7327,"ĠÉ¹ËĪeÉªzÉļ":7328,"ĠkËĪÉĶËĲÉ¹nÉļz":7329,"ĠbÉĻnÉĻÅĭ":7330,"ĠmÉĻstËĪo":7331,"bÉľËĲd":7332,"ĠlËĪÉĶÉªÉĻlÉ¾i":7333,"ĠpËĪÉĽpÉļ":7334,"ĠpÉĻktjÉĻ":7335,"bÉĶÉªz":7336,"ĠdaÉª":7337,"ĠlÉĻÉĻÅĭ":7338,"Ġkan":7339,"pÉ¹ÉĻm":7340,"ĠwÉĻÊĥËĪÊĮp":7341,"ĠkËĪÉĳËĲlÉļ":7342,"ĠmÉĻvÉĻÅĭ":7343,"ĠpÉ¹ËĪÉĳËĲdÊĮkt":7344,"uËĲm":7345,"ĠdÊĴËĪÊĮÉ¡":7346,"ĠkÉĻnËĪÉĽkÊĥÉĻn":7347,"ĠhËĪÉľËĲtÉªn":7348,"ĠÉ¡ÉĻmËĪi":7349,"boÊĬz":7350,"wÉĻd":7351,"ĠlËĪÉĶËĲn":7352,"ĠlËĪaÉªÉ¾Éļ":7353,"ËĪÉªtÉªn":7354,"É¾ÉļÉ¹":7355,"bÉ¹ÉĻ":7356,"ĠsmÉĻkÉĻn":7357,"hÉĲhËĪÉĳËĲhÉĻ":7358,"ĠtÉ¹ËĪÃ¦dÊĴÉĻdi":7359,"ĠtËĪÉĳËĲn":7360,"ĠkËĪeÉªp":7361,"ÊĥÉª":7362,"ĠtÉ¾ÉĻp":7363,"ĠdÊĴËĪÊĮdÊĴmÉĻnt":7364,"ĠsÉĻsËĪaÉªÉĻÉ¾i":7365,"bÉĻnd":7366,"pËĪoÊĬ":7367,"wËĪÉĽst":7368,"Ġsáµ»d":7369,"ĠÉ¹ËĪÉªpt":7370,"ĠdÊĴËĪÉªÉ¡ÉĻ":7371,"ĠdÉ¹ËĪoÊĬ":7372,"ĠklËĪÉªÅĭ":7373,"ĠÉĲÉ¡É¹":7374,"ĠkËĪÊĮs":7375,"ĠÉĻÎ²ËĪÉĻv":7376,"ĠÉ¡É¹ËĪoÊĬÉªn":7377,"ĠlËĪiËĲdÉªÅĭ":7378,"ĠÉ¹ËĪaÉªtÊĥÉĻs":7379,"ĠËĪymÉĻ":7380,"ĠdÉĻdÊĴÉĻ":7381,"ĠnËĪoÊĬts":7382,"ĠdÉ¹ËĪÉĶËĲn":7383,"Ìĥ?":7384,"ËĪÉľËĲnÉªÅĭ":7385,"ĠtËĪÊĮtÊĥÉªn":7386,"ĠtwËĪÉĽntifËĪaÉªv":7387,"ĠsËĪuËĲnÉļ":7388,"É¡lÉªÊĥ":7389,"tËĪaÉª":7390,"ÊĥËĪo":7391,"ËĪiËĲzÉĻ":7392,"ĠfËĪaÉªÉļd":7393,"ĠbËĪand":7394,"ĠsËĪuËĲpÉļmËĮÃ¦n":7395,"ĠmËĮoÊĬ":7396,"ĠÉ¡ËĪÊĮm":7397,"ĠstÉĻlÉĻ":7398,"ËĪÉĳËĲÉ¹ts":7399,"ĠslËĪÉªdÉªn":7400,"ĠmËĪÉĳËĲmz":7401,"ĠflËĪoÊĬÉªÅĭ":7402,"ĠkÉĻtÊĥ":7403,"ĠÉ¡ËĪeÉªz":7404,"ĠtÊĥËĪÃ¦l":7405,"ĠswËĪÉĽl":7406,"ndÊĴÉĻz":7407,"ĠlÉĻks":7408,"É¹iÉĻs":7409,"ĠsnËĪÉªf":7410,"ĠwËĪÊĮndÉļlÉĻnd":7411,"ĠÉ¾ÉĻdÉĻÅĭ":7412,"ĠdÉªstËĪÉľËĲb":7413,"ĠlËĪÉªsÉĻnd":7414,"mËĪÉĳËĲm":7415,"ÉĻlÉĻs":7416,"ĠstËĪuËĲ":7417,"ĠtÊĥÉĻ":7418,"ĠhÉĻtÉĻÅĭ":7419,"ËĪÉĽktÉªv":7420,"ĠÊĥËĪaÉªni":7421,"ËĮaÉªzÉļ":7422,"ĠspÉ¹ËĪaÉªt":7423,"ĠpÉ¹ËĪÉªnsÉĽs":7424,"ĠsÉĽnsËĪeÉªÊĥÉĻn":7425,"ĠmËĮÉĳËĲÉ¹":7426,"ĠtËĪaÊĬ":7427,"ĠtÃ¦t":7428,"ËĮÉĽskËĮeÉªËĮÉĳËĲÉ¹É¹ËĪÉĳËĲÉ¹":7429,"ĠnÉĻwÉĻ":7430,"ĠÉĻnst":7431,"ÉĻnsáµ»z":7432,"ĠflËĪaÉªÉļ":7433,"ĠbÉĻlÉĻÅĭ":7434,"ĠÉ¡ËĪÃ¦sÉĻlËĮiËĲn":7435,"ĠnËĪoËĲÉ¹mÉĻl":7436,"ĠfÉ¹ËĪÉĶst":7437,"ËĪaÉªdÊĴ":7438,"ĠvËĪaÉªn":7439,"ĠtÉ¹ËĪÊĮbÉĻld":7440,"ĠblËĪÉĳËĲnd":7441,"ĠÉ¡ËĪÊĬdbaÉªz":7442,"ĠÉ¹ËĪÉĽn":7443,"ĠËĪÊĮps":7444,"ĠsËĪoÊĬÊĥÉĻl":7445,"ĠbÉ¹ËĪiËĲd":7446,"ĠpËĪÃ¦sÉªn":7447,"ĠbËĪandz":7448,"ĠpËĪiËĲÉ¾Éļ":7449,"ĠÉªlËĪÉĽvÉĻn":7450,"ĠvËĪÃ¦lÉĻntËĮaÉªn":7451,"ĠËĪÉªnstÉĲÉ¡É¹ËĮÃ¦m":7452,"wÉľËĲk":7453,"lËĪÉĶËĲÉ¹d":7454,"ĠdËĪÉĽv":7455,"ĠÉ¡ËĪoÊĬlz":7456,"áµ»mÉĻt":7457,"ĠÉ¹ËĪÉĽpÉªn":7458,"ĠstÉ¹ËĪaÉªps":7459,"ĠdÉ¹ËĪeÉªn":7460,"ĠskËĪÉĽl":7461,"ĠkÉ¾ËĪak":7462,"pËĪÊĬ":7463,"ĠsËĪÉĽn":7464,"É¡ËĪÊĮn":7465,"ĠÊĥËĪiËĲp":7466,"ĠËĪÉªnÉļ":7467,"taÉªmz":7468,"ĠËĪÉªÅĭÉ¡lÉªÊĥ":7469,"ĠwËĪoËĲÉ¹n":7470,"ĠbËĪÊĮÉ¾ÉļflËĮaÉª":7471,"ĠstËĪÉªÉ¹":7472,"ĠlËĪÉªf":7473,"ĠÉĻnt":7474,"ĠslËĪiËĲps":7475,"ĠÊĥËĪÉĽlz":7476,"ĠtÃ¦tËĪuËĲz":7477,"wËĪÊĬd":7478,"ĠkËĪand":7479,"ĠÊĥËĪÃ¦É¾Éļd":7480,"ĠtËĪÉĽláµ»vËĮÉª":7481,"ĠpÉ¾ÉĻÎ²lÉĻm":7482,"ĠkËĪÉªÉ¾i":7483,"stËĪÉªl":7484,"É¹ËĮiËĲn":7485,"ĠËĪÉĳËĲÉ¹ËĪaÉªpËĪiËĲ":7486,"ĠwËĪÉĶËĲÉ¹z":7487,"ĠÉ¡ËĪoËĲÉ¹dÊĴÉĻs":7488,"ĠËĮÉªndáµ»pËĪÉĽndÉĻnt":7489,"al":7490,"ĠfËĪÉĽÉ¹i":7491,"ÉĻlÉĻt":7492,"ÉĻpi":7493,"ËĪÉªstÉļ":7494,"ĠkËĪÊĮÉ¾ÉªÅĭ":7495,"ĠlËĪoÊĬÉļ":7496,"ĠËĪÉĶËĲfÉĻl":7497,"ĠklËĪaÊĬdi":7498,"ĠkËĪÉľËĲÉ¹":7499,"bÉľËĲÉ¡":7500,"ĠkanËĪÉĻt":7501,"ĠtËĪeÉªm":7502,"ĠlËĪÉĳËĲbi":7503,"ĠpËĪiËĲn":7504,"ĠËĪoÊĬl":7505,"ËĮÉĽlÉĻbÉ¹":7506,"ĠÃ¦nt":7507,"ĠfËĪoÊĬni":7508,"ĠtwËĪÉĽntitËĪuËĲ":7509,"Ġdáµ»lËĪÉªv":7510,"Î¸É¹ËĪoÊĬ":7511,"ĠpÉ¹ÉªpËĪÉĽÉ¹":7512,"ĠjËĪaÊĬ":7513,"ĠtÊĥËĪÉªn":7514,"ĠÎ¸É¹ËĪÉĽt":7515,"ËĪÉĽstÉĻ":7516,"ĠÉĲwËĪÃ¦":7517,"ĠmËĪÊĮsÉĻl":7518,"ĠsmËĪaÉªld":7519,"ĠlÉĻkÉĻ":7520,"ĠËĮÉĽvÉļ":7521,"ĠfËĪÉªlÉªÅĭ":7522,"ĠkËĪÉªn":7523,"Êĥi":7524,"ĠmËĪÉĽmfÉªs":7525,"baÉª":7526,"ĠËĮeÉªtÊĥËĪÉĽm":7527,"ĠfÉªl":7528,"ĠpËĪÃ¦ks":7529,"ĠkËĪÃ¦nÉĻn":7530,"dÊĴoÊĬ":7531,"ĠÉªlËĪuËĲÊĴÉĻn":7532,"ËĪÉĽft":7533,"ĠdËĪiËĲv":7534,"ËĪÉĶËĲlÉĻs":7535,"ÉĶËĲÉ¹n":7536,"ĠvÉĻs":7537,"ÉªdÉĻ":7538,"ĠfÉļÉ¹ËĪÉĳËĲÉ¹É¹i":7539,"ĠjËĮuËĲËĮÉĽsËĪeÉª":7540,"kËĪiËĲ":7541,"lËĪoÊĬd":7542,"ĠjÉĻn":7543,"stËĪÊĬd":7544,"ĠmËĪiËĲÉ¾ÉªÅĭ":7545,"ĠÉĲst":7546,"ĠtÉ¹ËĪaÉªÉĻl":7547,"ĠÉ¹ËĪaÉªdz":7548,"ĠkwËĪÉªkli":7549,"Ġdáµ»fËĪiËĲt":7550,"Ġáµ»vËĪÉĽntÊĥuËĲÉĻli":7551,"wËĪÉľËĲd":7552,"ĠtÉ¹ËĪÉªnÉĻ":7553,"ĠpÉĻmp":7554,"ĠsËĪeÉªlÉªÅĭ":7555,"ĠtÉĻp":7556,"ĠtÉ¹ËĪaÉªz":7557,"ĠsËĪÉĻlÉĻ":7558,"ĠËĪÉĽmp":7559,"ĠfËĪoÊĬnz":7560,"ĠbËĪuËĲlÉªvËĮÉĳËĲÉ¹d":7561,"kËĪÃ¦Êĥ":7562,"ĠsËĮÉĽlÉĻbÉ¹":7563,"ĠtËĪÉĶËĲÉ¹tÊĥ":7564,"É¡ËĮÉĻnÉĻ":7565,"ĠËĪÃ¦ndÊĴ":7566,"ĠflËĪiËĲ":7567,"ËĪÉĳËĲÉ¹dáµ»d":7568,"ĠÉĲmËĪaÊĬnt":7569,"ËĪÃ¦stÉļÉ¹ËĮÉªskÉĲstÉļÉ¹ËĮÉªskÉĲstÉļÉ¹ËĮÉªsk":7570,"ĠkÉ¹ËĪaÊĬdáµ»d":7571,"ĠtÊĥËĪiËĲÉ¾ÉªÅĭ":7572,"ĠtËĪÊĮkt":7573,"Ġdáµ»É¡É¹ËĪiËĲz":7574,"koÊĬ":7575,"wËĪÉĶËĲÉ¾Éļ":7576,"ĠnËĪoÊĬÉ¾Éªst":7577,"ĠwËĪÉľËĲl":7578,"ĠnËĪiËĲdÉªÅĭ":7579,"Ġáµ»lËĪÉĽvÉĻn":7580,"stÉĻÉ¾ÉĻskËĮa":7581,"ĠÎ¸ËĪÉľËĲzdeÉª":7582,"ËĮo":7583,"ĠtËĪÉĶËĲÉ¹":7584,"Ġkj":7585,"ĠÉ¡ÉĻnz":7586,"ĠËĪeÉªpÉ¹":7587,"ĠdÊĴËĪÉĽf":7588,"ĠÉĲpËĪÉĳËĲÉ¹tmÉĻnt":7589,"ĠdÊĴËĪÉľËĲsi":7590,"ĠlËĪaÊĬb":7591,"ĠdÊĴËĪÉĽntli":7592,"hËĪÉĳËĲt":7593,"ĠËĪÉĽp":7594,"ĠfËĪat":7595,"ËĪÉĽmpt":7596,"ĠkËĪÉĳËĲmpÉ¹ÉĻm":7597,"ĠsËĪÉĽkÊĥ":7598,"ĠfËĪÉĳËĲÉ¡":7599,"ËĪÃ¦stÉļÉ¹ËĮÉªskÉĲstÉļÉ¹ËĮÉªsk":7600,"ĠÉªÉ¡nËĪaÉªt":7601,"ĠlËĪoÊĬkÉĻl":7602,"mËĪeÉªbiËĲ":7603,"ĠnËĪÉĽÉ¡":7604,"ĠmËĪÉľËĲk":7605,"ĠlËĪÉĽsÉĻnz":7606,"ĠswËĪÉªtÊĥÉªÅĭ":7607,"ĠkËĪoÊĬdÃ¦k":7608,"sËĪÊĮmtaÉªmz":7609,"ĠËĪuËĲuËĲËĮuËĲ":7610,"ĠbÉĻnz":7611,"ĠbÉĻks":7612,"ĠskËĪuËĲ":7613,"ËĮÉªps":7614,"ĠhËĪÃ¦ndsÊĮm":7615,"ĠÉĻfËĪÉªÊĥÉĻl":7616,"ĠwËĪÉªpÉªÅĭ":7617,"ĠkÉ¹ËĪuËĲs":7618,"ĠpÉ¾ÉĻÎ²lÉĻmz":7619,"lËĪÉªsÉĻn":7620,"ËĪÉĽÉ¾ÉĻ":7621,"ĠwËĪÉĳËĲn":7622,"ĠpËĪÉĳËĲÉ¹É¾iz":7623,"ĠkÉĻpÉĻ":7624,"ĠÉ¹ËĮÉĽpjuËĲtËĪeÉªÊĥÉĻn":7625,"ĠwÉĻtÊĥÉĻÅĭ":7626,"ËĪÃ¦É¹ÉªÉ¾i":7627,"ËĮeÉªk":7628,"ĠkËĪaÉªndnÉĻs":7629,"ĠËĮÉªndËĪiËĲd":7630,"ĠkÉ¹ËĪuËĲzÉªn":7631,"ĠmÉĻÃ°ÉĻfÉĻkÉĻn":7632,"sËĪÉĽnt":7633,"wËĪeÉªk":7634,"ĠÉ¹ËĪÃ¦b":7635,"ËĪÉĻp":7636,"ĠsÉĻb":7637,"ĠfËĪeÉªsÉªÅĭ":7638,"ËĪÉªmps":7639,"ĠjËĪuËĲËĪÉĽs":7640,"ĠkwËĪÉªkÉļ":7641,"----":7642,"mËĪÉªÊĥÉĻn":7643,"ËĪeÉªps":7644,"tÊĥÉļd":7645,"ĠtÊĥËĪaÉªnÉĻ":7646,"flËĪaÉª":7647,"ĠfËĪakt":7648,"ĠfËĪÉĽndi":7649,"ĠtÊĥËĪÃ¦ÅĭÉ¡Éªn":7650,"ĠÉ¾ËĪan":7651,"ĠdÉĻÎ²lÉĻ":7652,"É¾ÉĻks":7653,"ĠdÉªzËĪÃ¦stÉļ":7654,"ĠkËĪÉĳËĲntÉ¹":7655,"ĠkjËĪuËĲbÉĻn":7656,"ĠtËĪÉĻÎ¸ËĪÉĻzÉĻnd":7657,"ËĮÉĽstËĪiËĲ":7658,"ĠtÉĽmptËĪeÉªÊĥÉĻn":7659,"kËĪÉĳËĲs":7660,"wËĪÉĽt":7661,"ĠtÉ¹ËĪiËĲÉ¾áµ»d":7662,"ĠkÉ¾ÉĻÉĻÅĭ":7663,"ĠtËĪÃ¦É¡z":7664,"ĠÉ¡ËĮÃ¦É¹ÉĻntËĪiËĲd":7665,"ÉĻlËĮaÉªzd":7666,"Ã°ËĪÉĻs":7667,"ĠstËĪÃ¦kÉªn":7668,"ĠdÊĴËĪÉľËĲk":7669,"ĠsËĪeÉªlz":7670,"ĠlÉĻtËĪo":7671,"ĠfËĪÉªlÎ¸i":7672,"ĠswËĪÉªtÊĥt":7673,"ĠsÉĻÅĭÉ¡ÉĻÅĭ":7674,"ĠËĪaÉªk":7675,"ÉªnÉĻ":7676,"É¾ËĪap":7677,"ËĪÉľËĲf":7678,"ĠÎ¸ËĪÉĽÉ¹":7679,"ĠkÉ¹ËĪÊĮmbÉĻl":7680,"ĠswËĪÃ¦É¡Éļ":7681,"ĠhËĪaÉªz":7682,"ĠfjËĪuËĲÉĻl":7683,"ĠsËĪÊĮkÉļz":7684,"ĠÉ¹ËĪÊĮÊĥÉªÅĭ":7685,"ĠfÉ¾ÉĻÊĥ":7686,"ĠtËĪÉĽláµ»vËĮÉªÊĴÉĻn":7687,"ji":7688,"ĠpËĪuËĲ":7689,"ĠbÉ¹ËĪÉĽst":7690,"ĠpÉ¹ÉĻs":7691,"ĠnÉĻkÉĻd":7692,"ĠmËĪadÊĴÉĻk":7693,"ĠkËĪÉĳËĲndoÊĬ":7694,"É¹ËĪÉĶÉª":7695,"ĠsËĪÉĶËĲÉ¹t":7696,"ĠpÉªk":7697,"ĠflÉĻt":7698,"ĠÎ¸É¹ËĪÉĽd":7699,"ĠÉ¹ËĪÊĮnweÉª":7700,"ĠËĪoÊĬvÉļd":7701,"ĠkËĪÃ¦É¾":7702,"ĠtËĪÃ¦É¾áµ»d":7703,"ĠËĪÉĽÉ¡":7704,"É¹áµ»p":7705,"ĠswËĪÉĽÉ¾Éļ":7706,"É¾ÉĻkt":7707,"ĠÉ¹ËĪuËĲmz":7708,"ĠfÉĻnËĪi":7709,"ĠhËĪÉĳËĲÉ¹lÉĻm":7710,"ĠÉ¡É¹ËĪeÉªÉ¾Éļ":7711,"ĠÉ¹áµ»lËĪeÉªÊĥÉĻnÊĥËĮÉªp":7712,"ÉªÎ¸":7713,"ĠÉ¡ËĪÉªdi":7714,"ĠbËĪiËĲn":7715,"ĠwËĪÉªÊĥt":7716,"ĠËĮÊĮndÉļk":7717,"ĠmÉĻmËĪa":7718,"ĠhËĪÉĶËĲntáµ»d":7719,"ËĪÉªÉ¾ÉĻl":7720,"tÊĥÉĻnt":7721,"ËĪÉĳËĲkt":7722,"ĠslËĪÃ¦t":7723,"ËĮaÉªl":7724,"ĠfÉ¹ËĪiËĲweÉª":7725,"ĠkËĪÉĳËĲÉ¹É¾i":7726,"ĠwÉĻtÉĻn":7727,"ĠlÉĻÅĭÉ¡ÉĻ":7728,"ĠsËĮiËĲdËĪiËĲ":7729,"ĠlËĪÊĮlÉĻbËĮaÉª":7730,"ĠÊĮmbÉ¹ËĪÉĽlÉĻ":7731,"ĠmËĪy":7732,"ËĪÊĮpt":7733,"ĠfÉĻz":7734,"ĠwËĪÊĮnÎ¸ËĪaÊĬzÉĻnd":7735,"ĠsÉĻnÉĻ":7736,"niÉĻn":7737,"ĠtËĪÉªkÉªÅĭ":7738,"ĠspËĪÉªÉ¹Éªts":7739,"ĠÉ¹ÉªËĪÃ¦kÊĥÉĻn":7740,"ĠkËĪÉĳËĲkt":7741,"Î¸É¹ËĪuËĲ":7742,"wÊĮ":7743,"iËĲÉĻ":7744,"ĠtËĪaÊĬÉļ":7745,"ĠflËĪÉĶËĲz":7746,"ĠfËĪoËĲÉ¹d":7747,"ĠwËĪÉĶËĲÉ¾ÉļfËĮÉĶËĲl":7748,"ËĮÉªzÉĻm":7749,"ĠbËĪÃ¦ÅĭkÉ¹oÊĬl":7750,"É¾ÉªsfËĪÃ¦kÊĥÉĻn":7751,"ÉĻÉĻtÊĥ":7752,"ËĪÃ¦noÊĬ":7753,"ĠËĪÊĮpÉļ":7754,"ĠpËĪÉĳËĲz":7755,"fËĪÉĳËĲ":7756,"hËĪÃ¦pi":7757,"É¹ËĪeÉª":7758,"ĠdÊĴÉĻz":7759,"ÉĻmÉĻz":7760,"ĠdËĪuËĲz":7761,"ĠfËĪoÊĬÉ¾oÊĬ":7762,"ĠsËĪeÉªnts":7763,"ĠdÉªËĪoËĲÉ¹":7764,"ĠstËĪÃ¦É¾ÉĻs":7765,"ĠsmËĪÉªlÉªn":7766,"ĠmËĪÉĽk":7767,"ĠÉ¡ÉĻz":7768,"ĠpËĮÉĳËĲ":7769,"ĠËĪÉªnt":7770,"bÉ¹ËĪÉªÅĭ":7771,"ĠÉĻvÉ¾ËĪywÉĻ":7772,"jÊĬlËĮeÉªt":7773,"ĠÉĽkspÉ¹ËĪÉĽs":7774,"fËĪeÉªs":7775,"lËĪÃ¦Êĥ":7776,"ĠdËĪÃ¦Åĭ":7777,"ÉļÉ¹ËĮeÉªÉ¾áµ»d":7778,"ĠlËĪÉªks":7779,"ĠsÉĻmplÉĻ":7780,"ĠÉ¹ËĪÉªtÊĥÉļd":7781,"ËĪuËĲËĪuËĲËĪuËĲ":7782,"ĠstÉ¹ËĪaÉªks":7783,"ĠsËĮÉĽlÉĻbÉ¹ËĪeÉªÊĥÉĻn":7784,"ĠÉĶËĲ":7785,"ĠËĪaÉªdÉĻl":7786,"ĠluËĲ":7787,"ĠÉĻst":7788,"ĠËĪÃ¦pÉªt":7789,"ĠklËĪap":7790,"ĠoÊĬb":7791,"ĠtËĪÊĮnÉĻl":7792,"ĠfÉĽÉ¹wËĪÉĽl":7793,"ËĪÉĽnjËĪÉĽËĲ":7794,"ËĪÉªnÉªÉ¾i":7795,"Éªdz":7796,"ĠÉ¾ÉĻtÉĻn":7797,"ĠpÉ¾ÉĻÊĥËĪo":7798,"ĠÉ¹ËĪeÉªdÉĳËĲÉ¹":7799,"ĠswËĪÉªÅĭÉ¡Éªn":7800,"ĠdËĮÉĽstÉªn":7801,"bËĪaÊĬns":7802,"hËĪÉªt":7803,"ĠlËĪaÉªm":7804,"ĠdÊĴÉĻvÉĻÅĭ":7805,"ptËĪÉĽmbÉļ":7806,"ĠdËĪÉªf":7807,"ĠhÉĻldÉĻÅĭ":7808,"ĠkËĪÊĬki":7809,"ĠwËĪaÉªfi":7810,"'\"":7811,"?âĢĿ":7812,"faÉªÉļ":7813,"lËĪaÉªv":7814,"É¹ËĪuËĲ":7815,"ĠstËĪÃ¦Åĭk":7816,"ĠvËĪÉĳËĲ":7817,"ĠsÉĻtÉĻÅĭ":7818,"ĠpËĪÉªstÉĻlz":7819,"ĠÉĻkspl":7820,"ĠpËĪÉľËĲkÉĳËĲs":7821,"ĠËĪÉĽÉ¡zÉªt":7822,"Ġsáµ»kjËĪÊĬÉ¹É¹ÉªÉ¾i":7823,"mÉĲ":7824,"É¹ËĪÉªtÊĥ":7825,"ĠmÉĻnz":7826,"ĠtÉ¹ËĪÃ¦dÊĴÉªk":7827,"ĠfÉ¹ÊĮ":7828,"ĠsËĪÉľËĲfÉªn":7829,"ĠsÉĻpÉĻsÉĻd":7830,"ĠwËĪÉªspÉļz":7831,"ĠsmÉĻkÉĻÅĭ":7832,"aÊĬtËĮÉªn":7833,"ĠbÉ¹ËĪÉĶËĲdweÉª":7834,"ĠÉĲdÉ¹ËĪÉĽs":7835,"ĠtÊĥÉĻndÊĴÉĻd":7836,"ËĪaÉªÉ¾ÉªÅĭ":7837,"dÊĴÉĻst":7838,"ĠkwËĪaÉªÉļ":7839,"ĠÉ¡lËĪÃ¦m":7840,"ĠkËĪÉĳËĲld":7841,"ËĪuËĲduËĲ":7842,"ĠhËĪÊĮsbÉĻnd":7843,"bËĮÉĶËĲl":7844,"mÉĻt":7845,"ĠfËĪÉªlz":7846,"Ã°ËĪiËĲz":7847,"ĠbËĪÃ¦stÉļd":7848,"ĠpËĪeÉªÉªn":7849,"pÉļtËĪuËĲn":7850,"ĠdÊĴËĪiËĲnÉªÉĻs":7851,"ĠpËĪeÉªvmÉĻnt":7852,"ĠsuËĲpÉ¹":7853,"ĠlËĪaÊĬbaÊĬtËĮÉªn":7854,"Î¸Éļ":7855,"ĠtÉĻÅĭ":7856,"ĠspÉĻnt":7857,"ĠflËĪoÊĬtÉªn":7858,"ĠbËĪaÊĬnsÉªn":7859,"ĠsËĪÉľËĲvÉªÅĭ":7860,"ĠbËĪÉľËĲdÉĻn":7861,"Ġdáµ»nËĪaÉªÉĻl":7862,"ĠÉĻdÉĻ":7863,"Ġbáµ»wËĪÉĽÉ¹":7864,"ĠlÉĻtËĪa":7865,"Ġdáµ»skÉ¹ËĪaÉªb":7866,"ĠdËĪiËĲpÉªst":7867,"ĠflËĪÊĮdáµ»d":7868,"ĠmËĪÉªksteÉªp":7869,"ĠaÊĬtÉ¹ËĪeÉªdÊĴÉĻs":7870,"ĠfÉĻnËĪali":7871,"po":7872,"ĠÉ¡ËĪas":7873,"Î¸ËĮÉªn":7874,"ĠpÉ¹ËĪÉĽst":7875,"ĠÉĻnÉĻst":7876,"ĠfËĪaÉªndz":7877,"ËĪyn":7878,"ËĪaÉªlaÉªt":7879,"ĠdËĪÊĮmi":7880,"ĠÎ¸ËĪÊĮÉ¡Éļ":7881,"fjËĪuËĲ":7882,"sn":7883,"Éªh":7884,"eÉªm":7885,"ĠmËĪÉĽnd":7886,"ĠpËĪÉĽt":7887,"É¾áµ»v":7888,"ËĪÉĽdÉļ":7889,"ĠpÉ¹ËĪÉĳËĲf":7890,"ĠdÉ¹ËĪÃ¦É¡ÉĻn":7891,"ĠkÉļÉ¹ËĪÉĽs":7892,"ĠkÉ¹iËĲËĪeÉªÊĥÉĻn":7893,"ĠÉ¡ÉļÉ¹ËĪÉĳËĲÊĴ":7894,"ĠdÊĴÉĲmËĪeÉªkÉĻ":7895,"ĠpÉĻnk":7896,"É¾ÊĮm":7897,"ĠspÉĻ":7898,"ÉĻpt":7899,"ĠÉĻnsÉĻ":7900,"ĠpËĪÉľËĲks":7901,"ĠtËĪÉĳËĲps":7902,"ĠpÉĻsÉĻz":7903,"Ġdáµ»É¡É¹ËĪiËĲ":7904,"ĠbËĪÉĽndÊĴÉĻm":7905,"ĠsÉĽptËĪÉĽmbÉļ":7906,"bËĪÊĮst":7907,"fÉĶËĲl":7908,"ĠhÉĻn":7909,"ĠÉĻÉ£ÉĻ":7910,"ÉĻndÉĻ":7911,"ĠbÉ¾ÉĻkÉĻÅĭ":7912,"ĠbËĪÊĬÊĥ":7913,"ĠdËĪyzÉĻv":7914,"ĠpËĪÉĽdÉĻl":7915,"ĠkËĪÉĳËĲnsÉªkw":7916,"ĠsËĪÉĽntÊĥÉļÉ¹i":7917,"lËĪÉªv":7918,"ĠdËĪÉĽp":7919,"ĠÉ¡ËĪÉªfts":7920,"ĠmËĪiËĲk":7921,"ËĮÃ¦Î¸":7922,"ĠËĪÃ¦Åĭk":7923,"ÉªlËĮÉªn":7924,"Ġdáµ»nËĪaÉªd":7925,"ĠÉĳËĲpÉļtËĪuËĲn":7926,"bËĪÊĮm":7927,"feÉªs":7928,"ĠbËĪiËĲz":7929,"ĠswËĪaÉ¡":7930,"ĠkwÉĻst":7931,"ĠstËĪÉĳËĲÉ¹laÉªt":7932,"ĠbËĪÃ¦Åĭks":7933,"ĠÉ¹ËĪÉĳËĲÊĶn":7934,"ĠÉĻnËĪyÎ²ÉĻdi":7935,"ĠÉĲtÊĥËĪiËĲv":7936,"ĠbËĪÉĽk":7937,"ËĪeÉªÊĥ":7938,"ndi":7939,"ĠÊĮndÉ¹":7940,"É¾ÉĻp":7941,"ĠblÉĻs":7942,"ĠpËĪÉľËĲfÉĽktli":7943,"ĠdÊĴËĪÉĽli":7944,"ĠdÉĻlÉĻÅĭ":7945,"ĠstÉ¹ËĪÉªpÉļ":7946,"ĠkÉ¹ËĪÉªstÊĥÉĻn":7947,"ĠmÉªsËĮÊĮndÉļstËĪÊĬd":7948,"ĠËĪÉĳËĲÉ¹k":7949,"Ã¦d":7950,"ĠsaÉª":7951,"ĠlËĪiËĲp":7952,"ĠfËĪaÊĬl":7953,"É¾Éªn":7954,"ĠdÊĴËĪÉª":7955,"ĠwËĪÉĽlÎ¸":7956,"ĠdÊĴÉĻËĪal":7957,"ĠlËĪeÉªmz":7958,"ĠÊĮnfËĪoÊĬld":7959,"zËĪiÉĻÉ¹oÊĬzËĪiÉĻÉ¹oÊĬzËĪiÉĻÉ¹oÊĬ":7960,"ĠmËĪÉĳËĲp":7961,"ĠbËĪeÉªt":7962,"ÉľËĲl":7963,"ĠtwËĪÉªÉ¾Éļ":7964,"ĠmÉĻlËĪi":7965,"lËĪÉĶÅĭ":7966,"lÉĽ":7967,"nËĪÉĳËĲm":7968,"ĠsÉĻnsÉĻ":7969,"ĠpÉ¹ËĪÉĽ":7970,"dÊĴÉĽkt":7971,"ĠbËĪÉĶËĲlÉļ":7972,"ĠhjËĪuËĲstÉĻn":7973,"ĠpÉļfËĪÉĶËĲÉ¹m":7974,"ĠËĪÉĽkstËĪuËĲ":7975,"ĠÉĲdvËĪÃ¦ns":7976,"ĠhËĪoËĲÉ¹ni":7977,"ĠnËĪaÉªtmÉĽÉ¹z":7978,"Ġmj":7979,"ËĪaÉªdÉĻl":7980,"ËĪÉĶÅĭki":7981,"ÉªkÉĻn":7982,"ËĪÉĽksfËĪoËĲÉ¹":7983,"ÉĻfi":7984,"ĠdËĪÉĽdáµ»kËĮeÉªÉ¾áµ»d":7985,"ĠlËĪiËĲf":7986,"ĠËĪÉªtÊĥ":7987,"ĠmËĪÃ¦mÉĻ":7988,"ĠlËĪÉĽnd":7989,"ÊĥÉĻz":7990,"É¾a":7991,"ËĮiËĲËĮÉĽstËĪiËĲ":7992,"ĠstÉ¹ËĪeÉª":7993,"ĠËĪuËĲps":7994,"ĠÉªmËĪÉľËĲdÊĴ":7995,"ĠËĪÃ¦nÎ¸ÉĻm":7996,"ĠfËĪeÉªld":7997,"ĠjËĪuËĲslÉĻs":7998,"ĠkËĪÉľËĲÉ¹ÉªdÊĴ":7999,"ĠsËĮÃ¦É¾ÉªsfËĪÃ¦kÊĥÉĻn":8000,"nËĪiËĲd":8001,"tËĪoÊĬ":8002,"ËĪÉĽÊĶn":8003,"ĠhÉĻlz":8004,"ĠkËĪÉľËĲl":8005,"ĠÉ¹ËĪÉĳËĲd":8006,"ÉĻkÉĻlz":8007,"ĠkÉ¹ËĪÃ¦kt":8008,"ËĪÃ¦stÉļÉ¹ËĮÉªsks":8009,"fÉ¹ÉĽndz":8010,"ĠpËĪÉĳËĲzáµ»tËĮÉªv":8011,"ĠdËĮÉĽstÉªnËĪeÉªÊĥÉĻn":8012,"hËĪÉĳËĲÉ¹t":8013,"sÉĻd":8014,"ĠdÉĻÉĻÅĭ":8015,"ĠnËĪiËĲnÉĻ":8016,"ËĮÉĳËĲÊĴ":8017,"ÉªÉ¡ÉĻn":8018,"ĠËĪÉĶËĲÉ¾ÊĮm":8019,"ĠËĪÉĳËĲpÉĻz":8020,"ĠpÉļfËĪÉĽkÊĥÉĻn":8021,"ËĪÉĽÊĥÉĻnz":8022,"ĠsËĪiËĲs":8023,"ĠmÉĻÊĥÉĻn":8024,"ĠhËĪeÉªts":8025,"ĠjËĪuËĲbÉļ":8026,"fluËĲ":8027,"ĠmËĪÉĽsÉªn":8028,"ĠvËĮaÉªbÉ¹ËĪeÉªÊĥÉĻnz":8029,"wÉĻt":8030,"ËĪaÉªÉļz":8031,"ĠkÉĻf":8032,"ËĪuËĲÉ¾oÊĬ":8033,"ÉĻdiz":8034,"É¾ÉĻÅĭ":8035,"ĠvËĪuËĲduËĲ":8036,"ÉªdËĪÉĽnÊĥÉĻl":8037,"ĠwËĪÉĶËĲÉ¹ÉªÉļ":8038,"ĠÉĻvÉ¾ËĪydÉĻ":8039,"ĠËĮoÊĬvÉļkËĪÊĮm":8040,"ĠmÉĻtËĪÉªÉ¹iÉĻl":8041,"ËĪÉªnsáµ»bÉĻl":8042,"fÉĻm":8043,"ĠÉ¡ËĪÉªt":8044,"ĠfËĪÉªkst":8045,"ËĪÉĳËĲnt":8046,"ĠhËĪÃ¦sÉĻn":8047,"ĠtÊĥËĪÉªlz":8048,"ĠtËĪaÉªmÉªÅĭ":8049,"ÉĳËĲm":8050,"ÉĻdÊĴÉĻz":8051,"ĠhËĪÉĳËĲÉ¹mÉĻni":8052,"ĠdÊĴËĪoÊĬks":8053,"ĠhÉļÉ¹ËĪaÉªzÉĻn":8054,"ËĮyn":8055,"ĠwËĪÉĽp":8056,"Ġpo":8057,"ĠfËĪÉªts":8058,"ĠÉ¹áµ»mËĪaÉªndz":8059,"ĠfËĪÊĬtstÉĽ":8060,"ĠdËĪÊĮkÉªn":8061,"wËĪÉĶnÉĻ":8062,"ĠdËĪÉªdÊĴÉªÉ¾ÉĻl":8063,"ĠhËĪÉĳËĲs":8064,"dÊĴÉĻnt":8065,"ĠwËĪÉĳËĲtÊĥáµ»z":8066,"ËĪiÉĻÉ¹i":8067,"ĠkjËĪuËĲpÉªd":8068,"ĠwËĪÉĽÉ¾Éļ":8069,"ĠmËĪÉĳËĲÎ¸ÉĲfËĮÊĮkÉĻ":8070,"ĠfÉĻvo":8071,"ĠpÉĻsÉĻn":8072,"ËĪÉĻk":8073,"ËĪiËĲpÉĻl":8074,"ĠvËĪÉĳËĲl":8075,"ĠÉ¡ËĪÃ¦ÅĭstÉĻz":8076,"ĠËĮÊĮndÉļstËĪÃ¦ndÉªÅĭ":8077,"ĠÉĲbËĪÃ¦nd":8078,"):":8079,"iwËĪÉĻn":8080,"ĠpËĪÉĽÉ¾i":8081,"ĠbËĪiËĲÉ¾Éªn":8082,"ĠÉ¡É¹ËĪaÉªm":8083,"ĠÉ¹ËĪÃ¦É¡z":8084,"ĠÉ¡lËĪoÊĬb":8085,"ĠhËĪÉªdÉªn":8086,"bjÊĬl":8087,"ĠpÉĻnd":8088,"stËĪÉĽp":8089,"ĠÉ¹ËĪeÉªt":8090,"Ã°ÉĻz":8091,"ĠstËĪeÉªnz":8092,"ÉĻkÉĻn":8093,"ËĪiËĲdÉĻ":8094,"ËĪiËĲtËĪiËĲ":8095,"ĠfÉĻÃ°ÉĻ":8096,"ĠÉ¹ËĪÉĳËĲbd":8097,"ĠfÊĬlf":8098,"ĠÉ¹áµ»mËĪaÉª":8099,"ĠtÉĻlÉĻÅĭ":8100,"ĠsËĪÊĮkÉªÅĭ":8101,"ĠlËĪiËĲnÉªn":8102,"ĠËĪÉĽmptinÉĻs":8103,"ĠÉ¹áµ»vËĪÉľËĲs":8104,"ĠÉĽkskjËĪuËĲsáµ»z":8105,"ĠhËĪÃ¦bÉªts":8106,"ĠpËĪÉĳËĲlÉĻt":8107,"lËĪeÉªdi":8108,"mËĪan":8109,"ĠsËĪÃ¦ks":8110,"ĠÉĻÉ¡":8111,"ĠÉĻhÉĻd":8112,"ĠhËĪÉªÉ¹Éªn":8113,"ĠvËĪÉªÊĥÉĻs":8114,"ĠËĪal":8115,"ĠwËĪÊĮt":8116,"ĠbÉĻtÉĻm":8117,"ĠspËĪeÉªsÊĥÉªp":8118,"ĠsËĪÊĮbst":8119,"ĠÉ¹áµ»tËĪÉĳËĲÉ¹dáµ»d":8120,"ĠtËĪÉªntáµ»d":8121,"ĠsÉĻdÊĴËĪÉĽst":8122,"ĠkÉĲ":8123,"ÉĻnÉªÅĭ":8124,"ski":8125,"ĠjËĪÉĽlÉªÅĭ":8126,"ĠËĪÉĳËĲÉ¹mÉļ":8127,"Ġdáµ»lËĪaÉªt":8128,"ĠslÉĻpÉĻÅĭ":8129,"ĠvËĪÉľËĲÊĴÉĻn":8130,"ĠtÊĥËĪÉĽÉ¹ÉªÊĥ":8131,"ĠskÉ¾ÉĻmÉĻÅĭ":8132,"ĠlËĪÉªÅĭÉ¡Éļ":8133,"ĠnËĪÉĽÉ¡ÉĻtËĮÉªv":8134,"mÉĻst":8135,"ĠpÉ¹Éªd":8136,"ĠkÉĻlËĪo":8137,"ĠsËĪÉĽnsáµ»z":8138,"ĠdËĪÉĶËĲÉ¾Éļz":8139,"ĠÉ¹ËĪÉªki":8140,"ĠÉ¡É¹ËĪuËĲpi":8141,"ĠdËĪiËĲs":8142,"ĠvËĪoÊĬ":8143,"ÉªdÉĻnts":8144,"ĠkËĪoÊĬtÊĥ":8145,"ĠÉĻmp":8146,"tËĪuËĲËĪÉĽks":8147,"ĠfËĪeÉªkÉªÅĭ":8148,"ĠdËĮiËĲËĪÉĽm":8149,"ĠdËĮÉªsÉĲpËĪÉĶÉªnt":8150,"ĠdÉªskËĪÊĮvÉļ":8151,"É¾ÉªvËĪeÉªÊĥÉĻn":8152,"pËĪÊĬl":8153,"sËĪÉĽd":8154,"ÉªmÉĻn":8155,"ÉªÉ¡É¹":8156,"ËĪatÊĥ":8157,"ĠstÉĻd":8158,"ĠkËĪÉĳËĲnstÉĻntli":8159,"fÉļÉ¹ËĪÉĽvÉļ":8160,"ĠpËĪeÉªtÉ¹ÉĻn":8161,"ĠpiËĪÃ¦noÊĬ":8162,"ËĪaÉ£":8163,"ĠdÊĴÉĻnz":8164,"ĠfËĪaÉªÉļz":8165,"ĠnËĪÉĳËĲd":8166,"ĠklËĪÊĮbz":8167,"ĠsÉĻksÉĻ":8168,"ĠÉªnvËĪÉªnsáµ»bÉĻl":8169,"ĠÉĲtÉ¹ËĪÃ¦kt":8170,"ĠÉĲpÉ¹ËĪoÊĬtÊĥ":8171,"hËĪÃ¦":8172,"haÉª":8173,"kÉĻt":8174,"ÉªËĪÉĳËĲ":8175,"ĠmËĪÊĮdi":8176,"ĠËĮÉªnfÉļmËĪeÉªÊĥÉĻn":8177,"ĠkËĪÉĳËĲmÉĻz":8178,"ĠjËĪÉĽláµ»n":8179,"ĠÊĮnfÉļÉ¡":8180,"ĠÉ¹ËĪeÉªndÉªÉ¹":8181,"ĠtËĪÉĳËĲnaÉª":8182,"ĠwËĪÉĽpÉĻnz":8183,"kweÉª":8184,"veÉª":8185,"ĠÉ¡É¹ËĪÃ¦mi":8186,"ĠËĮÉªnspÉļÉ¹ËĪeÉªÊĥÉĻn":8187,"ĠkÉĻlÉĻd":8188,"ĠhËĪÉĽlpÉªÅĭ":8189,"ĠkÉĻnËĪo":8190,"twËĪÉĻna":8191,"ĠmËĪÉĽloÊĬ":8192,"ĠdËĪaÊĬts":8193,"ĠsËĪuËĲtkeÉªs":8194,"ĠjËĪuËĲzi":8195,"ĠmeÉªnt":8196,"fÉĻni":8197,"tËĪÊĮtÊĥ":8198,"ËĪÉĽsi":8199,"ĠstËĪÉĶËĲl":8200,"ĠfÉ¹ËĪÃ¦ns":8201,"ĠplÉĻn":8202,"ĠtÉĻkst":8203,"hÃ¦hËĪÉĳËĲhÉĻ":8204,"oÊĬv":8205,"ĠkËĪÉªm":8206,"ĠkËĪap":8207,"ĠÉ¹ËĪiËĲl":8208,"ĠnËĪoÊĬl":8209,"kÉ¹ËĪÉĶs":8210,"ĠÉĽÉ¡zËĪÉĳËĲÉ¾Éªk":8211,"ĠsËĮÉªl":8212,"ĠkËĪÉĳËĲki":8213,"fËĮÉªÉ¹":8214,"ËĪÉĽntáµ»d":8215,"ĠlËĪÉĶÅĭÉªÅĭ":8216,"ĠtwËĪaÉªlaÉªt":8217,"ĠdËĪÉĽdli":8218,"dËĪÉĳËĲÉ¡":8219,"ĠpËĪaÉªÉ¹":8220,"ĠdÉ¹ËĪeÉªkoÊĬ":8221,"ÉªÉĻt":8222,"ĠbÃ¦nd":8223,"ĠwËĪÉĶntÉªn":8224,"ËĪeÉªtiËĲn":8225,"ĠwËĪÊĬlvz":8226,"ĠkËĪÉĳËĲnstÉĻnt":8227,"lÉĻvÉĻ":8228,"tËĪÃ¦t":8229,"ĠÊĥËĪoÊĬn":8230,"ĠÎ¸ÉĻts":8231,"ĠtÊĥËĪÉĽdÉļ":8232,"ĠkÉ¹ËĪiËĲk":8233,"ËĪÃ¦ndi":8234,"É£ÉĻz":8235,"juËĲz":8236,"fËĪÉĻv":8237,"ĠkËĪoÊĬkoÊĬ":8238,"ĠÉĽkstÊĥ":8239,"ĠmËĪÃ¦st":8240,"ĠdËĪÊĮÉ¡":8241,"ĠfÉĻnt":8242,"ĠfËĪÉªÉ¾áµ»d":8243,"ĠnÉĻdz":8244,"biËĲ":8245,"mËĪÉľËĲ":8246,"ĠËĪoËĲÉ¹":8247,"ĠfjÉĻ":8248,"ËĮÉĽnËĪeÉª":8249,"ĠpÉ¹Éªf":8250,"ÉļÉ¹Éļ":8251,"ĠflËĪÉľËĲt":8252,"ĠkËĪÉĶËĲzd":8253,"ĠtwÉĻst":8254,"ĠsËĪuËĲts":8255,"ĠsËĪÊĮkt":8256,"Ġdáµ»fËĪaÉªn":8257,"ĠÉĲdÉ¹ËĪÉĽn":8258,"ĠËĪÉĽlÉªvËĮeÉªÉ¾Éļ":8259,"lÉĻd":8260,"ĠdËĪeÉªm":8261,"ĠloÊĬk":8262,"ĠfËĪÃ¦kÉªn":8263,"ËĪÃ¦nz":8264,"ĠtËĪaÉªÉļz":8265,"ĠÉĻvÉĻ":8266,"juËĲËĮÉĽÉ¹i":8267,"ĠbËĪÃ¦ndoÊĬ":8268,"ĠÉªtËĪÉľËĲnÉĻl":8269,"ĠwËĪÃ¦É¡":8270,"ĠhËĪÉĽh":8271,"ĠÉ¡ÉĻtÊĥ":8272,"ËĪÉªpÊĥÉĻn":8273,"ĠÉ¡ËĪÉĳËĲÊĶn":8274,"ĠÉ¡lËĪuËĲ":8275,"ËĪyÉĻnz":8276,"ĠsÉĻtÉĻn":8277,"ĠhËĪÃ¦pÉĻnËĮÉªn":8278,"ĠtÊĥËĪÉªkÉªnz":8279,"Ġ)":8280,"ËĪakt":8281,"ĠmÉĻks":8282,"ĠpËĮÉĽn":8283,"ĠstËĪÉĶËĲk":8284,"ĠstÉĻdÉĻ":8285,"ĠhËĪÃ¦dÉĻn":8286,"ĠskËĪÊĮm":8287,"ĠËĪand":8288,"ĠbÉĻkËĪÉĻm":8289,"ĠstÉ¹ËĪÉªpÉļz":8290,"ĠlËĪÃ¦dÉļ":8291,"ĠËĪÉĽmpaÉªÉļ":8292,"ĠËĪÃ¦pÉªtËĮaÉªt":8293,"mËĪÉĽmbÉļ":8294,"sÉĻnt":8295,"wËĪÉľËĲ":8296,"ÉªÉĻn":8297,"ËĪÊĮdz":8298,"ËĪÉĳËĲÅĭ":8299,"ĠfËĪaÊĬntÉªn":8300,"ĠvËĪoÊĬt":8301,"ËĮÉªts":8302,"ĠslËĪÉĳËĲp":8303,"ĠsËĪÉªmfÉĻni":8304,"ĠËĪÉľËĲÎ¸kweÉª":8305,"ĠpÉĻkÉĻt":8306,"ĠfËĪÊĬtstÉĽps":8307,"mËĪÉªs":8308,"ËĪoÊĬks":8309,"ĠnËĪÉĻz":8310,"stÉĻl":8311,"ËĪÉĳËĲtsi":8312,"ĠtËĪaÉªÉ¾ÉĻl":8313,"ĠslËĪaÉªs":8314,"ĠÉªnsÉĻn":8315,"ĠkËĪaÉªndz":8316,"ĠdÉ¾ÉĻv":8317,"ĠÉ¾ÉĻlÉĻÅĭ":8318,"ĠtËĪuËĲÎ¸ËĪaÊĬzÉĻndfËĪÉªftiËĲn":8319,"ĠfËĪeÉªlÉªÉ¹":8320,"pÉļÉ¹ËĪÉĳËĲtsi":8321,"É¹ËĪÉĶÉªt":8322,"ĠmËĪystÉĻk":8323,"kÉĻnt":8324,"ĠtËĪÉªps":8325,"ĠhËĮÃ¦loÊĬ":8326,"ĠlËĪÉĽks":8327,"ËĪys":8328,"ĠpËĪÊĬlz":8329,"ĠËĪeÉªthËĪÊĮndÉ¹ÉĻd":8330,"jËĪuËĲnÉªt":8331,"ĠwËĪÉªspÉļÉ¹ÉªÅĭ":8332,"ĠpËĪÉĽnthaÊĬs":8333,"ĠhËĮÃ¦loÊĬËĪiËĲn":8334,"jÉĻs":8335,"ĠdÉĻnt":8336,"ĠlËĪÉĶËĲz":8337,"ĠÉĻÉ¡n":8338,"ĠstÉ¹ËĪÃ¦nd":8339,"ĠÉĽkspËĪiÉĻÉ¹ÉªÉĻns":8340,"wÉªn":8341,"ĠËĮeÉªtÊĥ":8342,"ĠtÉ¾ÉĻl":8343,"ĠnËĪiËĲl":8344,"ĠstÉ¹ËĪoÊĬl":8345,"ÉªsÉĻn":8346,"É¡É¹ËĪiËĲ":8347,"spËĪoÊĬkÉĻn":8348,"ĠÉ¡ÉĻlf":8349,"ĠdÊĴÉĻpËĪÃ¦n":8350,"ĠnËĪaÉªnhËĪÊĮndÉ¹ÉĻdÉªlËĪÉĽvÉĻn":8351,"É¹Éªks":8352,"ĠjËĪÉĳËĲt":8353,"ĠjËĪÊĬÉ¹":8354,"ĠtËĪÉĶÉªl":8355,"ËĪÉĽnÉª":8356,"ĠflËĪÉĶËĲÉ¹":8357,"ptÉĻ":8358,"ĠklËĪÉªÉ¹Éļ":8359,"ÉĻktÉĻd":8360,"ĠpËĪÉªÅĭki":8361,"ĠkÉĳËĲnvÉļsËĪeÉªÊĥÉĻnz":8362,"ĠswËĪÉľËĲvÉªn":8363,"ĠÉ¡ËĪÉĳËĲsÉªp":8364,"ĠdÉ¹ËĪÉĶËĲÉ¹z":8365,"ĠkËĪÉĳËĲÉ¹É¾iÉļ":8366,"ĠmËĪÉĽÎ¸":8367,"ĠhËĪÊĮmp":8368,"ĠsËĪoÊĬp":8369,"ĠvËĪÉĽlv":8370,"ĠbÉĻÉ£ËĪo":8371,"ĠsÉĻkÉĻ":8372,"ĠdËĪiËĲlÉļz":8373,"ĠfÉ¹ËĪiËĲkÉªÅĭ":8374,"ĠÎ¸ËĪÃ¦Åĭz":8375,"ĠÉ¡É¾ËĪand":8376,"ĠbËĪÊĮÉ¡Éªn":8377,"ĠÉ¡ËĪÉĳËĲÉ¹b":8378,"ĠmeÉªntËĪeÉªn":8379,"ĠtËĪÃ¦b":8380,"ĠkËĪÃ¦nsÉļ":8381,"ĠtÊĥËĪÉªm":8382,"ËĪÉªvÉĻn":8383,"ĠÉ¡É¹ËĪeÉªn":8384,"ĠtwÉĻntÉĻ":8385,"ĠÉ¹ËĪuËĲt":8386,"ĠsËĪÉĽvÉĻnti":8387,"juËĲÉ¡ËĪÃ¦É¾i":8388,"ĠÉĽkstÊĥËĪeÉªndÊĴ":8389,"tËĪÉĻ":8390,"eÉªz":8391,"ĠkÉĶËĲÉ¹":8392,"ĠsËĪoÊĬfÉĻ":8393,"ËĮiËĲld":8394,"ĠtÉĻf":8395,"ĠbËĪÃ¦kst":8396,"ĠkÉĻlo":8397,"ĠpËĪÃ¦sáµ»z":8398,"ĠËĪÉĶËĲwÉĻ":8399,"ĠËĪÉĳËĲpÊĥÉĻnz":8400,"ĠnËĪÉªkÉĻl":8401,"ĠtÊĥËĪiËĲks":8402,"áµ»pËĮiËĲ":8403,"ĠkËĪÊĮstÉĻm":8404,"ĠpÉ¹ÉĻsËĪiËĲd":8405,"ĠËĮÊĮndÉļkËĪÊĮvÉļ":8406,"ĠËĮaÉª":8407,"ĠËĪÉĶl":8408,"ËĪaÉªiËĲ":8409,"ĠÉ¹ËĪÉĳËĲt":8410,"ĠÉ¹ËĪeÉªv":8411,"ĠdÊĴÉĻt":8412,"ĠÉĲfl":8413,"ĠkËĪÃ¦nz":8414,"ÉļÉ¹ÉĻli":8415,"ĠspÉĻd":8416,"ĠswËĪoÊĬl":8417,"ĠÉ¾ÉĻdÉĻÉĻ":8418,"ĠdËĪiËĲlz":8419,"sËĪÊĮmÎ¸ÉªÅĭ":8420,"Ã¦Ã¦Ã¦":8421,"ĠdÊĴËĪÊĮÅĭki":8422,"ĠÉĲdÉ¹ËĪÉĽnÉĻlËĮÉªn":8423,"blÉĻ":8424,"ÅĭÉ¡É¹":8425,"stoÊĬn":8426,"ĠÉ¹ËĮoÊĬ":8427,"ĠËĪÉªns":8428,"ĠdÊĴËĪam":8429,"ĠblËĪÃ¦zÉªn":8430,"ĠdËĪiËĲlÉªn":8431,"ĠbËĪÉªldÉªn":8432,"ĠjuËĲnËĪaÉªÉ¾áµ»d":8433,"ĠsuËĲpÉ¹ËĪiËĲm":8434,"iÉĻm":8435,"wÊĬd":8436,"ËĪÉĻlÉĻ":8437,"ĠpÉ¹ËĮÉĽz":8438,"ËĮÉĽmÉĻnËĪeÉªd":8439,"ÉļÉ¹ËĪeÉªndÊĴ":8440,"ĠlÉĻdÉĻz":8441,"ĠtÉ¹ËĪÃ¦vÉĻld":8442,"laÉªnz":8443,"ĠtËĪoÊĬkÉªËĮoÊĬ":8444,"ĠfËĪiËĲmeÉªl":8445,"sËĪeÉªk":8446,"ĠsËĮÉĽ":8447,"Ġbáµ»lËĪiËĲf":8448,"ĠÉ¡lÉĻ":8449,"ĠpËĪÉľËĲmÉĻn":8450,"ĠmÉĻsÉĻÅĭ":8451,"ĠÉ¾ÉĻÉĻlÉĻz":8452,"ĠlËĪÉľËĲk":8453,"ĠdÊĴÉĻdÊĴÉĻ":8454,"ĠÎ¸ËĪÉĻti":8455,"ĠbËĪÃ¦kÉ¡É¹aÊĬnd":8456,"ËĪÃ¦mpÉĻl":8457,"ĠÉ¹ËĪaÉªdÉļz":8458,"ĠÉ¹ËĪoÊĬdÉªËĮoÊĬ":8459,"ĠÉ¹ËĪÉªtÊĥÉļ":8460,"ËĪÃ¦dÊĴÉĻl":8461,"ĠpÉ¾ÉĻsÉĻ":8462,"ĠmËĪiËĲdiËĲÉĻ":8463,"ĠfÉ¹ÊĮstÉ¹":8464,"fs":8465,"ĠtÊĥËĪÉªp":8466,"ĠspËĪÉªÉ¾ÉªÅĭ":8467,"ĠdËĪÉªÊĥáµ»z":8468,"É¡É¹ËĪÃ¦m":8469,"ĠbËĪÉĳËĲÉ¹bi":8470,"ÉªkÉĻlt":8471,"ĠÊĥËĪÃ¦loÊĬ":8472,"ĠhËĪÉĶËĲntÉªÅĭ":8473,"ĠkËĪÉľËĲtÉĻn":8474,"ĠdÉªtÉ¹ËĪÉĶÉªt":8475,"ĠvËĪÉªlÉĻn":8476,"ĠtËĪÃ¦lÉĻnt":8477,"ĠstÉ¹ËĪÉĶËĲbÉĽÉ¹i":8478,"ĠaÉªdËĪiÉĻz":8479,"ËĪiËĲld":8480,"ĠsÉĻnz":8481,"ĠtÉĻlÉĻ":8482,"ĠnËĪÉĽv":8483,"ĠÉ¡É¹ËĪiËĲv":8484,"ËĪiÉĻn":8485,"ÉªtËĪeÉªÊĥÉĻnz":8486,"ĠsÉĻplËĪaÉª":8487,"ĠpÉ¹ËĪÉĽzÉĻnts":8488,"ĠsnËĪiËĲkÉļz":8489,"ĠlËĪÉĳËĲdÊĴÉªk":8490,"ĠbÉĲnËĪÃ¦nÉĻ":8491,"fËĪoÊĬn":8492,"ĠbjuËĲÉ¡ËĪÃ¦É¾i":8493,"ĠdÊĴËĪÉĳËĲk":8494,"ĠwËĪeÉªdÊĴ":8495,"ĠzÉĻn":8496,"ĠÉ¡ËĪÊĮnÉĻ":8497,"ĠmËĪÉªÉ¹Éļz":8498,"dÉ¹ËĪiËĲm":8499,"ĠdËĪÉªfÉªkÉĻlt":8500,"ĠhËĪÉĳËĲsp":8501,"bËĪÉĶËĲÉ¹n":8502,"bsÉĻl":8503,"ĠÃ°ËĪoÊĬ":8504,"ĠsÉĻvÉĻn":8505,"ĠlËĮÉĽmÉĻnËĪeÉªd":8506,"ĠËĪeÉªËĪÉĽm":8507,"ĠdÉ¹ËĪaÊĬt":8508,"ĠpÉ¹Éªsk":8509,"ËĪÊĬki":8510,"ËĪÃ¦ÅĭÉ¡oÊĬ":8511,"ĠËĪÉĽlËĪaÉª":8512,"ĠkËĪÃ¦É¹ÉĻl":8513,"ĠËĮÊĮndÉļstËĪÃ¦ndz":8514,"ĠtÉĻlÉĻn":8515,"ĠmËĪÉĳËĲÉ¹ks":8516,"ĠmËĪÊĮÎ¸ÉĲfËĮÊĮkÉĻ":8517,"ĠmËĮoÊĬÉ¾ÉªvËĪeÉªÊĥÉĻn":8518,"vÉªs":8519,"É¹ËĮÉĽ":8520,"ĠtËĪÃ¦ÅĭÉ¡ÉĻld":8521,"ĠlËĪoÊĬz":8522,"ËĪaÊĬdi":8523,"ĠÊĥËĪÉªmi":8524,"ĠfËĪÊĮkÉļ":8525,"ĠspÉĻl":8526,"ĠËĪÉĳËĲli":8527,"kÉ¹ËĪaÉª":8528,"É¡nÉĻnt":8529,"ĠÉĲbs":8530,"lËĪuËĲ":8531,"sÉĻm":8532,"ĠwËĪÃ¦ks":8533,"Ã¦Êĥ":8534,"ĠËĪeÉªntÊĥÉĻnt":8535,"ĠslÉĻm":8536,"ĠmËĪÉªni":8537,"ĠsÉĻpËĪo":8538,"ĠbÉ¾ÉĻks":8539,"ĠtËĪÉĽÉ¹áµ»bÉĻl":8540,"ĠÉ¡ËĪÉĳËĲÉ¹bÉªdÊĴ":8541,"É¹ÉĻns":8542,"Ã¦ÉĲÉĲËĮÃ¦":8543,"ËĪÉªÉ¹iÉĻs":8544,"ËĮÉĽmËĮeÉªtÊĥËĪÉĽm":8545,"ĠvËĪÉĶÉªd":8546,"ĠÉ¹áµ»st":8547,"ĠpËĪÃ¦sÉªndÊĴÉļ":8548,"ĠsËĪÊĮkÉĻ":8549,"ĠswËĪÉªmÉªn":8550,"ĠÊĥËĪaÊĬÉ¾aÊĬt":8551,"zÉļÉ¹":8552,"ĠËĪiÉĻ":8553,"ËĪÉĶnt":8554,"ĠËĪoÊĬÊĥÉĻnz":8555,"ĠpÉ¹ÉĻdËĪuËĲs":8556,"ĠflËĪÉĶËĲlÉĻs":8557,"É¹oÊĬd":8558,"ĠtËĪiËĲtÊĥÉļz":8559,"ĠflËĪoËĲÉ¹z":8560,"ĠkËĪÉĳËĲz":8561,"ĠtËĪÉĽmpÉ¹":8562,"ĠÉĻpËĪÉªniÉĻn":8563,"fËĪoÊĬ":8564,"ĠpËĪaÊĬÉļz":8565,"ĠstËĪaÉª":8566,"ĠbËĪÃ¦kjÉĳËĲÉ¹d":8567,"ĠÉ¹áµ»fÉ¹":8568,"ĠÉ¡lÉĻs":8569,"ËĪÊĬÉ¹É¹i":8570,"ĠsËĪaÉªdweÉªz":8571,"ĠsnÉĻ":8572,"ĠpËĪÉĳËĲÉ¹kt":8573,"ĠbËĪÉĽntÊĥ":8574,"ĠfËĪoËĲÉ¹É¾ifËĪoËĲÉ¹":8575,"ĠsÉªnsËĪÉªÉ¹":8576,"É¹Éªst":8577,"ĠpÉĻlz":8578,"ĠÉ¹Éªz":8579,"ĠÉ¹ËĪaÉªs":8580,"ĠsËĪeÉªfti":8581,"ĠstËĪeÉªts":8582,"ĠwËĪeÉªvÉªÅĭ":8583,"ĠlËĪÉĽdÊĴÉĻndÉļÉ¹i":8584,"bËĪÉĽÉ¾Éļ":8585,"wÉĻp":8586,"É¹Éļ":8587,"ĠÉ¡ÉĻmz":8588,"áµ»É¾i":8589,"ËĮiËĲt":8590,"ĠspËĪaÉªt":8591,"ĠvËĪoÊĬk":8592,"ĠvËĪiËĲdÉĻ":8593,"ËĪÊĮÅĭks":8594,"ÉªsËĪaÉªdÉĻl":8595,"ĠÉ¹áµ»mËĪuËĲv":8596,"ĠfËĪaÉªvhËĪÊĮndÉ¹ÉĻd":8597,"ĠÉ¹áµ»lËĪaÉª":8598,"ĠsËĪaÊĬÎ¸saÉªd":8599,"ĠÉ¹áµ»plËĪeÉªst":8600,"ĠmËĪÊĮÎ¸ÉĲfËĮÊĮkÉªn":8601,"ĠÉ¹áµ»É¡ËĪÉĳËĲÉ¹dlÉĻs":8602,"ĠmËĪÉĽÊĴÉļ":8603,"ËĪÃ¦di":8604,"É¡ÉĻst":8605,"ĠfÉ¹ËĪÃ¦dÊĴÉĻl":8606,"ËĪani":8607,"bÉĻlz":8608,"pÉ¹ËĪoÊĬ":8609,"ĠkÉĻnËĪÉĽktáµ»d":8610,"ÉĻÉĻÉĻÉĻÉĻÉĻÉĻÉĻÉĻÉĻÉĻÉĻ":8611,"ĠlËĪÉªmp":8612,"ĠbËĪÊĮsÉªn":8613,"ĠpËĪÊĮmpÉªn":8614,"Ġbáµ»hËĪeÉªvjÉļ":8615,"ĠsËĪÃ¦É¾ÉĻlËĮaÉªt":8616,"ĠËĪeÉªpÉ¹ÉĻl":8617,"ĠhËĪÉĳËĲspÉªÉ¾ÉĻl":8618,"hËĪÉĳËĲÉ¹d":8619,"pÉĻz":8620,"ĠÉ¹ËĪÉĽl":8621,"ĠmÉĻvÉĻn":8622,"ĠpÉ¹Éªv":8623,"ËĪÉĽndoÊĬ":8624,"ÉĻvÉĻd":8625,"ĠÉĻmÉĻm":8626,"ĠbÉĻlt":8627,"ĠÉ¾ÉĻkÉĻn":8628,"ĠjËĪÉĳËĲndÉļ":8629,"ĠdÉªskËĪÊĮv":8630,"ĠÉ¡É¾ËĪab":8631,"ĠmËĮÊĮltÉªpl":8632,"ÉĻËĪ":8633,"ÉªËĮÉª":8634,"ĠdËĪÊĬÉ¹":8635,"ËĪuËĲnz":8636,"ĠËĪeÉªp":8637,"ĠÊĥÉĻld":8638,"ĠÊĥËĪÉªps":8639,"ĠdÊĴÉĻb":8640,"ĠskÉĻz":8641,"ĠÊĥËĪÉĳËĲpÉªn":8642,"stËĪÉĳËĲpÉĻbÉĻl":8643,"ĠlÉĻzÉĻÅĭ":8644,"ĠaÊĬtÉ¹ËĪoÊĬ":8645,"ĠpËĪÊĮls":8646,"ĠdÊĴÉĻzÉĻs":8647,"ĠpËĪÉĳËĲlÉĻtËĮÉªks":8648,"vËĪaÉª":8649,"ËĮeÉªs":8650,"ĠfÉĻÉ£":8651,"ĠÉ¡ËĪÉĽÉ¾ÉĻ":8652,"ĠkÉĻlÉĻ":8653,"ĠhËĪeÉªtÉ¹Éªd":8654,"jËĪÉĽËĲtËĪiËĲ":8655,"ĠpËĪoËĲÉ¹z":8656,"ĠfÉļÉ¡ËĪÉªvÉĻn":8657,"tÊĥuËĲÉĻl":8658,"ĠpËĪÃ¦lÉªs":8659,"ĠtÊĥËĪÃ¦nÉĻl":8660,"ĠvËĪÉĽlvÉªt":8661,"ËĪoÊĬÉ¾ÉĻ":8662,"ĠnaÉª":8663,"ĠpÉĻm":8664,"É¡ËĪÉĶn":8665,"ĠbËĪÃ¦skÉªt":8666,"ĠwËĪÉĻtÊĥ":8667,"ĠdËĪÉªÉ¡Éªn":8668,"fËĪÊĮkÉªn":8669,"ĠklÉĻsËĪo":8670,"ĠÃ¦mbËĪÉªÊĥÉĻn":8671,"ĠsËĪÉĽkÊĥuËĲÉĻl":8672,"ËĪÃ¦É¹oÊĬ":8673,"ĠdËĪÃ¦p":8674,"ĠkoÊĬ":8675,"ÉĻsiz":8676,"ĠbÉ¹ËĪaÉªd":8677,"ĠÉ¡É¹ËĪÃ¦ni":8678,"ĠlËĪeÉªst":8679,"ĠÉ¹ËĪuËĲmÉļ":8680,"ÉĻdÊĴÉĻn":8681,"ĠhËĪÊĬdi":8682,"ĠdËĮÉªsÉĲ":8683,"ĠÉĽksplËĪoËĲÉ¹":8684,"ĠnËĪÃ¦É¹oÊĬ":8685,"ĠËĮÉĽvÉļlËĪÃ¦st":8686,"É¹ÉĻp":8687,"ÊĬdz":8688,"ËĪeÉªÉĳËĲw":8689,"ĠlËĪeÉªb":8690,"ĠlÉĻp":8691,"ËĪÉĶÉªÉĻ":8692,"ĠslËĪaÉª":8693,"ĠkwÉĻn":8694,"ĠfËĪoËĲÉ¹st":8695,"ĠkËĪÉªdn":8696,"ĠbËĪÊĮstÉªÅĭ":8697,"ĠlËĪiËĲnÉªÅĭ":8698,"ĠkÉĻmpjËĪuËĲ":8699,"ĠmËĪÉĳËĲÉ¹kÉªt":8700,"ĠÉ¹áµ»mËĪÉĽmb":8701,"ĠÉ¹ËĪÃ¦bÉªt":8702,"ĠhÉĻk":8703,"ĠnËĪÉľËĲs":8704,"ĠfÉĶËĲÉ¹sËĪeÉªk":8705,"ĠstÉ¹ËĪÊĮÅĭ":8706,"ËĮÉĳËĲÉ¡":8707,"ĠÉ¡lËĪÃ¦ns":8708,"kÉ¹ËĪeÉªzi":8709,"ĠÉ¹ËĪuËĲÎ¸":8710,"ĠÉ¡lËĪoËĲÉ¹iÉĻs":8711,"ĠÉ¹áµ»pËĪÉĽnt":8712,"ĠlËĪÉªmÉªts":8713,"ĠmËĪÉĶnstÉļz":8714,"ĠwËĪÉªÉ¡ÉĻl":8715,"ËĪÉªlÉªkÉĻÉĻÉĻ":8716,"ĠmËĮÉĽd":8717,"ĠnËĮÉĳËĲn":8718,"ĠËĪÉªnfluËĲ":8719,"ĠdÊĴËĪÉĽÉ¹":8720,"ĠbËĪÊĮdÊĴ":8721,"ĠfËĪiËĲtÊĥÉļ":8722,"waÉªd":8723,"ÉªÉ¾áµ»d":8724,"eÉªlz":8725,"ËĪÊĬlÉĻ":8726,"bÉļt":8727,"ĠÉĻmËĪa":8728,"ĠstËĪÉªkÉªn":8729,"ĠÉĻnÉĻwÉĻn":8730,"ËĮÉĳËĲlÉªt":8731,"ÉĻÅĭÉ¡lÉĻ":8732,"sËĪÉĽvÉĻnti":8733,"ĠvËĪuËĲ":8734,"ÉªsËĪÉªpi":8735,"ĠwËĪÉªspÉļd":8736,"ĠdËĪiËĲvÉĻ":8737,"biz":8738,"Ġji":8739,"ĠdËĪiËĲd":8740,"ĠfÉ¾ÉĻd":8741,"É¾ËĪak":8742,"ËĪÉĽsjËĪÉĽËĲ":8743,"ĠÊĥËĪÉĳËĲÉ¾ÉĻ":8744,"ËĪÉĳËĲÉ¹jËĪÉĽËĲ":8745,"ĠdËĪaÊĬnz":8746,"ĠkÉ¹ËĪÃ¦kÉªn":8747,"ĠtËĪuËĲm":8748,"ĠklÉĻk":8749,"ĠspËĪÉĳËĲÉ¹ks":8750,"ĠbÉ¹ËĪeÉªkdaÊĬn":8751,"ĠswËĪiËĲthÉĳËĲÉ¹t":8752,"ĠsÉĻmdÉĻ":8753,"ĠÉĲdËĪÉªkÊĥÉĻn":8754,"ĠÉĻmptÉĻ":8755,"ĠÉ¹ÉªËĪÃ¦kt":8756,"ĠÉĻbsËĪÉĽst":8757,"ĠmËĪÉľËĲdÉļd":8758,"bÊĬk":8759,"ĠsËĮÉªlÊĬ":8760,"vÉĻs":8761,"ËĪeÉªdÊĴ":8762,"ĠstÉ¾ÉĻs":8763,"ĠtÉ¹ËĪÃ¦ns":8764,"ĠbÉ¹ËĪeÉªzi":8765,"ĠkËĪÉĳËĲnÊĥÉĻs":8766,"ĠlËĪÃ¦fz":8767,"ĠkËĪeÉªÉĳËĲs":8768,"ĠsËĪÉĽvÉĻnÎ¸":8769,"ĠkÉ¾ËĪaÊĥ":8770,"ĠflËĪaÉªts":8771,"ĠmËĪÉĽÉ¹":8772,"ËĪÃ¦stÉªn":8773,"ĠÉ¡lÉĻk":8774,"ĠÉ¹ËĪÉĳËĲkt":8775,"ĠmËĪÉĽnÉªs":8776,"ĠlÉĻvz":8777,"ĠpÉĻlÉĻd":8778,"ĠpËĪÃ¦kÉªdÊĴ":8779,"ĠspËĪÉĳËĲts":8780,"ĠkÉĻnsËĪuËĲm":8781,"ĠkÉĻkÉĻn":8782,"ĠsËĪaÉªÉĻns":8783,"ĠmËĮÉªsÉªsËĪÉªpi":8784,"hËĮÃ¦":8785,"kËĪÉĳËĲÉ¹":8786,"ĠmËĪoÊĬs":8787,"ĠdËĪÉĻ":8788,"ÉĻtÉĻn":8789,"ĠÉªfËĪÉĽkt":8790,"ĠfËĪaÉªÉ¾Éļ":8791,"ĠwÉĻzÉĻ":8792,"ËĪÃ¦ntÉªdÊĴ":8793,"ĠfÉĻstÉĻ":8794,"ĠÉ¹ËĮiËĲÉļÉ¹ËĪeÉªndÊĴ":8795,"ĠbËĮiËĲËĮÉĳËĲÉ¹É¹ËĮÉĳËĲÉ¹tËĪiËĲ":8796,"pËĪaÊĬÉļ":8797,"pÃ¦k":8798,"wËĮÉĻn":8799,"É¹áµ»":8800,"É¹ËĪÉĽd":8801,"ĠfiËĲ":8802,"ĠfjËĪuËĲz":8803,"ĠstÉ¾ËĪap":8804,"ĠnÉĻstÉĻ":8805,"ÉĳËĲks":8806,"ĠfÉĻÉ¾ÉĻn":8807,"juËĲn":8808,"ĠfËĪÉĶËĲÉ¹k":8809,"ĠlÉĻsÉĻ":8810,"ĠjÉĻk":8811,"vËĪiËĲjËĪÉĽËĲËĪÉĳËĲÉ¹":8812,"ĠÉ¹ËĪÉĶÅĭz":8813,"âĢĶ)":8814,"ĠÉĲpËĪiËĲl":8815,"ĠÉ¡lËĪoÊĬÉªÅĭ":8816,"ĠÉ¹oÊĬmËĪÃ¦ntÉªk":8817,"ĠÉĲpËĪÉĳËĲlÉĻdÊĴiz":8818,"ĠblËĪeÉªzÉªÅĭ":8819,"ĠmÉĻÎ¸ËĪa":8820,"ĠhËĪapÉĻnËĮe":8821,"ĠkËĪÉĳËĲmpÉ¹ÉĻmËĮaÉªz":8822,"bÉªn":8823,"ĠËĪÉĶËĲk":8824,"É¹aÉª":8825,"ĠlËĪÃ¦v":8826,"ĠhËĪÉªtÊĥ":8827,"ĠÎ¸ËĪÉĶËĲÉ¹n":8828,"ĠtÉ¹ËĪÊĮks":8829,"ĠkÉ¹ËĪÃ¦Åĭk":8830,"ĠdËĪÉĳËĲÉ¹kÉļ":8831,"ĠËĪÉľËĲnd":8832,"ĠtËĪÉªÉ¹dÉ¹":8833,"ĠkËĪÉĶËĲÊĥÉĻn":8834,"ĠhËĪÉªpnÉĻtËĮaÉªzd":8835,"fËĪaÉªÉļ":8836,"hËĪÉĳËĲÉ¹É¾áµ»d":8837,"nËĪÉªÉ¡":8838,"nËĪÊĮÃ°Éļ":8839,"ĠsËĪÉĽÉ¹":8840,"ĠtËĪÉªts":8841,"ĠnËĪÃ¦p":8842,"ÉĻvÉ¾ËĪy":8843,"ĠÉ¡lËĪiËĲm":8844,"ĠÉ¹ËĪuËĲft":8845,"ĠËĪÉĳËĲnÉªsti":8846,"ĠpËĪeÉªÊĥÉĻntli":8847,"ĠtÊĥÉĻldÉ¾ÉĻn":8848,"ĠlËĪÉªÉ¹ÉªkÉĻl":8849,"ĠplËĪÉĳËĲtÉªn":8850,"É¹áµ»pËĪiËĲt":8851,"hÊĬd":8852,"pËĪiËĲs":8853,"ĠmËĪoÊĬld":8854,"ĠstËĪÉªÅĭk":8855,"ĠÉ¡ËĪoÊĬt":8856,"ĠËĪÃ¦É¹oÊĬ":8857,"ĠpÉ¹Éªs":8858,"ĠslËĪaÉªt":8859,"ËĪatÉĻ":8860,"ĠwËĪÉľËĲldwaÉªd":8861,"ĠkËĪÊĮtÉªn":8862,"ĠstËĪÉªkÉªÅĭ":8863,"ĠmÉĻmÉĻÉĻz":8864,"ĠÉ¡É¹ËĪuËĲvi":8865,"ĠÉ¹áµ»flËĪÉĽkt":8866,"ĠÊĥËĪaÊĬÉ¾ÉªÅĭ":8867,"ĠkÉĻnsËĪÉªdÉļ":8868,"ltÉ¹":8869,"É¹ËĮeÉªt":8870,"ĠnËĪÉĽli":8871,"ĠkËĪÉľËĲst":8872,"ĠfËĪÉĻti":8873,"ĠÉªndÊĴ":8874,"ËĮÉĽk":8875,"ËĪoËĲÉ¹s":8876,"dÊĴËĪÊĮmp":8877,"ĠtËĪuËĲlz":8878,"ĠspËĪiËĲks":8879,"ĠskËĪÃ¦nd":8880,"ÉĽt":8881,"Î²ÉĻn":8882,"Î²ÉĻl":8883,"ĠbËĪÉľËĲkÉªn":8884,"ĠtÉ¾ÉĻz":8885,"ĠbËĪalÉĻn":8886,"ĠÉĻÉ£ÉĻnst":8887,"ĠËĪÃ¦dÉªkt":8888,"Ġdáµ»É¹ËĪÉĽkt":8889,"ĠdËĪÊĮÉ¾i":8890,"ĠÎ¸ËĪÉĽÉ¹ÉĻpi":8891,"ĠmÉĻlz":8892,"É¾Éªz":8893,"ËĪÉĶËĲlweÉªz":8894,"ĠdÊĴËĪÉĳËĲkÉªn":8895,"ĠÎ¸ËĪÊĮmp":8896,"ĠtÊĥËĪÉĶËĲk":8897,"ĠlËĪuËĲsi":8898,"ĠlËĪÉªkÉªn":8899,"ĠbÉĻnËĪiËĲÉ¾ÉĻ":8900,"ĠÊĥËĪÉĽÉ¹ÉªÅĭ":8901,"ĠfËĪÉªÅĭÉ¡Éļt":8902,"ĠwËĪÊĮndÉļz":8903,"ĠkÉļÉ¹ËĪÉĽkt":8904,"tËĪÉĶËĲkÉªn":8905,"ĠkËĪÉĳËĲÅĭkÉļ":8906,"ĠlËĪiËĲsÉĻ":8907,"ĠsËĪat":8908,"ĠhËĪaÉªts":8909,"ĠnËĪeÉªl":8910,"ĠkjÉĻ":8911,"ĠfËĪÉĻv":8912,"ËĪÉĳËĲmÉĻz":8913,"ĠÊĮnÉĻÉĻÉĻÉĻÉĻ":8914,"ĠwËĪeÉªvi":8915,"ĠwËĪÉĶndÉļÉ¹ÉªÅĭ":8916,"ĠflËĪÉĶËĲÉ¹ÉªdÉĻ":8917,"kËĪeÉªn":8918,"ËĪaÉªvÉļ":8919,"ÊĮts":8920,"ĠdiËĲ":8921,"ĠdÉ¾ËĪÉĻ":8922,"ĠlËĪÉĳËĲb":8923,"ĠkÉĳËĲÉ¹":8924,"Î¸É¾ËĪÉĻ":8925,"ĠtÊĥËĪÉªli":8926,"ĠnËĪÉĳËĲts":8927,"ËĪÉªÅĭkÉĻl":8928,"ĠwÉĻks":8929,"ĠlËĪiËĲÊĥ":8930,"ĠdÉªsÉ¡É¹":8931,"ĠkÉ¾ÉĻb":8932,"ĠÉĲsËĪuËĲm":8933,"ĠkËĪÉĽlz":8934,"ĠËĪÉĳËĲpÉĻzËĮÉªt":8935,"ĠsÉĻst":8936,"ĠsËĪÊĮks":8937,"ĠbËĪÉĶst":8938,"ĠbËĪÉªÉ¾i":8939,"Éļb":8940,"ĠmËĪÊĮl":8941,"ĠmËĪaÉªnz":8942,"ËĪÉĻtyÉĻnz":8943,"ĠpÉ¹ÉĻtËĪÉĽkÊĥÉĻn":8944,"ĠsËĮÉĽntÉªm":8945,"ĠhÉĻvËĪi":8946,"wÉĳËĲ":8947,"ĠsÉĻld":8948,"ĠfËĪoÊĬz":8949,"ĠskÉĻt":8950,"ĠskËĪoÊĬp":8951,"ĠwËĪÉªlj":8952,"ĠbËĪÉĳËĲd":8953,"ĠÉ¡lËĪaÉªd":8954,"ĠhËĪÉĶËĲlz":8955,"ĠÎ¸ËĪÉĳËĲÅĭ":8956,"ĠpËĮÉĳËĲpÉļÉ¹ËĪÉĳËĲtsi":8957,"aÊĥ":8958,"pÉªÅĭ":8959,"oÊĬb":8960,"ËĪÉªÊĶn":8961,"ÊĥËĪuËĲ":8962,"ĠÊĥËĪÉĽf":8963,"ĠkÉĻmjËĪuËĲn":8964,"ËĪÃ¦tÊĥuËĲ":8965,"ĠdÉ¹ËĪaÉªvweÉª":8966,"hËĪoÊĬli":8967,"ĠwËĪÉĽb":8968,"ĠhËĪÊĮslÉļz":8969,"ĠtËĪÃ¦ksi":8970,"wËĪÉĳËĲp":8971,"ĠËĪÉĳËĲt":8972,"ĠwËĪÃ¦stÉªn":8973,"ĠmËĪeÉªz":8974,"Ã¦b":8975,"ĠtËĪÉª":8976,"ĠdiËĲt":8977,"ĠfÉĻÅĭÉ¡":8978,"ĠÉ¹ËĪÉĽz":8979,"ĠÊĮnstËĪÉĳËĲpÉĻbÉĻl":8980,"nËĪoÊĬp":8981,"ĠsËĪÃ¦li":8982,"ĠdÉĻlÉĻz":8983,"ĠstËĪÃ¦kÉªÅĭ":8984,"ĠtËĪÉĽmpÉĻl":8985,"ĠdÊĴËĪaÉªÉĻnt":8986,"ĠnËĪÉľËĲvz":8987,"ĠstËĪÉĳËĲÉ¹vÉªÅĭ":8988,"ĠpÉ¹ËĪÉĽÉ¡nÉĻnt":8989,"uËĲd":8990,"ĠstËĪÃ¦kt":8991,"ĠtÊĥËĪÉĽkt":8992,"ÉĻntËĪyÉĻn":8993,"ĠbËĪÃ¦p":8994,"ĠkËĪÉĽÉ¹lÉĻs":8995,"ĠsËĪÉĽndÉªn":8996,"ÉĳËĲnz":8997,"ĠdÉ¾ÉĻmÉĻÅĭ":8998,"ĠbËĪÃ¦É¾ÉĻlz":8999,"ĠËĪuËĲuËĲËĮoÊĬ":9000,"Ġdáµ»spËĪÉĽÉ¹":9001,"ĠmËĮÃ¦É¡ÉĲzËĪiËĲnz":9002,"ĠstËĪÊĮft":9003,"ĠdÉ¾ËĪÉĻma":9004,"wËĪuËĲp":9005,"ĠnËĪÉĳËĲnÉĻ":9006,"ËĪuËĲst":9007,"ËĮÃ¦Åĭ":9008,"ĠvÉľËĲ":9009,"ĠsÉĻft":9010,"ËĪÉĽÉ¹iÉĻ":9011,"ĠfËĪuËĲlÉªÅĭ":9012,"ÉĻktÉĻ":9013,"ĠdËĮiËĲËĮÉĽnËĪeÉª":9014,"ĠÉ¹áµ»sÉļÉ¹":9015,"ĠdÊĴËĪÉĽnÉļÉ¹ÉĻl":9016,"ĠtÉ¹ËĪoÊĬfi":9017,"ÉªËĮÃ¦k":9018,"ĠtÊĥËĪeÉªst":9019,"ËĪÉªstÉĻns":9020,"ĠËĪÉªsÉĻl":9021,"ËĮoËĲÉ¹i":9022,"ĠlËĪÉĽmÉĻn":9023,"ĠkËĪÉĽmÉªst":9024,"ĠtËĪoÊĬÉ¾ÉĻli":9025,"ËĪÉĽsÉªv":9026,"ĠstËĪÃ¦m":9027,"ĠskÉĻp":9028,"ĠswËĪÉªft":9029,"ĠkËĪuËĲlÉªn":9030,"ĠkËĪÃ¦pÉªÉ¾ÉĻl":9031,"ĠËĪÉĳËĲpÊĥÉĻn":9032,"ĠsËĪuËĲzÉĻn":9033,"ĠÉªnhËĪeÉªl":9034,"ĠspËĪaÉªdÉļ":9035,"bÉĻtÊĥ":9036,"ĠmËĪÉªÅĭk":9037,"ĠsËĪÊĮmÉļz":9038,"ĠspËĪuËĲn":9039,"ĠvaÉª":9040,"slËĪoÊĬ":9041,"É¾ËĪÉĻs":9042,"ĠjËĪeÉªoÊĬ":9043,"ĠlËĪiËĲÉ¡ÉĻl":9044,"ĠÊĥÉĻnÉĻÅĭ":9045,"ĠkËĪÉĳËĲntÃ¦kt":9046,"ĠtÉ¹Ã¦nsfËĪÉĶËĲÉ¹m":9047,"ĠdÉĻndÊĴÉĻ":9048,"É¾Éªf":9049,"ĠbÉ¹ËĪuËĲs":9050,"ĠspËĪoËĲÉ¹":9051,"ĠbËĪÃ¦É¾ÉļÉ¹i":9052,"flËĪoÊĬ":9053,"ĠsplËĪÉªf":9054,"ĠkËĪaÊĬÉļd":9055,"ĠsnËĪÉªpÉªts":9056,"ĠpÉĻktjÉĻz":9057,"Ġbáµ»tÉ¹ËĪeÉª":9058,"ĠÃ¦ntËĪÉªs":9059,"nËĪÉªÉ¡ÉĻz":9060,"ËĪÉĳËĲnoÊĬ":9061,"ĠtÊĥÉĻst":9062,"ËĪÉĶËĲÉ¹m":9063,"ĠsËĪÉĻpo":9064,"ĠpËĪiËĲsfÉĻl":9065,"mÉĻsfËĮÉªÉ¹":9066,"ĠÉ¹ËĪÉªÅĭÉ¡Éªn":9067,"ĠsÉĻlÉĻÅĭ":9068,"ĠmËĪÉªÉ¹ÉĻkÉĻlz":9069,"ĠkÉ¹ËĪÃ¦Êĥt":9070,"ĠÉ¹ËĪÉĽsáµ»pËĮiËĲ":9071,"ĠpËĪÉľËĲlz":9072,"ĠtËĪÃ¦m":9073,"ĠlÉĻÉĻn":9074,"ĠkËĪaÉªt":9075,"ËĪÉĽmp":9076,"É¡ËĪÉªmi":9077,"ĠlËĪaÉªÉ¾ÉªÅĭ":9078,"áµ»É¾":9079,"ĠÉ¡É¹ËĪoÊĬs":9080,"ÉªsËĮÉªn":9081,"ĠkwËĪÉĶl":9082,"ĠËĪÃ¦shoÊĬl":9083,"ÉĽntÊĥi":9084,"ĠkËĪÃ¦pÉªn":9085,"ĠËĮoÊĬvÉļnËĪaÉªt":9086,"ĠÉ¾ÉĻÊĥ":9087,"ĠbÉĻdz":9088,"ĠfÉĻdÉĻd":9089,"ĠkËĮÉĳËĲntÉ¹":9090,"ĠËĪiÉĻÉ¹ÉĻ":9091,"ÉĻÉĻt":9092,"Ã¦ts":9093,"ĠÉ¹ËĪÉªÉ¡":9094,"ËĪatÉĻk":9095,"ĠplËĪeÉªts":9096,"nËĪaÉªntiËĲn":9097,"ËĪÊĮlt":9098,"ĠËĪÃ¦tmÉĻsfËĮÉªÉ¹":9099,"ĠËĪÉĽst":9100,"ĠwËĪÉĶËĲÉ¹d":9101,"ËĪÃ¦ftÉļ":9102,"ËĪÊĮÊĥÉĻn":9103,"ĠplËĪuËĲÉ¾oÊĬ":9104,"ĠhËĪÉªÉ¹z":9105,"ĠËĪÉĽvÉ¹ÉªÎ¸ËĮÉªn":9106,"ĠsËĪÉĻlf":9107,"ĠkËĪoÊĬldÉªst":9108,"É¾ÉĻkÉĻ":9109,"É¡ËĪoÊĬÉªÅĭ":9110,"ĠpÉ¹ËĪÉĽzÉªdÉĻnts":9111,"ĠËĪaktÉĻn":9112,"áµ»É¡ËĪÉĳËĲÉ¹":9113,"ĠÉĽntËĪaÉªÉļ":9114,"lËĪaÉªt":9115,"ĠbËĪiËĲnz":9116,"ËĪoËĲÉ¹iÉĻ":9117,"ĠflËĪaÊĥ":9118,"ĠvjËĪuËĲz":9119,"ĠslËĪiËĲplÉĻs":9120,"ÉªlÉĻn":9121,"ĠdÊĴËĪÉĳËĲbz":9122,"ĠÉĲdvËĪÃ¦ntÉªdÊĴ":9123,"ĠËĪÉªndiÉĻn":9124,"wÉľËĲks":9125,"ĠËĪÃ¦ksÉªdÉĻnt":9126,"ĠtÊĥËĪÃ¦lÉªndÊĴ":9127,"mËĮÃ¦Î¸":9128,"pÉĻs":9129,"uËĲËĮÉĽÉ¹i":9130,"oÊĬËĮÉªn":9131,"ĠjÉĻlÉĻ":9132,"Ġsáµ»É¡ËĪÉĳËĲÉ¹":9133,"ËĪÃ¦ÊĥÉĻnÉĻl":9134,"ĠdÉ¹ËĪaÊĬnd":9135,"ËĮeÉªÉ¾Éļz":9136,"jËĪuËĲl":9137,"ĠmËĪÃ¦É¡":9138,"ĠbËĪÉľËĲnÉļ":9139,"ĠkÉĻpÉĻÅĭ":9140,"Ã¦lËĪeÉª":9141,"ĠÉ¡É¹ËĪuËĲpiz":9142,"É¹áµ»mËĪÉĽmbÉļ":9143,"ĠoÊĬbËĪÉĳËĲmÉĻ":9144,"ĠnËĪÉĽvÉĻ":9145,"kËĪÉªs":9146,"pËĪiËĲpÉĻl":9147,"ĠsËĪÉªv":9148,"ĠÉĻÊĥÉĻn":9149,"ĠspÉĻsÉĻËĪal":9150,"ËĪiËĲvz":9151,"ĠÉ¹ËĪoÊĬps":9152,"ĠsmËĪÉĳËĲÉ¹":9153,"ĠstËĪoËĲÉ¹mz":9154,"ĠËĪÃ¦ntaÉª":9155,"ÉĳËĲÉ¹k":9156,"ĠËĮoÊĬvÉļlËĪoÊĬd":9157,"ĠÉĻkÉ¾ËĪÉĻs":9158,"ĠfËĪiËĲdÉªÅĭ":9159,"ĠËĮÉĽsËĮeÉªtÊĥËĪeÉªtÊĥ":9160,"ĠnËĪÃ¦tÊĥÉļÉ¹ÉĻli":9161,"ĠdËĪÉĽnÉªm":9162,"ĠmÉĻvÉĻz":9163,"ĠÉļÉ¹ËĪaÉªvd":9164,"kËĪan":9165,"sÉªs":9166,"É¹ËĪÃ¦ks":9167,"ĠfÉĻtÉĻ":9168,"ĠlËĪaÉªsÉĻns":9169,"ËĪiËĲdËĪiËĲ":9170,"ÉĳËĲlf":9171,"ĠsËĪÉªÅĭÉļ":9172,"pleÉªs":9173,"ĠËĪÉĽlËĪoÊĬ":9174,"ĠstËĪoËĲÉ¹z":9175,"ĠlËĪÃ¦ndáµ»d":9176,"ĠËĮÃ¦bsÉĻl":9177,"ĠaÉªdËĪiËĲ":9178,"jËĪo":9179,"ĠbËĪÉĳËĲni":9180,"ĠÉĻps":9181,"ĠfËĪÉĳËĲl":9182,"ĠfÃ¦nt":9183,"ÉĻdÉĻd":9184,"dÊĴÃ¦":9185,"ÉĳËĲts":9186,"tÉ¹ËĪiËĲnÉĻ":9187,"ĠslËĪaÉªdÉªÅĭ":9188,"ĠlÉĻdÊĴËĪÉªt":9189,"ĠfÊĬlfËĪÉªl":9190,"ĠsËĮÉĽntÉªmËĪÉĽntÉĻl":9191,"bÉĻz":9192,"mËĪÉĽÉ¹i":9193,"ĠmËĮa":9194,"ĠlËĪÉĶ":9195,"ĠfËĪÉªd":9196,"Î¸ËĪÉĽÉ¾Éªk":9197,"ĠwÉĻÅĭz":9198,"ĠhËĪÉĽdlaÉªts":9199,"ĠËĮÉªntÉļÉ¹":9200,"ĠÉĻpËĮÉĻn":9201,"ĠtËĪÉªkÉªts":9202,"ĠkËĪÊĮlÉļd":9203,"ĠhËĪÊĮsÉĻlÉªÅĭ":9204,"fÉªnËĪÉªÊĥÉĻn":9205,"ĠlËĪÉĽÉ¡ÉĻsi":9206,"nËĪÉĳËĲk":9207,"ËĪÉĳËĲnd":9208,"ĠtÊĥÉĻks":9209,"ĠbÉ¹ËĪÃ¦n":9210,"ĠÉ¹áµ»lËĪiËĲf":9211,"ĠsÉĻlËĪÉĽbÉ¹":9212,"ĠbËĪuËĲmÉªn":9213,"ĠÉ¡É¾ÉĻp":9214,"ĠsÉĻlÉĻÎ²":9215,"fËĮiËĲld":9216,"ĠhÉĻst":9217,"áµ»stÉ¹":9218,"ËĮÉªd":9219,"ĠÉ¡ËĪÉªvÉĽntÊĥi":9220,"ĠsÉĻpÉĻn":9221,"ĠwÉĻlkÉĻmÉĻ":9222,"mËĪÉĳËĲmÉĲ":9223,"ĠbÉĻlÉĻ":9224,"ĠdwËĪÉĽl":9225,"É¾áµ»fËĮaÉªd":9226,"É¡d":9227,"ĠdÊĴÉĻÅĭÉ¡lÉĻ":9228,"ĠbÉ¹ËĪÉªt":9229,"ÉĻÅĭÉ¡ÉĻ":9230,"bÉļÉ¾i":9231,"ĠËĪÃ¦sÉªd":9232,"ĠmËĪÉªsi":9233,"ĠmËĪÉĽtÉ¹oÊĬ":9234,"ĠmËĪÃ¦dÊĴÉªkÉĻl":9235,"É¡ËĪÉĽts":9236,"ĠâĢ¦":9237,"ĠdËĮÉªsÉĲpËĪÉªÉ¹d":9238,"ĠkÉ¹iËĲËĪeÉª":9239,"ĠÉĳËĲhËĪÉĳËĲ":9240,"ĠËĪoÊĬvÉļdËĮoÊĬs":9241,"ĠnËĮÉĽvÉļ":9242,"ĠkËĪÉªt":9243,"ËĪÉªvÉªÉ¾i":9244,"ĠËĪoÊĬvÉļtËĮaÉªm":9245,"ĠËĪÉĳËĲveÉª":9246,"ËĪÃ¦dÉªn":9247,"ÉªÉ¡n":9248,"ĠkËĪoÊĬstÉļ":9249,"ĠstÉ¹ËĪÉĽsÉªÅĭ":9250,"lËĪÃ¦Åĭ":9251,"ÉªÉĻ":9252,"ĠdËĪÉªpÉªn":9253,"stËĪÉĽÉ¹z":9254,"Î¸ÉĻl":9255,"ĠËĪÉªnf":9256,"ĠdÊĴËĪÉĽts":9257,"ĠÉ¡ËĪÉľËĲlfÉ¹ÉĽndz":9258,"ĠhËĪuËĲm":9259,"ĠsËĪÉªts":9260,"ĠhËĪavÉĻÅĭ":9261,"ĠkËĪÃ¦É¹iÉªÅĭ":9262,"ĠkËĪÃ¦ps":9263,"ĠËĪeÉªdÊĴáµ»z":9264,"ËĪuËĲsÉªv":9265,"ĠsËĮuËĲpÉļ":9266,"ĠpÉ¹ÉªfËĪÉľËĲ":9267,"zÉļÉ¹ËĪÉĳËĲÉ¾i":9268,"ĠdËĮÉªsÉĲÉ¡É¹ËĪiËĲ":9269,"nÉĽk":9270,"wËĮÉĽÉ¹":9271,"ĠpËĪÉĶÉªn":9272,"ĠslËĪÉªps":9273,"ĠfÉļÉ¡ËĪÉĽÉ¾ÉªÅĭ":9274,"ĠslËĪiËĲpi":9275,"ĠpÉ¹ËĪoÊĬÉ¡É¹":9276,"ĠstËĪoËĲÉ¹mi":9277,"ĠÉªÅĭkl":9278,"ĠdËĪÉĽlt":9279,"ĠfËĪÉªÅĭÉ¡ÉļtËĮÉªps":9280,"kËĪuËĲ":9281,"ÉĻkÉ¹":9282,"ĠtÊĥÉĻnz":9283,"ĠspËĪÉĶÉªl":9284,"ĠflÉĻks":9285,"ĠskËĪuËĲp":9286,"ĠpËĪaÊĬÉļfÉĻl":9287,"ĠpÉļmËĪÉªÊĥÉĻn":9288,"ĠdÉªvËĪoÊĬÊĥÉĻn":9289,"ĠsËĮuËĲÉªsËĪaÉªdÉĻl":9290,"ĠÉĲtÉ¹ËĪÃ¦kÊĥÉĻn":9291,"ĠdÊĴËĪÉªÉ¡i":9292,"bËĮÉľËĲ":9293,"ĠlËĪeÉªbÉĻlz":9294,"ĠhËĪaÊĬnd":9295,"ĠfÉĻld":9296,"ĠÉ¹Éªd":9297,"ĠhËĪandÉĻ":9298,"kÉ¹ËĪÉªs":9299,"ĠlÉĻnÉĻd":9300,"ĠfÉĻsz":9301,"ĠtÊĥËĪiËĲf":9302,"ĠpËĪaÉªlÉĻt":9303,"ĠËĮÉªntÉ¹ÉĻd":9304,"ĠslËĪÉĳËĲpi":9305,"pËĪÉªk":9306,"ĠnËĪÉĽs":9307,"ËĪÉĶËĲs":9308,"Ã°ËĪÉĽn":9309,"ĠÎ¸É¾ÉĻt":9310,"ĠflËĪÉªpt":9311,"ĠvËĪaÉªs":9312,"ĠlÉĻtlÉĻ":9313,"ĠhËĪÃ¦pÉªÉļ":9314,"tÉ¹ËĪÃ¦p":9315,"ÉĻÉĻÉĻÉĻÉĻÉĻÉĻÉĻÉĻÉĻÉĻ":9316,"ĠËĪeÉªtÎ¸":9317,"ĠtÊĥËĪÉĶÉªsáµ»z":9318,"ĠÉĻbsËĪÉĽÊĥÉĻn":9319,"oÊĬvËĪÉĽmbÉļ":9320,"ĠhÉªp":9321,"ĠslËĪÉªÅĭ":9322,"ĠswËĪÉĳËĲp":9323,"ĠËĪad":9324,"ĠkËĪÉĳËĲÉ¹v":9325,"ĠkËĪÉªdÉªÅĭ":9326,"dËĪÉĳËĲdÉĻ":9327,"ĠsËĪÉĽlz":9328,"ĠbËĪÉĶËĲld":9329,"ĠbËĪÊĮstáµ»d":9330,"ĠfÉ¹ËĪiËĲkÉªn":9331,"ĠplÉĻÉ¡":9332,"ĠplÉĻËĪe":9333,"sáµ»É¹ËĪÉªlÉªkÉĻÉĻÉĻ":9334,"ĠpËĪÉĳËĲmz":9335,"ËĪiÉĻÉ¹ÉªÉĻd":9336,"joÊĬ":9337,"ÊĬl":9338,"ĠbËĪÃ¦tÊĥ":9339,"Ġts":9340,"ËĪÉªkjÊĬlÉĻs":9341,"ĠvÉªkt":9342,"ËĪaÉªvz":9343,"ĠtËĪÉĽnÉªs":9344,"ĠsËĪÉĽntÉ¹ÉĻl":9345,"ËĪÉĳËĲlÉĻdÊĴi":9346,"Ġdáµ»pÉ¹ËĪÉĽÊĥÉĻn":9347,"ĠÉĲstËĪÉĳËĲn":9348,"ĠtËĪÉĶËĲÉ¹tÊĥÉļ":9349,"ĠpËĪÉľËĲmÉĻnÉĻnt":9350,"kËĪaÉª":9351,"Ġáµ»":9352,"ËĪali":9353,"ĠlËĪÃ¦b":9354,"ĠÉ¡ËĪa":9355,"ÉĲks":9356,"ĠÊĮnÉ¹":9357,"ĠËĪÉĽlvÉªs":9358,"ËĮuËĲt":9359,"ĠnÉĻdÉĻd":9360,"ĠËĮÉĽskËĮeÉªËĮÉĳËĲÉ¹É¹ËĪÉĳËĲÉ¹":9361,"ĠfËĪiËĲtÊĥÉļz":9362,"ĠkÉĻnsËĪÉľËĲn":9363,"ĠËĪÉĽfÉļt":9364,"ĠkjËĪÊĬÉ¹É¹iÉĻs":9365,"ĠstËĪiËĲvi":9366,"ĠvËĪÉĳËĲljuËĲm":9367,"lÉĳËĲk":9368,"ĠwËĪan":9369,"ĠtËĪÉĶst":9370,"É¡lÉĻnd":9371,"ĠÉĲstÉ¹ËĪeÉª":9372,"ĠfÉ¹ËĪÉĶËĲd":9373,"ĠnÉĻf":9374,"dÊĴËĪÉªn":9375,"ĠnËĪÊĮf":9376,"ĠhÉĻhËĪÉĻ":9377,"kËĪeÉªÊĴÉĻn":9378,"ĠsnÉĻk":9379,"ĠskÉ¹ËĪuËĲd":9380,"aÊĬts":9381,"Ġbáµ»hËĪoÊĬld":9382,"ĠtwËĪÉĽntiÎ¸É¹ËĪiËĲ":9383,"ĠÉ¹áµ»lËĪoÊĬd":9384,"ĠÉ¹ËĪeÉªndÉ¹":9385,"ĠmËĮÃ¦zÉļÉ¹ËĪÉĳËĲÉ¾i":9386,"ĠdËĮÉĽfÉªnËĪÉªÊĥÉĻn":9387,"ĠÉ¹ËĪiËĲkoÊĬ":9388,"áµ»sÉļÉ¹i":9389,"'),":9390,"pÉ¹i":9391,"sËĪoÊĬl":9392,"ËĪasi":9393,"ftÉĻn":9394,"ÉĻnsÉĻz":9395,"ĠsnËĪaÉª":9396,"ĠhËĪÉĳËĲndÉĻ":9397,"ĠÉ¹ËĪuËĲbi":9398,"ĠhËĪÉĽÉ¹oÊĬËĮÉªn":9399,"ĠÉ¹ËĪÉªsts":9400,"ĠpÉ¹ËĪiËĲst":9401,"ĠsËĪÃ¦vÉªn":9402,"ĠklËĪaÊĬnz":9403,"ĠËĪÉĽvÉªdÉĻns":9404,"kËĪoÊĬld":9405,"Éªmz":9406,"ĠtÉļÉ¹":9407,"ËĪÊĮÉ¾Éļ":9408,"ĠnËĪÊĮk":9409,"ÉĻlÉªs":9410,"ĠÊĮnÉĻÉĻÉĻÉĻ":9411,"ĠËĪÉĽmËĪoÊĬ":9412,"ĠklËĪoÊĬsÉªst":9413,"ĠÊĥËĪÉĽÉ¹Éªf":9414,"ĠkÉĻmpËĪÉĽÉ¹z":9415,"wËĪÉĽÉ¹É¾oÊĬ":9416,"ĠsËĪoËĲÉ¹s":9417,"ĠpËĪaÉªnt":9418,"ËĪÉªlÉªkjÉĻËĲ":9419,"ĠÉ¾ÉĻÉ£É¾ÉĻt":9420,"ĠwËĪÊĮttÊĥuËĲ":9421,"ĠËĪÉľËĲÎ¸kweÉªk":9422,"ĠtËĪÉĽmpÉ¹ÉªtÊĥÉļ":9423,"áµ»É¾ËĪÉªlÉªkjÉĻËĲ":9424,"hËĪÃ¦ps":9425,"ĠmËĪÉªki":9426,"ÉĻlËĪÉĻ":9427,"tÊĥËĪÉªÅĭ":9428,"É¾ÉĻst":9429,"ÉªkÉĻlz":9430,"ËĪÉªzÉĻl":9431,"ĠfÉ¹ËĪiËĲstaÉªl":9432,"ĠhËĪÉĽlps":9433,"ĠÉ¡ËĪÉĽsÉªÅĭ":9434,"ÉªlÉļ":9435,"ĠfÉĻnÉĻÊĥ":9436,"ĠwËĪÉĶËĲÉ¹mÎ¸":9437,"ĠkÉĻndËĪÉªÊĥÉĻn":9438,"ĠswËĪÉĶloÊĬd":9439,"ĠlËĪeÉªzÉļ":9440,"ĠËĮÉĽvÉļlËĪÃ¦stÉªÅĭ":9441,"bÉªt":9442,"hÉĻt":9443,"mÉļÉ¹":9444,"waÉªl":9445,"ĠjËĪÉĽËĲ":9446,"Ġnáµ»":9447,"ĠfËĪan":9448,"ĠpËĪÃ¦tÊĥ":9449,"ĠflËĪÉªpÉªÅĭ":9450,"ËĪaÉªvÉĻl":9451,"ĠÊĮnwËĪaÉªnd":9452,"ĠsËĪiËĲnz":9453,"ĠÉªnvËĪaÉªÉ¾áµ»d":9454,"ĠfËĪÉĳËĲÃ°Éļz":9455,"ĠÉ¹áµ»spËĪÉĳËĲns":9456,"ĠsÉļvËĪaÉªvÉļ":9457,"ĠdÊĴËĪoÊĬkÉļ":9458,"ĠjËĪuËĲÊĴuËĲÉĻl":9459,"ĠtËĪÊĮmblÉªÅĭ":9460,"ĠsËĪuËĲzi":9461,"ĠÉªnspËĪaÉªÉļd":9462,"ĠloÊĬkËĪeÉªÊĥÉĻn":9463,"ĠpÉ¹ËĮÉĽzÉªdËĪÉĽnÊĥÉĻl":9464,"ĠdÉªsÉ¡É¹ËĪeÉªs":9465,"hËĪa":9466,"Ã¦É¡":9467,"ĠdËĪÉªl":9468,"ĠdÊĴËĪÉĽm":9469,"ĠvÉĻb":9470,"ĠhËĪÉľËĲs":9471,"ĠfËĪaÉªÉļwÉľËĲks":9472,"ĠsËĪÉªknÉĻs":9473,"boÊĬn":9474,"ĠpËĪeÉªntÉªÅĭ":9475,"ĠtËĪuËĲntÊĥaÉª":9476,"ĠmÉĻÃ°ÉĻfÉĻkÉĻÅĭ":9477,"ĠÉªmËĪÉľËĲdÊĴÉĻnsi":9478,"ĠÉ¡ËĪÉĽÉ¾ÉĻwËĮeÉª":9479,"dËĪÉªÅĭ":9480,"ËĪiËĲÉ¡ÉĻl":9481,"ĠËĪaÉªv":9482,"ĠnoÊĬvËĪÉĽmbÉļ":9483,"ĠfËĪÃ¦s":9484,"É¡ËĪoÊĬld":9485,"ËĪÉĽljËĪÉĽËĲ":9486,"ĠÉ¹áµ»tÉ¹":9487,"ËĮaÊĬÉļ":9488,"ËĮÉĳËĲpt":9489,"ĠspËĪiËĲkÉļ":9490,"ÉĶf":9491,"ĠblËĪiËĲdÉªn":9492,"ĠÉ¾ÉĻÅĭz":9493,"Ġdáµ»stÉ¹ËĪÊĮkÊĥÉĻn":9494,"ĠÉĲplËĪaÉª":9495,"fiÉĻ":9496,"eÉªts":9497,"ËĪÃ¦nÉªk":9498,"ĠskËĪÉĳËĲÉ¹d":9499,"Î²a":9500,"ĠfËĪeÉªvÉļz":9501,"ĠkÉĻnvËĪÉªns":9502,"ĠtÊĥËĪoÊĬkÉªÅĭ":9503,"ĠlËĪaÊĬbaÊĬtËĮÉªnz":9504,"jÉĻn":9505,"ĠÉĻkÉĻ":9506,"ĠÉ¹ËĪÉĽv":9507,"ĠdÊĴËĪÉĽÉ¹i":9508,"ĠdÊĴËĪeÉªsÉĻn":9509,"diÉĻns":9510,"ĠklËĪÃ¦n":9511,"ĠÉ¾ÉĻb":9512,"ptËĪaÉªt":9513,"ĠËĪÃ¦sks":9514,"ĠskÉ¹ËĪÊĮb":9515,"ĠwËĪÉĶËĲÉ¹nd":9516,"ĠkËĪÉĳËĲnv":9517,"ĠfÉĻtÉĻÅĭ":9518,"ĠtËĪÊĮÅĭz":9519,"ĠbËĪÃ¦kwÊĬdz":9520,"ĠÊĮpstËĪÉĽÉ¹z":9521,"ĠÉ¹áµ»dÊĴËĪÉĶÉªs":9522,"ĠtËĪaÊĬÉĻl":9523,"ĠÉ¹ÉªdËĪÉªkjÊĬlÉĻs":9524,"'?)":9525,"bËĪÉľËĲn":9526,"fÉĻt":9527,"mÉªk":9528,"uËĲËĮoÊĬ":9529,"ĠfËĪÉľËĲn":9530,"ĠfËĪiËĲn":9531,"ĠfjËĪÊĬÉ¹":9532,"ËĪiËĲdoÊĬ":9533,"ĠsËĪuËĲp":9534,"ĠËĪÉĽlÉĻ":9535,"ĠkÉĻlËĪoÊĬn":9536,"ĠpÉĻlÉĻs":9537,"ĠpÉĻtËĪÉĽnÊĥÉĻl":9538,"ĠfËĪÃ¦ntÉĻsiz":9539,"ĠfËĪÊĬtbÉĶËĲl":9540,"ĠsËĮiËĲËĪeÉªtÊĥ":9541,"Ġdáµ»pËĪÉĽndz":9542,"ĠzËĪÉĳËĲmbi":9543,"foËĲÉ¹":9544,"É¹ËĪÉĽdi":9545,"ĠbÉĻnsÉĻ":9546,"Ã°ËĪÉĻ":9547,"ĠbËĪiËĲmÉļ":9548,"ĠjÉĻst":9549,"ĠsËĪiËĲld":9550,"ËĮeÉªmËĪÉĽn":9551,"ĠÉªnsËĪÃ¦nÉªÉ¾i":9552,"ĠwËĪaÉªldÉªst":9553,"bÉĻÉĻ":9554,"dËĪiËĲp":9555,"sËĪeÉªv":9556,"ĠdÉĻmÉĻnd":9557,"ÊĥËĪÊĮt":9558,"ĠÉ¹ËĪaÊĬdi":9559,"ĠÎ¸ËĪaÉª":9560,"ldÊĴ":9561,"ËĪÉªntÉļ":9562,"ĠskËĪÉªlz":9563,"ĠÉ¡É¹ËĪeÉªp":9564,"ĠbËĪÃ¦pt":9565,"ĠstÉ¹ËĪÉªpt":9566,"ĠÉĽkspÉªkt":9567,"ĠsËĪaÉªts":9568,"ÉªtËĮuËĲt":9569,"sËĪÊĮmbÉĳËĲdi":9570,"ĠsnËĪÉªtÊĥáµ»z":9571,"ĠmÃ¦É¡n":9572,"meÉªd":9573,"ËĮn":9574,"ĠsËĪÃ¦É¡":9575,"ĠÉ¹ËĪÉĳËĲn":9576,"ĠÊĥËĪÃ¦É¾Éļ":9577,"ĠtÉ¹ËĪÉĽd":9578,"ĠnËĪÉĳËĲtÊĥ":9579,"ĠskËĪÊĮl":9580,"ĠÉ¡lËĪÉªsÉĻn":9581,"ÊĶËĮn":9582,"ĠwËĪÉªnz":9583,"ĠmËĪÉľËĲdÉĻ":9584,"Ġbáµ»sËĪaÉªdz":9585,"ĠÉ¾ÉĻspÉĻkt":9586,"ĠdÊĴËĪuËĲÉĻlÉļ":9587,"ĠËĪÉĽkoÊĬz":9588,"bjËĪuËĲ":9589,"ËĪastÉĻÉ¾ÉĻsk":9590,"ĠmÉªl":9591,"ĠjËĪoËĲÉ¹":9592,"ĠdÊĴËĪiËĲni":9593,"ÉļÉ¹ËĮeÉªÉ¾Éļ":9594,"ĠvËĪÉĳËĲm":9595,"bÉ¹ËĪiËĲ":9596,"ĠfËĪÉĽlÉĻ":9597,"ĠÊĥËĪeÉªks":9598,"ĠdÉ¾ÉĻpÉĻn":9599,"ĠsÉĻndÉĻ":9600,"ĠkËĪÉĳËĲntÉĻmpl":9601,"ĠhËĪÊĮmÉªÅĭ":9602,"ĠpËĪÉĳËĲÉ¹tnÉļz":9603,"ËĪiËĲËĪÉĳËĲÉ¹jËĪÉĽËĲ":9604,"ĠstÉ¹ËĪÃ¦ndáµ»d":9605,"jËĪuËĲlÉªÉ¹":9606,"pÉ¹ih":9607,"ÉĻÉĻm":9608,"ĠkËĪaÊĬnts":9609,"ĠÉ¡ËĪÊĮt":9610,"ĠpÉĲ":9611,"ĠpwËĪÉĽÉ¹É¾oÊĬ":9612,"tÊĥÉĻz":9613,"ĠplËĪÉĳËĲ":9614,"ËĪÃ¦ndÉļ":9615,"ËĪÉĳËĲlÉļÉ¹":9616,"ĠkwËĪÉªÉ¹":9617,"ĠkËĪoÊĬm":9618,"dÉ¹ËĪÉªp":9619,"ĠstËĪiËĲlÉªn":9620,"ĠËĪÉĽsËĪoÊĬ":9621,"jÊĬlËĪeÉªÊĥÉĻn":9622,"ĠoÊĬpÉĻn":9623,"hËĮÃ¦l":9624,"kËĪÉĳËĲn":9625,"kËĮoÊĬ":9626,"ĠmËĪÉĽÉ¡":9627,"ĠkËĪat":9628,"ĠblËĪÉĶs":9629,"ĠflÉĻk":9630,"ËĪeÉªvi":9631,"ĠmËĪoÊĬÉ¾áµ»v":9632,"ĠskÉ¹ËĪÉªpt":9633,"ÉĻnkÉĻ":9634,"ĠdÉ¾ÉĻÉ¡":9635,"jÊĬlÉĻ":9636,"ĠpÉļhËĪÃ¦ps":9637,"ĠsËĪÊĮfÉĻk":9638,"Ġ???":9639,"ĠbËĪÃ¦bÉªlÉĻn":9640,"ĠÉ¹áµ»mËĪÉĽmbÉļÉ¹ÉªÅĭ":9641,"jËĪÉĻ":9642,"lËĪÉªÉ¾ÉĻl":9643,"ĠbËĪÉĳËĲÉ¹t":9644,"ĠdËĪiËĲz":9645,"ĠpÉĻtÊĥ":9646,"ĠÊĥËĪÉªvÉļ":9647,"ĠtÊĥËĪa":9648,"ĠkÉ¹ËĪÉĳËĲk":9649,"ĠÉ¹ËĪiËĲÉĻlÉļ":9650,"ĠdËĪÊĮzÉĻn":9651,"mËĪaÉªÉ¾i":9652,"ĠfËĪÃ¦ntÉĲs":9653,"ĠbÉĻdÉĻz":9654,"ĠhËĪÉĳËĲÉ¹tbÉ¹eÉªkÉļ":9655,"madÊĴ":9656,"Ġdáµ»pÉ¹ËĪÉĽst":9657,"ĠbËĪaÊĬdÊĴi":9658,"ĠkÉ¹ËĪiËĲtÊĥÉļ":9659,"lÉªst":9660,"ĠmÃ¦n":9661,"ĠsËĮÊĮ":9662,"ĠtËĪÉĻn":9663,"ĠtÉ¹ËĪÉĽnd":9664,"ĠhËĪoÊĬst":9665,"ĠspËĪaÉªs":9666,"ĠlËĪÉªbÉļÉ¾i":9667,"ĠbËĪÉĽÉ¾ÉĻ":9668,"ĠsËĪaÉªdwÉĶËĲk":9669,"ĠÉĽksËĪaÉªt":9670,"ĠkÉĻpt":9671,"ĠËĪÉľËĲb":9672,"ĠÉ¡lËĪoËĲÉ¹iÉĻ":9673,"ĠstÉ¾ÉĻÅĭÉ¡ÉĻ":9674,"ĠÉĳËĲpÉļtËĪuËĲnÉªÉ¾i":9675,"bÉªk":9676,"mËĪÊĮÃ°Éļ":9677,"ĠsËĪak":9678,"ĠtËĪÊĮmbÉĻl":9679,"ĠkËĪÉĶÉªn":9680,"ËĪÉĽsÉªÅĭ":9681,"ÉĻmËĪÃ¦É¾Éªk":9682,"ËĮÃ¦s":9683,"ĠËĪÃ¦lf":9684,"ĠÉĻlmÉĻst":9685,"ĠËĮÉªntÉļn":9686,"blËĪuËĲ":9687,"ĠsËĪiËĲlÉªÅĭz":9688,"fÉĻkËĮÉªn":9689,"ĠsËĪÃ¦Åĭkt":9690,"sËĪÉªkstiËĲn":9691,"ĠpÉ¹ËĪoÊĬÉ¡É¹Ã¦m":9692,"ĠkËĪaÊĬÉļ":9693,"ĠstËĪÉªf":9694,"ÉĻtËĮiËĲn":9695,"ĠËĪaÊĬtfÉªt":9696,"ĠtÉĻÎ¸":9697,"ĠvËĪÉªk":9698,"ĠswËĪÉĽpt":9699,"ËĪÉĽntiz":9700,"ËĪÉªmÉļ":9701,"ĠfËĪiËĲst":9702,"ĠtÊĥËĪaÉªldhÊĬd":9703,"ĠÉªnvËĪaÉªt":9704,"ĠÉ¡É¹ËĪÃ¦bÉªÅĭ":9705,"ĠpËĪÃ¦É¹ÉĻlËĮaÉªzd":9706,"ĠpÉ¹ËĪaÉªslÉĻs":9707,"ĠÉĻskÉĻp":9708,"ĠbËĪÊĮmpÉªÅĭ":9709,"ĠskËĪÉĽláµ»t":9710,"ĠtËĪÉĶÉªlÉªt":9711,"ĠsËĪÉĶl":9712,"ĠdÊĴËĮiËĲËĪÉĽs":9713,"ĠÉ¹ËĪiËĲfÉļ":9714,"ĠÊĥÉĻÉ£ËĪo":9715,"É¡É¹ÉĽs":9716,"ĠÉ¹ËĪuËĲÉªnd":9717,"ĠÉ¹ËĪeÉªzÉªÅĭ":9718,"ĠpËĪÉĳËĲsi":9719,"ĠÉĲmËĪeÉªzÉªn":9720,"ĠpÉļsËĪuËĲ":9721,"ĠlËĪÉĶËĲÉ¹ÉĻnt":9722,"madÊĴËĮyn":9723,"pËĪÉĳËĲÉ¹":9724,"ĠpËĪÉĶËĲn":9725,"ËĮÊĮnd":9726,"ĠÊĥËĪÉĳËĲÉ¹k":9727,"ĠtËĪuËĲt":9728,"ĠÉªnÉĻÉĻÉĻÉĻÉĻÉĻ":9729,"ĠtËĪiËĲËĪaÉª":9730,"ÉªÉ¡ËĮoÊĬ":9731,"ĠÉ¹áµ»lËĪiËĲst":9732,"ĠfËĪÉªÉ¹lÉĻs":9733,"jÊĬp":9734,"Ġdáµ»fËĪÉĽnd":9735,"ĠskÉ¾ÉĻmÉĻn":9736,"ĠvËĪÉĽnÉĻm":9737,"ĠËĪÃ¦ndÊĴÉĻlÉªs":9738,"ĠbÃ¦k":9739,"ĠÉĶ":9740,"ĠÉªkw":9741,"ĠdÊĴËĪaÉªv":9742,"ĠÉ¡ËĪÉĳËĲÊĥ":9743,"ĠfÉ¹ËĪÊĮntÉªÅĭ":9744,"ĠhËĪÃ¦fi":9745,"ĠbËĪÉªldÉªÅĭz":9746,"ĠpÉ¹ËĪÉĳËĲÉ¡É¹ÉĽs":9747,"ĠtÊĥËĪiËĲÉ¾áµ»d":9748,"ĠmÉĻÊĥËĪiËĲnz":9749,"ĠdËĪÉĽstÉªnd":9750,"ĠÉªnfËĪÉªnÉªÉ¾i":9751,"ĠlËĪÉĽvÉĻlz":9752,"ĠdËĪÉĳËĲmÉªnËĮoÊĬ":9753,"ĠtÊĥËĪÉªmni":9754,"nËĪaÉª":9755,"ĠpÃ¦":9756,"ĠpËĪÃ¦m":9757,"ËĪÊĮki":9758,"ĠmÉĻstÉĻ":9759,"ĠklÉĻdz":9760,"ĠflËĪÉĳËĲk":9761,"ĠvËĪÉĳËĲd":9762,"ÉĻvÉĻz":9763,"ĠmËĪoËĲÉ¹n":9764,"ĠdËĪÉĳËĲdÉĻ":9765,"ÉªdÊĴÉĻn":9766,"ËĮÉĽmËĮÉĽmËĪeÉªtÊĥ":9767,"ĠbËĪoÊĬts":9768,"ĠËĪÃ¦ftÉļmËĮÃ¦Î¸":9769,"ĠmËĪÉĳËĲd":9770,"ĠdËĮiËĲËĮÉĽm":9771,"ĠplÉĻsÉĻz":9772,"ĠdÉ¾ÉĻnkÉĻn":9773,"ĠsËĪaÉªkÉĻl":9774,"ĠdÊĴËĮiËĲËĪÉĳËĲÉ¹É¹ËĪÉĳËĲ":9775,"ĠÊĮntËĪÊĮtÊĥ":9776,"ËĪeÉªntáµ»d":9777,"ĠnËĪÉĻnt":9778,"ĠpËĪÃ¦kÉªn":9779,"ĠÉ¹uËĲt":9780,"ĠstËĪak":9781,"ËĪÉªsÉªÉ¾i":9782,"Ġbáµ»kËĪÊĮmÉªÅĭ":9783,"áµ»nËĮeÉªÉ¾áµ»d":9784,"ĠlËĪiËĲÎ¸ÉĻl":9785,"ĠtËĪÉľËĲm":9786,"ĠËĮÉĽmËĮÉĽmËĮÉĽmËĪÉĽm":9787,"ĠdÊĴÉĻlÉĻz":9788,"ĠmËĮÉĳËĲÉ¹dÊĴi":9789,"ĠpÉªkjËĪuËĲlÉªÉ¹":9790,"ĠpÉ¹ÉªskÉ¹":9791,"hËĮÃ¦láµ»lËĪuËĲjÉĻ":9792,"dËĪoÊĬ":9793,"pÉªn":9794,"ĠËĪÉĽÉ¹iÉĻ":9795,"ËĪaÉªÉĻn":9796,"ĠdËĪÊĮÅĭk":9797,"ĠdËĪÊĮfÉĻl":9798,"ÊĥËĪaÊĬt":9799,"ËĪuËĲÊĴÉĻnz":9800,"ĠÉ¹ËĪÉªtÉªn":9801,"ĠËĪÊĮÊĥÉļ":9802,"ĠhËĪoÊĬmbÉĶÉª":9803,"ĠÉĻnËĪo":9804,"ÉªstÉļ":9805,"Ġdáµ»kËĪeÉª":9806,"ĠtwÉĻs":9807,"ÉªÉ¡ËĪeÉªÊĥÉĻn":9808,"ĠËĮÉĽvÉĻlËĪuËĲÊĥÉĻn":9809,"ËĮÉĽsËĮeÉªtÊĥËĪeÉªtÊĥ":9810,"ĠspËĪiËĲdÉªn":9811,"ĠÉ¡ËĪÉªlt":9812,"ĠkËĪÉľËĲvz":9813,"ĠsÊĮbl":9814,"ĠpÉ¹ÉĻfËĪÉĽÊĥÉĻn":9815,"ÉĻbËĪÉªlÉªÉ¾i":9816,"dËĪÉĽd":9817,"pÉ¾ÉĻz":9818,"ĠtËĪaÉªÉļ":9819,"ĠÉĲlËĪÉľËĲt":9820,"slËĪÃ¦t":9821,"ĠkËĪÃ¦pt":9822,"ĠmÉªstËĪeÉªkÉĻn":9823,"ĠfiËĲËĪÉĽstÉĻ":9824,"fËĪÃ¦kts":9825,"ÊĥÉĻp":9826,"ĠÉ¹ËĪÉĽvÉļ":9827,"ĠdÉ¹ËĪÉªvÉĻn":9828,"ĠblËĪÉľËĲ":9829,"ĠËĪÃ¦lÉĻ":9830,"ĠÉĻtÉĻntËĪyÉĻn":9831,"ĠspËĪoËĲÉ¹t":9832,"ĠslËĪat":9833,"ËĪÉĳËĲmpl":9834,"ĠkËĪÉĳËĲÉ¹di":9835,"ĠÉĻmb":9836,"ĠÉ¡É¹ËĪeÉªtnÉĻs":9837,"ĠtÉ¹ËĪÉªpi":9838,"ĠpËĪÃ¦kÉªÅĭ":9839,"ĠmËĪÉĽlÉĻdiz":9840,"ĠdÉ¹ËĪaÊĬnÉªn":9841,"ĠsÉĻksËĪiËĲd":9842,"ĠÉªÉ¡nËĪoËĲÉ¹d":9843,"ĠËĪÉĳËĲksÉªdÊĴÉĻn":9844,"ĠbËĪÊĮni":9845,"ĠÉ¡ËĪÃ¦n":9846,"ĠfËĪÉĽbÉ¹":9847,"ĠstÉĻdÊĴÉĻ":9848,"ĠÊĮptËĪaÉªt":9849,"ĠslËĪÊĮt":9850,"ĠslËĪÊĮÉ¡z":9851,"ĠdÉĻÉ¡z":9852,"ĠtÉĻnz":9853,"ĠdËĪÉĳËĲÅĭ":9854,"ĠdËĮiËĲsËĪiËĲ":9855,"ĠstËĪÊĮntÉªÅĭ":9856,"ĠËĪÉªÅĭÉ¡lÉĻnd":9857,"ĠkËĪuËĲtÊĥi":9858,"ĠÉ¡ËĪÃ¦mbÉĻl":9859,"Ã¦ntËĪÉĳËĲnÉĻ":9860,"ĠlËĪÉĳËĲl":9861,"ĠÉĻndz":9862,"ĠfÉ¾ÉĻz":9863,"ĠËĪÃ¦É¾Éªk":9864,"ËĪÉĶËĲÉ¹ÉªÉ¾i":9865,"ĠtËĪÊĮtÊĥdaÊĬn":9866,"ĠfËĪÉĳËĲÉ¹Ã°Éļ":9867,"ĠflËĪoÊĬÉªn":9868,"ĠÉĲdmËĪaÉª":9869,"sÉĻlËĪeÉªÊĥÉĻn":9870,"ĠhËĪÉĶËĲlweÉª":9871,"ĠlËĪoÊĬkÉĻ":9872,"ĠËĪymadÊĴËĮyn":9873,"pËĮiËĲs":9874,"ĠÉ¹ËĪÉªsÉªn":9875,"bËĪiËĲp":9876,"wo":9877,"ËĪiËĲÉ¾oÊĬ":9878,"ĠpËĪÊĮz":9879,"ĠblËĪÊĮÊĥ":9880,"ĠklËĪiËĲv":9881,"ĠskËĪÃ¦m":9882,"ĠskËĪaÉªl":9883,"ĠÉ¡É¹ËĪiËĲt":9884,"ĠvÉĻn":9885,"ĠbËĪÉĳËĲÅĭ":9886,"ĠËĪÉĽmËĪaÉª":9887,"ĠÉ¡ÉĻdËĪam":9888,"ĠtÉ¾ÉĻpÉĻn":9889,"ĠdÉªzËĪaÉªÉļz":9890,"ĠspÉ¹ËĪÊĮÅĭ":9891,"ĠmjËĪÊĬlÉĻ":9892,"ĠÉ¡ÉĻlfÉ¾ÉĻnd":9893,"ĠvaÉªÉĻl":9894,"sÉªn":9895,"ËĪÉĻÉĻ":9896,"ĠtËĪÊĮ":9897,"ĠspËĪÃ¦z":9898,"ËĮaÉªk":9899,"ĠfËĪeÉªsd":9900,"ĠlËĪuËĲzÉļz":9901,"ĠÉĽkskl":9902,"ĠÎ¸ËĪaÊĬzÉĻndz":9903,"ĠËĮÃ¦lÉĻb":9904,"ĠsÉļvËĪaÉªvd":9905,"ĠtwËĪÉªstÉªÅĭ":9906,"loÊĬd":9907,"nÉªvËĪÉľËĲs":9908,"lËĪiËĲn":9909,"sÉĻt":9910,"wËĪaÉªl":9911,"ËĪeÉªÉ¾oÊĬ":9912,"ĠhÉĻÅĭÉ¡":9913,"ĠkÉ¹ËĪÃ¦p":9914,"dÊĴËĪiËĲzÉĻs":9915,"ĠÉ¡É¹ËĪiËĲs":9916,"ĠÉĽÅĭk":9917,"bÉļn":9918,"ĠpËĪeÉªnz":9919,"ĠwËĪÊĮndÉļd":9920,"ĠËĪÉĳËĲnlaÉªn":9921,"ĠaÉªdËĪÉĽnt":9922,"pÉļÉ¹ËĮÉĽÉ¹i":9923,"ĠsnËĪÉªtÊĥÉªn":9924,"áµ»bli":9925,"pËĪoÊĬz":9926,"sËĪÉĽks":9927,"ĠhËĪÉĶ":9928,"ĠÉĻÃ°ËĪo":9929,"ĠdÊĴËĮiËĲËĮÉĳËĲÉ¹É¹":9930,"ĠplËĪiËĲ":9931,"ÉļÉ¹ËĪÉĳËĲdoÊĬ":9932,"ĠflÉĻm":9933,"ĠflÉĻz":9934,"ĠÎ¸É¹ËĪÉªlz":9935,"ĠnËĪuËĲs":9936,"ĠhËĪaÉªk":9937,"ĠnËĪÉĳËĲks":9938,"ĠkËĪoÊĬp":9939,"wËĪÊĮns":9940,"ĠÉ¹ËĪÉªb":9941,"ĠdÊĴËĪÃ¦ki":9942,"!!!!":9943,"ĠfËĪoËĲÉ¹sáµ»z":9944,"ĠbÉĻfÉ¾ÉĻnd":9945,"É¡ÊĬdbËĪaÉª":9946,"ĠsËĮÉªlÊĬwËĪÉĽt":9947,"ĠvËĪÉĳËĲdkÉĻ":9948,"\"?":9949,"ĠhËĪÉĶÅĭki":9950,"ÊĴi":9951,"ÉĲwËĪeÉª":9952,"ĠblËĪÊĮdz":9953,"ĠtÉĻnÉĻÅĭ":9954,"ĠpËĪÉĳËĲpjÊĬlÉļ":9955,"É¾ÉĻdÉĻs":9956,"ĠÉªlËĪiËĲÉ¡ÉĻl":9957,"ĠÊĮÅĭkËĪaÉªnd":9958,"bÃ¦É¡":9959,"ĠfËĪaÊĥÉĻn":9960,"ĠblËĪÃ¦ÅĭkÉªt":9961,"ĠdËĪÉĽvÉĻlz":9962,"ĠwËĪÉªÅĭk":9963,"ĠËĪaÉªÉ¹":9964,"ĠÉĻndÊĴÉĻz":9965,"Éªnv":9966,"ĠpËĪÉĳËĲs":9967,"ĠpÉĻnts":9968,"ĠpËĮÉĳËĲlÉªt":9969,"ÉĻtËĮÉĽÉ¹i":9970,"ĠwÉĻf":9971,"ĠklËĪeÉª":9972,"ĠfÉ¹ËĪÉĽndÊĥÉªp":9973,"ĠjÉĻstÉĻdÉĻ":9974,"az":9975,"pËĪaÊĬ":9976,"É¹ÉĻf":9977,"ĠkËĪÉĽv":9978,"ĠpËĪiÉĻÉ¹ÉªÉĻd":9979,"ËĪÃ¦ts":9980,"ĠËĪÉªnfÉªn":9981,"ĠdÊĴÉĻnt":9982,"tÊĥËĪiËĲ":9983,"ËĪoËĲÉ¹iÉĻs":9984,"ĠlËĪÉªÉ¾ÉļÉ¹":9985,"ĠhËĪÃ¦ndáµ»d":9986,"tËĪÉªldÉĻ":9987,"lÉĻfÉĻn":9988,"ĠdÊĴËĪuËĲsi":9989,"ĠpËĪÊĮmpÉªÅĭ":9990,"lËĪÊĬkÉªÅĭ":9991,"hËĪÉĽlp":9992,"Ġdáµ»spËĪaÉªt":9993,"ĠÉ¹ËĪeÉªlÉ¹oÊĬd":9994,"ĠnËĪÃ¦Êĥ":9995,"ĠpËĪÉĽns":9996,"ËĪÉĻÉ¾i":9997,"ĠbÉ¹ËĪuËĲzd":9998,"ĠspËĪÉªld":9999},"merges":["Ë Ī","É Ļ","É ª","Ë Ĳ","ÉĻ ÉĻ","ËĪ É","ËĪ a","É ¹","ËĪa Éª","Ê Ĭ","i ËĲ","ËĪÉ Ľ","Ġ Ã","Ê Į","u ËĲ","Ġ ËĪ","e Éª","ËĪ iËĲ","Ë Į","Ġ ÉĻÉĻ","Ġ w","ĠÃ °","Ġ m","o ÊĬ","Ġ j","ËĪ Éª","Ã ¦","Ġ s","Ġ b","ĳ ËĲ","Ġ t","Ġ É","Ġ ËĪaÉª","ËĪ Ã¦","ËĪ ÊĮ","ËĪÉ ĳËĲ","ËĪ eÉª","Ġ d","ËĪ oÊĬ","ËĪÉ Ķ","Ġ l","Ġ h","Ġ n","n d","Ġ ÉĻ","Ġ k","ĠÃ° ÉĻ","Å ĭ","ĠÉ ¡","Ġ f","Ġj uËĲ","Ê ĥ","Ġ Éª","ĠÉĻÉĻ ÉĻÉĻ","É ļ","ÉĻ n","Éª n","ËĪ uËĲ","ĠÃ ¦","ËĪa ÊĬ","ĠËĪ eÉª","ËĪÉĶ ËĲ","Éª Åĭ","ËĮ ÉĻ","Ġ p","ĠÉĻÉĻ ÉĻ","s t","ĠÉª t","É ¾","Ġ É¹","ĠÃ¦ nd","Ġt uËĲ","' t","Ġm ËĪaÉª","ËĪ ÉĻ","Ġm ËĪiËĲ","Ġ (","ÉĻ l","ËĪÉĶ n","ľ ËĲ","Î ¸","ËĪÉĽ s","Ê Ĵ","ĠÉĻ ËĮÉĻ","ËĮ ÊĮ","ËĮ É","ËĪÉĽ m","É ¡","ËĲ É¹","ÉĻÉĻ ÉĻ","Ġ Êĥ","ËĪÃ¦ t","ĠËĪ ÉĻ","Ġn ËĪoÊĬ","ËĪ ÊĬ","ËĮÉ Ľ","ĠËĪ Éªn","ËĪÉ ľËĲ","Ã °","Ġl ËĪaÉª","ËĪÉĶËĲ l","ĠÃ° ËĪÃ¦t","ËĪÉĽ l","µ »","á µ»","ËĪÃ¦ n","ËĪÊĮ n","Ġs t","ËĮÊĮ t","ËĪÉĳËĲ t","ËĪÉĽ t","Ġ ËĪÉĶn","Ġd ÊĴ","ËĪÉĳËĲ É¹","ĠËĪ oÊĬ","ËĪÉĳËĲ n","ËĪÉĽ v","Ġ ÊĮ","t Êĥ","ĠËĪ ÊĮ","ÊĬ É¹","Ġw iËĲ","Ġ Î¸","Ġj ÊĬÉ¹","ĠÉ Ĳ","Ġ ËĪÉĶËĲl","ËĪeÉª k","ËĪÉĽ É¹","ĠÊĮ v","Ķ ËĲÉ¹","Ġb ËĪiËĲ","ËĪÊĮ m","ĠÉĻÉĻÉĻÉĻ ÉĻ","ËĪÉª l","ÉĻ m","ËĪ o","ËĪÉª s","ĠlËĪaÉª k","ËĪÉĽ n","ËĪÊĮ v","Ġd ËĪÉĳËĲn","ËĪaÊĬ t","Éª Ã°","ËĪaÉª t","Ġw ÉªÃ°","ËĪÉĽ h","ĠËĪÊĮ p","Ġk ËĪÃ¦n","ËĪÉª Åĭ","Ġl ËĪÊĮv","ÉĻ s","É ĶËĲÉ¹","ËĪÊĮ st","Ġj ÉĻ","Ġf ÉĶËĲÉ¹","ÉĻ t","Ġs ËĪoÊĬ","ĠÉª z","Ġ '","ËĪo ËĲÉ¹","ËĪÊĬ d","Ġw ËĪÉĶn","ËĮ iËĲ","ËĪÃ¦ k","Ġb ËĮÊĮt","l d","ĠÉ¡ ËĪÉĳËĲt","ÉĻ d","Ġj ËĪÉĽh","ĠÉĻÉĻÉĻÉĻ ÉĻÉĻ","ĠdÊĴ ËĪÊĮst","ËĪÉª É¡","ËĮÉĽ n","ĠÉ¡ ËĪoÊĬ","Ġt É¹","ÉĻ k","ĠÃ° ËĪÉªs","ĠËĪ ÉĻÉĻÉĻ","Ġd ËĪuËĲ","Ġh ËĪÃ¦","ËĪÉĽ d","ËĪÉª É¹","ÉĻ z","ĠÉ¡ ËĪÉĽt","Ġw ËĪÊĮn","Ġw ËĮÊĮt","Ġf É¹","ËĪÉĽv Éļ","Ġs ËĪiËĲ","ËĪaÊĬ n","ĠÉĻ ËĪ","Ġw ËĮÉĽn","É¹ ËĮiËĲ","ËĪeÉª b","Ġt Êĥ","Ġs ËĪeÉª","ĠÃ° eÉª","Ġh ËĪoÊĬ","ËĪÉª t","l i","Ġn ËĪaÊĬ","ĠÊĥ iËĲ","Ġb É¹","Ġw ËĪeÉª","Ġ ËĪaÊĬt","Ġn ËĪÉªÉ¡","ËĪiËĲ l","ĠÉĻËĪ ÉĻÉĻÉĻ","Ġt ËĪaÉª","ËĮÉĽ l","ËĪiËĲ p","ĠÉª f","ËĮÉĽl ËĪÉĽl","k s","Ġb ËĪeÉªb","ËĮ Ã¦","ËĪÊĮ k","É Ĳ","Ġp l","É¾ ÉĻ","ËĪÉĳËĲ p","Ġd É¹","É ľËĲ","ËĪaÉª d","ËĪiËĲ d","Ġb l","ĠÎ¸ ËĪÉªÅĭ","Ġl ËĪÉĽt","Ġd ËĪaÊĬn","ĠbËĪeÉªb i","Ġk ËĪÊĮm","Ġn ÉĻ","ĠËĪ Ã¦","ĠwËĪÉĶn t","É¾ i","Ġw ÊĮ","ĠtËĪaÉª m","Ġ a","Ġk É¹","Ì ĥ","ĠËĪeÉª n","Ġf ËĪiËĲl","ËĪÉĽv É¹","ËĮ Éªn","ĠÉĻÉĻ ËĪÉĻ","d i","ĳËĲ É¹","Ġt ÉĻ","Ġ ËĪÉĽvÉ¹","ÉĻn t","É¾ Éļ","ËĪiËĲ z","ĠÉĻ ËĪÉĻ","ËĪÉĶËĲ É¹","Ġm ËĪeÉªk","Ġm ÉĻ","ËĪÉĶËĲ z","a Éª","ĠwÊĮ z","ĠÉĻ t","Ã° Éļ","ËĪÉª tÊĥ","ĠÉĻÉĻ ËĮÉĻ","Ġw ËĪaÉª","Ġp É¹","ËĪaÊĬ nd","Ġw ÉĻ","ÉĻÉĻ ÉĻÉĻ","ËĪÉª v","Ġb ËĪÃ¦k","ËĪÉª k","Ġn ËĪÉĽvÉļ","ËĪÉĶ Åĭ","ËĪÊĬ k","ËĪÉĳËĲÉ¹ t","Ġw ËĪÉľËĲ","d ÊĴ","Ê °","ËĮÉĽ m","Ġt ËĪeÉªk","ÉĻ Åĭ","v ËĪiËĲ","Ġt ËĪuËĲ","ËĪeÉª n","Éļ É¹","Êĥ ÉĻn","ĠËĪ ÉĻn","ËĮ ÉĻn","ËĪeÉª m","Ġs ËĪÊĮm","Ġk l","Ġn ËĪÉĳËĲt","ÊĮ m","Ġh ËĪÉªÉ¹","ËĪÉĽ nd","ĠÃ° ËĪÉĽÉ¹","ĠwËĪÉĶn ÉĻ","t s","Ġh ËĪaÊĬ","Ġf ËĪÊĮk","Ġs p","Ġf l","ĠÃ¦ t","Ġh ÉľËĲ","Ġp ËĪÊĬ","Éª k","ËĪÉª n","Ġm ËĪÉĻ","Ġh iËĲ","ĠÉĻt Ê°","ĠfÉ¹ ÊĮm","Ġs k","ĠÎ¸ É¹","ËĪÉľËĲ l","ËĪeÉª s","Ġn ËĪiËĲd","ËĪÉĽ k","ĠÉ ¾","Ġb áµ»","ĠÉ ĳËĲÉ¹","ËĪÉª p","áµ» d","ĠhËĪÃ¦ v","ËĪÉĻ t","ĠÉ¡ ËĪÉľËĲl","Ġf ËĪaÉª","ĠÉ¡ É¹","ĠËĪ iËĲ","ËĪÉª d","ĠnËĪÉªÉ¡ ÉĻ","ËĪoÊĬ n","ĠÉ¹ ËĪaÉªt","Ġb ËĪÉªtÊĥ","Ġa nd","Ġ v","Ġt ËĪÉĽl","Ġb ËĪÃ¦","Ġd ËĪeÉª","ËĪÉĶËĲ k","ËĪÉĳËĲ k","b ËĪaÊĬt","ĠÉĻÉĻÉĻÉĻ ÉĻÉĻÉĻ","k ËĪÉĶËĲz","ËĪ i","ËĪÉĶ Éª","Ġl ËĪÊĬk","ËĪiËĲ v","É Ľ","ËĪuËĲ z","ĠÉ¡ ËĪÉĳËĲ","ËĮ Éª","ËĪeÉª d","ÉĻ v","Éļ z","Éª t","Ġw ËĪÉªl","f t","Ġst É¹","áµ» z","Ġb ËĮÉªn","Ġk ËĪÊĬd","ĠÉª n","ÉĻ nd","Ġs l","ËĪÉľËĲ n","ËĪiËĲ n","ËĪÉĳËĲ m","ĠÎ¸ËĪÉªÅĭ k","ĠÊĥ ËĪÉªt","ĠËĪÉĽvÉ¹ Éª","ĠlËĪaÉª f","Ġ ËĮÊĮ","Ġm ËĪÃ¦n","Ġh ËĪeÉª","É¾ ÉĻl","ĠÉ¹ áµ»","ĠËĪoÊĬ n","Ġk ËĪiËĲp","Ġw ËĪÉĽÉ¹","ĠÉ¡ ËĪÉªv","ËĪÃ¦ nd","ËĮÉĻn ÉĻ","Ġ \"","É¾ ÉªÅĭ","ĠÉ¡ ËĮÉĻnÉĻ","ÉĻ p","Ġn ËĪaÉªt","ËĪa t","Î¸ ÉªÅĭ","ĠnËĪÉªÉ¡ ÉĻz","ËĪÃ¦ st","ËĮ eÉª","Ġs w","É ĳËĲ","ËĪÉĽ st","ĠÃ¦ z","Ġh ËĪÉĳËĲÉ¹t","Ġb ËĪaÉª","v Éļ","ĠÉĻ v","Ġh ËĪuËĲ","ËĮ oÊĬ","ĠËĪ uËĲ","ËĮÊĮ m","ĠÉĲ w","nd ÊĴ","ËĪiËĲ m","Ġs ËĮÊĮm","ËĪÊĮn i","Ġm ËĪÊĮ","ËĪÉĽn t","ËĮ a","ĠÃ° ËĮÉĽm","Ġm ËĪoËĲÉ¹","ËĪÉĶ f","ĠÉ¹ ËĪoÊĬ","ĠÃ° ËĪÉĽn","Ġl ËĪÉª","s k","ĠÉĲ bËĪaÊĬt","ÉĻ st","ËĪÉª z","ĠÃ° ËĪat","É¹ ËĪaÊĬnd","ËĪoÊĬ k","ËĪiËĲ t","Ġ ËĪÉĶf","ĠÉĲw ËĪeÉª","ĠÉ¡ ËĪÊĬd","ËĪÃ¦ m","ÉĻl i","ĠÉ¹ ËĪÊĮn","Ġb ÉĻ","Ġk ËĪÉĶËĲl","Ġs m","ËĪÃ¦ p","Î ²","ËĪeÉª t","ĠÎ¸É¹ ËĪuËĲ","ËĪÊĮ Åĭ","Ġn ËĪuËĲ","Ġh ËĮÃ¦","ĠÉ¡ ËĪÉĻt","ĠÉ¹ ËĪiËĲ","j ËĪuËĲ","Ġw ËĪÊĬd","ĠÃ° ËĪiËĲz","ËĪoÊĬ ld","ĠÉĻ l","Ġst ËĪÉªl","Ġs ËĪÉĽd","Ġl ÉĻk","ĠÉ ļ","Ġn ËĪÊĮ","ĠËĪoÊĬn li","ËĪa n","Ġh ÉĻ","ĠÉĲ É¡","ĠÉ ĶËĲÉ¹","Ġb ËĪÉĳËĲ","ËĮÉĻ t","ĠhËĮÃ¦ d","ËĪaÉª n","ĠÉĲ l","ĠtÉ¹ ËĪaÉª","Ġd ËĪÉªd","' d","ĠhËĪoÊĬ m","nd Éļ","Ġm ËĪuËĲ","ËĪÃ¦n s","ËĪÃ¦ Åĭ","j ËĪÉĽh","ĠwËĪÉľËĲ ld","ËĮÉ ĳËĲ","ĠÉļ É¹ËĪaÊĬnd","Éª s","ĠËĪÉĽvÉ¹ i","ĠËĪoÊĬ vÉļ","Ġd ËĪaÉª","ĠËĮÊĮ s","Ġb ËĪÉĽ","w eÉª","ËĪÉĳËĲÉ¹ d","ĠpËĪÊĬ t","Ġm ËĪÊĮni","ĠÉĲÉ¡ ËĪÉĽn","ĠlËĪÉª É¾ÉĻl","' ,","É¹ i","ËĮ ÉªÅĭ","ËĪÉĳËĲ l","Ġt ËĪÉĶËĲk","Î¸ ËĮÉªÅĭ","ĠÉ¡ËĪÉĳËĲ É¾ÉĻ","ÉĻv ÉĻ","ËĪaÉª nd","Ġb ËĪÉĶÉª","Ġd ÉĻ","ËĪÉª st","ËĪeÉª z","É £","ĠÉĻ n","Ġd ÉĻn","ĠÃ° ËĪÉĻ","ÊĬ Éļ","v ÉĻn","ĠmËĪaÉª nd","b ÉĻl","ĠhËĪoÊĬ ld","ĠhËĪÃ¦ nd","Ġt ÉĻn","Ġl ËĪÉĶÅĭ","ËĪÉĶËĲ t","Ġm ËĪÃ¦","ĠÉ¹ËĪiËĲ ÉĻl","ËĮ aÉª","Ġ ËĮa","Ġw ËĪÉª","Ġh ËĪaÉª","ĠËĮa ÊĬÉļ","ËĪoÊĬ z","ËĪÉĽl f","ËĪi ÉĻli","ĠbËĪÉĽ É¾Éļ","ËĪeÉª ndÊĴ","Ġw ËĪÉĽl","Ġl ËĪiËĲv","Ġpl ËĪeÉª","ĠÉĻÉĻÉĻÉĻÉĻÉĻ ÉĻÉĻ","ĠÉ¹ ËĪiÉĻli","Ġ ËĪÉĽvÉļ","Éª st","Ġf ÉĻ","Ġj ÉĲ","Ġst ËĪeÉª","ËĪiËĲ k","f ËĪoËĲÉ¹","ËĪuËĲ l","m z","weÉª z","Ġk ËĪÊĮ","ÉĻn s","ËĪaÉª v","Ġf ËĪÉĶËĲl","Ġh ËĪÉªz","Ġh ËĪÉĽd","Éª d","b ÉĳËĲ","ĠÃ¦ m","ÉĲ n","Ķ ËĲ","Ġst ËĪÉĳËĲp","ĠËĪÉĶËĲl weÉªz","Ġt ËĪÉľËĲn","Ġ ËĪÉĽn","Ġl ËĮÃ¦","Ġl ËĪÉĽ","Ġw ÉĻn","Ġh ËĪÉĽl","bÉĳËĲ di","Ġbáµ» l","ĠÉ Ľ","ĠÉ¡ ËĪÉĳËĲn","ĠËĪiËĲ vÉĻn","ĠÊĮ n","ËĪÊĮ Ã°Éļ","Ġk w","Ġh ËĪÉĳËĲÉ¹d","ĠmËĪuËĲ v","ËĪÃ¦ s","ĠnËĪÊĮ Î¸ÉªÅĭ","s ËĪÉĽlf","Ġs ÉĻ","d z","Ġb ËĪÉĻ","Ġh ËĪÉľËĲ","Ġ ËĪÉĳËĲ","Ġ ËĮÉªn","ĠdÉ¹ ËĪiËĲm","ĠfËĪaÉª nd","ËĮÉª m","áµ» n","Ġn ËĪÉĳËĲ","ĠËĪaÉª z","ĠÃ¦ n","b Éļ","ĠÊĥ ËĪoÊĬ","Ġs ËĪÉª","ĠÉ¡ ËĪÉĽ","ËĪÊĮ f","Ġs ËĪÉĻ","Ġw ËĪÉĶËĲk","Ġk ËĪÉĶËĲz","Ġh ËĮÉªm","j uËĲ","ĠËĪÉĽvÉ¹Éª Î¸ËĮÉªÅĭ","ĠËĪÉĻ p","ĠbËĪÃ¦ d","k t","' m","ĠÃ° ÉĲn","ÉĽ É¹","Ġk ÉĻm","ĠlËĪaÉª v","ËĪÉĶËĲÉ¹ n","t ËĪÉªl","ĠwÉĻ Ã°",") ,","ÉĻn z","ĶËĲ l","Ġh ËĪÉªt","ĠÉĻ z","Ġm ËĪeÉªd","ĠËĮÉªn t","ËĪÉĳËĲt Êĥ","Ġw ÉľËĲ","ĠÊĥ ËĪÊĬd","ËĪeÉª ÊĥÉĻn","ËĪ ÉĻn","Ġs ËĪÊĮn","ĠÉ¡ËĪoÊĬ ÉªÅĭ","Ġb ËĪÉªÉ¡","ĠbÉ¹ ËĪeÉªk","ËĪÃ¦ Êĥ","Ġf ËĪeÉªs","ĠÉªn s","Ġh ËĪÊĮ","Ġd ËĪÃ¦ns","ĠÎ¸ËĪÉªÅĭ z","Ġk ËĪan","ĠfÉ¹ ËĪÉĽnd","ĠmËĪÊĮ tÊĥ","Ġl ÉĻt","ĠtÉĻn ËĪaÉªt","Éļ d","Ġst ËĪÉĳËĲÉ¹","Ġs ËĪÉªÅĭ","ĠsËĪÊĮm Î¸ÉªÅĭ","ÉĻl z","É¾ áµ»d","ĠÉ¡ËĪÉĳËĲ d","ĠÉ¡ l","ËĪÊĮ tÊĥ","Ġd áµ»","ĠtÊĥ ËĪeÉªndÊĴ","ËĪÊĮ z","Ġl ÉĻvÉĻ","ËĪeÉª v","ĠÉ¡ ËĪÉĶn","ĠÉĻ f","f É¹","ËĪoÊĬ s","Ġw ËĪÉĳËĲtÊĥ","ĠÉ¹ ËĪÉĽd","Ê Ķ","p ÉĻn","ËĪÉĽ ks","Ġ ËĪa","Ġt w","ĠÉ¹ËĪoÊĬ l","Ġbáµ»l ËĪiËĲv","ĠËĮÉªnt ÊĬ","ĠÊĥ ÉĻ","ËĪ y","ÊĶ n","l ÉĻ","ĠlËĪaÉª t","É¾ ÉĻm","ĠtÉ¹ ËĪuËĲ","Ġbáµ» fËĪoËĲÉ¹","Ġw ËĪoÊĬ","ĠjÉĻ h","Ġn ËĪeÉªm","p t","Ġp ËĪiËĲp","b ËĮÉĳËĲ","Ġw ËĪÉĻ","ËĪÉĳËĲÉ¹ k","ĠÉ¹áµ» m","ĠkÉ¹ ËĪaÉª","! )","bËĮÉĳËĲ di","ËĪaÉª l","Ġl ËĪeÉª","ÉĻl d","É¡ z","p l","ĶËĲl É¹","ĠfËĪiËĲl ÉªÅĭ","Ġ ËĪÉĽnd","ËĪÉĶ st","Ġb ËĮÉĻt","ÉĻ f","ĠdÊĴ ÉĻst","ËĪÉĳËĲ b","ĠsËĪeÉª m","ĠÉ¹ ËĪaÉªd","Ġd ËĪÉĳËĲ","ËĪÊĬ É¹","ĠwËĪÉľËĲ k","ËĪÃ¦ d","Ġw ËĪÊĮ","ËĪÉª m","ĠÉĲ n","ĠpËĪiËĲp ÉĻl","ĠËĪÉĽn Éª","ĠËĪoÊĬ ld","ĠÉ¹ ËĪÉĳËĲk","ËĪiËĲn ÉĻ","Ġk ËĪÉªl","ĠÉ ĶËĲlÉ¹","ĠÉĲl ËĪoÊĬn","Ġj ËĪÊĮÅĭ","Ġd ËĪÊĮn","Ġf ÉĻl","Ġt ËĪoÊĬld","m ÉĻn","ĠÉĲn ËĪÊĮÃ°Éļ","ĠÃ°ËĪÉĻ s","ĠlËĪÉĽ ft","ËĪuËĲ m","â Ģ","ĠbËĪÉĳËĲ di","ËĪa k","Î² ÉĻ","ĠwËĪeÉª t","Ġst ËĪÃ¦nd","Ġl ËĪÃ¦st","ËĪaÉª z","n ÉĻs","s i","Éª m","Ġm ËĪoÊĬ","ĠmËĪiËĲ n","Ġj ËĪoÊĬ","ËĪÃ¦t Êĥ","f ÉĻl","? )","Ġt ÉĻk","Ġm ËĪÉĳËĲm","ËĪiËĲ s","Ġk ËĪÉĽÉ¹","Ġb Éªk","Ġpl ËĪeÉªs","Ġl ËĪÉªv","Ġm ËĪÉĽn","ĠtÉ¹ ËĪiËĲnÉĻ","ËĪÉªÉ¹ z","Ġs ËĪuËĲ","Ġ [","ÉĻÉĻ ÉĻÉĻÉĻ","k ËĪeÉª","Ġs ËĪaÉªd","ĠmËĪaÉª t","Ġ ËĪÉĽl","ĠfÉ¹ ËĪiËĲ","ĠËĪÃ¦ s","ĠÉªns ËĪaÉªd","ËĪeÉªz i","ËĮÉ ĳËĲÉ¹","ËĪuËĲz d","ËĪoÊĬ l","Ġp ËĪeÉª","Éļ É¡","Ġs ËĪÉĶÅĭ","nd É¹","Ġw ËĮÉĻt","ĠhËĪoÊĬ l","Ġm aÉª","ĠbÉ¹ ËĪÉªÅĭ","ĠsËĪÊĮm w","ĠwËĪÉª Êĥ","ĠËĪÉĽvÉ¹Éª bËĮÉĳËĲdi","É£ ËĪa","ĠÉ¹ ËĪÉĶÅĭ","ËĪÉĽk st","ĠmËĪaÉª n","i z","o ËĲÉ¹","ËĪÉľËĲ st","ËĪÉªÅĭ k","Ġh ËĪÉĻ","Éª z","ËĪÉĽÉ¹ i","ĠmËĪÊĮ Ã°Éļ","Ġpl ËĪiËĲz","ĠÉ¡ ËĪeÉªm","ĠËĪÊĮ Ã°Éļ","ĠnÉĻ É£ËĪa","ĠwÉªÃ° ËĪaÊĬt","ËĮÉĻ m","ĠhËĪoÊĬ p","j ÉĻ","Ġk ËĪeÉªm","h ËĪÊĮ","ËĪÉĽv ÉĻn","Ġf ÉļÉ¡","ËĪÊĬ l","ËĪÉĽm bÉļ","Ġh ËĪa","Ġ ËĪÉĽm","Ġm ËĪÉªs","ĠbËĪÉªtÊĥ áµ»z","ËĪÉĽ Ã°Éļ","Ġp ËĪÉĳËĲp","ĠsËĪoÊĬ l","ĠmaÉª sËĪÉĽlf","Ġ ËĮÉĽn","É¡ Éļ","Ġfl ËĪaÉª","Ġl ËĪoÊĬ","Ġs n","ĠpËĪÊĬ l","ËĪÊĮm p","ĠkÉ¹ ËĪeÉªzi","Ġbl ËĪÃ¦k","ĠwËĪaÉª l","Ġp ËĪÉľËĲ","ĠfËĪaÉª Éļ","Ġl ËĪÉĶst","ĠÎ¸ ËĪÉĶËĲt","ËĪÊĮn t","Ġp ËĪeÉªn","ËĪÉĳËĲ s","Ġw ËĮÉĻn","ËĮ uËĲ","Ġst ËĪÉĳËĲÉ¹t","Ġf ËĪoËĲÉ¹","Ġp ËĪÉªk","É¾ ËĮÉĻ","Ġ ËĪÉĳËĲÉ¹","Ġl ËĪuËĲz","Î¸ Éªn","Ġk ËĪÉĳËĲÉ¹","Ġh ÉĻt","Ġm ÉĻn","ĠÉªn ËĪÊĮf","Ġj ËĪuËĲzd","ÊĮ n","ËĪÉª ks","ĠkËĪÊĮm ÉªÅĭ","p Éļ","ĠnËĪoÊĬ bÉĳËĲdi","Ġb ËĪÉľËĲn","ĠhËĪÃ¦nd z","ĠÉ¡ ËĪÉĻ","m ÉĻnt","ĠËĪÃ¦ sk","Ġkl ËĪoÊĬs","ËĪÉĶËĲÉ¹ d","Ġsl ËĪiËĲp","p É¹","ĠËĪaÉª i","ËĪaÊĬ d","ËĪÉĽk t","ĠsËĪiËĲ n","Éª dÊĴ","ĠbÉ¹ ËĪoÊĬk","ĠËĮÊĮ ndÉļ","ĠfËĪaÉª n","Ġj ËĪuËĲ","Ġt ËĪÊĮtÊĥ","Ġf ÉĻk","ËĪÊĮ b","Ġb ËĪÉĽst","ËĪaÉª s","ĠÉĻËĪ ÉĻÉĻÉĻÉĻ","Ġm ËĪeÉªb","Ġf ÉļÉ¹","w ÉĻ","ĠhËĪÃ¦ p","l ËĮÃ¦","v ÉĻ","Ġf ËĪÉľËĲst","ĠÉ¹ ËĪeÉªn","Ġd ËĪÃ¦m","k É¹","ĠlËĪÊĬk ÉªÅĭ","ĠdËĪÉªd ÉĻn","ĠÉ¹ ËĪÃ¦p","ĠÉ¹áµ»m ËĪÉĽmbÉļ","tÊĥ Éļ","ĠÉ¡ËĪÉĽ É¾ÉªÅĭ","ËĪaÊĬn t","ËĪeÉª l","ĠÉª m","ĠdÉ¹ ËĪÉĳËĲp","ĠfÉļÉ¹ ËĪÉĽvÉļ","ËĪÊĮ É¡","ĠÎ¸É¹ ËĪoÊĬ","Ġs ËĪÉľËĲ","Ġs ËĪÉªn","ĠbÉªk ËĪÊĮz","Ġk ËĪÉªs","ĠÊĥ ÉĻt","Ġp ËĪÉĳËĲÉ¹","ËĮÊĮ k","ËĪÃ¦Åĭ k","ĠdËĪeÉª z","Ġk ËĪÉĳËĲm","Ġt ËĪÉĳËĲp","Ġ -","f ËĮÊĮk","Ġk ÉĻl","ĠmËĪeÉªb iËĲ","ËĪÊĮ bÉĻl","ËĪÃ¦ l","ft Éļ","Ġsk É¹","ËĪÊĮ d","Ġd ËĪoËĲÉ¹","Ġf ËĪÉĳËĲÉ¹","n ËĪÉĳËĲ","ÉĻd ÉĻ","a ÊĬ","ĠÉĶËĲlÉ¹ ËĪaÉªt","ËĪÉĽ p","ĠsËĪÊĮmw ÊĮn","É¾ ÉĻt","ĠfÉ¹ËĪÉĽnd z","Ġj ËĪÉĽs","ĠbÉĻ Î²ÉĻ","Ġk ËĪoÊĬld","ĠÉĽ ks","ĠhËĪeÉª t","Ġl ËĪÉĳËĲt","Ġd ËĪÉĳËĲÉ¹k","l ÉĻs","Ġb ÉĻt","ĠÉĻÉĻÉĻÉĻÉĻÉĻ ÉĻÉĻÉĻ","ËĪÉĽ Êĥ","ĠÊĥ ËĪaÉªn","Ġ z","ĠbËĪiËĲ t","b É¹","Ġh ËĪÉĳËĲ","ĠhËĪÃ¦ z","j ËĪuËĲz","p ÉĻl","ĠÃ° ÉĽÉ¹","É¡ ËĪÉĽÃ°Éļ","ËĮÉĽm ËĮÉĽm","ĠÉ¹ËĪÉĽd i","ĠhËĪÉĽl p","ĠÃ° ËĮoÊĬ","ËĪÉĶËĲ É¾Éļ","ËĪÉªl i","ĠsËĪÊĮm bÉĳËĲdi","ĠtÉĻ É¡ËĪÉĽÃ°Éļ","ĠpËĪÉĳËĲÉ¹ É¾i","ĠmËĪÉĻ k","Ġw ÉĻnt","ÉļÉ¹ i","Ġb ËĪoÊĬ","Ġbl ËĪuËĲ","ÉĻl ÉĻl","Ġd ËĪiËĲp","ĠÉ¡ËĪÉľËĲl z","Ġw ÉĻz","ĠlËĪaÉª n","ËĪÉĶ s","ĠsËĪÉª É¾i","ĠmËĪÉĽn i","ÉĻÉĻ Åĭ","t aÉª","Ġf ËĪÉĽl","Ġsk ËĪaÉª","Ġsw ËĪiËĲt","É¹ oÊĬ","ÊĬ d","Ġd ËĪÉª","Ġsm ËĪoÊĬk","ĠwËĪÉª nd","ĠfËĪÊĮk Éªn","Ġbl ËĪoÊĬ","oÊĬ kËĪeÉª","ËĪuËĲ p","ĠÎ¸É¹ ËĪiËĲ","Ġd ËĪÉĽd","É¡ É¹","Ġk ËĪaÉªnd","Ġl ËĪÉªl","Ġt ËĪÊĬk","ĠsËĪeÉª v","Ġsl ËĪoÊĬ","Ġt ËĪiËĲ","Ġd ËĪÉĻn","Ġw ËĪÉĶËĲÉ¹","ËĪÉªs ÉĻn","? ]","Ġp ËĪiËĲs","ËĪÃ¦k s","n ËĪoÊĬ","ĠbÉĻ tÊĥ","ĠËĪÃ¦ ftÉļ","Ġl ËĪoÊĬn","ĠÉĻÉĻÉĻÉĻÉĻÉĻ ÉĻÉĻÉĻÉĻ","Ġs ËĪaÊĬnd","Ġf ËĪÉĶËĲÉ¹","ĠwËĪeÉª É¾ÉªÅĭ","ĠÊĥ ËĪuËĲ","Ġk ËĪÉªd","ĠËĪiËĲ z","Ġm ËĪÊĮst","Ġf ËĪaÊĬnd","ËĪÉĽnt i","Ġl ËĪeÉªt","Ġst ËĪoËĲÉ¹","É¾ ËĪy","Éª É¾i","Éª Êĥ","Ġh ÉĻl","ĠÉ¡ ËĪÃ¦Åĭ","Ġh ËĪÉĳËĲt","Ġk ÉĻnt","ĠÉ¡ ËĪÊĮn","ĠmËĪÊĮÃ°Éļ fËĮÊĮk","Ġf ËĪaÉªt","É¾ÉĻ nd","ËĪÉª É¾i","Éª É¡","Ġm ËĪÉĶËĲÉ¹n","ËĪaÊĬ Éļ","ËĪÉª ft","ĠtËĪaÉªm z","Ã° ÉĻ","ËĪÉªl d","ËĮoÊĬ Éªn","ËĪÉĽ ËĲ","Åĭ k","ĠnËĪoÊĬ z","ÉĻm ÉĻnd","ĠÃ° ËĪoÊĬz","ËĪÃ¦ É¡","ĠËĪoÊĬ pÉĻn","ĠpÉ¹ ËĪÉĳËĲb","ĠÊĥ ËĪÉĳËĲt","ĠhËĪaÊĬ s","ĠÉ¡ ËĮoÊĬÉªn","Ġ[ ?]","ĠmËĪÉĳËĲm ÉĲ","ĠËĪÃ¦ kt","Ġb ËĪak","ËĪÃ¦n t","Ġl ËĪÉĶËĲÉ¹d","ĠkËĪÊĮm z","Ġl ËĪÉªsÉĻn","ĠhËĪÉľËĲ d","âĢ Ķ","ËĪÉĽ z","Ġk ËĪÃ¦","ĠmËĪÃ¦ É¾Éļ","Éª ts","j ËĪÉĽËĲ","ĠÉ¡ËĪÉĽ ÊĶn","ËĪÉĽ Î¸","ĠËĪÉĽl s","Ġn ËĪÉĽkst","ĠËĮÊĮndÉļ st","ĠlËĪÉªv ÉªÅĭ","t É¹","ĠÊĮn tËĪÉªl","ĠnÉĻ v","Ġa ÊĬ","ĠÊĥ ËĪÊĬÉ¹","ËĪÉªp s","l ÉªÅĭ","d ÉĻ","d ËĪuËĲ","Ġw ËĪaÉªt","Ġb jËĪuËĲ","ĠtÊĥ ËĪÉĽk","ËĪÊĮÅĭ k","ĠÊĥ ËĪeÉªk","Ġb ËĪÉľËĲ","Ġsm ËĪaÉªl","ĠÉĻv É¾ËĪy","t ËĪiËĲ","ÉĻn k","ĠtÉ¹ËĪaÉª ÉªÅĭ","ĠdÉ¹ ËĪÉªÅĭk","Î¸ ÉĻÅĭ","d ËĪÉĳËĲ","h ËĪeÉª","ÉĻl ÉĻ","ĠnÉĻv ËĪo","ĠdÉ¹ ËĪaÉªv","ÉļÉ¹ ËĮÉª","ĠÉ¹ËĪoÊĬ d","ĠwËĪÊĮ ndÉļ","ĠÉ¡ËĪoÊĬ z","ĠfÉļÉ¡ ËĪÉĽt","Éª v","Ġk ÉĻn","ĠwÉĻn ËĪa","Ġt ÉĻd","ĠÉ¡ ËĪÉĽs","Ġw ËĪÉªn","Ġ oÊĬkËĪeÉª","Ġk ÉĻp","ĠlËĪoÊĬn li","ĠfËĪÊĮk ÉªÅĭ","ĠsËĪÊĮm taÉª","ËĪÃ¦k t","ĠËĮÊĮndÉļst ËĪÃ¦nd","ËĪi ÉĻ","ËĪÃ¦k Éªn","ËĪiËĲ ts","ĠhËĪoÊĬ z","ĠËĪÉĽvÉ¹Éª w","É¾ ÉĻk","jËĪuËĲz Éªk","ËĪÉľËĲ É¾i","ËĪÉĽd i","Ġf ËĪÃ¦st","ĠbjËĪuËĲ É¾i","ËĪÉªp Éªn","Ġt ÉĻl","ĠÉ¹ËĪÊĮn ÉªÅĭ","Ġt ËĪaÊĬn","Ġj oËĲÉ¹","Ġs ÉĻm","p s","ĠËĪÃ¦ n","h ËĪÉĳËĲ","ĠÉ¹ ËĪuËĲm","s p","ĠjoËĲÉ¹ sËĪÉĽlf","Ġm jËĪuËĲzÉªk","Ġm ËĪeÉª","Ġw ËĪÉĽnt","ĠËĪiËĲz i","ĠhËĪÉľËĲ t","ĠwËĪÊĮn s","ĠwËĪÉľËĲ dz","Ġn ËĪÉĻt","Ġl ÉĻ","ĠÉ¡ ÉĻd","Ġm ËĪÉĳËĲ","Ġs ËĪÉĽl","ĠdÉ¹ËĪiËĲm z","Ġb ËĪÉĽd","Ġh ÉĻd","Ġw ËĪÉĶËĲÉ¾Éļ","Ġk ËĪoÊĬ","ĠÉ¹ ËĪÉªtÊĥ","Ġ ËĪÉĽÉ¹","ĠÉ¾ ÉĻt","ĠdËĪuËĲ ÉªÅĭ","Ġs ËĪÉĽt","ĠpËĪÊĬ si","ĠÉĲ p","Ġd ËĪoÊĬ","Ġw ËĪeÉªk","ËĪÉĻ d","Ġs ËĪÉªk","ÉļÉ¹ËĮÉª sk","ĠsËĪÊĮmtaÉª mz","t Ê°","ĠËĮÉĽn i","Ġfl ËĪoËĲÉ¹","Ġk ËĪÃ¦tÊĥ","ÉĻ b","ËĪaÊĬ Î¸","É¾ ÉĻd","nd z","Ġa tÊ°","ËĮÊĮ n","ĠmËĪÃ¦ d","ĠlËĪaÉª ts","Ġb ËĪÊĮ","w ËĮÊĮt","ĠsËĪÉªn s","iËĲ n","m ÉĻs","Ġbáµ» h","oÊĬ z","ĠÉ¡ËĪoÊĬ ld","t Éļ","ĠdËĪaÉª ÉĻmÉĻnd","ĠfËĪiËĲl z","ĠdËĪÉª fÉ¹","Ġs ËĪÉĶËĲ","Ġfl ËĪoÊĬ","ĠÉ¡ ËĪeÉªv","Ġt ËĪÉªl","ĠmËĪÉĶËĲÉ¹n ÉªÅĭ","s l","Ġw ËĪuËĲ","ËĪÃ¦ b","Ġf ËĪoÊĬn","Ì ©","ĠÉĲ d","ĠstÉ¹ ËĪeÉªt","ËĮaÉª z","ĠstÉ¹ ËĪÉĶÅĭ","ĠnËĪÊĮ Î¸Éªn","ËĪaÉª m","b ËĪaÉª","Ġl ÉĻv","ÊĥÉĻn z","ËĪaÊĬ z","ĠËĪÉĽnÉª Î¸ËĮÉªÅĭ","Ġk ËĪuËĲl","ËĮeÉª t","Ġf É¾ÉĻm","ÉĻm z","Ġf jËĪuËĲ","Ġw ÉĻk","Ġh ËĪÉĽvÉĻn","Ġbl ËĪÊĮd","Ġp ËĪÃ¦","ĠËĪÊĮ ndÉļ","k ÉĻz","t w","Ġf ËĪuËĲl","ĠÉ¹ ËĪuËĲ","ĠtÉĻd ËĪeÉª","Ġh ËĪaÉªd","ĠkËĪÊĬd ÉĻn","Ġ ËĪÉľËĲ","Ġn ÉĻd","Ġs ËĪÉªt","ĠÉĻÉĻÉĻ ËĮÉĻ","ËĪÉľËĲ t","ĠÃ°ÉĻ n","ĠkÉ¹ ËĪÉªs","ËĪÊĬ mÉĻn","ËĪÃ¦ f","Ġs ËĪÉĳËĲÉ¹","ĠhËĪÃ¦p i","Ġk ËĪÉªÅĭ","Ġp ËĪÃ¦s","ĠtËĪÉĶËĲk ÉªÅĭ","Ġp ËĪÉĳËĲÉ¹t","Ġk ËĪaÊĬnt","hËĪÊĮ ndÉ¹","ĠÎ¸ËĪÉªÅĭk ÉªÅĭ","ĠkÉĻm ÉĻ","ĠÉĲl ËĪaÉªv","Ġw ËĪÊĬmÉĻn","Ġw ËĪiËĲk","ĠÉ¹ ËĪaÊĬnd","aÉª t","Éª l","ĠtËĪÉĶËĲk Éªn","Ġl ËĪuËĲ","É¡ ÉĻl","Ã¦ n","Ġt ÉĻm","ĠpÉ¹ ËĪÉªÉ¾i","ĠtÉ¹ËĪuËĲ Î¸","hËĪÊĮndÉ¹ ÉĻd","Ġf ËĪÊĬl","Ġw ÉĻt","ĠÉ¹ ËĪiËĲz","ĠpÉ¹ ËĪÉĳËĲm","Ġd ËĪÉªk","ĠwËĪeÉª st","Ġb ËĪuËĲ","ËĪÉĳËĲl oÊĬ","ĠdÊĴ ËĪÊĮmp","ĠmËĪeÉªk s","ËĪÉľËĲ nd","ĠhËĪÃ¦ Åĭ","ĠÉ¹ ËĪÉªÅĭ","st É¹","Ġp ËĪÃ¦st","Ġt É¾ÉĻ","w ËĪoÊĬ","ĠËĪÉĽnÉª w","ËĪaÊĬz ÉĻnd","ÉĻd ÊĴ","ËĪÉĶÉª s","ĠÉĲ m","ĠstÉ¹ ËĪiËĲt","ĠkËĪÊĮ t","Ġm ËĪÉªst","ĠlËĪÊĬk Éªn","Ġtw ËĪÉĽnti","áµ» t","Ġst ËĪÉĽp","ËĪÉĶ l","ĠwËĪÉĶnt áµ»d","Ġt ËĪÉĽn","Ġd Éªz","ĠdÊĴ ËĪuËĲ","ĠbËĪÃ¦ Åĭ","Ġm ËĪÉªn","ĠbjËĪuËĲÉ¾i fÉĻl","Ġbáµ»h ËĪaÉªnd","Ġkl ËĪÊĮb","Ġt É¾","Ġn ÉĻt","ĠtÉ¹ ËĪaÉªd","a Éªn","ĠbËĪÉĶÉª z","É ĳËĲÉ¹","ĠwËĪaÉª ld","Ġn ËĪaÉªn","ĠlËĪeÉª di","ĠbÉ¹ ËĪiËĲ","ĠtÊĥ ËĪÃ¦ns","É¹ ËĪoÊĬl","Ġ ËĮÉĽ","Ġl ÉĻf","ĠÉĻv ËĪo","ĠpÉ¹ ËĪeÉª","ËĪÉĶ Éªn","ĠhËĪÊĮ ndÉ¹","ÉĽ kt","ĠhËĪÊĮndÉ¹ Éªd","Ġn ËĪÊĮm","ĠÉ¡ ÊĬd","h ÉĻ","ĠskÉ¹ ËĪiËĲm","ĠtÉ¹ ËĪÊĮst","É¡ Éªn","É¾ ËĪÉĻ","Éª ËĮoÊĬ","Ġf ËĪiËĲt","ĠfËĪÉĶËĲl ÉªÅĭ","É¾ ÉĻs","Ġ ËĮoÊĬ","ËĪeÉª tÊĥ","Ġj ËĪÉªÉ¹z","Ġw ËĪÉĶËĲl","ĠdËĪÉªfÉ¹ ÉĻnt","Ġb ËĪÉĶËĲl","Ġsp ËĪÉĽnd","ËĪeÉªn z","É¾Éļ z","ĠmËĪuËĲ n","Ġm ËĪÉªli","ÉĻz ÉĻ","Ġsw ËĪÉĽÉ¹","ËĪeÉª st","w ËĪÊĮn","ÊĴ ÉĻn","Ġb ËĪa","? \"","ĠdÊĴ ËĪiËĲ","É¹ ÉĻn","Ġm ËĪÉľËĲ","ËĮÉĳËĲÉ¹ É¹","Ġp ËĪoËĲÉ¹","ĠfËĪaÉª v","ĠwËĪÉĻ l","Ġ ËĪaÊĬ","ËĪÉĽÉ¹ d","ĠÉ¡É¹ ËĪaÊĬnd","ĠfÉ¹ ËĪÊĮnt","f l","ĠsËĪuËĲ n","ĠhËĪa v","Ġs ÉĻp","ĠbÉ¹ËĪoÊĬk ÉĻn","ĠbÉ¹ËĪiËĲ Ã°","ËĪÉľËĲ v","ĠkÉ¹ËĪÉªs mÉĻs","Ġsp ËĪiËĲk","w ËĪuËĲ","ĠstËĪÉĳËĲÉ¹ z","Ġb ËĪÉªt","ĠwËĪÊĮ É¹i","ĠstÉ¹ ËĪiËĲts","Ġs ÉĻk","Ġs ËĪÉĽks","ĠÉ¡ ÉĻl","Ġb ËĮÉĻn","ËĪÉĽ pt","áµ» l","Ġt ËĪÉªÉ¹z","Ġp ÉĻl","ĠbÉ¹ ËĪÊĮÃ°Éļ","ĠÉĻËĪ ÉĻÉĻÉĻÉĻÉĻ","ĠmËĪiËĲ t","l z","Ġd ËĪÉĳËĲl","ĠmËĪeÉªk ÉªÅĭ","Ġs ÉĻd","ĠÉªt s","ĠtÉ¹ ËĪÃ¦p","ËĪÉª ÊĥÉĻn","Ġh ËĪÉĽÉ¹","ĠÃ° ËĮÉĻm","ĠÉĻ m","Ġk ËĪÉªk","s ÉĻn","ĠsËĪÊĮm Éļ","ĠËĪiËĲ t","Ġh ÉĻm","ÉĻt ÉĻ","ĠÉĻ Î²","ĠÉ¹ËĪiËĲz ÉĻn","ËĪÉĳËĲÉ¹ É¹","ËĪÉĽn s","ĠÊĥËĪuËĲ t","Ġm ËĪÉĽs","Ã¦ nd","ĠwËĪÉľËĲ d","Ġf ËĪÉĳËĲloÊĬ","ĠsËĪÉĳËĲÉ¹ i","w ËĪaÉª","ĠbËĪÃ¦ É¡","Ġb ÉªÉ¡","ĠÉ¹ ËĪÉĽst","ËĮÉĽ É¹","ĠbËĪiËĲ ÉªÅĭ","Ġd ËĪÊĮz","ÉĽ n","ĠnÉĻÉ£ËĪa z","s ËĪiËĲ","t ËĪuËĲ","Ġk ËĪÃ¦Êĥ","Ġb ËĪÉĽt","Ġh ËĪÊĬd","Ġb ËĪÉĳËĲÉ¹","Ġpl ËĪÃ¦n","ĠpÉ¹ËĪÉĳËĲm Éªs","ĠÉ¹áµ» l","ĠfËĪiËĲl Éªn","ĠkÉĻnt É¹ËĪoÊĬl","ËĪÉĶËĲ É¾i","ĠÉĻ b","Ġw ËĪÉªt","ĠwËĪÊĬd ÉĻn","ĠÉ¾ ÉĻn","Ġf ËĪÊĮn","ĠÉ¡ÊĬd bËĪaÉª","ĠpËĪÊĬ Êĥ","d eÉª","ËĮÉª s","ËĪoËĲÉ¹ z","Ġd ÉĻd","ĠËĪÉĳËĲÉ¹ mz","ËĪaÉª k","ĠÉĻ p","Ġf ËĪeÉªd","Ġm ËĪÉªd","ËĪÃ¦ v","Ġb ÉĻl","ĠÎ¸ ÉĻnk","Ġk ËĪÉĳËĲn","ËĪÉĳËĲ ks","Éª f","ĠlËĪÊĮv ÉªÅĭ","ĠÉĶËĲlÉ¹ ËĪÉĽdi","Ġbl ËĪÉĳËĲk","ËĪÉĽ f","Ġk ËĪÉĳËĲp","ĠmËĪoÊĬ mÉĻnt","ĠkËĪÉĳËĲm Éªn","ĠÃ°ËĪÉĻ z","Ġp ÉĻp","ĠÉ¡É¹ ËĪoÊĬ","ĠpËĪÉľËĲ f","ËĮÉĳËĲ n","Ġm ËĪan","ËĪÉªl z","Ġs ËĪÉĽnd","ĠsËĪeÉª ÉªÅĭ","ĠÉ¹ ËĪÉĽk","Ġf ËĪÉªÉ¹","ËĪÉª Êĥ","ĠËĪaÉª s","ĠdËĪaÉªÉĻmÉĻnd z","Ġb ËĪÊĬl","ĠbËĪoÊĬ Î¸","Ġb ËĪÊĮst","Ġ ËĮÉĽm","ĠstËĪÉĳËĲÉ¹ É¾áµ»d","Ġw ËĪÉĳËĲs","ËĪeÉª p","ĠÉ¡ ÉĻvÉĻ","ĠÉĲl ËĪÉĶÅĭ","ĠËĪiËĲ tÊĥ","Ġs ËĪÃ¦d","ËĪÉªm i","ĠtËĪeÉªk ÉªÅĭ","ËĪÉĶËĲ n","Éª É¹","É¾ oÊĬ","ÉĳËĲ n","Ġs ËĪÉĽk","ĠÉ¾ ÉĻd","Ġm ËĪÉĽm","ĠwËĪÉĳËĲs ÉĻn","ĠhËĪÃ¦ f","ËĪoËĲÉ¹ d","Ġsp É¹","Ġl ËĪÃ¦f","st ÉĻ","ÉĻÉĻÉĻÉĻ ÉĻÉĻÉĻÉĻ","s ÉĻ","ĠÉĲ t","Ġs ËĮÉĻm","ĠaÊĬ ts","ËĮÉĳËĲÉ¹ tËĪiËĲ","Ġk ËĪÉĳËĲ","ĠdËĪÉĳËĲ É¡","Ġb ËĪÉĶËĲÉ¹n","sk ËĮeÉª","Ġl ËĪaÊĬd","Ġk ËĪÉĶËĲt","w iËĲ","ĠÎ¸ ËĪÃ¦Åĭk","ËĪa nd","Ġd ËĪÃ¦","ËĪuËĲ v","Ã¦ m","f ËĮaÉª","Ġw ËĪÉĳËĲ","Ġf ËĪeÉª","É¹ ÉĻ","ËĪaÉª ld","Ġs ÉĻn","t ËĪÉĽvÉļ","Ġ ËĪÉĳËĲn","ĠÉ¹ËĪiËĲ tÊĥ","b l","ĠpÉ¹ËĪÉĳËĲb l","ÉĻÉĻ n","ĠÉ¹ ËĪÃ¦","ËĪoÊĬz d","ËĪÊĮ Êĥ","ĠlËĪaÉª z","Ġm ÉĻs","Ġd ËĪÉĳËĲÉ¹","Ġd ËĪiËĲl","i ÉĻ","áµ» k","ĠÉ¡ ÉĻt","Ġh ËĪÊĮni","Ġd ËĪiËĲ","Ġv ËĪaÉª","Ġj ËĪeÉª","ËĪÉĳËĲÉ¹ oÊĬ","ËĪa m","Ġm ËĪÉĽt","ĠÉĻÎ² ËĪÉĻt","Ġb ËĪÉªz","ĠÉ¡ËĪÉĽt s","ĠsËĪÉª ks","ËĪaÉª i","ĠpËĪÉľËĲf ÉĽkt","Ġs ËĪÊĮk","ĠsËĪiËĲ mz","Ġm ËĪaÊĬÎ¸","Ġk ËĪÉĻd","Ġv ËĪÉĽÉ¹i","ËĪiÉĻ É¹oÊĬ","ĠwÊĮ tËĪÉĽvÉļ","É¡ n","ĠtÉĻm ËĪÉĳËĲÉ¹oÊĬ","ÉĻ tÊĥ","ĠsËĪiËĲ m","ĠËĪÉĽvÉ¹Éªw ËĮÊĮn","ĠËĪeÉª ndÊĴ","ĠdËĪuËĲ Éªn","ËĮÉĽmËĮÉĽm ËĪÉĽm","Ġl ËĪiËĲ","Ġj ËĪÉªÉ¹","ĠÊĥ ËĪÉĶËĲÉ¾i","ĠmËĪoÊĬ st","Ġf ËĪÉªl","Ġ ËĪÉĶËĲ","ĠjËĪuËĲ s","ĠsËĪÊĮm Î¸Éªn","ÉĻ ËĮÉĻ","Ġl ËĪÉľËĲn","ËĪÉĽv ÉĻl","ĠkËĪÉªd z","Ġa z","ĠtËĪaÉª Éļd","d ËĪÉĳËĲn","s ËĪaÉªd","Ġl ËĪÉĳËĲk","Ġd ËĪoÊĬs","Ġj ËĪoËĲÉ¹z","Ã° z","ĠfËĪÊĮk t","ĠÉ¡ ÉĻn","ĠfÉ¹ ËĪiËĲk","ËĪÊĮ t","ĠmËĪÉªli ÉĻn","ĠÉĲp ËĪÉĳËĲÉ¹t","ËĪÉĳËĲ d","ĠÉ¹ ËĪeÉªz","É¾ ÉĻn","Ġf ËĪÃ¦m","Ġs ÉĻl","ĠwËĪeÉª v","ĠstÉ¹ ËĪeÉªndÊĴ","ĠlËĪÊĮv d","ĠËĪeÉª t","Ġs Éļ","Ġst ÉĻl","Ġn ËĪÉĳËĲk","n ÉĻ","ËĪÉľËĲ s","ĠfËĪÉĽl t","l Éļ","Éªm ËĪoËĲÉ¹","Ġs ËĪÊĮtÊĥ","Ġf ËĪiËĲ","ĠdËĪÃ¦ di","ËĪaÊĬn s","Ġst ËĪÉªk","ĠaÊĬts ËĪaÉªd","Ġkl ËĪoÊĬ","Ġt ËĪaÉªt","Ġh ËĪÉĳËĲp","ĠmÉĻn ÉĻ","Ġt ËĪeÉªst","Ġl ËĪÃ¦nd","ĠlËĪÉªv Éªn","ĠËĮÉĽn ÉªmËĪoËĲÉ¹","Ġf ËĪÉĳËĲ","ĠsËĪÉª m","ĠÉ¡É¹ ËĪeÉªt","Ġl ËĪiËĲd","ĠtÉ¹ ËĪÊĮbÉĻl","ĠtÊĥ ËĪaÉªld","Éª ks","Ġn ËĪaÉªs","Ġf ËĪeÉªk","ĠÉ¹ËĪÊĮn Éªn","Ġsk ËĪÉĽÉ¹d","ËĪÊĮ p","ËĪÉĶÉªn t","dÊĴ Éªk","ĠwËĪÉĶËĲk ÉªÅĭ","ĠkËĪÉĶËĲl ÉªÅĭ","jÉĻ h","Ġsk ËĪÉªn","ĠÎ¸ ÉĻÅĭ","ĠdËĪoÊĬs ÉĻn","Ġv ËĪÉĶÉªs","ĠdËĪoÊĬ p","Ġl ËĪÉĽs","st ÉļÉ¹ËĮÉªsk","ËĪÉĽd ÊĴ","ÉļÉ¹ ÉªÅĭ","ĠwËĪÉľËĲ Î¸","Ġkl ËĪÉªÉ¹","Ġd ËĪÉĽÎ¸","Ġl ËĪÊĮk","aÉª z","m ËĪaÉª","Ġw ËĪÉªp","ĠbËĪÉĳËĲ É¾ÉĻl","ËĮeÉª tÊĥ","Ġd ËĮÉªs","Ġsk ËĪuËĲl","ËĪuËĲ ËĪuËĲ","Ġh ËĮa","ĠÉĻ wÉĻ","Ġw ÉĻld","Éª li","É¹ ËĪiËĲ","ËĪ ÉĻÉĻÉĻ","Ġd ËĪÊĮbÉĻl","fÉ¹ ËĪeÉªd","ĠÉ¹ ËĪaÉªz","t i","ÉĻd i","Ġp ËĪaÊĬÉļ","É¾ Éªk","l f","Ġm ËĪÉĽnt","ĠnËĪaÉªt s","Ġl ËĪÉªk","Ġh ËĪÉĳËĲl","ĠtÉ¹ ËĪÉªp","ĠÉ¡ ËĪuËĲ","s ÉĻl","Ġs ËĪaÉªn","É£ ÉĻn","l ËĪÉĽt","ĠdËĪÃ¦ns ÉªÅĭ","ÉĽ nd","ĠkËĪÊĮ pÉĻl","tw ËĪiËĲn","ÉĻÉĻ l","Ġd É¾ÉĻ","ÉĻs ÉĻ","Ġst ÉĻ","Ġt ËĪÉľËĲnd","ĠtËĪeÉªk s","ÉĻs ÉĻn","ĠÊĥ ËĪÉĶËĲÉ¹","Ġsk w","ÉĻnt s","ĠÉ¹ ËĪÉª","k l","ËĪÊĮ É¡z","É¾ Éªst","ĠsËĪÉĽk ÉĻnd","Ġb É¾ÉĻk","Ġf ËĪÉªft","ĠÉĲ fÉ¹ËĪeÉªd","Ġbl ËĪaÉªnd","ĠhËĮa d","ĠwËĪÉĶnt s","ĠplËĪeÉª ÉªÅĭ","Ġf ËĪeÉªm","ËĪÉªv Éļ","Ġs ÉĻt","ĠÉ¡É¹ ËĪiËĲn","ĠstËĪÃ¦nd ÉªÅĭ","k ËĪÊĮm","ĠÉĻn l","j ËĪÊĬÉ¹","Ġd ËĪÉľËĲÉ¾i","ĠnËĪÊĮm bÉļ","d ËĪiËĲ","ËĪ ÉĻÉĻÅĭ","ËĪa p","' )","Ġf ËĪÉªÅĭ","Ġp É¾ÉĻ","ĠÉ¹ ËĪiËĲd","ËĪÉĽl v","ĠÉĻ É¾ÉĻnd","ÉĻk t","ĠÉ¹ ËĪaÉª","É¡ oÊĬ","Ġm ËĪÉªÉ¹","ĠÎ¸ É¾ËĪÉĻ","ËĪuËĲ d","Ġm ËĪÉĳËĲÉ¹","Ìĥ ,","Ġd ËĪÊĮm","ĠÉĻb ËĪÊĮv","ĠtÊĥ ËĪeÉªn","ĠmËĪÉªn Éªt","Ġs ËĪa","ĠtÉ¹ËĪaÉª Éªn","Ġbáµ» twËĪiËĲn","ÉĻb li","f ËĪaÉªv","Ġl ÉĻst","Ġb ËĪÉĶËĲt","ĠsËĪuËĲ pÉļ","Ġst ËĪÉĽÉ¹","Ġj ËĪÉĽt","ËĪiËĲz ÉĻs","ĠwËĪÊĮn z","ĠsËĪeÉª Éªn","ĠklËĪoÊĬ Ã°z","ĠÎ¸ ËĪaÊĬzÉĻnd","Ġ ËĮÉĻ","ĠkÉĻn f","Ġb É¾ÉĻ","ĠÉ¹ ËĪeÉª","Ġs ËĪÉĽnt","ĠstËĪoËĲÉ¹ i","Ġp ËĪoÊĬ","ĠhËĪoÊĬld ÉªÅĭ","Ġf ÉĻn","Ġsp ËĪeÉªs","ĠtÊĥ ËĪÉĳËĲp","Ġbl ËĪeÉªm","ÉĻÉĻÉĻÉĻ ÉĻÉĻ","Ġp ËĪÉĳËĲk","ĠÉĻnl ËĪi","ĠËĪÃ¦ l","Ġl ËĪÉªps","b ËĪiËĲ","j ÊĬ","j ËĮuËĲ","ĠsËĪoÊĬ ld","ĠbÉªÉ¡ ËĪÉªn","ĠbÉ¹ ËĪeÉªn","ËĪÊĮ s","ËĪÉª dÊĴ","ĠkËĪÃ¦ É¹i","Ġb ËĪÉĽl","Ġd ËĮiËĲ","Ġn ËĪÉĽk","Ġf ËĪÉªn","ĠhËĪÃ¦ pÉĻn","ËĪÊĮ nd","ËĮÉĽmËĮÉĽm ËĪeÉª","Ġw ÉĻl","ËĪÉªk t","Ġst ËĪÊĮk","ĠÉ¡ÉĻt ËĪa","l aÉªt","ĠÉ¹ ËĪÉªd","Ġl ÉĻn","Ġs ËĪÉĽz","ĠtÊĥ ËĪeÉªs","Ġsp ËĪÉªn","ĠËĪ Éªs","Ġk ÉĻ","ĠfËĪÃ¦m Éªli","ĠÉ¾ ÉĻk","Ġb ËĪÉªld","ĠpÉ¹ËĪÉĳËĲb ÉĻbli","ĠhËĪaÉª Éļ","d ËĮeÉª","m ÉĻ","ĠÉ¾ ÉĻlÉĻ","ĠfËĪeÉª Î¸","Ġ ËĪÉĽks","ĠpËĪeÉª pÉļ","ĠsËĪÉĻ m","ĠbÉ¹ ËĪÉĽÎ¸","Ġk ËĪoËĲÉ¹","ĠkËĪÉĶËĲl d","ËĪa l","ĠÉ¡ ËĪÉªmi","ÉĻ bÉĻl","Ġb ËĪeÉªs","ÉĻm ÉĻ","Ġp ÉĻ","ĠËĮÉĻ s","ĠdÊĴ ËĪiËĲzÉĻs","Ġh ËĪÉĳËĲÉ¹","h ËĪÉĽd","ĠËĪiËĲ v","m Éªn","Ġs ÉĻÅĭ","ĠpËĪÉªk tÊĥÉļ","Ġsw ËĪÉªtÊĥ","Ġk ÉĻz","Ġt ËĪoÊĬ","ĠÉªn v","ĠÉªm ËĪÃ¦","pt i","st Éļ","É¾ Éªs","ĠdËĪÉĳËĲÉ¹ lÉªÅĭ","ËĪoÊĬn z","Ġm ËĪÉĽÉ¹i","ĠÉ¡É¹ ËĪeÉª","É¾ ÉĻz","ĠlËĪÊĮv Éļ","d Éļ","Ġf ËĪoÊĬ","Ã° ËĪÃ¦t","Ġkw ËĪÉªk","Ġw ËĪÉªs","ËĪÉªÅĭ z","ĠÉ¡ËĪÉªv ÉªÅĭ","ĠmËĪÉªst Éļ","Ġb ËĪaÊĬt","ĠÉ¾ ÉĻÉĻl","Ġp ÉĻs","Ġl ËĪiËĲn","ĠbÉ¹ ËĪaÉªt","w ÉĽÉ¹","ĠpÉ¹ Éªt","ËĪÉĽk ÊĥÉĻn","ĠÎ¸ËĪÉªÅĭk Éªn","h ËĪuËĲ","d É¹","Ġd ËĪÉªÉ¡","Ġb ËĪÉĽÉ¹","ĠËĪÃ¦n s","Ġk Ã¦n","ËĪÊĬ ks","ĠÉ¹ ËĪuËĲl","Ġf ÉĻnd","ĠÊĥ ËĪaÊĬt","ĠtËĪaÉª p","ĠmÉĻ nd","ĠÉ¹ËĪÃ¦ Ã°Éļ","ËĮeÉª É¾áµ»d","ĠËĪÉľËĲ Î¸","ĠpÉ¹Éªt ËĪÉĽnd","Ġp ËĪÉĻt","ĠfËĪaÉªn ÉĻli","ÉĻt s","ËĪÉĻn a","É Ķ","Ġk ËĪÉĶËĲÉ¹n","Åĭ É¡","ĠwËĪÉĳËĲtÊĥ ÉªÅĭ","ÊĴ Éļ","ËĪÉª f","m oÊĬ","Ġb ÉĻn","dÊĴ ËĪeÉª","ĠËĮÊĮ nd","ĠkÃ¦n ËĪÉĳËĲt","ĠbËĪÉľËĲn ÉªÅĭ","ĠËĪ Éªm","ĠtÊĥ ËĪÉªl","ĠkÉ¹ ËĪÃ¦k","Ġw ËĪÉĽst","ËĪiËĲn z","Ġm Éªst","ĠmËĪuËĲv ÉªÅĭ","ĠËĪÉĽm pti","Ġw ËĪiËĲd","ËĪÊĮv Éļ","ĠbÉĻt ËĪo","ĠÉ¹ ËĪÉªst","Ġs ËĪÉªst","aÊĬ n","áµ» fËĮaÉª","ĠlËĪÊĮv Éªn","Ġp ËĪÃ¦k","ĠmËĪÃ¦ dÊĴÉªk","ĠsËĪÊĮmw ÉĽÉ¹","l Éªn","Ġ ËĮÉĽmËĮÉĽmËĪÉĽm","! \"","ĠÉ¡É¹ ËĪÃ¦b","ĠtÊĥ ËĪÉªk","Ġs ËĪÃ¦","Ġst ËĪiËĲl","ĠsËĪÉªÅĭ ÉªÅĭ","eÉª k","Ġt ËĮiËĲ","ĠtÉ¹ ËĪiËĲt","ĠÉ¹ ËĪeÉªd","ĠÉ¾ ÉĻl","ËĪaÉª Éļ","Ġn ËĪiËĲz","ËĪÉĶÉª z","Ġkl ËĪiËĲn","ĠhËĪÉĳËĲÉ¹t s","Ġb ËĪuËĲm","ĠmËĪÉªd ÉĻl","Ġk ËĪeÉª","Ġt ËĪÉªÉ¹","Ġk ËĪÃ¦p","n ËĪiËĲ","Ġb ËĪaÊĬns","ĠmËĪaÉª k","ĠtÉ¹ ËĪeÉªn","ĠtÊĥËĪeÉªndÊĴ d","ĠÉĽ É¡z","Ġw ÉĻd","ĠÊĥ ËĪuËĲz","Ġp ËĪeÉªd","ĠÉĽks p","Ġh ÉĻld","Ġsp ËĪÉĳËĲt","ĠwËĪeÉª z","ĠsËĪiËĲ kÉ¹","ĠÉ¹ ËĪÉªvÉļ","ËĪÉĽv i","ĠkÉ¹ ËĪÉĶs","ĠËĮoÊĬ vÉļ","ĠËĪÃ¦ k","ĠÉ¾ ÉĻ","ËĪÉª b","Ġp ËĪiËĲ","É¡ ËĪoÊĬ","tÊĥ i","Ġbáµ»l ËĪÉĶÅĭ","Ġkw ËĪÉĽst","ĠfËĪiËĲlÉªÅĭ z","ĠhËĪoÊĬm i","ĠnËĪoÊĬ n","ĠfËĪÉĳËĲ Ã°Éļ","ĠmËĪÊĮÃ°ÉļfËĮÊĮk Éļ","Ġb ËĪÉªl","ÉĻns ÉĻ","ËĪÃ¦st ÉļÉ¹ËĮÉªsk","ĠËĪÉªs ÉĻn","t ËĪÉĽl","Ġ ËĮÃ¦","ĠsËĪeÉª f","Ġb ËĪÉĳËĲm","ËĮaÉª m","Ġs ËĪaÉªl","ĠkËĪÊĮ z","b ËĪÉĳËĲ","ĠkÉ¹ ËĪuËĲ","l ÉĻnd","ĠsËĪiËĲ z","ĠÉĻ ËĮ","ĠlËĪiËĲv ÉªÅĭ","ĠËĪÉĽvÉ¹Éªw ËĮÉĽÉ¹","skËĮeÉª ËĪÉĳËĲÉ¹É¹","Ġn ËĪÉªÉ¹","Ġd Éªs","Ġs ËĪÉĽvÉĻn","ÉļÉ¹ iz","ĠËĪaÊĬ É¾ÉĻ","Ġst ËĪaÉªl","ĠÉ¡ ËĪaÉª","aÉª d","Ġd ËĪÉĽm","ĠÉ¾ ÉĻm","Ġl ÉĻÅĭ","Ġh ÉĻp","Ġp ËĪÉĶÉªnt","ĠlÉĻt ÉĻ","ĠhÉĻl ËĪoÊĬ","Ġn ËĪÊĮn","ĠÊĥ ËĪÊĮt","ĠnËĪoÊĬ wÉĽÉ¹","ÉĻs i","Ġh jËĪuËĲ","Ã¦ k","Ġd ËĪÉĽvÉĻl","ĠÊĥ ËĪÉĽÉ¹","ËĪeÉªÊĥÉĻn z","p ËĪiËĲ","Éª p","ËĪÉĽÉ¹ Éªk","ÊĴ ÉĻ","b ÉĻ","j Éļ","áµ» É¹","ĠÉĲÉ¡ËĪÉĽn st","tÊĥ ÉªÅĭ","Ġk jËĪuËĲ","ÉĻk s","f ËĪÉĻ","f ËĪÊĮk","t ÉĻl","Ġk ËĪa","ËĪaÊĬnt Éªn","Ġw ËĪÉªtÊĥ","ĠkËĪiËĲp s","ĠfÉ¹ ËĪÉĽÊĥ","ĠÉĻp ËĮÉĳËĲn","ĠÉ¡ËĪoÊĬ st","Ġk ËĪeÉªs","skËĮeÉªËĪÉĳËĲÉ¹É¹ ËĮÉĳËĲÉ¹tËĪiËĲ","ĠÉ¹ËĪoÊĬ z","h aÊĬ","áµ» bÉĻl","Ġd ËĪÉªÉ¹","ĠÎ¸ ËĪÉľËĲÉ¾i","Ġkl ËĪaÊĬ","ĠÉĻ É£ÉĻn","ĠmÉªst ËĪeÉªk","ĠtÉ¹ ËĪiËĲ","ĠfjËĪuËĲ tÊĥÉļ","ËĪÉĳËĲk Éªn","ĠdÊĴ ËĪÃ¦k","Ġb ËĪÉĶs","ĠwËĪÉĻ d","ĠÉ¡É¹ ËĪaÉªnd","s ËĪoÊĬ","ĠwËĪÉªnd oÊĬ","tÊĥ Éļz","ĠpËĪÃ¦ É¹","n ËĪaÉªn","ËĪÉªp ÉªÅĭ","Ġp Éļ","Ġf ÉĻs","ĠbËĪÃ¦ l","ËĮiËĲ ËĮÉĳËĲÉ¹É¹","ĠÉ¹ËĪoÊĬl áµ»n","b i","Ġb ËĪÉĽn","ĠbËĪÃ¦ ndz","Ġp ËĪÉĳËĲ","ĠbËĪÉªz nÉĻs","w ÉĻz","ĠdËĪÉĳËĲl Éļ","' ?","Ġsn ËĪoÊĬ","n i","ĠÉĽks pl","Ġm ËĪÉĽl","ĠbÉ¹ ËĪÃ¦nd","Ġm ËĪeÉªn","ĠplËĪeÉª Éªn","ĠbËĪÉĳËĲ É¾ÉĻm","ĠÉ¹áµ» sp","ĠÉ¹ ËĮÉĽ","Ġ ËĪÉĳËĲp","Ġfl ÉĻ","ĠtËĪÉĽl ÉªÅĭ","Êĥ iËĲ","n z","k ÉĻ","b oÊĬ","ĠkËĪaÉªnd ÉĻ","Ġn ÉĻm","Ġ ËĮÉĻn","Ġpl ÉĻ","t Éªn","ĠlËĪÊĮv z","Ġh ËĪiËĲt","Ġj ËĪÉĽl","ĠwËĪÉĶËĲÉ¹ m","ĠÊĥ ËĪÃ¦d","b ËĪeÉªb","ĠËĪuËĲ oÊĬ","Ġf ËĪÉªÉ¡","ĠtÊĥ ËĪÉªld","Ġst ËĪuËĲp","Ġf o","l ËĪÊĮv","Ġk É¾ÉĻ","Ġh ËĪiËĲl","ĠÉ¡l ËĪÃ¦s","Ġm ËĪÃ¦kÉªn","ĠklËĪoÊĬs Éļ","l Éªk","É¡ ËĪÉĽt","ĠËĪÉĳËĲÉ¹ m","Ġk ËĪÊĮnt","ĠfËĪÉªft i","ËĮÉ ľËĲ","Ġk É¾","nËĪiËĲ Î¸","Ġbl ËĪiËĲd","y n","ĠfÉļÉ¡ ËĪÉªv","ĠlËĪaÉªv z","ĠtÉ¹ ËĪÃ¦k","ĠÉĻv ÉĻn","tÊĥ uËĲ","h ËĪÉĻ","k i","ĠdÉ¹ ËĪÊĮÉ¡z","ĠÎ¸ ËĪÃ¦Åĭ","Ġf ËĪÊĮni","Ġt ËĪÉªk","ĠsËĪÉĶÅĭ z","ĠtÊĥ ËĪÉĳËĲÉ¹","Ġ ËĪÉĽs","ĠËĪeÉªndÊĴ ÉĻl","Ġfl ËĪeÉªm","Éªk ÉĻl","Ġsp l","ĠÉĻ nd","Ġn ÉĻk","ËĪÉĶËĲÉ¹ k","ĠtÊĥËĪÉªld É¹ÉĻn","ËĪÊĮn tÊĥ","Ġs ËĪÉĽns","ĠkÉĻm p","ĠlËĪÉª ft","i ÉĻs","ĠdÊĴ ËĪÉĶÉª","Ġa m","Êĥ ÉĻ","Ġm ËĪÉªl","ĠbÉ¹ËĪeÉªk ÉªÅĭ","Ġt ËĪiËĲm","w ËĪÉĽl","ĠbËĪÃ¦ nd","ĠpÉ¹ ËĪÉĽÊĥ","ËĪÉĽn ÊĥÉĻn","Ġs ËĪaÉªt","Ġf ËĪeÉªv","Ġs ËĪÉĽlf","bËĪeÉªb i","ÉĲ p","ĠpÉ¹ ËĪÉĳËĲ","Ġsp ËĪÉªt","ĠÊĥ ËĪeÉªm","ĠkÉĻm pl","ĠsËĪÉªÅĭ É¡ÉĻl","ĠÉ¹ ËĪÃ¦n","ĠÉĻl wÉĻz","ĠmËĪÉĳËĲm ÉĻ","ĠsÉļ v","ĠpÉ¹ËĪÉĳËĲbl ÉĻm","ĠdÊĴ ËĪÉĳËĲn","Ġh ËĪÉªp","ĠbËĪa d","ĠÊĥËĪÉĳËĲt s","ĠstËĪuËĲp Éªd","ĠdÉ¹ ËĪÉĽs","Ġm ËĪaÊĬntÉªn","ËĪeÉªb ÉĻl","ĠÉ¹ËĪÉªd Éªn","Ġd É¾ÉĻm","dÊĴ Éªn","ĠÉĻ kÉ¹","ĠÉĻkÉ¹ ËĪÉĳËĲs","ĠwËĪÉª mÉªn","Ġk ËĪÃ¦m","Ġh ËĪÃ¦t","moÊĬ st","Ġs ËĪÉĽ","t ÉĻ","Ġw ËĪaÉªd","ĠwËĪÉľËĲk ÉªÅĭ","ĠdÉ¹ ËĪÊĮÅĭk","ĠÉªm p","ĠkÉ¹ËĪaÉª ÉªÅĭ","ĠlËĪuËĲz ÉªÅĭ","ĠkËĪÊĮnt É¹i","ĠÉĻÉĻÉĻÉĻÉĻÉĻÉĻÉĻ ÉĻÉĻÉĻ","ËĪÉĻ lf","Î¸ ËĪaÊĬzÉĻnd","Ġd ËĪaÊĬt","ĠÉ¡l ËĪoËĲÉ¹","ĠfÉĻl ÉĻÅĭ","ĠjÉĻ z","Ġst ËĪoÊĬn","Ġl ËĪÊĬks","w ËĮÉĽn","ËĪÉªp t","Ġf ÉĻt","ĠÉĲm ËĪÉĽÉ¹Éªk","ËĮÉĽ É¹i","ĠÎ¸ ËĪÊĮÉ¡","ĠdÊĴ ËĪeÉª","ĠkËĪÊĮ p","Ġw ËĪÉĽt","Ġk ËĪÃ¦nd","ĠÉĻËĮ o","ĠnËĪiËĲd z","Ġj ËĪÉĶËĲÉ¹k","Ġk ÉĻns","ĠËĪÉĶËĲl moÊĬst","w ÉĻn","Ġs ËĮÉª","ĠpËĪeÉªn t","ÉĲ m","Ġd ËĪÉĳËĲk","Ġp ËĪÃ¦n","ËĮ i","b ÉĻt","Ġh ËĪÉĽvi","ĠlËĪeÉªdi z","ĠwËĪaÉª n","ÉĲ l","ĠmÉĻ tÊĥ","Ã° ËĪÉªs","ËĪÉĽnt ÉĻl","ĠbÉªk ËĪÊĮm","ËĪÃ¦nt ÉĻ","ËĪÉĳËĲn ÉĻ","ËĮÃ¦ l","ĠsËĪÉľËĲ v","ĠËĪÃ¦ d","ĠÉ¹ËĪeÉªd ÉªËĮoÊĬ","Ġ âĢ","ËĪÉĻ z","Ġp ÉĻt","ËĮiËĲ n","ĠmËĪÊĮÃ°ÉļfËĮÊĮk Éªn","Î¸ É¹ËĪiËĲ","ĠÎ¸ ËĪÉĶËĲ","iËĲ t","Ġk ÉĻd","ËĪÉĽÊĥ ÉĻl","ĠËĪÉĽvÉ¹Éª dËĮeÉª","ËĪÉĽnd Éļ","ĠÉļ É¹","Ġh ËĮÉĻm","ĠÉĻ k","Ġs ÉļÉ¹","Ġkw ËĪiËĲn","ĠmËĪÉªs ÉªÅĭ","ĠÉ¡É¹ ËĪÃ¦nd","ËĪÉªv Éªn","Ġf ËĪÉªt","ĠËĪÉĳËĲn Éªst","Ġfl ËĪÉĽks","ĠÉĲ hËĪÉĽd","f ËĪÉĶËĲÉ¹","Ġst ÉĻt","Ġdáµ» s","ĠsÉĻp ËĪoÊĬzd","Ġj ËĪÊĮ","Ġsm ËĪÉĽl","Ġsm ËĪÉĶËĲl","ĠhËĪÉĻ z","Ġd ÉĻk","Ġh ËĪÊĮÅĭ","ÉĲ stÉļÉ¹ËĮÉªsk","ĠvËĪaÉª b","ĠdÉ¹ ËĪaÉª","ËĪÊĮ dÊĴ","ĠÉ¹ËĪoÊĬl ÉªÅĭ","ËĪÉª ÊĴÉĻn","Ġs ËĪaÊĬÎ¸","ĠÉ¡ ËĪÃ¦s","ËĪÉĳËĲ É¾ÉĻ","ĠÎ¸ËĪÉĶËĲ ts","Ġd ÉĻz","Ġf ËĪÉĽÉ¹","ĠÉ¹ËĪiËĲÉĻl aÉªz","p ÉĻ","jËĪuËĲ s","ĠkËĪÊĮ l","ĠpËĪÉĳËĲp Éªn",", \"","Ġd ÉĻm","w ËĪÉĽÉ¹","ËĪÊĬ t","Ġl ÉĻd","ĠkËĪÉĳËĲÉ¹ z","ËĪÉľËĲ k","n ÉªÅĭ","ĠwËĪÉĳËĲ Êĥ","Ġm ÉĻl","ĠËĪÃ¦ns Éļ","Ġl ËĮa","Ġk ËĪÊĬk","Ġk ËĪiËĲ","ĠkÉ¹ ËĪaÊĬd","Ġsl ËĪaÉªd","ĠÉ¡É¹ ËĪeÉªv","nd ÉĻ","ĠdÉ¹ ËĪaÊĬn","t ËĪÉľËĲn","ĠwËĪaÉª f","ĠwËĪÉĶËĲk t","Ġkl ËĪÃ¦s","ĠtÊĥ ËĪuËĲz","ĠÉ¹ ËĪeÉªs","ĠkËĪÉĶËĲÉ¹n Éļ","Ġb ÉĻk","k ÊĮm","Ġb ÉĻst","Ġsp ËĪÉĽÊĥÉĻl","n t","ĠdÊĴ ËĪÉĳËĲb","ĠÉ¡l ËĪÃ¦d","ĠfËĪoËĲÉ¹ É¾i","Ġf ËĪÃ¦kt","ËĪÉĶl t","fÉ¹ ÉĽnd","ĠËĪoÊĬ ÊĥÉĻn","Ġj ÉĻs","ËĪÉĶ ft","ĠkÉ¹ ËĪÃ¦Êĥ","ĠËĪ ÉªÉ¹","Ġp ËĪaÉª","ĠÉĻvÉ¾ËĪy Î¸ÉĻÅĭ","ĠmËĪÉĽm ÉļÉ¹iz","Ġsp ËĪÉĽnt","ĠsËĪÉª É¾ÉªÅĭ","Ġpl ËĪeÉªn","ĠhËĪÉľËĲ ts","ĠmËĪaÉª lz","ĠËĪÉĽnÉªw ËĮÊĮn","ĠkÉ¹ ËĪÉªb","ĠtÉĻn ÉĻt","ĠÉ¹ ËĪÉĳËĲ","ĠÉ¡l ËĪoÊĬ","dÊĴ ËĪÊĮst","ĠmËĪuËĲv Éªn","ĠÉ¹ËĪaÉªd ÉªÅĭ","ĠlËĪÊĬk t","Ġkl ËĪaÉªm","ĠdËĪeÉª ndÊĴ","ĠÉ¾ ÉĻÅĭ","ĠËĪÉĽn ÉĻm","ËĪÉªk st","É¹ uËĲ","Ġm ËĪÃ¦k","ĠbÉ¹ ËĪÉĶËĲt","ĠÉ¡ËĪÊĮn z","Ġm ÉĻt","ĠÉ¹ ËĪÉĳËĲb","Ġm ËĪa","ĠÉ¹ ËĪÊĮÊĥ","ĠbËĪÃ¦ Åĭk","Ġn ËĪiËĲ","ÉĻv ËĪo","ËĪÉªm p","Ġsp ËĪÉªÉ¹","É¡ Éļz","Ġf ÉĻst","k w","ĠmËĪÉĻ d","ĠwËĪÉĶËĲl z","ĠÉ¹áµ»sp ËĪÉĽkt","ÉĻÉĻÉĻÉĻ ÉĻÉĻÉĻ","ĠÉ¡ ËĪÉĻÉĻÅĭ","ĠsÉļv ËĪaÉªv","dÊĴ ËĪiËĲ","ĠËĪÉĽnÉª bËĮÉĳËĲdi","Ġw ËĪÉĽÃ°Éļ","ËĪÉª É¾Éļ","Ġtw ËĪÉªst","Ġbl ËĪÉĽs","ĠnÉĻ Î¸ÉĻÅĭ","ĠÉ¹ ËĪÃ¦ks","Ġdáµ» l","ĠÉĲ b","ÉĳËĲ hËĪÉĳËĲ","ĠdÊĴ ËĪÉĽl","ËĪÉªs k","Ġt ËĪÃ¦kÉªn","ĠsËĪÊĮm deÉª","ĠpÉ¹ ËĪÉĽz","ĠnËĪiËĲd áµ»d","ĠmËĪiËĲn z","Ġst É¾ÉĻt","Ġw ËĪiËĲl","ĠsËĪÉĻm Î¸ÉĻÅĭ","ĠâĢ ľ","Ġk ÉĻt","ĠÊĥËĪaÉªn ÉªÅĭ","ĠmËĪÉľËĲ dÉļ","ĠdÉ¹ËĪiËĲm ÉªÅĭ","t uËĲ","s aÉªd","Ġf ËĪÃ¦nt","ĠtËĪÉľËĲn ÉªÅĭ","ĠmÉĻ st","ĠbËĪÉĽ É¡","ĠËĪÉĽnÉªw ËĮeÉª","Ġk ÉĻs","ĠÉĻn ÉĻ","Ġp ËĪÉĳËĲÉ¹k","ËĪÉĽ É¡","Ġp ÉĻk","ĠmËĪÉªÉ¹ Éļ","ĠËĪ Éª","áµ» v","Ġp ÉĻn","Ġn ËĪaÉª","dÊĴ i","ĠhËĪÃ¦v ÉªÅĭ","âĢ Ŀ","Ġp ËĪÉªl","ĠÉ¹áµ»m ËĪaÉªnd","t ÉĻn","Ã° ËĪo","ĠlËĪÉĶÅĭ É¡Éļ","ĠwÉĻ Êĥ","ĠÊĮn l","Ġk ËĪÉĽpt","ĠhËĪoÊĬ li","ĠsËĪÉľËĲ k","ĠÉ¡ ËĪÉĻn","Ġ áµ»l","ĠdËĪaÉª ÉªÅĭ","Ġs ËĪÃ¦nd","Ġl ËĪÉªt","ËĪÉĳËĲm ÉĻ","ĠÉ¡ËĪuËĲ tÊĥi","ĠÉ¡ËĪeÉªm z","ĠjÉĻ Åĭ","Ġst É¾ÉĻ","ËĪÃ¦m p","Ġs ËĪÉĶft","ĠpÉ¹ ËĪaÉªs","t iËĲn","Ġf ËĪÃ¦t","ĠlËĪoÊĬ d","ĠfËĪÉªÅĭ É¡Éļ","ĠÊĥ ËĪoÊĬld","Î¸ ÉĻn","ĠtÊĥ ËĪÉĽst","ĠbÉĻ É¡","ĠdÉªz ËĪÉľËĲv","Ġk ËĪÃ¦t","Ġst ËĪeÉªt","ĠbËĪÉľËĲ d","ĠpÉ¹ ËĪoÊĬ","ĠÉ¹ ËĮiËĲ","ĠwÉĻ tÊĥ","ĠbÉĻtÊĥ ÉĻz","ĠÉ¡ ÉĻ","ĠÉ¹áµ» p","ĠdËĮÉªs ÉĲp","ĠÊĥËĪÉĶËĲÉ¹ É¾i","ËĪÉľËĲ d","Ġdáµ» f","Ġd ËĪÉĶËĲ","ĠhËĪeÉª É¾Éļz","Ġpl ËĪÊĮs","Ġb ËĪÉĽnd","Ġpl ËĪeÉªd","ĠkËĪÉªl ÉªÅĭ","ĠdËĮiËĲ dÊĴËĪeÉª","ĠbËĪÉĳËĲ ks","ËĮ ÊĬd","Ġt ËĪÊĮÅĭ","Ġ ËĪÉĶËĲÉ¹d","Ġ ËĪÉĽdÊĴ","Ġd ËĪaÉªd","Ġk ËĪuËĲp","Ġn ËĪuËĲz","ĠdÊĴ ËĪÊĮdÊĴ","Ġk ÉĻk","ĠpÉ¹ËĪÉĳËĲbl ÉĻmz","Ġs ËĪaÉª","ËĪÉĽn tÊĥ","Ġkl ËĪÃ¦p","Ġd áµ»n","ĠstËĪoËĲÉ¹ m","Ġt ËĪÉĽst","ĠlËĪeÉª É¾Éļ","Éª sk","Ġb ËĪoËĲÉ¹d","ĠlËĪÊĮk i","ÉĻnd ÊĴÉĻ","ĠlËĪÉª m","ÉĻv ÉĻn","ĠtÉ¾ ËĪÉĻna","É¡ ÉĻ","Ġsm ËĪÉĳËĲkÉªn","Ġf ËĪiËĲd","Î² lÉĻ","Ġb ÉĻdÉĻ","Ġd ËĪÉľËĲt","ĠËĪÃ¦ nd","s áµ»É¹","ËĪÊĮm bÉĻl","Ġd ËĪiËĲm","ĠlËĪuËĲ s","ĠfËĪeÉªv ÉļÉ¹","ĠsËĪiËĲkÉ¹ áµ»t","ĠbËĪÃ¦l áµ»n","ĠÉªn ÉĻÉĻÉĻ","Éļd ËĮeÉª","Ġ ËĪÉĽf","Ġh ËĪÊĮn","É¾ ÉĻnt","ËĪÊĬ É¡Éļ","Ġt ÉĻld","ĠËĮÉĻn a","ËĮÉĽm ËĪÉĽm","Ġfl ËĪÉªp","m Éļ","Ġd i","Ġs ËĪÉªl","ĠÉ¹áµ» v","Î² ÉĻdi","ĠdËĪÉĳËĲÉ¹k nÉĻs","ÉĻm ÉĻn","Ġsw ËĪÉªm","ĠfËĪeÉªvÉļÉ¹ áµ»t","Ġf ËĪÉĽd","ËĮÉĽ s","ĠpËĪÉĳËĲk Éªt","ËĪÉªn s","ËĪÉĽst ÉļdËĮeÉª","Ġf ËĪÃ¦n","Ġp ËĪÉĽn","ĠbÉĻ fËĪÉĻ","d ÉĻl","ĠhjËĪuËĲ mÉĻn","ĠhËĪÃ¦Åĭ ÉªÅĭ","Ġp ËĪÉªst","Ġ ËĮÉĽl","ĠlËĪaÉª ÉªÅĭ","Ġsw ËĪÉªÅĭ","Ġfl ËĪÃ¦Êĥ","Êĥ aÉªn","ĠpÉ¹ ËĪaÉªd","Éļ t","Î² ÉĻd","ĠÉªn st","k ËĪÃ¦n","Ġk ËĪaÊĬ","É¹ Éª","Ġf É¾ÉĻnd","Ġbl ÉĻ","ĠtÊĥ ËĪeÉªnz","i ÉĻn","ĠÎ¸ÉĻÅĭ z","Ġsp ËĪiËĲd","Ġw ËĪÉªÅĭz","Ġd ÉĻp","ĠklËĪaÊĬ dz","ĠtÉ¹ ËĪÊĮk","ĠÉ¹áµ» É¡É¹","ĠhËĪÉĳËĲÉ¹d Éļ","Ġsl ÉĻp","ËĪÃ¦st Éļ","âĢ ¦","ĠpÉĻl ËĪiËĲs","Ġkw ËĪÉªt","ÉļÉ¹ ÉĻl","Ġp ËĪaÊĬnd","ĠËĪÉĽnd z","ĠwËĪÊĮn hËĪÊĮndÉ¹ÉĻd","ĠÉ¹ËĪuËĲl z","Ġf ËĪÉªks","ĠdÉ¹ ËĪÊĮm","ĠÉ¡ ËĪaÉªz","Ġd ËĪÊĮst","Ġf ËĪoÊĬk","Ġw ËĪoÊĬk","ËĪÉĽt s","ĠÉĻ sk","ĠÊĥ ËĪÊĬÉ¡Éļ","Ġs ÉĻnd","ĠpÉĻp lÉĻ","ĠkwËĪÉĽst ÊĥÉĻn","Ġd ËĪÉªst","Ġj ËĪÉĽstÉļdËĮeÉª","! !","Ġl ËĪÉľËĲnd","ĠpÉ¹ ËĪaÊĬd","ËĮaÉª d","ĠfËĪÉĶËĲÉ¹ ÉĻn","ÉļÉ¹ ÉĻs","ÉªÅĭ z","Ġ ËĪÉĽkst","ĠwËĪeÉªt Éªn","ĠbÉ¹ ËĪoÊĬ","ÉĽn ËĪÉĽvÉļ","Ã° ÉĻm","ĠÊĥ ËĪÉĻd","ÉĽ k","ĠwËĪÉĽl kÊĮm","ĠlÉĻ ft","Ġb ÉĻd","ĠsmËĪoÊĬk ÉªÅĭ","Ġbl ËĪuËĲz","ĠbËĪÉªÉ¡ Éļ","ĠÊĥ ËĪÉĳËĲp","l oÊĬ","Ġk ËĪÉĳËĲÉ¹d","ĠslËĪiËĲp ÉªÅĭ","Ġs ËĪÉªpÉªn","ËĪÉľËĲ tÊĥ","Ġp ÉĻz","ËĪiËĲz i","ĠhËĪÊĮ sÉĻl","Ġm ËĮÃ¦","Ġtw ËĪaÉªs","ĠlËĪÉĳËĲk t","l ËĪaÉª","ĠtÉ¹ ËĪÃ¦v","ĠfÉ¹ ËĪiËĲd","ĠÉ¡lËĪoËĲÉ¹ i","Ġf ËĪÊĮÅĭk","ĠskÉ¹ËĪiËĲm ÉªÅĭ","ĠhËĪeÉª vÉĻn","ĠÉ¹ËĪuËĲ f","ĠdÊĴ ËĪiËĲnz","Ġt ËĪÉªp","ËĪÊĮ l","ĠÉĲw ËĪeÉªk","ĠkËĪÉĶËĲl áµ»n","ĠbËĪÉľËĲ Î¸","ĠlËĪiËĲ st","ËĪÉĻt y","ĠbÉ¹ ËĪÉĽd","ĠsËĪÉªm pÉĻl","ËĪÉĽÉ¹ z","Ġb ËĪÉĽÉ¹i","b ËĪo","Ġk ËĪoÊĬk","ĠbËĪÊĮ s","Ġb ËĪÊĮk","Ġm ÉĻm","ĠlËĪeÉªt li","ĠÉ¹ Éª","ĠÉĲm ËĪeÉªz","ĠÉªns ËĪeÉªn","ĠÉªn t","ĠsËĪÉĽks i","ĠÉĻ ks","Ġj ËĪÉĳËĲ","Ġw ÉĽnËĪÉĽvÉļ","Ġt ËĪÉĽÉ¹","Ġd ÉĻl","Ġkw ËĪaÉª","ĠwËĪÊĮ nd","Ġp ËĪÉªmp","ĠÉªm ËĪoÊĬ","Ġk ÉĻnd","ËĪÉĽ Åĭ","ĠkËĪoÊĬ d","s w","ĠÉĽ sk","ĠÉª l","ĠsËĪÉªÅĭ k","Ġn ËĪÉĻ","ĠpËĪÉľËĲ sÉĻn","Ġst ËĪÊĮf","Ġs ËĪÉªÉ¹","ĠkËĪÊĮ lÉļ","ĠËĪeÉªndÊĴ ÉĻlz","Ġst ËĪÃ¦k","ĠbÉ¹ ËĪaÊĬn","ËĪoÊĬ d","ĠstÉ¹ ËĪÉĽs","É¹ ÉĻl","Ġv jËĪuËĲ","ĠÉªnst ËĪÉĽd","Éªt ËĮaÉªm","Ġk ËĪeÉªk","Ġf É¾ÉĻ","Ġ( '","Ġsk ËĪÉĳËĲÉ¹","ĠsËĪÉªt Éªn","Ã¦ t","Ġk ËĪÉĶst","ËĮÉª lÉªk","ĠwËĪÉĶËĲk Éªn","sáµ»É¹ ËĮÉªlÉªk","sáµ»É¹ËĮÉªlÉªk jËĪÉĽËĲ","ĠËĪÃ¦sk t","ĠhËĪÃ¦p ÉĻnd","ĠfËĪÉªn ÉªÊĥ","ĠÉ¡É¹ ËĪoÊĬn","ĠmËĪÃ¦ É¹i",
[...]
